ff7d
ffce
001a
018f
0092
ff3a
fefb
0042
0076
0034
009f
ffb6
ff77
ff5c
001f
ffd5
ffde
ffc4
ff7e
ffc1
ff45
0007
0126
ff8c
ffe7
00ac
0099
001b
ff4c
ff1d
ffc2
ffe7
ff91
0132
ffc9
ff3f
ff3f
0033
ff02
fec8
ff6e
0065
ff83
004c
ffc0
0061
ff6d
ff47
0085
fe8e
002f
ff66
0065
ffaa
fe63
ff7d
00fb
fed1
004d
007b
0032
0001
ff29
ffe8
0096
ff8c
ff5d
0060
ff3c
ff38
fea6
ff79
ff23
ff19
ff70
0091
ffdc
ff33
000f
0086
00aa
ff80
feb3
fede
ff45
ffe6
00b6
ff7e
ff71
ff73
0033
ffb4
fded
00bd
ffe9
fe91
ffbd
ff7b
ff62
006a
0084
ff2a
002e
ff51
0071
00d7
0169
0009
00f6
001f
0081
0032
ffb1
ff25
0044
ffbc
014a
000a
ff43
00cb
013a
0005
feb5
0065
0026
0012
ffe7
0010
