007a
00a5
ff21
0093
0024
0192
00aa
000e
fff2
0035
fe4a
00c1
0098
0038
00dc
0049
0030
008e
006d
0061
0091
0071
0119
0016
004c
003e
01a8
0087
0096
011f
fef8
0052
fff3
00ad
0078
ff3c
0129
0089
ff0d
0058
004f
00ba
fed6
00a5
ffb7
ffa0
00cd
007b
00b0
fe61
ff65
0055
003b
ffd8
ff90
00b9
0011
008a
0005
fff7
00c0
fe78
006f
00db
