ffff
0003
0005
0003
0002
fffe
fffe
0001
0002
0000
fffc
0004
0000
ffff
0003
0005
0003
fffd
0003
ffff
0007
0007
fffc
0003
0003
fffc
fffc
0001
0001
ffff
fffe
0000
fff4
0002
ffff
0000
0005
0007
0000
ffff
0000
fffe
fff7
fffc
0000
0002
fffb
0005
0003
fffe
fffe
fffa
0000
fffe
fffd
ffff
0004
0006
fffd
0001
fffd
0002
fff9
fffc
