ffec
fff4
fff9
0003
fff6
ffff
ffec
0006
fff8
fffd
ffe4
000d
0006
fff9
fff8
fff0
0004
001c
0003
000d
000d
0006
0002
fff1
0010
fffe
fffb
fffb
0001
fff3
fffb
0013
fffa
0001
ffed
ffff
000d
000a
0004
001e
0004
0012
ffec
0017
0005
fff0
0003
fff9
ffff
fff2
fff4
000c
fff1
fff3
ffd9
fff4
000d
0017
fff0
0008
fffd
0007
0001
0005
0008
0013
0007
fffe
0011
0014
fffb
0007
0001
ffff
0019
fffc
ffe2
fff3
fffa
ffff
ffef
ffec
ffe7
fff0
ffe6
0001
0004
ffef
ffee
fffc
0001
fffa
ffe9
0000
fff6
fffb
0013
fffb
fffb
0003
0008
000e
fff6
fff9
0014
ffea
0006
000a
fff1
fffd
0013
fff9
0005
0007
0004
0002
0007
0000
ffea
000c
fffa
ffe9
fffe
0003
000a
fff7
ffe7
fffd
fff1
001b
fff6
fffd
ffed
0019
0007
ffe5
001c
fff4
ffec
fffc
fffd
0012
000e
ffff
fffd
fff8
ffea
0026
fff5
0011
ffe4
ffe9
0018
0016
fff5
ffe5
0002
ffe9
0004
fff2
000e
000d
fff2
001b
0027
0008
fff9
fff3
fff6
0001
0020
0006
0013
fff8
0012
0006
0012
fffd
ffe8
fffc
0003
fff9
0015
fff6
fff9
fff4
ffe8
000d
fffe
ffe4
0010
001f
fff4
0007
000d
fff5
ffee
fffe
ffee
ffdc
0012
0001
fff0
fff9
0007
ffff
0010
ffe3
0017
0004
001b
fff1
ffff
000a
0008
fffa
ffeb
0015
fff1
ffff
ffed
0000
0024
fffb
fff1
0006
ffe2
000a
0007
ffff
fff9
fff0
fff4
ffdf
000e
fffc
fffe
fff1
fffd
0013
0000
ffe6
fff3
0005
0019
000a
0013
fff2
0014
ffef
fff6
ffed
0007
fff8
ffe8
000d
0006
fff5
0026
0012
fffb
ffe3
000f
0017
fff0
001d
0006
0004
000e
0001
fffb
ffff
000c
0003
0012
0006
000e
0018
fff5
fff2
fff0
0014
ffee
0007
ffe9
ffec
fffd
002f
000e
fff4
0014
fff8
fffb
fff5
000b
ffff
0002
ffee
ffff
0011
fffc
0021
0012
fff1
000f
0000
fffd
0007
0003
0007
0006
0000
0013
fff5
0006
fff7
ffe8
0007
fff0
0005
000a
0008
fff7
ffe1
fff8
000b
ffe5
ffef
ffef
fff9
0007
0002
fff3
ffef
0003
0000
fffc
fff8
0006
000c
fffe
0000
fff6
0010
0002
fffd
fffb
fffa
fff2
0018
0015
0018
fff0
fffd
fff3
fff3
000f
ffff
0005
0006
ffec
0004
fff7
fff1
fff6
ffef
ffeb
fffc
0004
ffe9
fff1
fff4
0002
0012
0012
0004
001f
fff1
0005
0006
fff8
0013
fffa
000d
fffa
ffff
000c
0010
0013
000f
ffff
0008
0011
0011
0000
fff9
ffef
0003
0008
0007
fffb
0014
000a
ffff
001b
0000
fff8
fff9
fffb
fffd
0000
fff1
fffb
ffff
000a
fff5
0005
000d
ffea
fff7
000d
fffa
fff5
fff3
0010
fff4
fff6
fffd
000c
0019
000a
fff8
fffe
fff7
fff3
fff7
0001
fff3
0000
000f
fff6
fff8
000a
fffe
fff7
fff8
ffef
ffff
fffa
ffee
0000
fff9
0004
fffb
0005
0004
0003
fffa
0010
0009
fff5
fff8
0000
fff2
0006
0007
fff1
000a
fffb
0005
000c
fff9
fff0
fff7
fff4
0009
fffb
fff5
fff9
0001
0004
fff8
0000
fff9
0004
fffa
fffc
0004
0017
fff8
ffff
fffb
000c
0008
fff7
0003
fff6
ffff
fffe
fffa
fff5
0001
0001
fffc
ffff
000b
000d
fffa
0008
fffc
0001
fff2
fffa
fffc
0007
fffd
0002
0000
0000
fffa
0000
fffa
fff7
0004
0007
0008
000d
fffe
fff3
fff3
0007
0007
0007
ffeb
fff3
0004
ffff
fff4
0004
fffc
fffc
000e
0004
0006
fff3
fff5
0008
0001
fffd
fffc
fff8
000a
0005
fffb
0000
0002
fffa
0005
fffc
0006
0009
fff1
ffff
fffd
0002
0001
fffb
0004
0008
0004
fffd
ffff
fff9
fffb
000a
0009
0004
ffff
0002
0009
0005
0001
fffe
fff7
fff3
fffb
0008
fff9
fff9
fffa
fff1
fff3
fff7
fffc
0004
0004
0001
fffb
000b
fffc
ffff
0004
0008
fffa
0000
0004
0007
0001
0005
0005
fffa
0002
fffd
0002
0002
0004
fffd
ffff
fff9
fff9
0000
fffd
000a
0005
0001
fffa
0005
fffa
fffb
fffd
0001
0007
fffb
fffb
fffd
fff9
fff7
000b
0003
0002
0004
fff6
fffa
0000
0003
0002
fffc
fffc
0000
fff3
fffc
fffd
fffe
fffc
0004
000d
ffff
0003
0004
0001
0007
fff6
fff7
fffd
fffa
fffa
000a
0007
0000
0006
ffff
fff3
fff5
fff9
fff6
0005
fffa
0006
fffa
0004
fffb
fffa
0006
fffe
fff8
000b
fff9
fff7
0001
fffd
0000
fffa
0002
0004
0008
0004
fff9
fffa
fffb
fff8
000a
0003
fffe
0005
fff5
fff5
ffff
fffc
0007
0001
fff9
fff7
0006
0000
fffd
0003
fff8
fffc
0006
0008
fff4
fff4
000a
fffd
fffd
fffd
0006
0007
fffa
fffc
fff9
fffb
fffd
fffd
0008
0000
fffd
0001
fffc
fffa
0002
fff2
0004
0000
000a
0005
fffd
0002
fff8
0002
0005
fffb
fff7
0002
fffb
fff7
fffe
0007
ffec
fff6
fff6
0006
fff0
000a
fff8
0006
fff9
fff7
0007
ffef
0002
0003
fff7
0008
0000
ffff
0007
000d
fffd
0005
0008
0001
0003
000a
0007
0003
0003
0004
0002
000d
0004
fff8
0009
0006
fffb
0004
000c
0009
ffff
fff5
fff9
ffff
0005
0007
fff8
0003
000b
0010
0009
0001
fffe
0010
0009
0009
fff7
000e
0008
fff6
0005
fffe
0002
000a
0007
0010
0000
0002
ffff
0003
0002
0009
0002
0018
fff8
fffa
000e
0005
fffb
0005
0007
ffff
0003
0005
fffe
fff9
fffd
0002
000e
0007
0000
fffd
0002
0008
0000
0006
fff0
fff2
0005
fffd
0000
fffe
0005
0004
fff2
fff3
fff6
0013
fff8
0007
ffee
fff1
0005
ffed
fff8
000f
000e
ffe8
ffef
fff9
000d
ffdf
0007
0005
0011
0014
0003
0015
fff1
ffef
0000
0006
0002
0000
ffde
0012
0022
fff4
0004
fff0
0003
0016
fff5
ffeb
0017
fffc
ffff
fffd
0001
000a
000a
0003
0023
fffa
0001
0017
ffef
fff0
0002
ffff
fff3
0009
000d
fffa
ffe8
ffe9
0019
fff3
000d
fff5
0018
0016
001c
ffff
0009
0019
0010
0009
000d
fff7
000c
0001
fffd
fff7
0000
0009
fff8
0013
0011
001a
0014
fff9
000f
ffe7
ffe9
0003
0001
000d
fff1
fffe
fff6
000d
0010
0000
fffd
000b
fff5
fffe
0010
ffea
0005
fff5
0003
0003
0010
ffff
fffc
000f
001a
000c
0002
fff5
fff0
fffb
fff5
ffef
000f
000b
0011
fff3
0016
fffb
000f
0014
ffff
0009
fffb
ffe7
fffb
fffa
fff0
0010
0013
0005
0005
0023
000b
0004
fffc
0010
ffff
0013
fffb
000d
0009
0006
0000
0007
fffb
0017
fffd
0005
ffff
fff7
0005
0007
0004
fffd
0002
0001
0009
fffe
fff3
fffd
0009
fff7
0005
0000
fff1
0004
000c
fff7
fffb
0001
fffa
0001
000a
0004
000c
fffd
fff8
fffd
0001
fff7
0008
fff1
ffff
fff5
fff6
fffb
fffb
0000
0000
0000
fffe
fff8
fff4
fffb
fff7
fff4
fff9
fffe
fffb
0005
0004
0009
fffb
000f
fffb
fff5
000f
fffe
0007
0003
ffff
fff6
fff9
000b
fffc
000b
0000
0000
fffb
fff2
fff5
0006
fff9
fff4
0002
fffe
fffd
0003
0007
0002
0004
0002
0002
fffd
fffb
0003
0000
0002
000a
0008
fff8
fff8
0003
000d
0002
fff6
0004
0006
000a
fffc
fffc
fffe
fffc
0003
0005
fff7
0005
0002
fff7
fff1
0002
0007
000c
ffff
0007
fff8
fffa
000d
ffff
fff9
fff3
ffff
ffff
0001
0008
ffff
fffe
fff9
fff6
fffb
0000
fffc
0010
0001
ffdd
0006
ffff
0013
0007
fff5
fffd
0005
fff6
fff3
000a
000f
ffff
0010
ffeb
0007
001f
fff9
ffde
0002
001c
000e
fff4
ffed
0015
000f
fff7
fff7
fff4
fff3
ffff
0021
fffd
fff1
fff9
fffb
fff3
fffb
fff3
fffc
ffe5
0027
000d
000b
fffa
ffef
ffe7
ffe7
fff4
fff7
0004
fff7
0015
fff4
fffb
0011
fffe
fffe
000f
001b
ffef
fff4
fffb
ffee
0001
fff2
ffeb
0004
fff5
0001
ffde
000a
001b
ffe3
fffb
fff6
ffdf
fff1
ffed
fff2
fff5
ffe3
0018
0010
001d
ffe4
001f
0009
0009
0012
fff7
0006
001f
fffa
0009
0001
fff1
000c
ffee
0011
0004
fff6
0013
fff6
fff9
0007
000d
0015
ffed
0005
0011
ffe1
fff2
fff1
fff8
0000
fff0
fff7
000f
0018
fff4
000c
0001
ffe6
fffc
fffd
0011
0007
ffdf
0013
fffd
ffe7
001f
fffb
fffc
0017
001b
0003
0017
0010
fff6
ffec
0007
0006
0014
0013
0019
fff6
ffec
0011
0001
0015
0008
fff1
0003
0001
ffef
fffb
fff2
fff9
fff8
fff1
fff8
ffed
fffb
0008
0015
ffe7
0003
fff4
0018
0002
000f
000d
000d
fffd
fff5
0009
0006
fffc
0005
0008
0001
fff0
0012
0009
0017
fff4
0016
001c
ffeb
0014
0004
ffea
0003
fffb
fff9
fff5
fffe
fff1
fff7
0010
fffe
0010
0011
0009
fffc
0005
0009
fff5
0002
ffe8
fffa
0014
000e
fff8
0009
0008
ffee
000e
0001
fff4
fffe
0002
fffc
0019
fffc
fff6
fffa
ffeb
000e
0015
0018
fff7
fff0
ffee
0001
0002
fff6
0009
fff0
0005
ffee
0008
fff3
fff7
0008
0006
fff2
ffe5
fff6
0002
fff2
0011
000e
fff9
fff3
001a
fff8
0001
0011
0005
0018
0017
fff2
0009
0008
0005
0004
ffec
ffeb
000f
fff8
0008
0013
fff0
0008
0009
000a
000f
0007
ffeb
ffed
ffec
000b
0018
000f
ffff
0015
0006
fffd
ffe8
0007
fff7
fffb
ffed
fffe
0027
fff7
0006
0004
fff4
0011
fffa
ffe9
0011
fff1
000f
fff2
0009
ffd5
0019
ffec
0006
ffdd
ffe7
fffa
0012
fffe
000f
fffd
0012
ffeb
0001
001b
ffff
0003
fffe
fff0
ffec
0004
0014
0002
fffa
fff8
0013
fff5
0013
0002
0019
001b
fff4
ffe7
ffe8
fff0
ffee
fffc
0014
fff9
fff7
ffed
0010
0012
ffda
0033
ffd2
0003
fff5
000a
fffb
000d
000e
001e
fff4
0008
fffa
0006
ffe9
ffed
0017
fff2
0005
0013
0013
000f
0000
ffff
000a
ffff
0018
0004
0020
fffa
001d
fff2
0018
fff8
ffea
fff4
ffe6
0014
0009
0011
000c
fff4
0007
ffdd
fffd
ffd9
ffe4
ffe8
0006
001e
ffea
fffa
000e
0005
fff4
0000
000f
0019
ffef
fffa
fff3
ffe4
0003
0016
ffdb
000c
0000
ffef
fff2
ffe9
0020
ffed
0000
0006
ffef
ffde
0013
fff1
fff4
ffff
fffe
ffea
0017
0006
000d
ffdc
fffd
fffe
fffa
0001
fff3
fff0
0003
fffd
ffe0
ffea
fffb
0004
0007
fff3
000a
0004
000c
0001
0003
ffea
000f
fffa
0004
fffc
0013
fff3
fff9
fffc
fff2
0003
ffe5
fff9
fffb
fff7
fffc
ffff
fff9
000a
fff9
0004
000f
ffef
fffb
ffef
fff2
0005
ffff
0013
000f
0003
ffec
000b
000e
0006
ffea
0007
0002
0000
0020
ffeb
fff3
000f
000c
0034
000e
ffdb
0003
fffe
0007
0000
ffe9
ffdd
ffed
fff0
0009
fffe
ffdc
ffe9
0028
ffff
fff6
ffee
001f
fffe
0000
0018
001e
ffff
ffee
0007
fff8
fff7
0002
ffff
000f
0018
fff4
ffe1
0006
0012
000c
fff4
fff9
fffa
0003
0014
fffc
ffed
0011
fffc
ffec
0017
ffef
fffc
001a
ffc9
ffd1
ffff
fff9
ffe8
ffef
ffe6
001a
fff1
fff7
fffb
000a
0008
ffec
0009
0005
002b
ffef
fff6
ffed
000d
fff6
fffd
ffee
0016
fff9
0007
ffe1
0003
ffeb
ffee
0021
000f
ffef
fff3
ffe7
002d
fff7
fff7
0006
ffeb
0001
ffeb
ffff
ffe3
002b
0014
ffe9
fff8
fff4
fff1
0016
0018
0003
ffeb
000d
fff1
0005
000b
000e
fff5
0028
0011
0008
fff9
0003
fff1
fff2
0014
fffe
ffed
000b
000f
fff9
0018
0003
fff9
0005
000d
fffc
fffc
002d
fffb
0009
0019
ffee
ffe9
0001
0028
0017
0006
ffe3
0006
000c
ffff
0000
0018
000e
fff7
0008
ffef
0011
0004
fffd
0002
0003
0030
fffc
0010
0016
000d
0014
ffee
ffe6
fff6
fff4
0013
000d
ffec
fff2
fffc
fff3
fff8
fffc
fffa
fffe
fff4
fffe
0001
fffc
ffef
001e
0014
0005
fffd
ffee
000b
0012
000c
0009
000b
0016
000c
0004
0012
fffe
0007
ffe2
0005
000e
000d
0011
fffd
0005
fff0
0008
0004
0004
0015
fffa
000e
000d
fff7
fffe
fffc
0027
ffeb
fff9
000d
000c
ffff
fffa
000b
0001
0017
fff8
fffb
0004
0006
0003
0001
001d
0001
0005
fffb
0002
0010
fffa
000e
ffee
0004
0009
fff8
ffff
000e
ffff
ffef
0001
0015
0004
000b
0006
ffe8
fffc
fff3
fff8
0012
fffd
fffc
0026
fff1
000b
0005
0012
0019
fffa
0019
ffd8
0011
0013
fffb
0001
fff0
ffef
0007
000a
ffee
0015
0004
ffed
fffc
0007
fff9
ffe8
0001
fff6
0013
ffe7
fffd
0000
fffd
fff0
fff8
ffff
ffee
ffee
0001
ffe4
ffec
fff7
002c
fffd
fff3
fff9
0009
fffa
ffed
fffa
0015
000b
ffef
0003
fff4
0013
ffff
0017
fffb
0008
fff7
fffe
fffc
fff2
fff6
fff9
0012
0010
0009
0011
fff2
0008
0005
fffe
000b
fff7
0006
ffef
fff4
0009
000e
ffea
0003
ffef
ffe4
0018
0000
fffc
0003
ffe3
ffec
fff8
0009
000c
0012
fff6
fffd
0027
fff6
fff7
0006
ffec
fff8
0011
ffec
0018
0001
000c
0002
ffff
000a
0004
0022
fff4
ffe2
ffee
001e
ffdc
ffff
0012
0003
ffde
ffe5
ffe0
ffe8
0018
fffd
0017
fff5
fffa
fff7
fff5
0000
0015
ffea
0009
ffec
0007
fff5
000b
000b
0007
fffb
fff8
fffb
0010
0019
0008
fff9
fff4
000f
000c
0015
fffa
fff9
001d
001c
000a
0014
fff6
fff3
fffb
000d
ffe5
ffe9
ffe8
fff5
ffe9
ffff
fff8
0000
000a
fff1
0001
0002
fff0
0022
0009
ffff
fffd
fff7
fff9
0014
0000
0014
0007
001e
0010
0006
0016
0013
0005
fff0
0014
ffee
ffe2
ffec
fffa
000d
0012
001e
fff3
0002
001b
000a
0014
fff9
0016
ffed
ffdc
fff7
000b
0014
fffb
fff9
fff2
0007
fffb
001f
0006
fffc
0002
000a
0004
0014
fff6
fff6
0017
0007
0007
000b
0016
fffc
0016
ffeb
ffff
0001
fff5
0014
ffd5
fffa
fff4
0009
fff6
fff7
fff1
ffff
fff1
0000
ffec
000a
0008
0008
fff5
0013
0015
fff3
fff2
ffe9
0014
fff6
fff9
0010
000a
0007
fffd
000c
0010
0005
fff8
fffb
0000
fff4
ffeb
fffb
0018
fffc
0004
000e
0007
000a
0009
fff7
000f
0012
0006
fff2
fffe
fffc
0001
fff0
0010
000f
fffb
fff8
0001
000e
0006
0000
fff5
fffb
0010
000b
ffff
fffc
0002
ffff
fff0
fff5
0004
0007
0012
000a
fff2
0005
0008
0010
000c
0012
000f
0015
fffb
ffeb
0001
fff8
ffef
ffee
0006
ffff
fff9
0001
ffff
000d
0019
0005
fff7
fffc
ffef
0006
000b
fffa
fff2
fffd
0004
0008
000d
0012
0007
fff3
fffd
fff6
fff8
000b
0005
fff2
fff5
0006
fff0
000a
ffe8
0003
fff5
000d
0000
fff2
ffee
000f
0005
fffd
fffb
fffa
0007
fff4
0006
000d
ffec
fff2
0010
fff2
000a
fff0
fff7
000a
0003
fff8
0007
ffff
fff2
fff4
fffc
000b
fff6
fff8
0001
ffec
fffe
fffb
fff6
0013
fffb
001d
0008
fff9
0002
0006
fffc
ffec
fffe
0005
fff4
000a
fff9
ffe3
fffb
0006
0009
ffef
000f
0000
0003
0003
ffff
000f
000c
0003
000b
0007
000b
0010
fffe
ffec
000d
0005
000c
000f
fff1
0000
0000
ffeb
fff9
000d
0016
000d
0000
0002
0001
fffe
0003
fff3
0006
0009
0002
001b
000b
000d
0004
0014
0007
000a
fff7
ffea
0000
0004
fff7
0010
000a
000f
ffee
000a
ffdf
0012
0010
0007
fff0
ffff
0010
ffe2
fff3
fff2
fff6
fffd
0015
0006
0006
ffee
fff1
fff0
ffe5
0008
fffa
000d
0007
ffff
fffc
0003
fffd
0007
000a
0010
0012
0011
ffff
0014
fff8
fff3
0005
fff6
0009
0007
0008
0009
ffff
0003
ffeb
ffee
0011
fff3
0012
fffb
0014
fff5
0005
000b
fff3
fffa
fff2
0010
fffd
fff6
ffe5
000a
000a
fff8
fffe
0002
fff4
fff8
ffff
000a
fffe
fff2
ffff
0004
0005
ffff
fff6
fff2
0007
0000
0001
0002
fff8
fff8
000e
ffec
fff2
000f
fff4
0009
fff6
fff2
fff7
0001
0005
0001
000f
fffa
000e
0015
0001
0009
000d
0011
000b
0013
fff6
fff1
0010
0005
fff6
fffc
0005
0001
ffff
0002
fffc
0003
000c
fff1
0002
0002
fffd
0008
fffd
fff8
0005
fff2
fff7
0001
fff7
fffc
000e
0003
000c
0004
0005
0010
0005
000d
000e
fff9
000b
fffb
0007
fff7
fffb
fffe
fffa
fff8
0004
fff6
fff2
0003
fff6
fff4
ffff
fff4
fff5
fff9
fff7
000a
000d
000b
ffee
0007
0012
0003
fffa
fffb
0002
0008
ffea
ffe9
0003
fffc
fffa
ffff
0004
0002
0002
0008
0009
ffe8
fff2
fffc
ffff
0007
fff9
fff5
000a
0005
000a
fff5
fff0
0007
000a
0006
fff8
000a
ffee
0004
0010
fff6
0006
0005
0003
0006
fff3
fff9
000c
0008
0006
000b
fff4
0006
fff4
fffc
fff7
fffe
fffd
fff9
0011
fffe
fffe
0003
fffb
fff1
fffa
fffd
0003
000c
000b
fff8
0006
0009
0000
0007
fff5
fff9
fffa
0011
0002
000a
fffb
fffc
fff1
0008
000f
0002
000b
fffc
0001
0008
fff9
0010
fff6
0000
fffb
fffa
fff6
0003
0005
0005
fff4
fff3
fffe
fffa
fff6
ffff
0004
000b
ffff
fff9
0003
fff7
fff7
000a
0009
0006
000a
ffef
fff8
fffe
0009
0003
0011
000c
000c
0006
0006
fffc
fff7
000a
fff9
fff5
fff9
fffc
fff9
fffc
fff4
0002
ffff
0003
000e
0003
fffd
fff9
fff9
0006
fffa
fffc
0000
000f
fff9
fffb
fff8
000d
0010
fffe
fffe
fffe
fffd
ffff
0002
0015
0006
0011
000a
0007
fff1
fffa
0007
fffb
0006
fff7
0003
fff9
000c
0007
ffff
fff9
000b
0000
fffb
0009
fff2
000a
0003
000c
ffee
ffe8
001b
fff3
fff1
fffb
000a
000c
ffe5
fff6
fff8
0011
fff7
fffd
fff3
0003
000b
0000
000a
0000
0006
fffc
ffff
fffc
0020
ffd2
fff6
001f
ffff
000d
000c
ffea
fff0
fff1
000a
fff7
0008
ffee
0016
0004
000c
fff3
fff2
000b
fff5
0017
fffa
000e
0001
0014
fff6
fff0
fff8
fffd
ffff
0006
001a
fffa
001c
0010
0000
fff9
ffff
0004
0013
0010
0001
fffe
0003
ffff
ffed
fff6
fff6
fff1
0023
0016
0000
fff9
0000
fffe
fff6
ffe9
0002
ffe6
0009
ffd3
0007
fff9
0003
ffe1
0018
fff3
fff8
fffd
001d
fff8
fff4
ffe6
ffe6
0004
000e
fffd
000f
0017
fff4
0008
fffb
0002
ffe9
fffc
0018
fffc
fff8
0018
0010
fff0
fff9
ffff
0002
fff6
fff7
0007
ffee
0004
000e
ffde
ffe3
0004
ffff
ffea
fff0
fffd
fffe
fff6
0001
0005
ffef
0001
0007
0004
0000
001c
ffe4
ffeb
000a
ffec
fffb
001c
ffda
0015
ffea
001c
001d
0000
0018
fff1
ffed
ffce
0008
fffa
0037
fff8
000e
fffe
ffe7
000c
0003
ffdf
0013
ffff
fff9
000e
ffeb
002f
ffe9
0007
0013
0015
fff7
0009
ffed
000f
0028
ffec
0019
0004
fff5
fffe
000f
0008
fff6
0000
000c
fff0
ffd8
0005
ffed
fff0
fff4
0007
ffe7
000b
0003
001f
0021
0017
ffea
ffdb
001f
ffe4
000c
0015
fff5
fff1
0005
0004
0014
0016
ffda
000f
0016
0013
0024
fff0
ffe9
fffd
0004
fff2
fffc
ffe7
ffee
0012
fffd
ffe9
ffe1
ffef
0002
fff1
ffed
001f
ffff
0008
ffe4
0035
0003
ffff
0013
0014
fff1
000f
ffef
001d
0001
0003
0005
fff7
ffeb
0001
ffdc
0010
0003
000f
000a
ffe8
ffe6
0016
fffa
fff5
fff2
fff8
0011
ffe2
ffec
0008
fffe
ffee
fffe
fffc
000e
0017
0009
fffc
001d
0023
fff6
fff8
000e
ffe1
fffb
fff5
fff2
fff3
ffeb
0000
ffee
0007
fff1
000e
0000
fff1
fff6
0001
fffa
fffd
fff7
0006
0001
000b
0003
ffee
001a
0004
0008
ffef
000c
fff3
0010
ffef
fff6
ffec
fffe
000f
0000
0009
0017
0013
0002
fffe
0009
0002
fffd
0003
ffeb
0019
000e
0001
0005
0006
ffff
001f
fff6
0007
0007
ffe4
0003
0003
fff7
000c
0002
ffec
ffe2
000d
000d
0009
fffd
0006
fffd
0008
fffe
ffff
fff8
ffff
0016
0006
0005
fff5
0015
000a
000c
fffa
0009
0012
ffeb
fffc
0000
0008
0004
0006
fffd
0004
0009
fffb
ffeb
fffd
0014
fff3
0013
fffb
0000
fff3
0001
0005
0006
fff7
fffd
000c
fffe
fff2
0017
000e
fffc
fff4
0008
ffec
ffef
0012
fff9
0017
fff9
0015
fffe
fff1
0002
0000
fffc
0010
ffff
ffff
000f
0002
0006
000b
fff0
000b
fff1
000f
000d
fffc
0009
fff3
ffea
fff3
0003
fffb
fff4
fffd
000a
fffa
fffb
000e
0001
fff8
ffed
ffee
ffef
fff4
0006
fff3
000f
fffa
ffef
0006
0008
fff8
fff6
fff8
0008
0002
ffec
ffff
fffe
0004
000f
fff6
000b
fff5
0014
fff1
0009
fff3
fffa
fff3
0003
fff7
fff9
fff5
0005
ffe8
ffff
000b
fffb
0008
fff2
fffa
fffe
ffef
fffa
fffa
ffdf
ffeb
fff7
fffd
fffe
fff5
fffe
0009
ffef
0004
0004
0012
0000
fffc
fffe
fff2
fffb
fffc
fff5
fff0
002f
000e
000b
fffe
0004
fffe
fff2
ffec
fff9
fff1
fff5
0000
0001
0001
0000
0009
0012
0011
0004
0001
fff1
0003
fffc
0004
0005
fff1
0000
0001
ffff
fffe
fffc
fffb
fffe
fff0
fffe
0003
0005
fffd
0010
0002
0019
0005
0007
fff9
fff4
ffe7
fffd
fffa
0007
ffee
000e
fffa
fffd
fffa
000c
0002
000c
fff4
fff5
fff5
0002
0008
fffb
fff6
fff1
000b
0004
000d
fff5
0013
fff8
0008
ffe7
fffa
0000
0003
ffe8
fff5
ffed
0008
0016
fff7
ffed
ffec
ffff
0001
fffe
ffff
ffdf
0007
0012
fff9
000b
fffa
0012
fff8
0002
ffef
fff5
fffd
0004
0017
0001
ffed
fffa
ffed
000b
0015
fff2
fff8
0028
ffec
fffb
ffeb
000f
fff7
ffde
001a
0017
0009
fff4
fff2
0009
ffff
0027
fff6
0006
000f
000d
0015
001f
0003
ffe6
ffe7
fffc
001a
0019
ffee
ffed
fffb
0010
ffe6
ffdc
ffe3
ffdc
ffee
0004
fffd
0007
fff5
0017
0023
0026
0010
000d
fff7
ffec
002c
001a
ffff
0016
ffe6
000b
ffe5
0019
fff9
0013
fffb
0004
001c
0002
fffe
fffc
0018
0014
0015
fffe
0016
fff2
ffe8
000a
0001
ffe7
000b
ffe6
fff7
fff7
000a
0002
fff8
0007
000e
0023
0005
0010
0005
0003
ffeb
000a
fff0
fff4
ffff
0017
000a
fff4
000b
ffed
fffe
ffe1
0022
fff1
000b
0002
ffed
fff8
0021
0003
ffff
0008
fffd
fff9
fffa
0001
fffa
fffb
ffef
0002
fff3
000a
0015
0009
000b
fff3
000e
0014
fffb
000b
0019
001d
ffe1
0000
0009
fffc
fff9
fff0
ffef
ffff
fffc
000c
0010
0002
fffa
fffb
0002
000b
ffff
ffe7
fffc
0003
ffe7
0007
0000
ffea
0006
ffeb
fffc
fff6
fffd
000f
000c
fff3
fff2
fff9
fffb
fff4
0004
0001
0000
0010
000d
fffb
000d
0008
ffef
ffff
fff4
001f
ffe9
0009
fff9
0005
fff9
0003
000e
0018
ffee
0005
ffef
fffe
fff3
fffb
0009
fffa
000b
fffc
ffde
ffe9
0001
0008
fff6
fffc
fffc
ffe2
000d
fff8
fffe
000f
0003
0009
0017
ffeb
fff3
fff0
0007
ffff
0012
ffe6
000e
0011
000a
000b
001f
000d
0008
0011
001c
0010
0015
0013
001a
0009
ffe7
fff4
ffec
0006
fff5
fff3
ffed
0009
fff7
0002
fffa
0017
ffe5
fffd
ffec
0003
ffeb
ffe3
ffef
001c
fff8
ffdd
000f
0009
0017
0008
fffb
000a
fffe
000b
ffeb
001c
fff1
fff3
0008
000a
ffee
000c
fff8
fffd
000a
ffea
fffc
ffff
fffc
0006
fffe
ffeb
0000
fff9
0001
0000
000a
0006
fffd
0017
fff9
fffc
fff3
000a
0003
0000
000a
0007
000d
000f
000d
fffb
fff0
ffeb
fffb
000b
ffed
0006
0006
000b
fff9
fff9
fffc
000d
000b
fff7
0009
0020
fff3
ffe1
fff3
0001
ffdc
0001
0015
fff6
0013
0006
0001
0012
0000
0002
ffea
fff8
fff6
0003
ffff
0008
ffee
ffe7
fff8
fffb
ffee
0001
fff2
0005
fffd
fffd
fffc
ffeb
0008
0005
0009
fffb
fffc
001a
0004
fffc
fffa
0000
0012
fffc
ffe6
fffb
001a
ffea
0012
000a
fff4
fff1
0003
0018
0001
ffec
fff5
0006
fff3
ffff
001d
000e
0005
000a
ffff
ffed
fffb
fff3
000e
ffe8
ffff
0012
fffd
ffe3
0003
fff0
fff1
0013
0006
000f
0013
000c
ffe9
fff4
0000
fff0
0003
fffa
fff0
0004
ffef
0013
0011
ffee
ffe2
0015
0021
fffa
000e
fffc
fff7
0003
ffea
fff9
ffef
fff9
001b
000e
ffff
0005
0001
0014
0009
ffed
0015
0007
000e
0015
0014
0014
fff2
000a
ffdd
fffc
0002
ffe4
ffee
fff9
000d
fffa
0001
0006
0019
0007
000c
0001
0024
0002
fffc
fff9
ffe9
fffc
0000
fff5
ffe9
001e
ffff
ffe9
fffc
ffee
ffe9
0015
0014
fffb
0008
000a
fff9
0008
0011
0012
000b
0010
fffd
fff7
000a
0000
fffe
000c
ffe8
fffd
fff9
ffef
0000
0008
0006
fffa
0018
0011
ffe9
fffc
000c
fffe
0010
fff8
000f
fffd
fff0
fff9
fffe
fff3
0008
ffe8
0014
0006
001b
ffeb
ffe0
ffe4
ffed
fffd
0015
000a
0007
000c
ffee
ffeb
0018
fffd
fff8
000c
fffc
0001
fff3
fff2
fff3
0006
fff5
001b
0004
001d
0002
0018
0004
ffea
000f
ffff
fff9
ffdc
fff0
0001
fff7
0010
fffc
ffec
fffc
ffe6
fff5
ffe7
ffd4
000c
0014
fffe
ffdf
ffdc
fff7
000e
000d
0016
ffed
0007
ffd8
ffec
fff8
0012
000f
0005
fff4
fff7
0005
0004
ffec
0004
0007
fff2
fff5
ffe1
000f
ffe9
0017
fff0
0010
000c
0012
0004
fff0
fffa
000b
fffa
0001
0004
fff4
0002
ffea
ffe5
fffc
ffe5
ffef
fff6
0014
ffec
0014
fff8
fff0
ffec
fffc
fff6
001a
000d
0001
ffdc
ffe6
ffe8
000e
000b
fff2
000f
000c
fffa
fff2
0011
ffea
ffec
0010
000c
fff5
ffec
ffd9
000a
0009
fffe
fffa
fff0
fffd
0005
fff9
0001
0010
0004
001c
fff8
fffb
0003
fff2
fff8
0019
ffef
fff9
ffdf
fffe
0008
fff7
0020
ffe2
000c
fff4
fff2
001a
001a
0000
0006
fff9
0003
0013
fff8
ffff
ffe2
fffe
0002
ffe8
0007
001b
fff6
fffe
fff1
fff8
0001
0001
0003
ffe6
001a
0002
ffed
ffec
0000
0015
000b
fffd
0009
0010
0004
0015
000c
fffe
0001
fffe
ffe6
0004
fff4
ffee
0011
fff0
000e
ffed
0019
fffa
ffed
0022
fffe
0011
ffe1
fff7
0009
0024
fffd
0008
0005
ffe4
0009
000f
0012
ffe2
000a
0013
ffea
0016
fff5
fff0
0006
0011
0000
fffd
000c
0015
0017
000e
0012
0008
0013
fff7
0023
ffeb
001b
0003
000e
fff0
fffb
ffe9
0000
fff0
fffb
fff3
001b
000c
ffe2
ffdf
0006
ffec
fff7
000c
ffe8
ffea
0014
ffe3
000a
fff3
0004
ffe7
ffe9
0007
0002
0007
ffe7
001a
0001
fffb
0000
fffb
fff0
fffb
0007
000f
fff6
fffb
0008
0004
ffe9
ffeb
000a
0001
000b
000c
0000
0005
0009
ffd9
001e
fff9
0001
ffe6
fffe
0007
000c
0009
0010
ffe4
ffff
0007
000d
0021
0002
0012
fff6
fff9
ffeb
ffff
000b
0000
0036
ffe8
fffa
0001
fff1
ffeb
0008
001d
ffe1
ffff
0016
000a
ffef
001b
0020
0007
001a
0020
0014
ffee
fff0
002d
ffea
000e
ffe9
fffa
fffd
ffe3
ffee
fff7
fff8
0012
0015
000f
ffd8
fff6
001e
000a
ffe9
0017
001d
0014
fff3
0015
0018
0012
0013
ffe7
000a
000e
0000
0000
ffd7
0025
ffec
0042
ffe6
0007
ffe2
ffe4
fffb
fffa
0024
0001
0002
fff8
ffe9
fffb
fff0
0012
0002
000f
fffe
001c
fff5
fffd
0012
ffd7
0027
fff0
000b
fff1
fffc
ffe6
000d
ffef
ffee
000a
ffef
ffe0
0001
fff0
0013
ffe7
0010
fff2
000f
fffd
fffd
0004
002c
0005
0012
ffcc
fffd
0017
ffe5
fff9
ffe7
0023
ffef
0001
ffee
001a
0007
0023
0012
000d
ffcb
000b
fff4
fff3
fffd
0015
001a
001f
ffec
0000
0000
ffec
0003
fff8
0014
000f
fffd
ffff
0002
ffe0
ffe4
0003
fff1
fffe
0006
0002
fffc
0002
0001
0018
0016
ffdd
0006
0001
0002
ffea
fffb
fffb
fffc
fffb
fffc
0015
0013
fffc
001a
fffc
0000
0006
001a
fff8
0010
ffd4
fffa
fff7
ffe9
ffe0
0005
fff4
ffed
fff6
fff9
0008
000f
ffe5
0000
000c
0014
ffeb
0008
000d
fffe
0009
fff9
fff9
ffe8
fff0
0009
fffd
001f
0014
000e
0005
000a
0007
0000
fff8
0002
0014
0009
0002
ffeb
fff3
001c
fff9
fff7
001c
fff0
ffe3
0020
0006
fffb
0017
0019
0009
fff8
0007
ffee
0001
fffe
0000
000b
fff7
000f
0006
0003
fffe
fff7
fff7
fff2
fffd
0004
ffde
ffe6
fff9
0020
ffeb
ffef
0001
fffd
0002
0016
fff0
0005
0009
0009
fff6
ffeb
0002
0015
ffee
fffa
fffd
0008
0011
fffe
001f
0015
000c
0007
fffe
0012
0011
0009
0003
ffe7
fffa
fffd
fff1
fff1
ffff
000e
ffea
ffff
001c
0013
ffec
ffef
001a
fff1
fff7
0000
fff9
fff8
0002
fffa
000b
0003
fffd
ffff
0006
ffff
fffc
fff5
0004
0002
fffd
ffff
fff7
fff7
000a
0005
fffc
fff6
fff7
000b
0009
fff8
fffe
000e
000d
000d
fffc
fffd
0005
0007
fff3
fffd
fffe
ffff
fff8
fffa
0006
0005
ffff
0005
ffff
0005
0008
0004
fff8
0000
0001
0000
000a
ffff
0007
fffb
0002
0002
fffa
fffa
0006
0004
0002
0002
fffe
0007
fff1
ffff
0000
0006
fff5
fffa
0008
0002
0002
000b
0001
fffd
fffe
fffe
0000
fff3
fffb
fffe
0002
0007
fff3
0003
fff6
fffb
0002
0006
0008
fff9
0003
fffc
fff9
0002
ffff
fffe
fff9
ffff
fffe
fff7
0005
000c
fffe
0003
0002
fffd
0004
fffe
0000
fff8
000b
fffc
0001
0004
000a
0004
0004
fffd
0003
0006
fffb
0006
ffff
0001
0002
fffb
0004
fffc
0002
000b
fffd
0005
0000
0006
fffa
0003
000e
fffb
0003
fffc
fff2
ffdd
000b
0005
0016
fff6
fff4
fffc
ffff
ffee
0000
0002
fffe
ffee
000f
0002
0000
0010
ffea
000b
fff4
fffc
0011
000b
0013
ffed
fff5
000f
0009
fff9
000d
0001
ffec
0026
0008
fff7
fffe
0000
000e
ffe4
fffd
0003
0008
0016
0001
fff7
ffef
0008
fff5
fff0
0002
000f
000d
0018
fffe
0019
001b
fff7
0013
0000
001a
0004
fffb
0007
0002
fffb
fff0
ffe4
fffb
0009
fffe
fff2
000c
ffd9
fff2
0008
fffe
0009
fff1
fffa
0004
fffd
fff7
fff1
0012
0002
0010
fff8
0002
fff8
fff5
ffef
fff4
000a
0012
fff2
fffb
0001
fffe
fffb
fff0
fff4
0002
000d
0013
001a
001e
0009
0001
fffb
0002
fffb
0006
0012
fff0
0001
001c
0007
fff7
fff1
fff8
0012
fff9
001c
000b
ffea
fffa
ffed
ffff
fff7
ffe9
ffff
fff8
0017
000b
fff5
0004
0019
0019
000b
001a
0010
001f
0011
0004
0004
fff7
0011
0002
fff1
000d
0006
0012
ffe9
fff0
fff9
fffe
000e
fffa
0003
fff3
ffe8
0014
fff2
0003
0002
001c
fff6
000e
0001
0006
fffe
0005
fffa
000b
0006
0000
fffe
ffe0
fff8
0009
000b
ffe8
000d
ffe4
fffe
fffa
ffec
0006
fffe
fffd
fff7
0000
ffff
ffe7
ffef
fffd
fffc
ffe5
ffed
fff5
0004
0002
fff8
fff0
fffc
ffeb
fff6
001e
0011
0002
fff4
fffc
ffec
0001
ffff
fffc
fff9
fff8
0019
ffec
0013
0009
0006
fff4
001f
fff2
fff8
fff5
0014
fff4
0014
ffee
ffdc
000e
0006
000a
fff4
0007
fffa
fffc
0001
fffb
fff4
0006
fffc
000c
ffff
000b
0004
0009
fffd
fff1
0010
0016
000c
fff4
0014
0013
0003
0014
000c
ffef
000d
fff6
000a
ffea
fff7
0009
0006
fff8
0006
0015
fffe
fffb
fff9
fffe
fff9
0007
000a
0013
000c
fffa
0003
001e
fffe
fffc
0010
fffe
ffee
fff4
0000
0003
0006
ffe6
fffa
fff4
0004
000d
0009
fffd
0016
000d
fff3
ffe3
0006
ffef
ffff
ffff
ffe3
ffe8
ffec
0011
ffe0
fff1
fff0
ffec
0004
0003
0006
0006
0006
000d
fff3
0011
fff6
ffe9
ffff
fffd
0002
0008
0006
ffee
001e
fff8
0007
0008
ffee
fffd
0017
fff9
ffef
0029
0000
ffed
fff1
0003
fff9
0001
fffc
fff1
001f
0016
fff4
000e
0001
fff1
000c
000e
ffef
fffb
fff3
ffef
fff3
0032
0004
001b
0001
ffef
fff3
0002
0004
fffa
0019
000f
001b
0012
ffff
0001
000a
0000
0001
fff6
000e
ffe7
fff7
fff0
0010
ffec
fffe
ffed
fffb
0015
0005
fff7
0012
000f
ffeb
0006
ffff
fff6
000a
000f
000c
fff3
ffee
ffe1
0011
0004
fff3
0017
000a
000b
000e
fffd
0004
ffec
fff4
0008
000b
fff4
fff6
ffe9
fff4
000f
001b
0005
0020
001b
ffe3
ffef
fffb
fff3
0008
fff9
0005
fffc
0009
fff3
0003
ffee
000e
0019
ffff
fff9
fff4
0027
0000
0011
0002
ffea
fffc
fffb
0001
0010
0006
fff1
fff9
fff9
fff6
fff2
000a
fffc
000f
fffb
0004
ffe0
0005
ffe6
fff9
ffff
fff7
0010
0004
fff4
0000
fff3
0015
fffa
fff2
000e
fff4
fff6
001a
000b
0001
000f
0013
fffd
0010
fff6
0015
001b
0001
0004
ffff
0001
000c
0007
0015
fff7
fffb
fffd
ffee
000a
001a
ffe6
fff3
0002
000e
fff9
ffdf
ffeb
fff2
0000
000d
0018
0003
fffa
fff9
000a
fff6
fff8
000e
fffc
0002
ffec
fffb
0003
0007
000a
ffed
ffef
0002
000e
ffeb
fff7
000c
0000
fff9
ffec
0009
0005
0000
000a
fffa
fffb
fff7
fff2
0003
fff8
fffb
fff4
000e
0002
0008
fff4
0002
fff0
001d
0006
0017
fff8
000e
ffec
0009
0010
fff8
ffff
ffea
001d
000f
fffd
fffb
fff5
fff9
0004
0013
fff5
fff0
0009
000e
ffe8
fff8
0002
fff9
0017
fff1
fffb
ffec
fff9
0011
ffef
0020
fff4
0012
0009
fff3
0002
0013
fff8
0009
fff9
000e
0008
0029
000a
fffb
0012
0000
fffc
fffe
000a
ffee
001e
0008
fff3
000c
fffa
0017
fff1
0003
0006
000f
fffd
fffc
ffea
fff3
ffe4
0010
001b
0018
ffe9
ffef
fff2
0018
0013
001b
0009
fffe
0005
0005
fffb
001e
fff7
fff0
ffe8
0002
fff9
000c
fff2
0011
000a
000d
ffdb
000a
fff1
ffee
000a
0002
fffb
ffe5
fff3
000b
0009
000c
fff6
fffd
ffeb
fff9
ffe8
fff4
0002
fff4
0008
fff0
fffd
0012
fffa
fff2
000b
0007
0006
fffc
fff6
fff4
fff4
fff7
0001
fffa
000d
0020
ffeb
0014
000e
fff7
fff0
ffe9
000b
fff1
fff9
0009
000f
000e
ffd7
0002
0013
0014
fffb
000a
0017
fffa
fffd
fffe
fffd
fff7
fff4
ffee
000c
0020
fffb
0000
000b
0011
ffea
000f
fff5
000a
0015
ffd6
0009
0020
ffe9
0000
000d
ffe6
001f
ffe9
0002
0007
ffed
ffea
000a
ffe8
ffea
ffff
0018
0018
ffe5
0017
fffd
0018
ffff
0006
fff9
000f
ffe2
0009
fff8
fffc
ffec
0018
ffe6
fffb
fffd
0012
ffe8
ffee
0012
fffd
0005
000b
0012
0017
001a
fffc
000f
ffee
ffed
fffa
fff7
fff2
0009
ffe0
000b
0023
fffb
000c
ffe0
0006
0006
0004
ffe2
0003
ffec
fff2
fff2
fff7
0019
ffe7
0012
0011
fff5
0003
ffe9
0017
001c
0012
001f
0004
0009
000c
fff5
fff1
fff4
0011
0002
0006
fff8
000b
fff8
ffeb
ffe8
fffb
001f
0011
fff0
0003
000e
0005
fff6
0007
fffd
ffec
001a
fffa
0013
ffff
fff1
000f
0002
ffef
fff4
fff5
0012
000b
fff5
ffdd
0012
0001
fffe
001b
000d
001c
ffef
000d
000b
fff4
0010
fff9
fff4
fffc
000a
0007
0016
0000
001f
ffe4
0016
000c
fff5
000d
000a
ffff
fffb
0012
ffff
fff1
0011
0025
fff8
0008
002a
ffff
ffe8
0019
0009
000b
ffea
0013
0019
0015
fff2
fff1
0017
0020
0008
0005
0009
fffc
0008
ffff
0011
ffe6
fff5
000c
0005
0023
0004
0023
0015
001d
fffd
fff1
fff2
fff0
0010
fff6
001c
ffe8
000d
fff0
fff2
000a
0009
0026
000b
0013
ffea
ffe6
fffc
ffef
fffb
fff2
0002
0001
fffb
fff0
0020
0003
000b
fff7
ffed
000e
0003
0010
001a
0006
0000
0012
ffed
ffef
fff5
fff6
0016
0006
ffff
fff0
ffed
0004
ffeb
ffee
0019
fff6
ffe5
0013
fffd
000a
fff7
0009
ffea
0002
000f
fff7
0003
fff9
0005
fff4
ffff
fffb
fff1
fffc
0005
fff8
0012
fff4
fff3
000d
ffef
0000
ffef
fffc
001d
0026
000a
0005
0011
fffd
fffb
000b
ffeb
0014
0007
ffea
0021
000c
000d
000e
000d
0006
0010
fffb
fff9
fff8
0017
0016
0003
fffa
fff8
fff3
0015
fff3
fffc
0001
fff8
fff5
0019
001b
fff7
0005
fff6
fffd
fffe
0014
000e
fff7
ffec
000a
0011
0001
0003
0006
0011
0007
fffd
000d
0011
0000
ffe6
0011
0005
ffff
000c
fffd
fffb
000d
fffb
fff1
000f
0008
0000
fff9
fffb
fff3
0007
000b
0010
fffa
fffb
ffff
0008
fff2
0000
0009
0009
0007
0007
0013
0000
fff7
000b
0017
0020
0001
000e
0010
0002
fffc
fff1
fff6
fffd
fff1
0006
fff6
0006
001c
0003
fffe
fff8
000d
0001
fff9
fff7
fff9
ffec
000c
fff9
0004
fff0
fff3
ffee
fff7
000d
fff8
ffef
001e
ffe7
fffb
fffb
0000
0007
000b
0008
001e
0016
fffd
ffee
fff7
fffc
fff9
fff3
fffa
0001
0000
fffd
0007
fff0
0007
fffd
ffed
0002
fff6
fff0
ffee
fffd
000a
fff8
0001
0015
000d
fffa
0009
000b
fff1
0000
000b
0014
fff6
0001
fffd
fffc
ffd1
000a
001c
ffff
000d
fffe
ffec
fff7
ffff
0011
0014
fff5
fffc
0008
000d
fffb
0002
ffe8
000c
ffe5
ffec
fff8
001c
0014
0000
ffef
0003
fffd
ffef
0011
000b
fff7
0006
fff2
0018
0020
fffd
0007
fff9
fff6
001b
fff0
0017
0015
0001
0010
000f
0013
0006
000c
0004
0007
001a
fff9
0001
fff8
0007
0001
0008
0023
0004
0022
fffa
0005
fff7
ffee
0008
0008
ffe3
fffa
fffe
000f
0014
fffe
0002
fffb
0017
0014
fff1
0025
000b
ffed
ffe9
ffe8
fff7
fffd
0004
fff8
0016
ffed
0005
0017
000c
0003
001c
ffeb
fffa
0008
ffff
001e
ffec
ffee
fff8
fff9
0007
000d
ffd2
fff1
0001
0003
ffff
fff2
fffb
0011
fffd
0019
fff5
0007
fff0
ffe5
0018
0013
0013
fff9
0014
000b
ffea
0001
0019
ffeb
fff0
001e
0001
fffc
ffff
0004
fffa
fff6
ffff
0000
fff8
0001
ffef
fff2
fffe
0004
000b
0004
fffa
ffe1
0003
fff8
fffe
000d
fff9
fff3
fff7
fffa
ffe3
fff5
0005
fffa
ffff
fff8
ffee
0004
0003
0007
0008
0003
fffe
fff9
000a
000b
0014
0007
0012
fff5
fff8
fffd
fff1
0002
0010
000a
0009
fff8
fff1
fff9
ffef
ffee
0000
0005
000d
0009
0010
000d
fff6
fff3
000c
fffa
0009
000e
0012
000a
fffc
ffed
fff0
fffd
fffe
0009
fff5
fff6
0000
0009
0003
0006
0009
fff8
0005
fff1
fff7
0015
000d
0002
000a
fffa
ffff
0003
0009
ffee
fff2
000a
0005
0002
fff7
fffb
0001
001a
fff0
0009
fffa
ffed
fff8
ffe6
0001
fffe
fff6
fff5
0010
000f
0000
fffb
0009
fff5
fffe
0006
0016
fffa
0009
ffff
fffb
0007
fffe
fffc
fff2
fffb
0000
ffff
fff4
fffd
000d
fffc
0009
0003
fffc
ffff
fffd
ffee
fff9
0012
000e
0016
fff7
0000
ffee
000c
ffed
fff6
fff4
000c
0000
ffea
000d
0002
0005
ffea
0006
fffd
ffea
000d
fffd
0001
0006
ffe4
fff7
0001
0001
ffea
fffa
ffee
ffff
000c
000d
0001
0006
fff6
fffc
0011
000f
0005
0005
0007
0010
ffee
000c
fff8
0004
000d
0002
fff4
000c
fff3
000a
001f
fffb
fff9
0006
0003
fff5
fff4
000a
fffa
fffa
fff1
fff2
000c
fff9
0010
ffee
fff5
ffe1
0019
0006
fff4
0012
002b
ffec
fff7
ffde
0006
ffe9
fff1
0002
0015
0016
ffea
0009
ffe3
0004
0007
fff7
0002
000b
0008
0012
fff2
0003
fffa
fff8
0012
0006
fffa
0009
000f
ffef
000e
ffef
0004
fff6
ffed
ffee
fff7
fff6
0013
0006
0002
fff1
0004
ffe6
fffe
0010
fff3
fff5
0008
000d
0003
fff9
0010
ffee
fff2
fffc
000f
0012
ffff
fffd
0002
0008
000d
ffed
000b
fff3
0009
ffde
fff7
ffe9
000f
ffee
fffd
fff6
0017
fffd
0015
fffd
0012
000d
000e
fff2
0004
0005
0029
001b
0020
fff1
fff5
001d
fff6
0025
fffc
0007
fff6
0002
0015
ffed
0019
ffed
0001
0003
ffed
fff1
0017
000e
0004
0002
0007
fffe
0004
ffeb
fffd
fffc
0003
0002
fff3
fff9
0020
000c
001d
fff7
fffb
fff2
0005
fffa
ffda
fff6
0016
ffef
0003
001b
0000
ffe2
fff3
fffb
fffc
000c
fff8
000d
0026
0011
0011
002d
fff6
fff8
0003
001b
000f
0005
001b
0003
0014
0007
ffff
000b
0005
fffe
0014
0017
fff5
ffe3
0000
0005
ffec
000b
fffa
fff3
fff8
0013
0003
0011
ffed
0009
fffa
fffb
0011
fff0
ffff
fff4
fff6
ffe9
0005
0011
fffc
ffd4
0006
fff2
000f
fffb
0005
fffc
000d
0006
000c
0003
ffef
ffe3
0011
0004
ffdb
fffd
0018
ffe8
0013
ffe7
ffdc
ffef
001b
0006
0014
0009
0002
0018
0020
fff6
fffd
fffc
fff0
fff8
0004
fff0
0007
fffd
000d
fff7
fffc
fffd
0009
0000
fff6
ffec
0004
ffe7
000b
0000
000e
0005
000b
0019
fffe
000f
ffee
000f
0006
0006
000c
0019
fff1
0000
fff8
0003
0000
0016
0006
ffff
fff5
0002
ffe8
fff7
fff9
0004
fffc
fff3
ffff
fffa
fff4
ffff
0004
0008
0002
0006
0019
fffc
0008
fff5
fffa
0014
ffee
0011
ffed
fff7
000e
fffc
fffa
0000
ffe3
ffea
fffe
fff3
fffb
ffe9
ffe5
0005
fff2
001b
000f
000c
0007
0003
001a
0016
fff2
000f
fffc
000e
0004
0016
fffe
000e
001d
fff8
ffff
0004
fffd
0011
0007
fffe
fffe
ffef
ffed
ffee
fffc
ffe1
fff3
ffef
000c
000e
fff6
0017
fff2
fffc
0008
0014
fff7
0002
fff7
ffe8
0005
fff0
fffd
fffd
ffea
0012
000a
0005
000b
fff8
0014
ffe7
0000
0008
fff8
0018
ffe2
0014
ffde
0022
0002
ffe1
fff6
0020
fffd
ffe5
000b
0002
fffe
000e
fff9
0025
0023
000e
0018
0003
ffef
0001
fffa
0004
0002
000e
ffdb
ffea
000f
0008
001f
ffdc
001e
0005
fff2
ffde
0008
000a
ffec
fffe
fff4
000e
fff3
0006
0000
0007
fff4
002b
0001
0009
0006
001c
0005
ffee
fff9
0002
0000
fff7
fff6
fffa
0005
0007
fff8
000e
fff2
0015
000a
ffe3
fff0
fffa
0015
fff6
ffea
0022
fffd
fffa
0006
000f
0004
fff3
000e
ffef
fffc
fff3
fff5
fff4
0007
001a
fff4
fff7
fff6
0013
0006
ffee
000c
fff0
ffe7
fff1
0000
fffa
0000
0019
fffc
000f
fffe
ffe6
0010
ffe5
000e
0000
fff8
fff4
0007
0007
0008
0016
0004
fff3
0024
0013
000e
fff5
001c
ffe9
ffe0
fff5
fffd
fffa
fffe
ffe5
fff5
fffb
000c
0003
000f
fff2
000e
0003
fffb
ffef
0015
0002
ffe0
0012
fffc
0008
0007
000a
0009
fff4
0007
0004
fff9
0002
0000
0003
fffc
0017
0013
0008
0005
fffe
0004
0004
0009
000b
0003
fff2
0002
fff8
0015
fff4
fff6
fffd
0001
fffe
fffe
0004
0002
fffd
0009
000f
0013
fffa
0009
000a
000a
0004
0016
0004
0004
0011
fffa
fff1
0008
fffb
001b
fff6
0001
fff3
fffc
fff8
ffff
0008
0008
0003
fffb
0002
fff5
0006
fff7
000a
0002
fffb
0012
fff4
fffd
000a
ffee
0002
0012
fff9
fff8
0004
ffee
fff9
0000
fffa
0005
0024
fffd
fffe
0012
0001
0011
0001
fff7
000a
fffd
fffb
0007
fff3
0007
0008
0009
ffee
fffc
0007
0009
fffb
000d
fff7
fffa
0003
0011
fff9
fffc
fff3
ffff
ffed
000c
0004
ffff
0001
fff7
0005
ffeb
fffe
0000
fffb
fff5
0003
ffe8
fff2
0013
fff7
fff7
000f
0001
fff6
0001
ffff
0011
fffc
ffeb
fff9
fffa
0003
0001
0006
001c
fff7
ffeb
000d
0017
0004
0017
fff3
001a
ffef
ffdb
0021
0003
fff3
ffff
ffde
002b
ffea
fff4
000e
0016
ffea
000a
fffa
fff9
0015
fffc
fffc
ffea
0013
0000
0012
fffc
0021
fffe
001d
ffe7
ffff
000c
fffc
fff6
000d
fff1
ffe1
000c
0019
0013
0001
fff2
000d
fff7
0010
0009
0019
0006
0019
0008
000e
ffed
ffff
fff5
002e
fff5
0004
fffa
0003
0011
ffef
0028
ffda
001c
fffe
000e
000c
ffe2
0018
000a
ffd8
0007
fffe
fff4
ffef
fff8
0016
000d
001f
001b
fffe
0014
0014
fff9
fff6
fffe
ffe4
ffd0
0005
ffeb
0021
0003
0011
ffed
ffff
fff0
0010
fff0
fff7
000e
0027
0008
0005
ffd9
0016
ffee
ffe3
fff6
fff0
000c
0003
fffe
0004
000c
ffed
ffff
001d
002e
fff9
ffe1
fff1
ffee
fffe
fff3
0010
fff0
001c
0008
fff2
fff9
0009
0004
ffd6
0005
fff0
ffff
0009
fff6
000b
0011
0007
fff3
ffdf
ffed
ffec
fff5
0009
0014
ffff
0000
000c
fff5
000a
fff3
001e
0013
fffc
0007
0000
000f
fffd
ffdf
ffec
fffd
ffec
001f
fff4
ffe6
000c
ffe7
0004
000f
000f
000d
001a
0019
000e
0020
fffd
0017
000b
fff5
fff8
0017
fff5
0001
fffd
0012
fff2
0013
fff8
0006
0006
0006
000e
ffe2
0007
0005
fffe
fff7
fff1
0012
fff3
fff8
0005
ffdb
0015
ffea
000e
ffeb
0012
0021
0002
0010
ffef
0003
fffb
fff5
ffe9
fffc
0024
fff7
0008
fff5
0007
0000
ffef
0002
ffff
ffff
fffc
fff0
ffed
ffff
fff8
0002
0001
0007
ffeb
fff4
0007
000e
fff3
fff4
000f
000c
fff1
0014
ffed
001b
fff7
0000
ffeb
0005
fffe
fff5
0012
fff4
ffe2
000f
0003
0013
000d
fffc
fffb
fff8
fff4
0010
fff2
0007
000a
fff9
0009
0007
ffda
0014
0006
000d
fffe
fff1
fff3
0001
0007
fff6
ffe4
0014
fff8
fff8
0008
0011
fffd
000f
ffde
0019
001d
0005
0002
000c
0003
0008
fff7
000a
000a
000d
ffff
0023
0014
0000
0009
0009
0014
001d
ffec
0011
000e
0003
000e
0004
0005
0000
0012
0003
0001
ffef
fff3
0015
0001
fff9
fffd
fff3
0002
ffe5
001b
000f
0001
0007
fff7
0001
000b
0012
fffb
0008
0004
fffd
0016
000a
0008
fff2
fff6
0006
fff3
0000
0008
fff7
fffe
ffec
0009
0007
ffe4
0017
0011
0015
ffe8
001b
ffff
0004
0004
0022
ffe9
fffa
fff4
ffea
ffff
000b
000d
0010
000e
fffe
0005
fff7
0006
ffed
fff5
ffed
fff8
000a
fffe
001f
0018
fff5
fffb
0001
000a
0009
fff5
fff9
0000
0012
fff4
0018
fff4
000e
fffc
0004
000e
ffdc
fff4
0004
ffef
fff4
0011
fffd
0002
ffee
ffea
001a
fffd
0002
000e
fffb
ffee
0021
fff9
000a
001a
ffea
fff0
fff0
0002
000b
ffea
fff7
fff2
0000
fffc
000e
0006
000f
001c
ffeb
0003
0008
fff5
0014
000a
0000
fffc
fff2
0002
0010
fff7
fff5
000e
0002
fffe
ffed
0000
000d
ffeb
fffd
fff3
fff2
0002
0002
0008
000d
000f
fff2
ffeb
0014
0009
fff4
000e
000d
fff2
0011
fff5
ffe8
0013
fff1
fffa
fffb
0012
0005
001a
fff1
0001
fffd
ffe3
000c
000e
000f
fff8
ffe8
ffec
0011
fff7
fffc
fffa
0017
fffb
000b
fffe
0004
fffa
fff8
0007
ffe4
fff5
0007
0011
000a
0013
fffb
0011
fff9
ffef
0023
fffd
000e
fff0
fff4
fff7
ffe2
0002
001f
0008
fffc
fff3
fffc
0009
ffe1
0014
fff2
0009
fff2
0007
0001
fffe
fffe
ffea
ffe5
000a
0006
fffb
0011
fff9
fff4
fffb
fff7
ffe6
0005
0005
000e
0005
ffe7
0018
0009
fff3
fff5
0009
fff6
0012
0017
fff0
0009
fffa
fffc
0018
ffda
001b
0001
0004
0001
ffec
0011
000c
0016
ffe6
fff7
ffd9
ffe7
0035
0013
0008
ffea
0008
ffe5
0012
000b
0013
0000
0001
0027
0008
0023
fff5
000b
0005
fff5
fffe
0004
000a
0012
ffe7
0024
ffee
0002
ffe8
001c
0026
ffff
ffe3
0012
001e
000d
ffee
ffd6
fff9
0002
ffd3
0010
fffd
000b
ffd9
0000
0009
001b
ffed
001a
0012
fff4
0010
0019
0018
0007
fff9
0015
ffd4
ffef
000d
0002
0005
000c
fff2
0015
001f
ffda
ffef
ffe7
001c
0017
fff6
0010
0003
ffe4
001e
0001
ffd6
0018
0003
fffa
ffdf
fff2
000e
0003
fffe
fff4
fff8
fff1
fff2
0001
000b
fff4
fff4
fffa
0011
0008
ffe8
000e
000b
001a
ffeb
0009
0013
ffef
ffec
000b
002c
ffe5
ffe7
ffe9
0003
000c
fffc
0004
0001
0020
fff7
0000
0016
000e
000f
0015
fff5
ffe5
ffe8
fff2
0006
001b
fff8
ffe7
0002
ffbc
0003
000d
ffdd
0002
000e
0002
0006
fff1
0012
0011
ffe8
0008
fffd
ffe6
000e
0006
0018
0017
0003
0008
000a
0012
002a
fff3
0010
fffa
ffef
0015
0008
ffe7
0004
0021
fff9
0010
0012
fff6
fff2
0009
0012
fff2
fff4
000d
ffeb
ffee
fffb
ffd6
fffb
001a
fffa
0023
0010
0026
fff1
ffef
0007
000c
000e
0025
0014
fff2
0009
000b
ffea
ffff
0002
ffed
ffed
fffb
0016
fff3
ffe1
ffff
0003
fffe
0003
fff5
ffff
fff4
000d
fff9
ffec
0010
fff6
0008
0008
0004
0021
fffd
fff3
0010
000c
ffe6
0000
0006
0005
000f
fff8
0003
0003
0007
0006
0001
ffe7
0014
ffec
001a
0009
ffea
0010
0022
ffe6
fffa
0016
000b
fff6
0027
0005
0001
000f
0012
ffe7
0000
000d
fffb
fff7
ffe4
0030
0002
fff3
0018
001b
ffed
000f
fff8
fff1
0009
fff7
ffeb
0000
fffc
0016
fffb
0009
fff5
0005
000d
0012
fff4
ffec
fffd
000e
0004
0022
fffd
fff6
ffee
ffef
ffe8
0019
fffd
fff4
fffe
ffff
000f
fff8
0012
fff8
000d
0002
fff6
fff4
fff7
0012
001d
0021
0012
fff7
0009
fffe
fff6
fffd
ffff
0003
000d
0003
0004
000c
000c
fff9
fffd
fffb
fff0
0003
fffa
000e
0005
0000
fff5
fffe
000a
fff9
ffe8
0000
0003
fff3
0003
000b
fff9
fff3
fffa
0009
0003
fffb
ffff
fff9
0002
ffee
0013
fffc
0008
0003
fff6
ffef
0004
0012
0010
000b
0012
000e
001b
0003
ffe3
fff4
0001
001b
fff7
000e
ffea
ffff
0005
0004
fff2
fffd
000a
fff5
0006
fff4
0002
fffc
0009
ffff
fffb
fff3
ffed
000d
0005
0005
fff6
fff9
fffc
ffef
ffe3
000c
000d
000c
fff1
0003
fff0
fff3
000a
0009
ffff
fff4
fff7
0016
0010
0007
fff3
ffe5
0002
0017
ffeb
fff0
0016
000d
0004
ffea
fff1
ffe4
0005
fff1
0013
fffb
fff4
ffff
fff7
000b
002c
fff6
ffd6
0008
fff4
0007
fff2
fffd
001e
0009
fffb
fffc
0009
fffe
ffd8
0000
000d
0014
000f
fffd
fffb
ffe8
001a
000e
0011
fff5
001e
fff6
0007
001a
0001
fff2
ffe0
0007
fff4
fff7
0014
000c
0017
fffe
000a
fff0
fff5
ffeb
fffa
fff3
0006
0029
fff3
ffec
fff2
fff1
0010
0014
0021
000a
0004
0006
ffdf
fffc
000f
ffee
0006
fffb
0006
001c
ffd3
fffe
fff5
ffe4
fffe
000d
ffd4
0007
0014
ffff
0003
0018
0014
0012
0006
ffe9
0019
0021
0000
fffd
000a
fffc
ffdd
ffde
fff5
0014
0012
fffa
0020
0017
fff1
0003
ffe9
fff8
0026
fff8
ffe4
fff5
0006
0008
fffc
fff3
fff2
fff8
fff4
0014
0004
000d
0008
ffee
fffa
fff7
0009
fffc
fffa
0004
0023
000f
fff4
0001
fff4
0007
fff0
0018
001d
0016
ffe4
ffeb
ffe8
fffd
0004
0003
ffea
fff5
0010
fff4
ffe4
fff8
000a
ffff
0013
ffee
ffee
0000
ffe8
fffd
ffee
0007
fffb
0005
0015
fffb
0011
fff3
0003
0001
0001
001a
fffc
fff4
0003
fff7
ffe5
fffb
0000
ffe6
0016
0008
0008
0007
fff5
0005
fffc
0009
fff9
0009
fff6
fff4
0004
fffb
ffe3
0009
fff1
0002
000f
fffc
fffd
0013
0001
ffff
ffff
0003
0002
000e
fffa
0016
0001
ffee
000c
001d
0007
fffb
fff8
ffef
fffd
0001
fff0
0006
ffec
fff2
fffc
0019
fff5
0005
0003
fff5
fffb
ffec
fff9
0000
fff7
fff4
0000
fff0
0001
fff7
0019
0005
0008
fffc
0006
fffb
000f
fff3
0005
fffa
ffff
fff9
fff8
0012
fff3
fff7
0002
000b
fffd
0021
ffe1
fffa
fff8
fff7
fffe
0008
fffb
0009
0004
0006
ffd9
0003
0014
0008
fff1
000e
000a
0001
fff8
fffd
fff2
0015
ffff
0013
0002
fffa
fffb
fffb
0003
fffd
0001
0004
fffc
ffff
0004
000e
000d
0000
fff6
fff5
0001
ffff
0001
0001
0001
fffb
0004
fffb
fff8
0000
000b
fffd
fffb
0004
0006
fffd
fffa
fffa
0008
0003
fffe
0000
fffe
fffd
fffe
ffee
fffd
0006
fffd
0001
ffff
0001
fffc
fff2
0006
0005
0005
ffff
0002
0000
fff6
0000
0000
fffa
fff6
0002
0001
fff4
fffc
0005
fff8
0002
0006
0007
fff7
0000
fffd
0001
ffff
fffe
fffe
0004
0003
fff8
fffc
fff9
fffc
fff7
fff7
fffa
0001
0004
0002
fffb
000b
0008
0003
0006
fff8
fff8
fff8
fffe
fffe
fff8
fffd
fffb
0006
fffd
fffd
0000
0009
ffff
fffb
0000
0004
ffff
0003
fffb
0002
fffb
fffd
0001
fffd
fffb
fffc
0003
0009
fffa
fffd
0004
fffe
0005
fffd
0007
fff8
fff7
fff7
0006
ffff
0001
0001
ffff
fffa
fffe
000a
0006
000a
0002
0015
0008
fff6
0012
0000
ffe9
ffe7
ffee
0016
ffe5
ffe5
fff5
fffc
0002
fff9
ffde
ffef
0015
0005
fffc
0012
0020
000a
ffe9
ffea
0008
0005
fff7
ffff
ffef
fff7
0015
fff9
000e
0009
0005
0006
ffef
ffff
0002
fffd
0001
fff3
001b
0007
fff9
fff5
ffe4
ffff
0009
0012
fffc
0017
fffb
0001
0000
0006
0011
000e
0009
0018
001c
0017
0003
0001
0002
ffea
fff6
fff9
0008
000a
fff0
fff8
0013
fffb
fff4
ffe3
0002
fff3
0002
ffef
ffe6
0010
0018
fff5
0022
fff0
ffef
001f
0011
fff3
000b
ffe4
000c
0003
0003
fffe
0002
fffb
0002
001a
fff2
ffed
fff7
0007
000d
000d
001a
ffde
fff3
000b
fff6
0000
ffe6
fff0
000f
000b
fffa
fff0
001c
ffd8
ffe4
0001
0002
fff0
0007
ffe9
0002
0007
fff6
ffe7
0004
ffea
0012
0002
001a
0009
fffd
ffe8
000d
fffe
0004
0028
0003
0005
001d
fffa
0032
000b
001b
ffe6
002b
fff3
fff7
fff3
0016
fffd
fffb
fff1
0024
fff5
0000
ffe9
000d
ffdd
fff6
0002
0019
fff7
ffff
0013
ffed
000c
0005
000f
0006
fff8
0018
fff5
0007
0008
ffed
0011
fff0
0013
0016
0002
fff7
000b
002a
ffd7
001d
fff0
0013
0001
fff4
000e
002b
0004
ffd9
0013
fffc
fff8
000b
000c
ffe2
0002
ffec
fffa
001a
ffef
000f
0009
ffda
ffec
0021
0022
0014
fff1
ffdc
ffe9
0024
ffdc
000b
ffcf
0008
ffe7
fff9
fffe
0011
0008
001f
000b
000c
0004
0014
001c
0018
0003
fff7
0017
0015
ffe1
0004
0003
0020
ffd7
fff8
fff0
0024
0000
0011
0011
ffee
ffee
ffe9
0002
0011
0012
001d
ffea
0018
001c
fffb
ffdc
0010
000a
ffff
0008
0012
0001
ffe3
fffc
ffef
ffe9
0023
fff9
001e
ffff
ffd8
0008
0001
ffe8
fff6
001d
000b
ffe6
0014
fffb
fff2
fffe
fff9
0006
fff3
000c
fffa
ffe7
0000
0000
fffb
fff8
0005
ffec
0006
0009
0011
ffe9
fff5
fffb
0005
000b
0004
fff3
0009
0010
0002
fffc
fff9
0002
ffec
fff6
fff3
000d
0005
0006
fff7
0014
0011
000a
ffe4
0014
001d
fff7
fff9
fffc
0003
fffe
fff0
ffe6
fff4
0005
000f
ffed
0010
ffeb
0001
0025
000a
fffb
000b
0002
000b
fff8
001c
ffe5
fff3
0011
fff5
0000
0004
fff6
0005
000b
0005
ffec
fff9
0014
fff3
fffb
000d
fffb
fffe
fff0
fffe
0006
001f
0000
fffa
ffef
0014
ffe5
0001
0006
000e
0017
0001
fff8
0013
0000
fff1
0008
fff5
0004
0006
000a
0019
0019
0004
0016
ffef
0012
fff9
0010
0001
0013
0004
0020
fff9
fffb
fff7
ffe5
fff9
0018
0020
000c
ffe4
fff7
0001
fffe
ffea
fff0
0003
fff4
001f
ffff
ffe5
fff6
0000
0002
fff8
000d
fff7
000b
000c
fff4
0015
0008
fff7
ffea
ffff
fff4
ffe9
000d
fffc
0019
0006
0008
0003
fffb
ffec
000e
0004
fff0
000e
fffd
fff0
ffff
fff2
000e
fff5
0018
fffd
0013
0002
0000
0013
0015
0003
000f
0010
0006
0004
ffe9
000c
fffc
fff4
fff6
0001
fffa
0005
fff6
ffe1
0014
0008
0004
000c
fffe
0009
0019
ffff
0009
fff3
ffff
000b
ffe7
0006
fff2
ffea
fff8
000a
ffec
fff7
0005
ffe6
ffe7
0009
fffb
ffed
fffe
fff1
ffea
fff0
fff2
000d
fff0
0004
ffff
0004
0006
0010
fffd
fff5
000b
0010
fffd
fff9
fffe
fff8
ffee
0013
000a
0001
fff2
fff6
fffb
000f
001f
0006
fffb
0005
0001
0005
fff6
0007
fff7
ffff
fff1
ffee
0012
0007
ffff
ffff
0008
0018
0012
fffb
0010
0007
0002
0013
ffe3
fffb
ffe9
0004
fff1
0004
0009
0006
0007
0002
ffeb
0004
0000
fff2
000e
fff5
0000
0000
0000
fffa
ffed
fff7
0002
000b
fffb
0001
0001
fff8
0000
0005
000b
0008
0004
fff7
0005
fffc
000d
fffd
0007
000a
fff7
000b
0006
fffb
fffe
0001
0001
0000
0005
0005
fffb
fffd
fffb
000d
0000
0004
0003
fff9
0004
fffe
fffd
fff8
ffee
0011
fff8
0006
fff6
ffff
0005
000b
fffd
0005
0004
fffe
fffa
fff9
fff7
ffed
fffb
0009
0008
0012
000a
fffe
fffe
0002
0007
fffb
0004
ffef
0002
0007
ffff
001c
0005
fff6
fff6
0007
fff4
0001
0009
fff2
0003
fffd
fff1
0003
fff3
fffc
0002
fff4
000a
0004
0007
ffff
0000
000a
0000
fffd
fff7
fffa
fffe
fff6
0005
fff7
000a
fffe
000d
fff9
0011
fff4
fff5
fff8
000b
0000
0002
0004
0002
0007
ffff
fffc
fff3
fff2
fff2
0000
0008
ffff
fffc
fffc
ffef
ffea
fffa
fffd
fffe
fffe
0004
fff4
ffff
0008
fffe
000d
000b
0008
ffeb
fffa
0002
0002
0012
ffff
fff6
0002
0006
0000
fffa
fff8
0009
0001
000a
0006
0008
0011
fffd
0004
0003
fffb
0004
0009
000c
0005
0000
0001
000b
0005
fffc
fff5
fffd
0002
fffb
000a
ffff
0002
0000
0001
000a
fff9
0000
0009
000c
0002
fff4
000f
fff5
0003
0001
fff8
fffa
0000
fffb
0005
fffa
fff6
0004
0006
ffff
fff4
fff8
0009
0013
0005
0006
0008
0005
ffec
fff3
ffff
fffb
fff5
0004
fffc
0014
0011
0000
000a
0001
0007
0004
fff7
000a
000a
fff8
fffd
000a
fffd
0000
fffb
0001
fffc
000e
000e
0008
0006
0008
000b
fffb
0001
fffe
0001
fffe
0011
0005
000b
0000
0011
fffd
000c
0007
fffa
0009
fffe
0001
ffeb
000e
0008
fffb
fff7
0000
0003
0007
fff6
fffb
fffe
0000
fff6
000a
0005
0009
fff0
0000
fff7
0002
0006
fffc
ffff
ffff
fffd
fff6
001a
fffc
0019
fff1
ffe5
0012
0002
ffeb
fff3
fff6
000a
fff3
fff9
fff0
000a
fff9
0014
0007
0023
0003
fff8
0007
0005
0016
0004
0010
fff6
ffef
0013
fff5
fffc
0014
fff4
0016
fff8
0014
0019
fff9
000c
0027
000a
fffc
000e
ffff
001d
fff8
fffa
fff2
000a
0003
000a
fff3
0005
0000
ffff
0012
0004
000c
0006
fff1
ffee
fff9
fff4
0021
fffe
0010
ffed
000f
ffeb
0001
0009
000d
0016
0015
fff8
ffe6
001a
0010
fff5
0008
000f
fff2
fff4
0001
fffd
fff8
0006
0013
0015
fff8
ffec
fff4
0009
fffc
0003
000c
fffa
ffd6
0008
ffe5
ffff
ffe1
000b
ffd8
001e
0003
0001
000d
ffff
0019
0018
0016
ffef
fffc
0000
ffe9
0009
0021
0004
000c
ffe5
ffeb
0017
fff5
fffe
0015
0003
fffe
ffff
ffe5
fffd
0005
0006
ffed
fff5
001b
000d
000a
001b
0016
0003
000a
0027
fffd
ffef
000d
fffd
fffa
0008
0005
0018
0003
0005
fffe
fff4
fff4
001a
0008
0003
0013
fff5
0002
ffff
0002
0000
0021
0000
000e
fffe
ffd2
fff8
fff3
fff6
fff8
0003
ffed
fff2
000e
0010
ffeb
fffe
ffed
001a
0005
fff6
ffff
001e
0012
fff4
000f
fff1
0005
ffe3
0004
fffd
0017
001a
fff3
001c
0014
0014
0002
0003
ffec
000e
0007
0017
0006
fff6
ffe7
ffea
0010
ffe3
0019
fff7
0006
ffeb
000c
000f
ffe2
0009
0007
000c
fff8
ffef
ffe2
ffe9
ffe0
0009
fff5
ffed
0004
0005
0001
ffee
000a
0002
ffff
0002
fff5
fff1
0010
000e
fff3
000b
0004
0008
ffe6
fffe
fff6
ffe7
fffa
000a
0004
ffea
ffdf
0016
fff9
0000
ffea
0004
fff7
0020
0003
0003
fff3
fffd
ffed
fffb
002e
fffb
000a
ffe5
000b
0015
000d
0008
0013
0020
fff9
0004
0005
000b
ffff
fff8
0016
ffee
001b
fffa
ffd9
001d
001e
ffe3
0007
000f
ffe7
0000
fff2
0009
fffc
ffe7
000c
0021
fffe
001c
fff2
0031
ffe6
0001
001e
ffe1
fffe
ffe8
000b
0012
0024
0013
001b
0004
0009
ffec
ffef
002c
000f
0004
ffe8
fff7
fff2
000c
0022
ffe2
0016
fffd
fffc
0000
000d
002a
fff9
fff2
ffeb
0011
fffe
fff1
0011
0011
fffd
0011
fffb
ffe2
ffe2
ffe9
fffb
fff7
ffe5
ffe8
0004
0000
ffeb
0001
ffff
0012
fffe
0016
ffdc
0002
ffea
fff9
0000
0008
000c
ffe1
001f
0013
ffe4
000b
fffc
0006
0000
fff1
0015
fffa
fff5
0007
0012
001b
fff3
001f
0014
0029
0015
fff7
0004
0027
ffe4
fff7
0005
0005
ffea
ffe5
fffa
fff3
0000
0004
0001
000d
ffe8
fff8
0007
000d
0017
0005
ffe9
0007
000f
ffee
0007
fffd
0013
0014
0000
fff8
0008
ffe6
000f
000c
fffc
0009
0012
0007
ffe5
0009
000a
001c
fff6
fff7
fff3
ffe4
000b
fff3
0003
0020
fff7
0015
fffd
0004
fff8
0001
000e
0001
fff1
ffdd
0005
0007
0028
fff8
0024
fffc
0010
ffe8
ffed
0009
ffff
0001
0017
0008
0009
0017
000d
fffb
ffde
fff9
ffec
fffb
0010
0018
0014
0018
fffe
ffeb
0011
fff7
ffe6
001a
ffec
0002
0016
fff9
000c
0005
0007
fffe
ffdc
000e
fffa
0009
ffff
0008
0001
000d
0005
0006
000a
001b
000f
0004
000d
ffe7
0009
fffe
0006
ffff
ffe8
fff5
fff9
0017
fff8
0031
0004
000d
0013
ffe5
0009
0010
0011
fff1
000d
0006
000a
fff4
ffe9
000c
ffe8
fff4
000a
ffe5
000a
0028
0004
fff2
0017
fff9
fff6
000b
fffe
fff8
0000
ffde
fff5
001c
fff7
ffed
ffe9
0006
001e
fffb
0013
001b
ffe2
fff1
0005
fffa
fffa
fff6
000c
ffe8
0027
ffeb
ffeb
fff6
ffe5
ffe3
0025
ffdd
fff1
0004
0011
ffec
000e
fff8
0015
000d
fffd
000f
fff9
0023
fff7
0014
0014
fffe
000f
ffe0
fff7
0013
001b
fffd
0010
ffe1
fff1
ffe4
fff7
ffff
ffdc
0007
fff3
fffa
0011
fffc
0017
ffec
000e
fffd
0000
000b
fff9
ffea
ffeb
0008
fff2
fffd
0002
0001
ffd2
000b
fff5
000c
000b
ffff
fff5
fffb
000c
000c
0003
fff8
ffff
fffa
ffe3
fffc
ffe7
0011
0003
000a
0000
fff5
0000
0000
ffe4
000f
0001
000a
fff3
0019
0025
000f
0000
ffef
000b
0007
0014
fffc
fffa
ffed
ffdb
000a
ffed
0002
0017
fff3
0013
0002
0006
ffe6
0000
fffd
0015
fff8
ffe8
000e
0014
000d
000e
fffd
0014
fffd
000d
0015
fff4
0004
ffea
000f
0009
0005
ffea
fffa
0018
0010
0014
0003
0003
0023
fffc
0002
000d
0004
ffee
001b
0016
000d
0005
0006
0015
ffe5
fff4
fffc
ffff
000a
ffff
0018
0002
fffb
fff7
0002
fff2
0002
ffe5
fffa
fff0
fffc
0009
0007
0002
000b
fff4
0005
fffe
000d
fff6
0007
fffe
ffe4
fffb
0005
000b
ffef
0016
000a
fff4
0005
fffa
fff6
fffa
0003
000a
fff5
0008
fffb
fff0
0003
ffec
0002
fff5
0003
fffc
0018
ffe7
fff1
fffb
0003
0002
ffed
fff8
ffff
0006
0000
fff6
0000
ffe5
fff9
0004
0005
fffd
ffef
0008
fff9
001b
0013
0018
fff8
fff7
0009
fff0
fffd
000a
0010
fffa
001c
fff9
ffff
ffe8
fff6
0008
ffea
fff3
fff5
fff3
0012
fff4
ffec
fffb
0025
fffc
fff2
fffd
0003
0012
001d
0027
fff9
000a
fffd
fff2
ffec
fff0
0004
0014
ffec
fffe
0014
fff7
ffec
fffe
0012
0011
0016
001b
0017
fff1
0003
fff8
000e
fff8
fff5
000d
fffb
fff0
000c
0004
0005
fff7
0018
000f
000f
fffe
000d
0017
fff5
0002
0001
0001
fff4
000a
0015
0004
0007
0020
fff9
0002
fffa
0013
0013
fff7
0016
000c
0000
ffea
0005
0001
0011
fff6
fffd
0005
ffec
fffa
ffff
fffd
000b
0019
ffe8
fffa
0013
0006
0013
0000
0010
0001
ffef
fffe
0009
0004
fff6
0002
0007
fff0
0004
0002
000a
000a
000d
fffc
fffd
000f
000c
fffb
fff6
0002
000c
0010
000e
0001
0007
fffc
000d
0006
ffec
000a
0006
fffd
fff8
fff6
fffd
0006
0000
ffe7
fff0
0026
fff6
ffe6
ffe0
ffff
0014
ffd6
000f
0008
fff0
ffe8
ffe3
000c
fffc
fffe
0017
0019
0016
001d
fffa
0006
0010
fffd
0002
ffe7
ffff
fff9
0001
0007
ffee
fffc
0001
fff8
fff3
fff4
001d
ffdf
0007
fffc
fff5
0010
000d
ffe5
fffe
ffee
fff2
fff2
0019
0013
fff2
0019
000f
0006
0013
0010
fff6
0001
000a
ffed
0006
001a
0007
fff4
000d
0006
000a
fff5
0012
0012
000e
000c
0012
0003
fffc
ffea
0006
000f
0012
000b
ffea
000d
000a
fff3
fff0
fff8
0008
0000
fff0
fff0
0020
0006
fff4
fff6
0003
0007
000c
ffee
0016
ffe4
0020
ffee
0009
fffa
ffec
0006
fff6
001f
0007
fffc
0008
0005
ffd6
0012
fff8
0002
001d
fffe
fff7
000c
000c
001f
fff7
001a
fff2
0000
fff9
0012
0013
0000
0000
ffff
ffea
fff7
ffdb
fff8
0006
000a
000e
001a
0002
ffde
ffec
002c
fffa
ffec
0000
fffd
fff8
0003
fff3
000e
fffb
000a
000c
ffdf
ffe9
0012
ffec
fff9
fff8
ffd1
0004
ffe0
ffee
0003
ffef
0018
ffee
0004
ffe0
fff0
ffe3
0002
0005
ffee
fffa
0017
ffee
0003
ffed
000b
fffa
0023
000f
000a
0001
ffec
fff2
0002
fff7
fffd
000a
000a
fff3
000c
000d
0005
000a
fff8
fff1
fff3
fffb
fff9
0000
002b
ffeb
001d
000a
0014
0001
000d
fffb
fff7
fff7
000f
0001
001b
0015
ffec
0006
fffb
ffe9
fff7
0011
0011
0004
ffe4
0002
000a
0013
0008
0001
0008
0000
000a
0001
fff8
001a
000f
ffff
0005
fff7
0013
0000
002c
ffee
fffd
fff6
0016
fffe
fff8
000c
000e
fff2
0005
ffe7
0007
fff9
0009
fffd
fffe
fff0
0002
ffe9
fffa
0001
0013
0015
fffc
0010
0019
0008
ffe3
0002
0005
0001
0018
0004
fff2
fff3
fff1
fffb
0001
ffff
0006
0009
fffa
ffdf
fff2
0001
000a
fffe
000b
0000
fffb
000c
fffc
000a
0005
fff6
0009
000a
000f
fff6
000a
0002
0001
fffd
001a
fff8
ffe9
fff8
000e
0011
0014
fff8
ffeb
fffb
fff7
ffed
ffe2
ffef
ffec
000e
000f
0009
fff6
fff8
0005
0018
000e
fffb
0006
fff7
ffe5
0004
001b
fffb
ffe6
0003
0028
0006
000b
001e
fff2
fffa
fff0
ffed
ffe8
ffdf
ffe7
ffea
ffef
000c
fffa
001a
fffa
001f
0008
0009
ffeb
fff8
fffb
0004
fffc
fff7
ffe6
0009
ffee
0008
0017
0002
ffe3
000e
001b
0008
0024
fff7
fff8
0010
000d
0016
0018
0016
ffed
fff0
0013
0020
ffeb
ffee
ffe8
fffc
000c
0024
fff5
ffee
0014
ffe7
fff2
0012
fff6
fff6
0001
fff1
0012
0004
ffec
ffff
0019
fffb
fffd
fffe
001d
ffe7
fffd
000f
ffe6
0008
fff6
ffea
fff3
000a
fffe
0004
ffef
ffec
0010
000e
0009
0007
ffe3
001b
0002
001d
fff5
fff0
ffca
fff8
ffe1
fff7
fff7
000a
ffd7
000f
0014
0011
ffec
0010
0005
ffef
fff7
000d
0001
0006
ffe5
0025
0008
fff4
ffff
0012
fffb
fff6
0013
ffee
fff6
ffee
fff0
ffef
000d
000a
fffc
fff8
fffb
fffa
0014
fffb
0014
001e
0007
0022
000d
001a
fffa
fffb
ffe8
ffff
0006
0006
fff8
0008
0006
fffd
0003
fff4
001c
0025
0018
ffee
0009
fff3
0028
0000
fff9
0019
0020
fff8
fffd
fffd
0002
fff8
fff9
fff4
0015
fff8
fffb
000c
0002
ffff
0002
0007
000e
fffa
fffd
ffef
fffd
0005
0006
fff9
fff6
fffe
0001
0001
0007
0002
0003
000f
0019
0000
fff4
fffb
ffee
fff7
ffea
000f
0000
fff9
fffd
0003
ffea
000f
000a
0007
000a
0019
fffa
ffef
fff4
000b
0004
fffb
0005
000e
0018
001a
fff4
0004
fffa
0005
0007
0010
0002
0016
0007
0011
000b
fff8
000e
000d
000f
fff3
ffee
ffff
fffb
fffe
0001
fff5
fffc
0010
0005
fffe
fff8
fffb
0004
0005
0003
fffd
fff2
ffee
0009
0004
fffa
0012
fffe
0015
fff0
0004
000a
fff4
fff3
ffee
0012
fffc
0003
0008
ffef
fff0
fff8
000e
fffc
0006
fffe
0007
0001
ffee
fff9
0003
fffe
0001
fff4
fff3
fff9
fffd
ffff
fffd
fff6
000a
0000
fff9
0001
000f
fff5
fff8
000a
000e
000c
0012
0018
000b
000a
0002
000b
000f
fffd
000a
ffd5
0011
0004
fff6
000c
000f
ffee
ffe8
fff8
fff8
001f
0002
ffef
ffff
fffd
ffe1
0011
0010
ffeb
0018
fff5
0019
ffef
fff9
ffea
0001
0010
000e
ffec
ffdb
0016
fffe
0003
fff3
fff0
ffdd
fffc
ffec
0007
0005
ffe9
fffe
ffef
ffef
000b
0007
001a
0005
ffff
fffe
000f
ffee
ffdf
0000
0006
000b
ffee
ffef
000f
ffea
0017
fff6
001a
0005
ffe1
0012
0004
ffff
fffb
0017
fff2
0027
fff5
0006
fffa
0018
0002
ffe8
fff8
fff2
fff6
000b
fffd
ffec
0005
000f
ffcc
000d
0007
fffc
0002
000f
fff6
ffec
fff4
ffe7
000f
fff8
fffc
000a
0002
fff7
ffea
ffed
fff5
ffe7
ffe5
0001
001e
fff8
0015
ffff
fffd
000b
fff2
fff1
ffe6
0006
0000
001e
0003
001d
fffc
ffe3
fff1
0011
ffe3
0007
0006
fff6
0005
ffef
fffd
0009
fffc
0006
fff3
0017
0009
ffd6
fff8
fff5
0001
ffe8
ffec
0012
000c
0020
fff0
ffec
fff8
ffff
001a
001f
fffa
0002
000f
0002
fffc
0000
fffb
fffc
fffb
fffa
fff4
000e
ffef
ffe3
0002
000a
ffed
0011
fff5
ffee
0006
fff8
0008
fff5
fffd
fff7
0002
0007
fff3
000f
fff6
fffb
fffa
fffe
ffea
ffe8
0017
0010
fff7
ffef
fff3
fff9
0001
0000
000c
0000
fff7
fffb
fffb
fff2
fff0
0010
fffb
0002
000a
0005
0002
000d
0007
fff9
000b
0001
0009
fff7
fffe
ffe1
0004
0008
0015
ffee
000a
ffe5
0006
0007
000c
fff5
000a
0012
0008
fffd
fff2
000d
fffe
fff5
0007
fff9
fffe
0006
fffb
fffe
ffef
fffb
0009
fff6
fff9
ffff
fff1
ffff
0003
fff3
fffd
fff6
0003
fff6
fffc
0011
fff5
fff3
0001
fff2
fff7
0008
fff0
ffe8
0001
000c
0009
0016
000a
fff6
000f
0010
ffff
fff7
fffa
0006
0009
0003
001c
0002
fff2
fff4
000a
0027
0012
0003
ffed
fffc
fff3
ffee
fffd
0003
0012
0003
000a
ffe6
0011
0003
fff0
fff9
ffee
0008
0011
ffe2
ffe9
0009
ffeb
0008
fffd
0017
ffe3
000c
fff9
ffdc
000e
000e
ffea
000b
0001
fff1
0001
ffed
ffff
000a
fffe
fff3
fffe
000f
ffff
0014
fff9
ffd6
ffdf
0018
ffe7
000b
0018
0001
0025
000f
0007
fff9
0017
0001
fffe
ffe4
ffeb
fff6
0017
001e
fff7
fff8
0001
0013
fffa
000d
ffd8
ffff
fffa
fff9
ffe4
fff4
fffc
ffe0
0005
fff8
000c
ffe3
0004
0009
fffe
fff1
000e
000c
fff2
ffff
ffe7
fff9
0008
fff9
fffe
fff6
fff7
0002
0019
0009
ffe2
fffb
0001
001a
0017
0001
fffb
fff7
000c
000b
0000
000a
ffff
0013
0007
ffdc
fff1
0000
fffd
0009
fff4
ffec
0004
001b
0009
fff8
fff4
fff7
fff0
000f
0001
ffef
fff5
ffda
0014
ffee
000b
0009
000a
0016
fff1
0008
fff2
0006
ffee
fff3
000b
fff2
ffed
0003
0010
001a
fff3
ffec
fffa
fff9
fffb
fff7
0004
0008
001c
ffed
0004
000c
fff2
fff6
0004
0019
ffe4
0010
fff7
ffff
0015
0014
fffa
ffed
000b
001a
0022
000f
0009
000e
000c
0002
fff0
0019
ffee
fffd
ffff
0003
ffec
fff2
ffe5
000b
fffb
0010
0016
000c
fffc
0010
0015
001d
000e
0006
0015
fff3
0011
001a
ffe0
ffdb
fffe
fff7
fff4
0009
fff2
fff3
fff5
0007
fffc
fffb
ffed
ffef
0001
0000
fff2
0004
0002
000e
fffa
fffd
fffd
ffef
fff5
fff9
000c
0002
fff7
fff7
000e
ffde
fffa
0004
0010
fffb
fff3
0006
ffff
ffff
fff2
000f
ffff
ffea
0005
fff4
0006
0001
0007
0014
ffea
0004
0013
0013
0012
000f
fff0
0001
0016
ffff
ffea
0009
ffe8
000a
000d
000e
0004
0017
fffb
fff1
000b
ffec
002a
ffee
ffea
ffeb
fff3
000d
0013
ffee
0014
ffed
0006
000a
0003
fff6
fff8
fff6
ffee
000d
fff2
0023
fff8
fff1
001c
000e
0001
fffb
ffff
ffe4
0014
fff8
000a
ffe3
0025
0012
0020
0010
fff6
ffe9
0010
000e
001a
0010
0011
001f
0007
0013
fffd
fffe
0026
fffb
0000
000e
ffe9
ffed
fffc
fffc
fffe
0002
0007
ffea
001c
0009
0017
000b
0005
000b
0021
0019
ffe9
001b
0005
0003
fffe
0017
fffc
001f
fffa
0009
000c
0017
fff3
ffec
ffed
ffe1
ffe8
000f
0002
fff7
fff7
000b
fffd
0006
0015
fff8
fff7
001b
ffe9
ffe0
0001
fff0
fff8
0002
fffe
ffe0
fff3
0005
fff1
fffb
0020
000e
0010
0019
ffe6
0004
fff4
0009
0004
0013
0003
fffc
0021
ffdf
0001
ffff
ffed
0010
fffb
fff6
001a
fffc
0006
0005
0015
0002
fff9
0017
fffd
ffe3
0013
fff5
ffe4
fffd
ffe4
0012
001e
fffb
0002
0002
0002
0003
fff8
fffd
ffeb
fff5
0000
ffff
0002
ffee
000c
0004
fff9
fffa
ffff
fff4
ffff
fffa
fff5
0003
000a
fffd
fffa
fffb
0001
0005
fff7
fffd
fffa
fff5
fff8
fffc
fffd
fffc
0019
000c
0001
0006
0009
fffb
0001
0016
fff1
0004
0006
fffe
fff9
fff4
ffff
0009
0003
fffd
0004
fffb
0006
0006
fff6
fffe
fffa
0006
0009
fff8
fff5
fffc
000d
fffc
fffd
fffe
0001
0009
fff4
fff8
fffb
ffff
0003
000a
0001
000b
fff9
fffa
fffa
0003
fffd
fffa
fff4
fff6
0004
fff9
0003
fffc
fffc
0005
0003
0005
fffd
000b
fffe
0008
fff1
0011
fffb
0004
0009
fffe
0010
fff7
fff8
fff8
000a
0001
fffc
fff8
fffc
fffb
fffe
fffa
ffed
0003
0003
0003
0009
fffc
fffc
fffd
fffb
0001
0001
fff4
fffa
000a
fffd
000c
fff8
000a
0002
0005
fff0
0001
0006
0006
fff7
fff7
000a
fff0
ffea
ffff
fffe
fffd
0003
fff4
fff4
0006
fffc
000a
0007
fffc
ffe9
000a
0001
fff8
0007
fff5
0008
0008
fffa
fff7
fffc
fff8
0002
0002
0005
000d
0004
0004
000b
fffc
000f
fff6
0004
fff6
0004
0008
fffe
ffe9
ffed
0003
ffea
0008
0000
ffff
fff5
fffe
fff2
fff7
fffd
0008
0007
0001
fffc
fffc
fff6
fff3
fff8
fffd
fffd
0005
fffb
0001
fff9
ffff
fffa
fff4
fffb
fffb
fff5
fff8
0002
fff7
fff0
fffb
ffec
000c
0003
fffa
fff9
0000
0000
0004
0006
000e
fffc
0009
ffff
fff6
0000
000b
0007
fff0
000c
fff9
fffb
ffff
fffd
fffa
0005
0005
0018
0007
0005
fff9
fff1
0000
0009
fffe
0000
ffea
fffb
0004
0004
0003
0005
000e
0004
0002
000d
0004
fffc
fff9
0003
0007
fff2
0007
0005
fff4
0003
fffd
fff4
000b
fff8
fff7
0004
fffa
fff4
000a
fffd
000c
0003
fffa
fff4
000e
000d
ffd9
ffda
ffdb
000f
0020
ffea
0020
fffe
ffe1
ffff
000e
ffff
001e
001f
0006
fffb
ffee
0025
fff1
fff8
0008
ffff
fffe
fff3
fffd
000a
0021
ffe5
0010
ffdf
0010
0008
0014
0014
000f
fff5
0007
0001
0014
000b
0009
ffe3
fffd
000b
fffc
0003
0018
000b
0008
0019
0009
fff6
fff4
fffe
fff9
0008
0015
0013
ffeb
0000
fffd
ffeb
001d
ffeb
0006
ffe9
0022
0001
ffec
0009
000b
fff6
001e
fffc
0008
0006
0003
fff1
0011
0004
fff1
000d
ffe8
ffef
000c
0015
ffe2
0004
0009
ffda
fffb
ffef
fffe
000d
000c
0002
fff9
ffff
ffff
0013
000b
ffef
0018
0022
0005
fff5
fffa
0006
fffd
0009
0011
fffd
ffec
0019
fff3
0016
0004
ffe6
0002
fff9
000c
fff8
fff0
ffef
0016
fff0
000c
0020
0009
fff9
fff3
0010
fff1
0019
0000
000a
0008
0013
000f
000b
ffeb
0004
001f
0010
fff9
ffe9
fff9
ffff
fff3
ffeb
0010
000e
0009
000d
fffb
0003
fff6
ffe5
0011
0002
0009
000a
fff6
0009
0004
fff7
0016
0009
0008
0003
000f
0002
fff8
0022
fff7
0007
0007
ffff
0004
0009
0012
0000
000e
0001
0009
0005
fffc
fff0
0026
fff9
0011
000c
fff8
ffe2
fff4
000d
0017
0009
0023
0002
0023
fff3
0003
fff4
0005
0017
ffff
fffd
000e
000b
ffeb
0008
0007
0018
0000
fffc
ffe8
0009
ffef
fff5
ffda
ffe7
fff9
0004
001f
fff0
0007
0007
fff7
ffe6
0005
0001
ffe3
fff8
fff1
001d
fffe
0002
ffed
0014
fff5
0010
0010
002d
ffff
000e
fff7
fff3
fff6
000e
0017
000c
0012
fffd
000a
0009
fff0
fffb
0007
fff9
000d
ffea
000a
fffc
fff7
ffec
ffe9
fff4
0019
ffde
fff5
fff1
000f
ffe5
000e
0009
fff3
fff9
0005
0003
fff8
0019
ffe7
fffd
0001
fff0
ffeb
001b
0004
ffeb
0009
000e
000a
ffff
fffe
fffa
0013
0000
0007
ffe3
0009
ffdd
0001
001b
fffd
fff8
0009
ffef
ffe6
ffd3
000c
001a
0011
fff6
0027
ffe8
fff6
fffb
fff2
fff0
000a
ffd9
0016
001f
ffe3
ffea
0003
ffe4
0001
ffd5
fff4
0006
0019
0002
0010
001e
0014
fff9
0015
0011
fff8
000c
0010
001b
ffe1
fffa
001d
0019
fff8
0015
0014
0006
0017
000c
000a
fffa
0018
ffe2
000d
ffc8
000d
ffe2
0008
ffee
ffe9
fff5
ffe2
0013
0014
ffec
ffda
ffed
0018
0001
000d
000a
ffe8
0009
0001
fffd
ffe9
000b
ffec
fffa
ffe6
ffe9
fff7
0007
0005
000c
0023
ffe6
0020
fffc
ffe6
fff6
ffda
ffe3
fffe
0026
0000
0008
0008
0008
000f
0011
ffee
0007
001d
ffd9
fffb
ffe0
0015
ffe6
fffe
fff7
0017
0019
fff0
ffed
001d
0020
fffa
ffe6
0017
000e
0012
fff2
0018
0000
fffe
0010
ffee
001c
fff7
0008
fff8
fff9
ffff
ffef
fff2
000c
0006
0006
ffea
fffc
ffee
fffd
0007
002c
fff0
000f
ffee
0018
ffe6
000c
0015
ffef
fff3
001e
fffb
fff4
0016
0010
0007
0010
fffe
0010
fff3
fff8
0026
ffd4
000f
000f
fff0
0008
fff6
fff2
0003
0004
fff3
0014
000e
0013
ffe3
000e
0006
ffe2
0006
000e
fff9
0015
0016
ffea
000d
fff5
fff7
0002
000c
0015
fff7
0007
ffdd
001e
0020
000f
0014
ffe4
0001
ffe4
fff3
000c
000a
fffb
fff1
ffe4
fffa
0008
0006
fff7
0005
001d
000b
0024
0018
fffb
ffe4
fff7
0029
ffe8
fff4
ffcb
0002
fff2
000c
0017
fff7
0024
0020
000a
0014
001a
0002
0036
fffe
fff6
fffa
0018
ffde
ffe0
0001
000a
000c
0007
fff8
fffd
ffef
ffeb
0012
fffb
0016
ffeb
fff0
0017
ffee
ffeb
ffee
000f
fff5
0005
001c
fff7
fffa
0001
fffd
0006
0000
0005
fffb
fff4
0002
fffb
fff9
0003
fff7
fff8
0000
0006
0007
0003
0003
fffd
000b
0004
fff8
fffa
ffff
0001
ffff
0004
fff8
ffff
0001
0005
fffa
fffa
fffa
fff9
fffb
0011
0011
0005
fffb
fff4
0006
0005
0004
ffff
0002
0001
0001
fffb
0005
0009
000d
fffd
0003
0006
0002
fff6
0003
0005
000f
ffff
fffc
0001
0002
fff5
fff9
000d
ffee
0004
0005
ffee
fffc
000c
000e
000b
fff9
fff2
0012
0000
0005
ffef
0007
fff7
000d
fff8
ffff
000a
fffc
ffff
fffc
fffd
000a
fffc
fffe
0009
0014
0007
000b
fffd
fffa
0009
fff5
fffb
0006
fffd
fffb
0002
000a
fff3
000b
0000
fffc
ffff
000a
ffff
0007
000f
fff2
0013
ffff
000d
fff2
fff2
0000
0001
0001
fff3
ffff
fffe
fffb
0006
fffa
0008
fff5
0001
fff8
0005
0008
0008
0001
fff8
ffea
ffee
fff7
0006
0004
0008
0009
fff7
0002
000f
0003
0005
fff5
ffee
0000
fff6
fff3
fffa
000b
fffb
0005
fffa
fff5
0004
000c
0004
0004
fff7
0006
000e
ffff
ffff
fff8
ffff
0006
fff7
fffb
0013
fffe
fffe
0001
0016
0000
fffc
0013
ffef
fffa
fff3
fff8
0000
000b
fff7
ffee
ffff
0007
ffec
0001
0007
0007
0009
fff6
000b
0001
0004
fffc
fffd
000c
fffa
0005
fffd
0014
fff4
0015
ffec
0004
fff1
0005
fffb
000e
0006
0007
fff8
0000
fff7
fff0
0002
0009
0006
0000
ffed
fff7
0003
0008
0014
000e
0007
0008
fff4
000e
0003
fffe
000b
0004
000c
0001
fffc
fffe
fff0
0000
fff7
fff5
0012
0002
0002
fff5
fff7
0015
0005
fffb
fff7
fff7
0004
fffa
0002
fff8
0001
fffc
fffe
0009
fffe
0007
ffff
000c
fff4
0011
fffa
fffe
0007
0001
0004
fff7
0004
fffc
ffff
fff4
fff8
ffea
ffeb
0008
fffd
000b
fffe
fff0
fffd
001d
ffe7
fff4
ffe8
ffed
0008
ffdb
ffd2
fff4
fff6
0011
fffe
0016
000c
ffe5
fff6
ffed
0009
fff3
ffeb
ffea
0015
0021
0006
0009
ffee
fffc
0023
ffe6
0007
fffe
0017
001b
000a
ffd5
001f
0019
0016
0004
ffea
0032
fff4
000b
ffe3
fff0
000c
fffd
0007
fffb
0017
0010
fff0
0014
ffef
fff9
0012
fff9
0008
ffff
0008
0002
ffff
0004
000c
0022
001f
000a
fffe
ffec
ffee
ffe9
fff7
0020
ffff
0015
0026
0010
0005
fffb
fff6
0002
000a
ffee
ffff
fff6
fff3
fff7
0011
ffe5
000f
0004
0003
001d
0004
ffdf
fffb
001e
0007
fff7
002d
0007
0003
fff9
0003
ffec
fff4
fff9
ffdb
fff9
0009
ffd5
ffea
0005
000c
fff9
000e
fff8
ffe3
fffa
fff2
0009
0004
fff6
ffdb
000d
0003
fff5
0027
0014
0015
ffed
ffef
000d
ffce
0023
fff9
0016
0007
000f
000c
000e
ffed
ffe6
fffb
0001
0009
0009
fff7
fffe
0005
fffd
0006
ffed
ffe8
fff5
000b
000e
0005
0003
fff1
ffff
fffc
0008
0009
fffa
000f
fff1
fff1
ffed
ffe0
0005
0007
0011
fff5
ffec
0005
0010
000b
0003
fffe
fff7
000a
0027
0020
000e
0008
0007
000d
fffa
ffff
fff8
0012
0012
0003
fffb
0007
fff8
fff3
fffd
0017
000b
0019
ffe3
fff8
0007
0001
0004
ffeb
fffb
0007
fff5
ffec
000c
000a
ffe5
000f
0019
fffa
fff7
fff4
fff9
fff5
0010
0006
ffea
0005
fff8
000b
fff0
0011
fff0
000f
0013
fff1
fffc
0004
0008
ffee
000c
fff4
0000
000c
0006
0011
0001
0002
fff8
0003
0008
ffee
0014
fff4
fff8
fffc
000e
fffc
ffe8
0013
ffef
fff0
fff9
ffec
fffb
0009
0016
fff0
0018
ffe9
0001
ffe7
ffe3
fffb
fff5
fff4
fffa
0002
fffa
0004
0011
fff2
0002
fff5
0009
fffa
0003
fff6
fffa
0001
fff0
ffeb
ffec
0014
000c
000f
ffdf
fff4
0007
0008
001c
fff3
fff5
0014
0011
ffe9
fffe
fff2
0005
0028
0002
fff4
0015
fff2
ffef
0007
fff9
fffb
ffef
ffea
0001
fff5
ffed
0001
ffe7
0015
fffd
0013
fff2
fff6
fff9
fff3
fff5
0000
ffe7
000b
0012
0004
0005
fffd
0007
0000
0015
fff7
0012
ffeb
0002
fff1
0007
0013
fff1
ffde
fffc
002b
fff7
000d
0003
0001
001f
ffe3
0013
fff0
ffca
fff2
fff8
fffb
000b
0013
fffe
fff2
ffe4
0009
0024
fff5
0000
ffe7
0008
ffe8
001c
0008
fffc
fffc
000d
fff7
fff2
000e
fff3
fff8
0003
0015
0016
0013
ffeb
fff8
fff7
fffb
ffef
fffd
0016
0005
000c
0007
0021
fff5
fff5
fff5
0013
000f
0012
000b
fff6
0017
ffff
fff2
ffff
0000
000e
0005
fff8
000a
ffe9
fffe
ffe8
0012
ffe1
0002
fff5
ffec
fff7
ffff
ffea
ffe6
001d
0000
0009
fff0
0015
fff3
0004
0001
0000
fffd
0005
0000
fff7
fffe
0017
0002
ffea
fffd
fff6
ffff
0011
0006
fffb
ffe8
001c
ffee
000d
0013
fff3
0004
ffec
000b
fffa
0015
fff6
fff9
fff9
ffee
0005
ffe7
ffee
ffe7
ffff
fffe
fffc
fff8
000d
0010
ffed
0006
0001
0013
0007
0011
fff0
fff4
001c
fffc
001a
0007
000f
0005
0011
fffb
ffe9
0003
0007
fffa
fff5
fffd
000c
fffd
0014
000d
fff2
fff6
ffee
0012
000a
000e
fff3
fff1
fffc
0008
0010
ffeb
ffef
fff4
0005
0005
0009
fff0
ffed
0010
fffb
0010
fffd
ffec
fff6
000a
001a
ffef
fff5
0006
0005
000d
000d
fffe
fff9
0015
0006
000a
0004
000a
fffb
0005
0006
0003
0013
ffec
0005
0012
fff2
fff5
fff7
ffe9
fff2
0000
0002
ffee
000f
000b
fff5
fff8
0006
fff5
0000
fff6
fffc
fff0
0010
0002
000d
ffe8
ffe6
ffff
ffe7
ffeb
fff2
0020
0022
fffb
ffea
0015
fff6
fffe
fff0
0009
0003
ffed
ffff
000d
fffc
ffea
0002
fffa
0004
ffe6
0006
0016
ffff
0015
0014
fffd
ffea
0008
000f
000a
001b
0006
0011
0001
ffeb
0011
fffb
0004
ffe4
000f
0019
fffb
fff7
0016
fffe
001e
000c
fffe
0030
001b
0013
0002
0022
fff2
ffe2
0015
0002
ffe1
0007
ffe5
fff5
002a
ffed
fffb
fff4
0023
fff3
ffff
0005
fffc
ffee
ffe7
fff7
000b
0021
0013
000c
000d
000c
0015
0011
fff0
0016
fff4
0015
0000
000a
0011
0009
ffef
ffea
ffe7
0000
fff3
fffa
0006
ffe6
fff5
000d
001e
ffff
fffe
ffd1
fffe
ffec
0018
0002
ffe3
fffe
ffde
000a
fffa
ffe9
ffe6
0016
ffd4
fff4
001e
ffe0
fffa
ffec
fff4
ffea
0010
0003
fff0
fffa
0010
0002
ffe6
0019
0024
0013
0005
fffe
fff9
fffd
0002
fff1
0007
000b
0005
fffb
000f
0006
0008
fff0
000a
fffe
000e
0007
0004
fff7
fffd
0003
0007
fff2
fff3
fffd
0015
0005
0000
fff7
0003
0010
000d
000e
ffff
000c
0002
ffff
000c
000a
000c
0014
ffff
0005
fffc
fffc
000b
000b
0006
000f
fff6
0003
0006
000a
000b
ffff
fffa
fff9
fff2
fffc
000a
fffd
fff7
ffff
0004
0002
0001
fff2
ffeb
fffa
fff1
0006
000b
0005
ffff
000c
0009
fff9
ffeb
fff7
0017
0004
fff8
0004
0007
0002
0012
0000
0004
ffed
0006
fffd
fffe
fffe
fff8
0000
000a
fff1
000b
0003
0007
0004
000a
0001
fffb
fffd
0002
fffe
fffe
fff8
fffa
000a
ffff
000a
fff3
0006
fffa
000f
0002
0007
000a
0009
000c
0012
fff3
0008
ffed
0009
000b
0002
ffff
fff8
fff7
fffc
0004
000c
0013
fff5
0009
000c
fff7
0006
fff7
0014
0001
0015
fff1
fff6
fff7
0019
fff3
0002
ffe7
fff1
fff3
000d
0005
0005
fff2
fffd
000f
ffec
fff0
fffe
fffd
fff4
0001
0010
fff5
0005
fff8
fff3
0002
ffef
0008
fffc
0007
0000
fffc
0011
ffee
0003
0007
fff4
0009
ffed
0012
0003
fffb
000c
0004
ffee
ffe4
fff9
000d
fff7
fffd
0007
000e
fffd
ffed
0002
0005
fffb
ffed
fff8
000d
000d
000e
000f
fff5
0008
0008
000e
fff7
0019
0001
fff0
0008
0007
fffd
fff6
001b
ffeb
0006
0004
0002
fff6
fff8
fff3
fffd
0005
0002
000a
fff8
0002
fffc
0002
fff4
fff3
fffd
fffd
0009
0004
fff8
fffe
fff4
fff8
0003
0001
fff3
000e
0001
fff2
0013
fff9
0001
0003
fffb
000f
0004
fff6
0009
fff1
0001
0003
fffc
0004
0009
fffa
fff8
fff8
000d
0001
ffff
0009
fff3
0015
0005
0012
fffe
0001
000b
0015
0003
fffa
002c
0000
fffb
0013
0005
001f
ffff
ffeb
ffef
ffef
0004
0017
0008
0002
0004
ffe9
0007
fff6
fff4
0018
0005
fff3
ffef
fff7
0000
fff7
fffb
fff9
fffe
0003
0017
fff9
ffd5
0003
ffe0
0000
fff9
ffff
0016
001d
ffef
0007
000a
ffe3
0002
0003
ffe3
fff7
ffe4
0001
fff3
fff3
ffeb
0007
fff8
000d
fffe
fffb
ffdd
0003
0016
001e
0001
0019
fffe
fff9
001f
0003
001a
0004
0009
0000
fff7
fff8
fffa
ffff
0004
0007
ffc5
ffe3
ffee
000c
ffd7
ffe8
fffe
fff7
ffec
0019
0015
0009
ffd2
000e
fffb
0019
fff7
0009
fff1
ffe9
fff1
ffef
ffff
0004
000e
fff6
ffee
ffec
fff3
001a
ffea
0011
0000
fff8
0001
0003
ffee
0009
ffe9
fff8
0028
0002
0000
0010
0018
000a
000a
ffec
0009
001b
ffe5
fffb
fff2
fffc
fff9
fffe
ffdf
fffc
ffec
001f
0008
0001
0005
0006
fff7
0009
0003
0003
ffe8
fff2
0008
ffe2
0038
fff5
0025
0003
0009
0008
001d
ffec
fff4
fff3
fffe
0003
0019
ffdd
0014
001c
fff0
000a
fff4
ffe7
fffd
fff1
0011
000a
0004
fff0
001c
fff3
000d
0004
ffff
0011
fff7
fffd
0018
001c
0005
ffeb
ffed
000e
fff9
0018
0011
0008
ffec
0007
fff0
0006
ffe7
0003
ffef
ffe9
0022
000e
0000
0005
0000
fff7
0010
fffa
ffe1
0007
0005
fffb
0000
0027
000d
fff3
fff9
fffd
001b
fff7
001f
fff2
fff6
0003
0004
000e
0008
0005
0003
0003
0005
0016
000f
000b
0011
ffec
0017
0024
0008
fff7
000f
001b
ffd3
fff8
0010
0032
0014
fff3
0009
001c
0022
0024
0021
001a
fffa
0001
fffa
fff9
ffee
fffe
ffd6
0015
000a
000e
ffed
000e
0011
001d
0004
fff1
000d
fff6
ffe8
ffea
ffe9
fff6
fffd
0008
0009
0005
fffa
ffe8
0006
001a
fffc
0002
fff0
fff1
000c
0004
fff5
ffec
000d
ffe6
0005
000a
fffd
ffe1
0013
0005
fffe
ffdf
0018
0015
0005
0026
0015
ffed
ffef
0015
0018
fffb
fffa
ffd7
0019
0002
000e
0010
ffec
fffa
0008
0012
000d
000e
0006
0014
fff5
0009
fff7
0006
fff5
0005
0000
0012
0014
0007
0007
0000
ffe5
000a
ffff
ffef
fff0
0001
fff8
0006
0018
000d
0000
ffda
0014
0015
0000
ffee
ffe2
ffdf
0002
ffff
0011
ffee
0002
fffe
0011
ffef
0007
fff9
000d
0001
ffd3
000f
ffd0
0008
0016
0019
000c
0025
0007
001e
ffee
fffc
fff1
fff0
0011
001d
0002
0013
ffea
fff8
0008
0011
0002
0003
fffb
000d
fff2
ffff
0001
000b
fff2
ffee
fff9
0010
0006
fff4
0006
0009
0019
ffe6
fff7
000c
ffee
ffdc
fffb
fff8
0025
0015
0018
0004
ffe7
0009
0001
0013
fffc
0003
000e
0003
fff2
0004
fff3
fff1
0007
0011
fff4
fffa
fff4
fff0
000e
fff8
fff8
0001
0008
ffe7
0015
0009
fff7
fffd
0007
fffc
fff9
001e
0023
ffe5
000e
ffe4
0015
0013
ffec
fff4
0011
000e
fff6
0004
000f
000b
ffff
fffc
0017
0003
0007
fff9
0016
fff4
0017
0020
fff0
0008
fffd
fffb
ffe8
001a
0003
fff6
000d
ffe8
fff5
ffff
fffb
fff4
0004
0003
0000
0010
0000
0023
0002
ffd7
ffe8
0003
fff9
000b
0016
ffeb
0012
0004
ffe1
0018
001b
0008
0013
0018
0020
0012
fff8
fff0
0006
fff3
fffc
ffe2
000c
0006
ffe9
fffa
fff2
ffeb
0010
fff2
ffe1
ffe9
fff5
0000
000b
fff8
0010
0016
000a
000e
0009
fff2
fff2
000b
000f
ffde
0017
fffd
0009
ffe3
fffc
fff5
ffef
fffc
001f
ffed
001a
ffe2
fff1
fff6
0003
ffff
000b
0003
0017
001c
0012
0007
fff7
0009
fffb
fffc
fff7
ffe8
fffd
001b
000d
ffff
fff5
000e
0018
fff0
ffd6
0006
002f
ffeb
0000
ffe4
fff6
000c
fff4
0014
fffe
ffd3
fff6
fff1
0015
0009
0001
0017
0011
001f
000f
ffe3
fffe
000f
ffea
ffdd
0012
0009
0016
0014
0004
fff7
fff4
fff6
000c
000b
000e
ffe5
0000
ffeb
001a
fff4
000c
fff1
0017
0006
fff8
0013
ffec
001a
fff3
ffdd
ffed
ffea
0019
fff7
000f
fff6
000d
0002
fffa
0015
0010
0013
0007
fff3
0002
fff3
002c
fffd
0005
fffd
0007
fff5
0014
ffe0
ffec
001c
fff1
fff3
fff0
ffee
fff0
0008
fff5
0002
fff9
000b
fffe
ffee
fffe
0004
0011
fffc
fff8
ffe8
ffe4
fff4
0020
0009
ffff
ffd9
ffdf
000c
fff5
fff3
ffea
0009
0019
ffe6
000b
001f
0009
ffea
ffe4
000f
fff9
fff0
fff7
0021
0029
fff4
fff6
0019
fff9
ffeb
0016
0003
ffef
001a
0012
0001
0022
fffe
ffef
ffee
fff8
ffe4
000e
0007
ffed
000a
000e
0011
0001
ffed
fffa
fff4
0007
0024
ffe5
fff4
0007
0014
fff6
0011
0001
fff7
fffc
fff4
fff5
000f
0000
000f
fff4
0014
000f
fff2
fff4
fffb
0002
ffe9
fffd
ffe4
0008
fff5
0001
000e
fff3
ffee
fffb
000d
0009
001b
0011
0010
0004
fffe
0000
fff8
fff8
fffc
ffe7
fffd
fffc
0011
fff9
000a
fff6
0006
0012
fff1
0004
ffff
0017
0015
fff6
000f
fffe
fffb
fff7
fffd
ffea
000e
ffed
0005
fff2
ffe8
0013
000d
0002
ffe7
fff4
0008
000c
0007
000e
0013
fff6
0007
fff9
0014
0015
0003
fffe
0000
fff5
0007
000b
000f
000a
fff6
ffef
001f
fff7
0000
fff4
000a
0000
000c
000a
fff9
fff1
fffb
0003
fffe
ffef
0022
fffc
000a
fff0
fff1
fffd
ffef
fff1
000f
0007
fffa
000b
fff6
fffa
fff1
0002
ffed
fff8
000a
fff0
fff1
000f
0007
0014
0000
0011
000d
fffc
fff5
fffc
0003
0015
fffa
ffed
fff9
0005
0014
ffe3
fffe
0005
0004
0001
0003
001e
000a
001c
0005
000b
0008
fff3
0005
0006
fff7
fff5
ffff
ffeb
fff8
0006
000f
000a
ffea
0004
000b
fff7
000b
0017
fff5
fffc
0015
ffea
fff2
0009
0012
ffe5
ffea
fff0
fff9
fffe
ffef
0007
fffa
000c
fffc
fffd
fffc
fffe
ffe6
0000
fff0
0000
000c
0009
fff6
0008
fffc
0007
fff2
0000
ffec
fffc
0006
000f
0006
0007
0006
0005
fffc
001b
0016
0001
0013
0015
fff8
fff4
fffe
0004
ffff
fffb
fff4
0008
fffa
fff6
fffe
fff1
000a
0004
0004
000d
0002
ffe7
0016
0006
fff7
fff1
fffc
fff9
0006
0001
fff9
0002
001d
0000
ffff
fff8
0002
ffff
000f
ffec
0008
fffb
fff5
fff5
fffb
fffe
000c
000f
ffed
0011
0009
ffef
0001
0013
0003
000d
000e
fff6
0011
fff5
ffe5
0006
fff6
0013
0004
0003
000b
0018
ffee
fff4
ffeb
0010
0025
ffe9
0002
0009
ffff
ffe0
fffc
001a
000f
fffd
000c
0016
0005
fff7
fff2
0021
fff7
fffe
fff9
001b
fff3
0011
fffd
000c
0004
fff9
fff9
0003
ffe2
0010
fff7
0010
0008
000a
ffe7
ffec
000d
0005
0019
000d
001a
ffe5
0004
ffe7
0015
0010
000d
ffdd
fff4
0018
fff2
0007
ffeb
fff5
fff8
fff1
fff2
0014
fffd
000e
001a
fff9
ffeb
0006
0000
000b
fff7
0011
fff8
fffb
fffa
0017
fff8
0005
fff8
ffec
0019
fff3
0016
000a
fff9
0008
ffe2
fffa
fff6
fff8
fff2
fffa
0016
0015
000c
fffc
fffc
0007
001c
0008
fff2
fff7
0003
000f
001c
0002
0006
0007
fff6
fffc
fff3
0011
0009
0000
0006
000a
ffe4
ffe4
ffe4
ffed
ffe8
fff6
fffe
0012
ffeb
0007
fff8
ffe7
000c
0008
fff4
0007
fff7
0015
ffe7
0009
000c
fffd
0017
0002
0001
0025
fffd
fffc
fff6
ffec
0016
ffe9
ffe1
fffb
ffde
ffef
ffec
fff8
0020
ffec
fff3
000b
000a
0008
ffef
0003
0003
0014
001a
000b
0029
ffea
001d
fff8
0011
0019
fff4
fffb
ffee
fff5
fffc
0000
0005
ffeb
0005
fff5
fff2
0003
0007
0017
ffe0
0018
0010
fff9
ffed
001b
fff8
0025
001a
fffd
0009
000a
0023
000f
fffe
fff6
0018
000c
0032
fff5
ffe6
ffe3
0004
0005
0003
0033
ffec
fff2
ffff
0004
fff1
ffee
0005
000d
ffff
fff0
ffe1
0019
fff1
ffec
001b
001b
0003
002c
fff5
000e
000d
fffe
fff9
0000
000e
0006
ffef
0002
0003
fffd
0007
000a
fff2
000b
0004
0017
fff1
0015
000c
0027
fff6
ffe9
0011
0007
000a
ffec
fff7
ffda
0008
0004
0016
0022
ffe6
000e
0015
0008
0005
fffd
0002
ffdf
0014
fffb
ffee
fff6
0007
0004
ffe4
000d
ffe3
0007
000a
0006
ffd7
ffff
fff2
ffea
000f
0001
ffe9
fffc
ffe8
ffea
0007
000d
0014
0004
fff8
0000
ffeb
0016
ffe5
ffff
fff5
fff5
0011
000e
0010
fff3
0020
0004
000e
ffe3
0015
000e
fffa
0018
0007
000e
0005
ffde
000c
0000
ffec
000d
0004
ffff
0000
fff8
000c
fff8
ffe3
fff6
0004
fff9
0013
0020
0018
0017
0000
fff5
ffea
0018
ffe7
0004
ffed
fffa
ffed
000c
0000
0009
ffe3
fff5
ffef
0003
0002
ffe7
ffe2
fffa
0011
fff5
0027
0009
0007
fff1
0013
ffda
0004
fffb
0011
000e
001a
ffd8
0001
0008
0020
0013
fff6
fffd
fffd
ffe3
0015
ffee
0013
fff8
000a
fffd
0010
fffa
0010
fff6
ffec
0000
fffe
0005
0016
0006
fffd
fff3
ffe1
0011
0014
000f
fff9
000a
0021
0006
fff7
fffa
000e
ffe3
ffe9
000d
fff2
0001
000c
000d
000c
ffef
fff1
0008
ffec
fff9
fff1
fff7
0003
001b
0003
fff0
0006
000e
0003
0005
ffff
fff8
fff6
0000
0004
0008
fff9
fff7
fff9
fffc
ffef
fff3
0001
ffff
000c
fffd
fff7
fff8
0005
fff0
fffe
0003
fffd
fff4
0001
fff3
fffa
0005
0008
0005
fff3
fffe
fff5
0006
0004
0008
000c
0000
0016
fffa
0000
fffc
fffc
ffff
fffd
fff3
0001
0004
fffe
000e
0004
fff7
fff8
ffff
fff6
0001
fffe
fffa
000e
fffc
0003
ffee
fff8
fff6
fff9
0013
0005
0001
0000
0009
fffa
fff8
0001
000d
000e
0001
0008
0005
000c
0007
0001
0005
fff4
fff2
0004
fffe
fffc
fffc
0004
fffc
fff7
fff9
fff7
000b
fffb
fff9
fffd
fff9
0003
fff6
0011
fffe
fffd
ffff
0000
0007
fff3
fff3
fff6
fffd
0000
0008
fff5
000a
000d
fffb
0004
fff5
ffff
fff7
fff2
fff9
0008
fff2
fffb
ffff
fffe
fff6
0006
0006
fffe
fff4
0004
0009
fff2
fff9
0010
0006
fffa
0000
000e
fffd
0006
0004
0013
ffe8
ffeb
fff8
fff6
ffe4
0002
0008
0003
ffff
fff4
0004
fff6
000e
fff1
fffe
fff9
fff8
fff9
0011
fffe
ffff
0008
fff0
fffb
000b
fff2
0003
001d
000a
0005
fff9
fff7
fff3
fffd
ffeb
0010
000c
fffa
fff5
fff4
fffe
ffef
0006
0001
0001
0005
0004
0003
001e
000f
ffec
0014
ffde
ffed
ffe8
001b
0005
fff2
fff9
fff4
fff9
fffd
fff0
fffb
ffea
000f
0015
ffef
fffc
0019
fffa
ffef
000d
fffe
0004
ffe0
0009
0006
fff8
fff9
0000
000a
fff4
0018
fff0
0017
0002
0010
0008
0002
ffe8
ffe0
0011
000e
fff4
001e
0005
ffff
000b
fff9
fff9
0010
0003
0017
fffb
0005
0000
0009
fffc
0004
0007
0003
ffff
fff7
0013
000a
fff0
fff9
001b
fffa
ffec
ffff
fff6
0009
0000
fff4
fffa
fff0
fffb
0008
0015
000c
0008
fff6
0007
0004
fff4
ffdc
fffa
0007
fff2
fff8
0005
0000
fff4
fffc
fffe
0007
0000
fff1
fff8
fffc
fff8
0011
fffe
0003
fffb
fffc
0006
000e
fff9
fffe
fffd
fff5
0009
0000
fffa
fffb
0005
0003
0003
000e
0002
0007
fff2
000a
0004
0004
fffc
000b
fff3
0007
0001
0002
fffa
ffee
fff3
fff6
fff2
0003
fff8
fff9
0004
fff3
fffc
ffee
0004
0007
0011
0000
fff7
0004
fffd
fff6
fff3
fffa
0003
fff2
0006
fffa
0001
fff2
0000
0004
fffb
0005
fffc
fff9
fff8
fffa
fffa
0000
fff9
0003
fff7
fffe
fffc
0006
0006
ffef
fffa
000c
0009
fff3
0005
fffe
0001
0006
0001
fffc
0002
ffff
0006
0005
0000
fff7
fff4
fffa
fff4
0009
0009
0005
0009
fffa
0006
fffd
0001
fff8
0002
fff5
ffff
fff1
000d
0000
0009
0000
fff7
fffc
fffd
0002
fffe
0001
0006
0002
0005
ffff
0007
000c
0000
fffd
0000
fff5
fffd
0000
0005
000a
fff6
001c
0007
0023
ffe7
ffe0
000b
fff7
0007
0001
ffeb
fff4
0004
ffe7
0006
0016
fff1
fffd
000d
0017
000f
0003
0014
000b
ffe7
001c
0007
fffc
fff0
ffe7
0013
ffe4
ffee
000d
ffdd
ffe6
fff0
000d
0012
ffe8
ffe7
002e
fffe
000f
fff7
0008
ffe3
ffed
fffd
ffff
fff2
ffe9
0040
000a
fff7
0004
fffa
0014
fff3
ffe8
ffe2
001d
ffec
000e
000a
ffec
ffea
fffd
0041
0004
0001
ffca
ffdc
0004
000b
0000
ffea
fff7
000d
ffea
ffe2
fff0
fffe
0016
0001
fff2
ffdd
0010
0010
0013
001e
0001
0010
ffe3
fffe
0014
fff8
0018
fff9
0007
ffed
0021
ffef
ffdd
fff9
ffd0
fff8
0014
0009
ffea
0021
000e
fff2
0001
0006
0003
0001
ffea
000b
0008
fff7
0008
000a
ffea
000a
000f
0006
0022
0005
fff3
fff0
fffb
0002
ffe8
ffee
fff7
0008
fffa
fffb
0019
0017
0000
0006
fff8
0021
000c
001a
fff3
0008
0005
fff9
fffe
001d
0009
ffe5
0008
fffa
fff8
0006
fff1
0003
ffed
0005
ffeb
0004
fff6
0004
0009
fffa
fff2
fff9
fff8
0013
fffb
ffee
ffef
fff5
0013
0001
000b
ffef
0003
fffe
fffc
000a
fff7
ffe8
fffb
ffef
0000
0014
0003
fffd
fff1
000c
0007
001a
0014
0007
0007
ffec
0007
fff1
ffe9
0004
fffb
000b
000a
fff7
fffe
ffe2
fff8
ffe2
0000
0008
001c
0005
ffe4
0008
fff0
000c
fff8
0017
fff2
fff3
fff2
000f
0000
0006
ffeb
0005
0004
0002
0003
ffef
ffe6
fff5
fffd
fff3
0000
fff6
ffef
fff7
000d
001e
0010
0007
ffe4
0008
0004
0002
ffe8
fff8
ffff
ffe9
fff1
ffef
fff0
fff7
0009
0014
000e
fff3
fffc
fffb
fffa
0001
0016
000d
0006
000b
001a
000f
0001
001a
0002
000d
fffe
0018
0019
0012
fff8
ffff
0000
000e
fff1
ffdc
000c
0012
000d
000c
000a
ffe7
001e
0008
fff8
0006
ffdf
0000
0019
000d
fff9
fff3
000c
fff6
0007
000c
fff8
ffff
fff5
0021
000c
0008
0016
fff4
fff3
ffff
fff7
fffb
0000
0001
000d
001c
fffa
0000
fffc
fffb
fffd
fffe
0001
0001
0005
0005
000d
ffd7
001d
fff9
ffe3
001a
fff7
fffa
ffef
0007
0000
001e
0015
000e
fffd
fff8
0002
fff8
0017
002d
0018
0003
0013
fffe
0013
fff4
0000
0007
0005
fff2
ffec
fffa
ffff
000d
ffee
001f
000f
000a
000b
ffe8
0003
0006
fffb
fffa
000e
ffeb
fff5
fff8
ffe6
0013
0012
fff9
0010
ffe2
fff5
fffd
fff6
0005
fffe
fff6
fff6
0008
fff7
fffd
000c
000a
0000
0009
0014
001a
000b
fffc
0003
ffde
ffea
fffd
0004
fffa
0012
0006
0010
fff8
fff4
fff6
fff5
0007
fff6
fff0
ffeb
fff4
0002
fffb
fffb
fffe
fff7
ffe7
001f
0007
fff5
001f
ffe7
0013
001c
fff9
fff4
0013
0003
fff5
ffd4
fffa
0013
ffe0
0019
0000
0022
ffed
0028
0002
ffe7
0010
ffed
0012
ffd2
000f
000b
fffc
000a
0005
0009
fffe
fff0
0001
ffff
fffc
0003
fff8
0014
fff4
000d
0006
0021
0001
0002
ffed
ffe1
ffdc
0007
fff8
0009
000a
000b
0000
0005
ffed
0002
ffe2
000c
0005
0010
ffe9
0025
ffeb
fff6
ffea
ffeb
ffeb
0000
0020
ffe1
ffef
ffb2
fffa
fff8
0000
001e
fff0
ffef
ffde
ffdf
000f
0006
fff4
fff7
ffea
fff4
ffc8
0003
0009
0019
ffff
000d
fff7
ffe1
fffe
fff6
fffd
001e
ffeb
ffec
ffc9
0005
ffeb
fff2
000c
ffe6
ffff
fffd
ffff
fff4
fff3
0005
0023
0004
fff0
ffe0
0013
0004
0002
0010
0004
0000
ffee
0000
0013
fff1
fff1
ffef
002f
000f
ffeb
0013
fffd
fffe
ffe0
ffed
001e
ffeb
0000
fff8
0002
0009
fff9
000f
fff9
fff6
fff2
fffd
fff7
0004
fffd
0012
0012
000d
0001
0010
0005
fffb
fff3
0004
0006
0005
000d
fff3
fff7
fffe
0009
fffa
000d
0008
fff6
0008
ffee
fff1
0009
0005
0012
fffd
fffd
000a
fff0
0000
0000
fff2
fffc
ffee
0002
ffff
000e
0008
0001
fff5
0003
0001
fff9
fff8
fff6
fffd
0001
fff7
fffd
fffa
fff6
0007
0003
0007
000d
ffed
fffe
0000
000c
ffe9
fffa
0009
0008
fffa
ffed
000b
fff8
fff4
000e
fff7
fff1
fff1
0000
000c
0006
0009
0016
000d
0009
0001
0005
fffb
0000
0001
fff9
fffa
fff2
0000
0000
000b
000f
000c
fff7
0007
0002
fff7
fff6
0012
0005
0005
0004
fff3
0015
0001
fffa
0018
0002
0002
0002
fffc
0001
fffa
fffe
fff8
fffa
fffe
000d
0001
fff5
fff7
fff6
000d
fff6
0004
fffb
0006
0001
0005
0004
fffa
0006
ffee
000f
0011
0006
fffe
0006
fff5
fff6
0009
0008
fffe
0008
0002
000c
fff0
0013
fffa
0001
ffff
0003
ffff
0003
ffec
ffe8
0003
0008
0002
fff5
fff8
0014
ffe6
0013
fff0
fff1
fff4
0004
fff1
000c
0012
0007
fff3
0004
001b
000e
fff9
fffb
ffff
0005
ffff
fff3
000f
fff0
fffb
ffef
fff3
0009
ffea
fffc
fff1
fff3
fffb
0003
000b
0006
fffa
fffe
000f
fffa
000a
0011
000e
0000
fff7
fff1
ffe8
fffd
fff7
fffe
0003
0015
0010
fff9
fff6
ffff
fff8
000e
000f
fffc
fffd
fffb
fffb
ffe9
fffa
0009
0001
0003
000a
0006
000e
0015
fffd
0015
0018
001f
fff3
fffa
0006
fffa
0011
000e
0000
ffeb
000c
0006
fff2
fffa
001d
fffb
ffff
fff9
fff0
0012
fffd
0001
000f
fffc
ffef
0018
ffee
0002
000b
ffe7
0003
000d
ffff
000a
fff6
0006
fffd
fff4
0002
0004
0009
000f
0000
fff4
000a
fffc
fff3
0008
fff4
0009
000a
fffc
0019
0009
fff7
000e
fffa
fffa
0018
ffe7
fffe
000b
ffe3
001a
0008
0003
fffa
fff6
fffe
fff8
fff8
fffe
fff1
0003
0004
0006
ffec
0004
0018
000a
0008
fff9
fff1
fffb
fff2
ffec
fffb
ffef
fff8
fffa
0003
0006
0016
0004
fff5
fff3
fff3
fff3
ffec
fff8
ffe5
0008
0010
fff2
0000
0009
000b
001a
0007
ffff
0005
fff6
fffc
ffff
0005
fff8
fffc
ffe0
0004
fffc
0001
fff8
0003
ffed
0013
0003
0003
fffd
fff6
fffe
fff6
0004
0014
ffef
0005
0017
ffff
0021
0006
001b
0002
fff6
0005
000a
ffee
fffb
0000
0018
000e
0005
0006
0006
fffc
ffe6
000b
000c
fff8
0002
0012
0002
0004
000d
0011
fffc
fff4
0000
0014
fffb
fffd
000f
0001
fff1
fff6
000e
fffc
ffee
fffe
000f
0003
000c
fffc
0002
fffd
fff1
fff4
0012
0009
ffe6
fffa
001a
0002
fff3
ffe7
0009
0011
0001
ffdf
0001
ffed
ffee
001a
fffc
fff6
ffea
0000
0002
0013
0001
ffe7
0019
fff1
ffea
fff7
0003
0010
fffb
000d
ffe5
001c
ffe4
ffec
fffa
0003
fff6
ffe9
0005
000f
0013
0006
0005
fffc
0002
001d
ffef
fffa
fffb
fff8
ffe3
fff1
0006
0004
ffdf
ffee
fffb
0005
0015
0011
0017
fffc
fffa
fff0
ffef
ffeb
ffde
ffea
0007
fffd
0016
ffea
000f
0017
ffe3
ffe3
ffe4
ffea
0007
fff2
ffff
ffee
fffd
ffeb
fffb
001b
0009
ffe8
000c
fff8
fff0
0009
ffec
fffa
fff4
fff1
0004
fff3
ffed
000f
0012
0008
fff8
fff7
fff7
0004
fffc
0017
0000
000f
001b
0012
0002
ffee
ffe4
fff4
0009
0016
ffe0
0015
fff6
0003
ffdc
0013
0009
0010
ffee
000e
000f
ffef
0009
ffe3
000e
0018
0014
001d
fffc
000c
0000
ffef
0001
fff5
0017
ffff
0016
0013
0005
0007
0000
000d
0001
ffff
0003
ffed
0003
fffb
0008
000a
fff4
ffea
0009
fff5
0009
0009
ffff
0008
0002
0003
000e
fffe
fffb
0010
fffd
0005
fff7
0006
0002
0003
0002
fff4
fffa
fffc
0004
0003
0001
0002
ffef
0002
0002
fff3
fffe
000a
0004
0007
ffff
fff6
0009
0007
0001
0003
0000
0003
ffff
fffe
fff8
0005
0006
000a
0004
0005
0000
0003
0004
ffff
ffee
fffa
0017
0002
0005
0000
fff7
0000
ffff
0000
0006
fffa
0011
000b
0010
000a
ffef
fffc
0008
fffc
0003
0001
ffec
fff5
fffd
fffb
fff9
fffe
fff7
0001
0003
0008
0003
fffb
0006
0013
0005
000f
fff6
000d
fff4
fff5
ffef
0003
0001
0005
fffb
ffeb
fff5
0001
fffd
0000
0004
0009
fff4
fff8
fff8
ffee
0007
fff6
fff2
0005
fffa
0000
0000
0008
ffff
0008
fff1
0008
0008
fffc
000b
fffb
0003
0009
fff0
fffe
0007
ffff
fff5
000b
fffb
001d
0011
0000
0007
000d
0010
0003
fff7
0014
0007
0003
ffe6
0001
fffb
0005
fffb
000f
0004
fff2
0010
fffc
0009
fff6
0014
fff4
000a
fff5
0001
fffa
0001
fff4
0019
0001
fff3
fff6
000b
fff4
000c
0012
ffec
fff7
0015
fffd
fffb
000d
0009
fff3
0003
ffe4
0003
000b
ffe6
0012
000e
fff1
000e
000c
0006
0015
ffed
000e
0003
0021
fffa
0019
000b
0014
fff5
0011
0006
fffd
ffef
fffe
ffe4
ffea
ffec
fffd
000c
fff4
fff3
0014
0005
fffd
ffff
000a
ffec
fff3
0004
000d
001f
ffeb
000a
0000
001f
ffe6
fff7
fffb
fff3
0003
fffc
0011
0006
fff2
fff6
0001
fffb
0000
000d
0005
001d
000e
000e
0001
ffe7
fff5
fff0
fffe
fff4
ffe8
000b
ffed
ffff
ffee
0019
0005
fffa
ffea
fff7
0004
fffe
0000
ffed
fff0
fff7
fffd
ffef
ffed
ffee
000b
001c
fffa
ffef
ffe3
fff9
0004
ffed
0009
000e
fffa
ffe6
0001
fffb
000d
fff7
0004
fff6
ffee
ffff
fff6
ffe9
0001
fff6
fff0
0000
0000
fff9
0012
fffe
0018
0005
fff2
0007
0011
ffef
fff2
fff6
fff8
000a
fff3
000c
0001
fff1
fffc
0008
0015
ffef
0010
fff8
0004
0001
fff9
0011
000c
0012
0004
ffe5
000e
fff7
0010
ffef
000d
000e
0000
fffe
ffe4
fff7
ffff
0017
0000
0008
ffed
ffee
fff8
0004
ffee
ffe8
fff3
0006
0003
fff9
000c
0002
0006
fffa
ffff
fffc
fff4
fff4
0008
0005
0020
ffff
0004
0000
0001
ffe9
ffff
ffec
fffa
ffe7
fffe
fffe
000d
000a
0000
0002
fff5
0002
0008
0009
0005
0001
0003
fff6
fffa
ffef
0006
0024
fff4
000e
0005
000c
ffe9
000d
ffe9
fffc
0004
fffc
ffff
0016
fffd
0006
fff9
ffff
0018
fff9
ffe2
fff2
001e
ffe9
0013
0000
ffea
fffa
ffeb
000a
0013
fff4
000a
0009
000d
fff2
fff1
0002
0011
ffff
fff6
ffed
000c
0007
fffa
000f
0009
0002
fffa
0001
0001
0001
fff6
000a
0000
000b
0005
000c
0000
0008
0006
001c
000d
0000
fffa
000a
0000
fff5
0006
ffeb
0003
fff6
fffe
fffe
fff0
0002
ffef
fff9
0010
0000
fff8
0015
0011
fffd
0001
0018
0002
000e
fff9
ffff
0001
fffb
0002
0017
0008
fffb
0012
fffe
fff6
ffff
0002
0005
0007
0001
0004
ffef
0001
fff6
0000
fff5
fffb
0009
fffd
0009
fff2
0008
ffff
000e
0009
0002
000d
0006
fff6
fffd
fff9
0008
fff2
ffeb
fff4
ffe6
fffe
0004
0016
0005
0004
fff6
000b
ffeb
fff7
fffe
0011
0015
fff0
0002
ffef
fffc
0006
fffa
0004
fffd
fffe
fff1
fff6
fffb
0006
0001
0006
0000
0003
fffd
ffed
ffea
fff6
000f
0004
fff8
fff2
fff3
0016
000a
fffe
fff2
ffde
ffe1
000e
fff8
fffe
ffe9
fff0
0003
0001
0003
ffe8
000a
fff4
fff3
ffe6
0007
0015
000e
0003
fff6
0007
fff8
000a
000c
0015
ffd7
001c
fff3
0010
fff8
0002
0012
001d
fff2
fff7
000a
fff4
fffb
001c
ffec
000c
ffe7
ffeb
ffee
ffeb
0014
000b
000c
0006
fff1
0007
000c
ffec
fffd
0007
fff3
0017
001a
fffa
fff7
0003
0001
ffeb
ffee
001c
ffee
ffdb
001b
ffea
fff8
0003
fffa
fff9
fff7
0006
ffee
ffd2
fff8
fff6
0006
0002
0016
0007
0012
0006
ffef
0007
000a
000e
000d
000e
000b
fff7
ffe7
ffea
000b
fffb
ffed
0012
fff9
000b
000f
0009
fffd
0017
fffc
fff9
000b
ffe5
000f
0014
001d
ffed
ffee
0009
fff5
ffea
0014
0016
0004
0001
fffb
0000
0001
fff9
fffa
fff2
ffe1
0014
000f
fff3
0001
fffe
fffe
0007
0003
0009
001d
fff6
fff2
001f
fff7
0013
ffe5
ffe2
fffc
0005
fff0
ffd3
fff8
fff6
ffe9
ffea
fffe
ffe3
fff0
000b
fff2
ffeb
000d
0003
fffc
fff6
0011
0000
001b
0011
001d
0004
0004
0014
fff0
ffde
0006
ffef
fffd
000a
0010
0006
fff1
000a
0006
fff2
0004
fff3
fffd
ffee
0006
ffe2
0006
ffd3
0006
0015
ffff
fffd
0006
0004
0007
fff9
000f
000e
fffb
0003
0020
fff1
0006
fff5
fffc
0034
0003
ffe2
0012
0018
ffeb
0009
fffe
0007
ffef
0004
ffe8
fffb
fff2
ffed
fff4
0003
fff9
ffd6
ffe5
0017
ffe7
fffb
ffcf
0016
ffe8
000a
0006
000a
fff7
000a
fff9
000c
fffd
fff0
fff5
fffc
ffff
0010
000a
0005
fff3
fffd
fff9
fff0
ffe4
fff8
0006
000e
ffec
0011
ffdc
fffc
ffef
0009
000f
0003
ffcd
fffd
0005
0018
fff7
ffe8
fff8
0011
ffed
fff5
0002
000a
fff5
ffff
ffed
001d
fffb
0011
0003
fff8
0003
000b
fffa
0000
fff5
0000
0001
0011
0007
fff4
ffff
fff1
0006
0010
ffe5
001d
ffe9
000c
fff8
fffd
0011
000f
fff5
0015
000c
fff3
0002
000b
0008
000c
0014
0001
0015
ffea
0014
fff6
fff5
fff8
fff7
fff5
0015
ffef
fff6
0016
001a
0005
000d
fff3
fff7
fff3
ffec
fffd
fffb
fff7
fffd
0004
0004
ffec
fff7
ffef
0010
0011
fff6
fffa
001e
fff9
fffa
0009
fffe
fffd
0010
0001
0013
fff3
0012
ffe6
000f
fffb
0006
fffe
0006
000e
0003
0007
000b
000e
0002
0006
fff4
000d
0007
fff7
0008
fff4
ffff
0006
000e
0000
fff8
fffb
ffe9
0000
fff6
fff7
000c
fff1
fffd
0017
0006
0001
0002
0016
ffff
fffa
000c
0004
ffea
0002
ffef
fff0
000f
0008
000d
fffd
ffe8
0006
ffff
fff9
0007
0015
ffe7
fff0
0004
000d
fffa
fff6
fff1
ffff
fffe
fff4
ffff
000c
ffff
0002
0014
0010
fff3
0015
000f
ffff
0006
0004
ffff
0013
fff8
0009
0005
fff4
ffee
000c
0002
0009
0015
000b
fff2
0012
000e
0011
0008
0008
000c
fff6
fffb
ffec
0007
000d
fffc
0018
0002
fff8
000c
0012
0006
0004
0001
0015
000a
0003
fff9
000b
fffb
0010
fffa
0009
ffff
0006
fff7
fff1
000b
ffec
fffc
fff9
fffb
000d
fffa
fff7
fffc
0017
0011
0013
fff1
000e
0005
0005
0009
0004
000f
000e
ffec
0002
001a
0007
fffe
000b
0003
0001
fff6
fffe
0013
0003
0007
fff8
fff1
0001
0012
0005
fff8
ffee
fff3
fffc
000a
000e
fffb
fffe
0006
fff5
fff3
fff6
0009
0007
0016
fffa
ffef
fff7
fff8
000e
fffe
fffe
fffe
fffe
0003
fff7
fffc
fff0
fffe
fff7
fff8
fffc
0003
fff7
fffd
0005
fffd
0006
fff2
0010
fff7
fff9
fffe
0011
fff6
0011
fffa
000b
0011
000c
fffe
fff0
fff2
fff5
ffe6
ffdf
ffeb
0009
fffe
001e
0004
ffcc
ffeb
fffb
fff2
ffee
fffd
0015
ffe2
0002
fffb
000d
000c
ffe2
0011
fff4
0024
ffef
fff6
0014
0004
000e
fff4
000f
000d
fff4
ffff
0011
000f
ffed
0000
ffea
0001
fff9
ffff
000e
fff1
000c
fffd
0005
000a
fffb
fff9
000a
000b
0000
fffd
fffe
fff9
000b
fff1
0016
ffec
fffd
fff4
ffd2
000f
0018
0011
fffc
0007
ffe9
0018
ffff
000a
ffe6
ffeb
000a
0009
000f
fffe
ffec
fff9
0001
000d
000f
fffb
0002
0005
0007
ffe6
0001
ffe9
fff2
0016
ffe3
0004
0015
0002
0007
000f
0007
0003
0009
0010
fffa
ffeb
fff9
fff4
ffee
ffee
0006
0018
fff8
000f
000c
000f
ffe2
ffe7
fffc
0003
fff6
fff7
ffea
fff6
0015
fff3
0016
fffa
fffd
ffdf
001e
fff5
fffa
ffd9
0004
fff2
000c
0007
0019
000d
0002
fff3
0006
0017
0014
000b
0002
fff8
fff4
fff7
000c
fffc
fffc
0007
fff2
fff6
002c
000e
fff9
0000
ffe9
fffe
fff6
0010
0004
000d
ffdb
fff3
0020
ffe5
000a
fff4
fffa
fff5
0004
0000
000f
fffb
fff7
0007
001a
fffd
ffef
000a
000d
fff7
ffee
000f
000a
fffd
ffd2
fff6
fff3
000e
0005
0005
0021
001a
0030
001d
fff8
0013
fffd
fff9
ffe7
fff5
0014
000d
ffe6
fff3
fff1
ffe7
ffe2
002f
ffde
000d
fff7
fffc
001a
fff7
0012
0012
000d
000a
ffd2
000e
fff2
ffeb
0017
0001
ffec
0017
0015
ffdc
0006
0009
fff3
0011
fff9
fff8
ffe8
fff1
001f
000a
0005
000f
ffe4
fff4
0006
ffe9
0008
0016
001a
ffe7
fff9
ffcc
0013
ffea
fff0
0010
0003
001a
0001
0002
ffec
fffc
0016
ffec
fff3
fffb
0014
fff9
ffd2
0007
0004
fff8
000b
0025
0003
0003
fffe
fff7
ffef
0002
ffd2
fffd
ffdf
000f
fff5
ffe6
0005
002d
ffed
fff0
0008
0001
0019
0009
0011
ffdc
ffec
0001
0002
000e
000b
001a
fffc
0029
fff8
000a
ffea
000e
0008
0013
0001
0012
fff5
001e
000c
ffe8
fff3
fffe
ffe4
001a
0008
0021
ffdd
000d
001b
fffe
0008
0008
fffa
ffd8
ffeb
000b
ffee
fff5
ffee
0029
ffde
fff7
0016
001c
0011
0008
fff5
fffa
001e
0006
fffd
0003
0007
fffb
0008
0011
ffdf
fff1
000f
ffe7
ffec
0004
001c
0023
0009
000c
0025
ffeb
000f
000b
001d
0015
0000
fffe
0005
ffe7
000c
ffff
fff1
0005
ffe7
0008
0005
ffed
0008
0006
fff7
001e
fffa
ffe2
0002
001f
fffa
fff0
ffe9
ffff
0012
fff6
ffdf
0011
fff9
000d
ffe3
fffe
ffe4
0028
ffec
0002
ffe0
ffe8
0016
fffa
ffeb
001c
0001
ffed
000d
ffec
fffc
0015
0006
fff2
ffee
000b
fff5
000d
ffe0
fff5
0003
0005
fff8
ffef
ffe1
0002
0013
ffe8
000e
fffe
0006
0000
fff0
001c
0005
001a
fff3
000c
001b
0019
fff7
fff4
fffb
000b
fff8
ffe4
0016
000c
000b
0016
ffdf
0000
0001
001e
ffed
0026
ffec
ffe6
fff5
ffe5
0002
0017
000a
fffb
ffff
ffe7
0004
0012
0001
0006
0001
000e
fffc
fffe
000b
0021
0023
0005
fff3
fff6
0014
0000
0012
fffc
ffe1
0003
0027
0029
0024
0018
fffa
fff3
000c
ffe0
000d
0001
ffee
ffe4
000a
001c
0006
0009
0003
fffb
fffe
0008
fff0
0006
fff0
ffff
0003
001b
ffe2
fff6
0005
fff6
fff9
ffe9
000e
0005
000d
0003
000a
ffef
000f
000e
fffa
0014
ffe2
0007
fff7
000f
0003
ffeb
ffed
001d
0000
fff4
000f
0001
ffe9
001d
0003
001a
000d
fff0
fff2
ffdd
fffa
0000
0003
000e
0003
ffe5
0011
fff7
0009
ffe6
fff1
fff9
000b
0009
0000
0001
0009
fff8
000d
0013
0016
fff4
fff2
000e
0009
0018
ffea
ffef
000d
ffee
fff3
fff6
ffd6
fffd
0012
fff3
fff4
0003
0002
ffde
0006
002f
fff9
0003
ffdc
0005
0000
000f
000c
ffe7
fffd
ffef
0014
0002
0000
0001
fff7
0015
ffe8
fff8
fffd
fff5
fff9
0006
0002
0009
fffa
ffef
ffff
ffe9
0019
ffe5
ffe1
0010
0013
000e
fff3
0014
fffb
fff1
fffd
0006
0002
fff4
0005
fff6
0003
fff9
fff3
000e
0007
0002
ffe2
0008
ffd4
fffc
fff2
ffff
fff1
ffea
000f
000e
fff7
0007
000f
0003
0008
0004
fff9
fff0
0001
0002
fff4
0008
0000
fffa
fff9
ffe0
ffff
0005
0006
fff9
fffc
0008
001d
fffb
ffe8
0002
fff2
0003
fffe
000c
0015
000c
0012
000f
fff0
fffa
fff2
fffe
fff7
fff4
0006
fff3
fffe
ffee
0004
ffef
ffdc
fff4
001b
0007
000b
fff5
fff4
fff6
fff7
0018
fff6
fff8
0003
0003
0007
