ffeb
fff1
0011
001c
000a
fffb
ffec
fffa
ffea
fff3
fffd
ffde
000a
fff3
000c
0024
0014
001c
000e
fffb
001d
ffe5
fff2
ffee
0017
000a
ffd5
ffea
0010
ffe4
0006
fffb
fff5
0017
0023
000b
0008
fffc
fff1
ffe4
ffe0
fffe
000c
0004
000c
fffa
ffea
ffeb
fff7
fffb
001e
ffe9
ffea
0028
ffe7
0015
001d
0013
ffe7
ffd3
0033
0018
0025
ffdd
0006
fff9
0022
ffe3
ffdb
ffed
ffd0
ffe2
fff6
ffe7
fffe
0007
ffdf
ffd4
0010
002e
fffe
000d
001c
ffed
0006
0024
0025
ffec
ffe0
fffb
fff1
0020
fffd
0009
0010
fff7
0026
0030
fff8
0014
0012
ffd8
0009
0002
fff4
ffe9
0018
ffd7
000b
0028
fffa
ffdc
fff4
0022
fff0
0009
0000
ffee
001d
0017
0018
ffd6
fff9
0021
0000
fff2
0028
0018
fff2
fffa
001d
fff1
ffcc
ffe1
ffbf
ffed
fff7
ffdf
fff1
fff3
0019
ffff
ffdf
ffe8
0025
001b
000d
ffe0
fff5
fffe
0030
fff2
0003
ffda
ffe4
ffda
ffd3
ffd3
ffda
ffda
fffb
fff7
000d
ffff
0007
ffd0
fff3
0009
ffe0
ffff
fff7
ffeb
ffff
fff1
ffe2
ffbe
ffed
ffee
0006
000a
0014
fff6
0017
ffce
fffe
0018
ffd3
fff9
0016
ffde
000c
000f
001f
0013
000d
ffe1
fff2
ffff
ffe1
fff3
0005
ffdd
0010
0002
ffdf
ffdb
ffe4
fff2
ffd7
ffd9
000a
0009
0022
001e
fffa
ffdf
003e
0031
ffed
001a
0016
ffff
0024
002c
0003
fff2
0003
002c
0014
fff1
0023
fff9
001b
0001
001f
fff3
0014
000f
ffff
ffff
000a
0008
ffe2
0009
ffec
0001
0023
0014
000a
fff0
0019
001a
0012
0012
001d
0014
0010
fff6
ffe7
001e
0013
0018
ffed
fffb
0006
0010
ffeb
ffd8
ffec
ffdf
0016
001a
0022
0019
fffc
fff8
0023
ffd8
001e
fff9
0003
0029
0000
ffd7
fff4
fff5
fffe
ffdc
0025
fffa
0021
fff1
0037
ffed
0009
ffbd
ffd9
002d
0017
0024
004c
0000
0021
ffcb
ff9e
0033
ffd5
ffbd
ffee
003c
0017
0007
ffd9
0021
0028
002b
0029
fff2
0012
0033
ffd9
ffc1
ffb7
ffe8
ffdc
0011
0023
003b
0010
0010
ffdc
0032
ffff
0028
001c
0033
0022
ffe6
0029
ffab
ffaa
ffa3
0006
0011
0036
fffc
002f
0016
ffb8
ffa7
ff5f
000e
0019
fff5
004e
001e
ffb9
ff76
fff4
0017
002c
ffe2
ffc9
0007
001b
fff3
ffd1
0009
001d
ffef
001d
ffe7
0009
002d
0022
fff0
ffd0
fffe
fffc
fffe
004d
000a
0028
ffe7
ffdd
0024
0039
0011
003e
ffbe
002c
ffdf
ffce
ffda
0002
0019
ffd9
004f
0002
003d
0026
0027
ffea
ffc4
003f
ffc8
0030
ffe3
0051
ffff
ffe1
0044
0021
ffd8
ffda
0006
ffd9
ffeb
fff6
fff0
0017
fffe
001d
0030
0022
000f
ffe7
ffd8
002c
ffdf
ffc1
ffe9
ffe4
ffee
ffdc
ffec
fff4
0026
ffd5
ffc5
ffe2
ffc2
fff8
0023
0013
0013
ffd1
0027
0014
ffc0
ffe6
ffd6
0002
ffe3
ffed
0017
0005
ffee
0024
ffd6
fff0
ffd7
ffd3
ffeb
0016
0006
ffdb
ffe1
fff9
0042
0020
0038
ffdc
fffb
ffe5
ffbf
ffc5
ffec
0015
0006
0017
0009
ffd3
ffd7
ffa8
fff2
0026
0033
fffb
0003
ffd5
0037
000e
fff0
ffcc
001a
0011
ffee
fff7
0028
ffb9
ffc8
0004
ffd2
0008
002d
ffe3
004a
0026
ffdc
001f
fff4
fff7
000a
001d
0025
003f
001d
ffb3
ffe8
fffe
ffe2
0010
001a
000c
0016
fffe
0035
000c
ffff
002a
0014
0004
ffc5
ffc0
0009
ffdc
0040
ffca
0003
ffba
000d
ffcd
ffd4
ffe8
ffc8
0030
0020
ffd8
002a
0003
004b
ffdf
ffda
0027
ffc8
0002
fffe
001b
ffe2
0005
ffdb
ffcb
0007
ffbe
0008
001d
000c
0010
002a
fff2
0040
ffcd
ffc8
0007
0025
ffde
0019
0002
ffe3
0006
ffe5
0010
0010
0011
fff1
0024
ffe3
ffea
ffef
ffe4
001f
0014
0003
fff2
001f
0013
ffd4
000b
003d
001c
0006
002c
ffe2
000b
0029
fff1
ffec
002e
0006
fff5
ffff
0011
ffef
001d
fffb
fffd
0035
0015
0019
0008
ffdc
ffe1
ffdb
0019
0015
003c
0022
0031
0007
0002
ffee
0015
ffd5
fff3
0018
0012
fff3
0039
ffd1
ffd7
0002
ffea
ffbb
ffe9
fff4
ffe7
ffee
fff6
ffce
000c
fff4
ffe5
001d
fff1
fffa
ffe3
ffef
0015
fff5
ffee
fff6
fff6
0000
fff9
ffd3
0028
0023
fff8
ffe9
ffe3
fff7
fff3
0035
fff4
0028
0006
0029
ffef
001f
ffde
ffed
0019
001a
ffe3
fff9
ffeb
fff1
ffea
0023
fff4
001d
ffdc
ffc6
002b
0039
ffdd
0018
0024
001e
fffe
001d
fffe
fff1
0037
0003
fff2
0016
ffd5
ffdc
ffee
ffe6
0011
ffdf
0007
000e
001b
0002
ffe2
002a
0020
0002
0007
0029
002f
fff8
0029
000d
fffe
0010
fff7
001b
fff4
0004
ffc8
ffe2
fff3
ffef
ffd9
0032
0024
ffd3
fff8
0002
fffe
fffa
001a
ffe5
ffd1
ffdd
0011
ffd1
0023
0021
0037
0024
0023
fff5
fff7
0006
ffef
0021
fffa
001b
ffe5
ffff
0007
ffe7
000f
ffdf
0026
ffe9
ffe4
000e
ffeb
0004
fffe
ffe3
000e
ffda
ffed
000d
000c
000c
0016
0017
ffdf
0021
002d
ffee
001a
ffe9
fff3
002a
0009
000f
fffb
0002
003d
002b
0030
0020
0006
fff9
0010
002a
0011
fff7
0044
ffef
0011
ffd4
ffd6
ffce
0012
0014
0020
0004
0007
0037
ffe7
0027
0016
fff4
ffea
fffc
fff1
ffe1
0037
ffeb
0004
0037
0003
ffe4
0000
0036
001c
0037
0033
0005
ffec
0013
0011
ffe4
ffe6
002c
ffe4
fff7
0023
ffe2
ffba
ffd9
ffeb
0018
0020
ffe6
0012
001f
ffcc
0012
ffd3
fff8
ffdb
000c
fff8
0038
002b
002e
001f
ffe5
fff9
ffa0
ffc8
fffd
ffdb
0027
0009
002f
0005
ffe8
ffe5
ffd1
001b
ffe8
000d
0005
001f
fffd
002a
fffd
fff4
ffe0
0024
0001
ffde
ffea
ffd4
0009
0015
ffe9
ffd2
ffe9
ffc5
fff9
ffbb
fffe
ffe0
ffcd
ffed
fff7
fff8
fffb
004a
0005
ffb2
fffc
ffd2
ffd7
0036
ffca
000d
0026
001f
0027
ff9d
ffd0
0007
0003
002a
ffeb
ffed
0031
001a
fff8
0012
0013
0006
0015
ffba
0022
002b
ffe0
ffe4
0015
0021
fff5
fffb
fff3
0035
0033
0030
0052
0047
0016
0032
fff8
fffd
fff0
0043
0028
000b
ffd6
fffb
0010
ffdc
fff9
fff8
0011
ffe2
ffe8
000d
001a
003a
0023
0030
fff5
ffde
0016
000a
fff5
ffbf
ffdc
ffe5
0000
ffea
fff7
fffe
000a
0024
0014
fff9
ffd2
fff0
ffff
000c
0037
004c
fffa
fff1
ffdc
ffe7
ffec
001f
0014
fffd
000d
0018
0005
ffe5
0014
fffb
ffed
0025
ffd2
ffee
ffe6
fffd
ffc6
ffce
0026
0019
fff2
ffed
000f
0031
0032
001b
0032
0017
0018
ffc3
0010
0006
ffb8
ffd1
001b
0005
000c
ffcf
ffb3
fff3
ffbe
0017
fff3
fff7
0022
0016
0035
0003
0037
000a
ffc4
001c
0043
ffd5
002f
001b
000b
0026
ffc7
ffcf
ffe0
001b
0000
001e
0023
fffa
0025
0003
ffe2
fffc
000a
0037
0010
0003
ffec
fffe
ffe5
fff8
001a
0029
ffd5
ffd2
0000
fff0
000d
ffc8
fff0
ffbe
ffc0
fffd
ffaf
ffe1
ffd6
ffd9
0006
ffcc
ffdb
fff9
ffd9
ffc8
fff9
ffeb
000b
ffe1
ffca
fff9
0007
0018
0022
ffd1
ffe9
ffe9
001c
fff6
ffd8
004a
ffda
0011
0045
0034
ffd1
fffe
0004
0025
0009
0007
0001
ffd8
0000
ffd1
0014
000d
fffa
ffff
0031
0021
0005
ffe2
ffec
ffd5
ffb8
ffcb
003c
0020
001d
ffcf
fff3
001a
ffe6
ffec
ffd5
ffff
000b
001b
ffc6
0035
003f
0010
ffcf
ffc1
0035
004b
ffa5
fff1
ffd7
fff4
0061
ffa7
001b
001d
005c
0041
0016
001d
ffe6
ffd9
0012
0001
ffe9
ffb7
fff5
002e
ffdc
fff8
0044
0022
0042
003e
0036
0028
0052
0026
fff9
0045
0019
003d
0077
002c
ffcb
0033
fff2
ffd5
0035
ff9e
000d
ffcd
ffa9
0018
ff9f
ffcd
ffd3
002e
000f
fff6
001a
005e
0040
ffb0
0058
fff0
0035
0004
ffdb
0015
fff4
ffba
ff9d
002a
fff1
000c
ffe2
ffce
ffbf
000f
ffd6
ffbe
ffce
ffe1
fff1
0022
0031
0014
0040
fffd
0026
0032
ffa9
001d
0061
ffd0
0038
ffaa
ffe2
fff5
ffed
ffbb
fffb
002f
ffef
001c
ffc9
ffc3
ffd8
0031
ffea
fff1
fffc
ffd7
fff2
0035
0048
ffea
ffd5
ffca
0041
ffd0
ffdc
ffc2
003c
ffec
000f
002a
0001
0021
ffd0
ffe2
0009
ffbc
ffe9
fffe
003f
ffc4
0048
0033
002a
000b
0034
ffef
0038
ffbb
ffe0
000e
ffb8
0025
ffa1
ffe1
0009
ffc9
004c
0018
004c
ffe7
0026
0019
0011
0029
ffcd
ffc5
0003
ffbf
ffdf
ffda
ffbe
0029
ffc1
ffc3
0018
0033
003b
0017
002a
0031
0023
ffcd
ffb4
ffdd
0005
002f
0019
0028
0035
0010
ffe4
003d
ffd0
ffe3
0043
ffe5
000f
ffdd
ffcf
ffbf
003a
fff7
ff9f
0018
002e
ffe1
0037
0025
004b
0000
0006
ffec
ffb9
0008
ffb9
ffd7
ffb8
0033
ffca
0036
0002
ffe4
0022
001b
0010
fff5
ffea
000c
ffca
ffd3
ffe8
0067
ffc4
ffe6
003e
ffea
ffd5
0039
ffcf
0001
002c
ffcb
0043
0024
ffbd
0038
ffc3
ffc3
001f
0012
0036
0034
000e
ffd2
0008
ffec
0036
fff4
0025
fffe
000a
0008
ffb0
0002
ffe4
0034
ffec
0008
000e
002e
fff8
0042
fff8
ffea
fff2
000d
fffa
0001
fffb
ffbe
ffe9
fff0
ffae
ffe7
ffda
fffa
0000
ffd9
ffea
0000
fffd
ffe0
ffe7
0005
ffe7
ffee
0000
0001
0024
fffe
0008
fff7
0002
ffdf
ffe4
ffc8
ffb9
ffd3
ffe6
ffe5
0007
ffd4
0012
0020
0001
ffdc
000f
fffc
0009
0006
ffd8
000e
0002
ffe0
ffed
0027
ffe1
fffd
ffeb
0001
ffde
ffed
ffd0
ffc6
ffd5
0002
0002
0029
ffe9
0020
fffb
001b
001c
ffe1
001f
0018
fffc
0023
000d
001e
0009
0000
0017
fff3
fff3
ffe5
0021
ffeb
0019
0027
0009
ffdb
0010
000d
0017
0018
0011
003c
ffe6
ffed
fff7
ffe6
fffc
0003
0015
0031
fff0
ffdb
ffea
0018
fffa
0029
0004
0023
ffef
0004
ffcb
001f
0008
ffea
ffec
fff8
fffe
fff6
0013
001b
0003
0026
0006
ffc7
ffec
0008
ffd1
0010
fff6
ffc1
ffc6
0024
000e
fff1
000c
ffdb
001f
ffc2
ffd6
ffc2
0014
fff0
ffcc
0013
0018
000f
ffdf
ffe5
0012
ffd8
0014
fffa
ffde
0025
0028
0018
001b
000a
001e
0019
002c
fff6
ffea
0023
0034
0033
fff7
ffd9
ffd6
000b
ffd5
ffd5
ffdf
ffdc
ffcf
fff8
0002
0003
0010
0015
ffee
ffe6
fff3
ffc4
ffe2
ffe5
000a
ffe3
ffe3
ffda
ffcb
000d
0000
ffbe
ffe5
ffd8
0025
ffe3
002c
002e
ffd8
000b
fffd
fff0
0019
0001
ffd4
0014
ffec
fffc
ffbd
ffe1
000d
000c
0005
fffa
fff6
ffe1
0014
0018
fff0
fffa
0018
fff2
fff3
fffb
000f
ffd2
ffe6
ffc4
ffe4
ffec
ffdb
000d
ffee
001c
fff8
fff5
001c
0004
ffdb
0013
0004
0024
000c
0007
ffe0
ffcf
fff9
ffdf
ffdf
0009
ffdc
000d
ffc5
fff9
ffd5
ffd0
ffd7
000e
001d
0002
0032
ffff
ffee
ffd3
ffea
ffd9
ffcb
000d
0026
0011
fffb
ffee
0005
fffa
0021
002b
003b
0012
0025
ffd7
ffea
fff7
0023
0013
ffff
0015
0014
0006
fff9
0011
fff3
0027
001a
0018
0007
001a
002f
000d
001c
0006
ffec
0013
002d
ffd5
0035
ffea
0058
002e
ffa6
001e
0036
000e
0004
001b
ffd2
ffc6
fff0
0024
fff9
000f
0006
ffe5
0030
003d
001e
ffe0
ffb7
0029
0014
0038
0006
ffc4
ffbe
0024
fffa
004a
ffb7
ffbb
0032
fff6
fff3
ffeb
fff9
0040
fff0
ffde
fff9
0030
000d
ffcb
ffe4
ffd4
ffa2
003d
ffd5
000d
0012
ffb9
0045
001c
ffda
0011
ffe3
fffe
0012
ffb5
0015
0024
ffe9
fff0
003c
0006
ffae
0003
0016
0004
ffd0
ffc2
ffb3
0036
0009
0046
ffe4
0003
0013
ffe6
003c
ffca
0002
0054
000f
004e
ffaa
ffdd
fffc
ffc9
ffbf
0025
ffea
0002
0011
000b
001c
0024
ffd2
0020
fffe
001b
ffc3
000b
ffed
0052
0026
000f
0042
0063
0031
ffc6
000c
ffd6
ffd4
ffc3
ffec
ffc3
005d
0046
ffed
fff2
ffbd
ffe3
0004
fff1
0018
ffd6
000f
ffe6
ffdf
002c
0049
001a
ffdd
fffa
0035
0032
001e
0021
ffd7
ffbc
fffe
000e
fff9
0018
ffc4
002e
fff4
fff7
004a
ffe3
ffed
fffc
ffdf
002d
0018
0026
fff9
0004
ffc6
ffc0
0005
004d
000d
fff3
ffc8
ffc9
002f
fffb
fffc
0010
ffd2
ff98
0012
ffc1
ffbe
001a
002c
0027
ffb0
ffeb
0029
0014
001c
ffe3
fff9
ffb0
0015
ff9b
0000
ffc8
ffb8
ffda
fff2
000e
0051
0063
ffd6
003a
0019
ffc1
0032
fff4
ffa9
ffcf
ffe8
fff5
ffc3
ffd1
ffe5
0075
ffe5
0077
ffd1
0032
ffa2
0029
0033
ff95
ffb3
0022
0046
0019
0025
ffde
fff2
ffd4
000b
004e
fff1
000d
0033
0005
ffe9
0006
0031
0011
fff7
ff9d
ffda
007e
ffc9
0020
ffce
006d
ffd7
ffdb
fff8
0001
ffaf
0038
ff94
000e
ffb7
ffde
ffda
0039
0028
0021
005a
ffa2
ffe2
ffa1
0014
ffaa
fff9
0029
ffe8
fff6
fff2
ffea
ffe5
003b
ffd7
fff4
0019
0007
ffd1
0017
0022
fff7
ffe1
0018
0007
ffe2
fffa
ffcf
ffc6
ffdd
0027
ffe3
000f
0002
001f
fff2
0027
ffc9
ffc9
ffe1
ffdc
001e
fff9
0009
0008
ffdf
002b
fffa
0014
0010
0034
0027
001d
001b
0011
fff6
ffd9
fff1
ffe1
ffd1
0035
fff4
fffb
000f
ffc8
0009
0017
ffe5
0010
002c
0004
fff0
ffe7
0009
002b
0029
0046
0024
fffa
fff5
fff3
ffef
ffe9
fff4
000d
ffec
ffef
002a
ffe4
ffea
0009
001c
003c
ffe7
fff4
001a
0001
0002
0026
000f
001b
002f
001c
0014
fffd
ffd6
ffcd
fff0
0016
fff8
ffd8
0007
fffd
0007
ffd0
ffcb
ffc6
ffd2
0018
002e
ffe0
0022
0028
0000
000a
001d
0013
ffe8
fff4
0014
fffd
ffe5
fffd
fffd
0002
ffea
ffdb
000e
0012
ffd0
001d
0006
fffe
0012
fff3
0008
001a
ffe3
0011
ffe8
0015
fffd
ffdd
ffec
0021
fff5
ffdd
ffeb
ffec
001a
ffc7
001f
ffc0
ffd9
000e
fffc
0003
fff5
ffdf
ffcc
ffba
ffb3
fffe
ffe1
ffea
0001
ffff
0019
0018
0011
0020
fff4
ffda
0033
0029
ffee
fff4
0011
0028
ffd9
0004
fffd
0018
0009
fff9
001c
0029
ffe0
fffb
0014
fffc
0009
ffef
ffe4
fffe
0017
ffe0
fff7
ffe5
001a
fff7
0041
0022
000c
ffff
fff9
ffe1
0010
ffec
000e
0008
ffe5
0002
ffe6
0012
ffcf
002a
0021
ffe5
fffd
ffe0
001d
ffe7
ffee
0016
0004
ffd6
0033
fff3
000a
ffe9
0016
ffec
0008
002b
0040
0030
0002
0004
fff2
ffec
ffd4
ffe9
0022
ffe7
0006
0016
fffa
ffff
ffff
ffd5
ffec
0024
0006
0026
fff5
0008
0035
0014
fff8
ffe3
ffc5
fff4
001f
fffa
0029
ffd6
ffd7
fff6
0000
ffea
0017
fffe
0033
0028
ffdf
ffec
ffe3
0023
0013
ffc5
ffc4
0014
ffdb
ffda
ffba
ffd3
ffe9
0012
0028
ffd1
001e
fff0
001a
ffce
0008
000c
ffb8
ffde
0011
ffe5
fff5
ffb0
ffc8
fff8
0027
ffec
0032
fff5
0010
ffe2
000e
ffe6
ff9b
ffcd
0028
ffff
0033
fffb
0028
0002
ffc7
ffc4
0023
0014
fff0
fff5
0031
ffcb
ffd8
003b
000d
000c
ffe8
0034
ffc8
0016
001c
0010
ffd8
ffe2
ffdb
0041
0013
001e
ffcf
ffd4
0016
ffd7
fff2
ffee
0009
004a
0004
0020
0003
001e
ffd4
ffe6
ffbd
0073
0031
0034
ffc3
fffc
ffe3
ffe0
0017
ffe0
002d
001e
ffea
fff8
0033
fffa
000a
fffb
0028
fff0
ffff
ffc3
ffdf
0000
0041
ffcf
ffbb
ffc4
002c
fff6
ffbf
0029
003b
fff4
fffe
fff9
0002
0029
ffcd
0010
0021
0012
0007
0040
ffe0
ffd0
fffd
0010
0001
ffd3
0009
fffe
0029
0002
ffc3
fffe
ffab
ff90
ffe7
fffa
ffdc
0008
ffcb
ffc4
ffef
fffe
ffee
0001
ffec
ffcc
001b
0029
0027
001f
fff9
0009
003f
0033
ffe6
003e
fff0
0009
0018
fffb
fff6
0019
ffe0
000d
ffbc
ffc6
ffaf
ffe9
001a
ffa8
001c
ffc7
ffc1
0020
ffde
0004
0017
ffd5
ffed
0001
002d
0031
fffb
ffe6
002c
0039
ffe9
fff7
003a
0000
fff2
0035
0037
ffc4
0038
ffd1
004d
ffda
000f
003f
ffd1
000b
ffdc
001f
fff4
0000
ffc2
0001
0011
0056
0053
0053
ffff
0039
002a
ffe9
ffdc
ffda
ffea
0018
fffe
0016
0036
ffeb
000b
0015
ffcb
ffd9
002d
ffe5
001b
0003
000e
fff4
001a
0003
000d
0027
0041
fff3
0006
ffe3
ffc0
fff3
0038
ffe3
fff1
002f
0026
fff7
0041
ffe3
ffe3
002a
002a
0018
ffe4
0002
002c
0021
000e
0064
0044
fff6
ffea
fff1
0024
002c
ffeb
0001
fff3
ffdf
001f
ffea
ffd7
0022
0001
0016
fff9
ffe2
ffd3
fffa
fff6
0053
ffc9
ffde
0015
fff2
ffe2
fffd
ffe0
0012
ffd6
001e
ffba
ffe6
ffdc
fff1
ff9d
0016
ffbe
fff3
000e
ffe3
fff3
fff9
ffdd
ffff
fffb
0020
0010
000a
002d
ffd7
0018
0029
000c
0041
0027
ffce
0008
002f
0035
ffd1
000d
0063
0028
ffbb
fff4
fff0
ffc8
000d
ffef
001d
0002
0010
0009
ffdd
0011
ffdf
ffee
ffce
000f
0010
0000
ffd9
001e
0030
0026
000e
ffbe
fff3
fff0
ffff
ffbe
fff6
0004
ffe8
ffd8
ffa7
ffc2
ffe8
fff7
ffe2
ffe8
0032
fff6
002b
0026
fff0
0017
003b
0023
ffea
0000
0008
fff2
0001
ffd4
fff6
fffa
0013
ffef
ffe7
000e
fff6
0011
ffee
0017
002f
000b
0035
000e
fffc
0001
0004
ffe6
fffd
ffcc
0004
ffe1
ffeb
0026
fff9
ffef
ffcf
ffdc
ffe9
ffd1
ffeb
0024
ffd2
fffb
002a
000f
ffe6
0011
ffeb
ffd8
0037
0016
000a
0007
0007
fffa
fffb
ffc7
ffe5
0015
0042
ffed
ffe3
0003
000a
000a
ffe7
fff0
fffe
fff7
ffe1
ffe1
0000
fff8
ffda
0033
fffb
001b
fff8
002f
fff9
fffe
fff7
0019
fff0
0018
ffce
0022
001c
ffda
003e
0014
fff7
0000
001e
0025
fff7
ffe3
0029
0014
0003
0025
0020
0011
001a
ffcd
001c
fff6
001c
001c
ffd4
0003
0027
fff8
ffd7
0020
0026
000a
ffed
ffef
ffca
ffda
ffd0
0033
0023
ffde
ffef
0023
0000
ffd5
fff9
ffda
ffec
ffff
ffe2
ffee
ffdf
002d
0000
ffd5
fffd
0024
ffe8
fffe
fff7
0020
ffe8
fff5
0008
0016
ffde
001d
0030
0002
ffeb
ffe1
0025
0061
0006
fff7
002d
ffd2
fff2
000b
001e
0012
ffff
fffa
ffd1
0023
ffe7
fffb
fff2
0021
0015
0010
0027
0021
fff4
ffe5
fff0
0017
fff2
fff0
0039
ffeb
fff7
ffed
fff7
001a
ffce
000d
0010
fff0
0026
ffea
ffe7
0018
ffea
0007
ffda
0003
ffca
fff4
0032
ffe3
ffc6
0000
ffd4
ffe4
ffe9
fff5
ffec
0001
ffed
0032
0018
ffe7
ffdb
000f
ffcb
fffb
0001
ffd2
0000
0006
ffd7
0012
ffd1
ffee
0043
001c
0011
fffa
002f
ffea
000c
000d
001b
fff9
fff2
fff1
001a
ffea
fff1
fff2
ffec
fff8
002c
fffb
ffff
ffd8
0018
0028
0011
000e
0019
0012
ffea
0016
ffe8
fff6
000a
0021
fffe
0012
0007
fffb
ffd2
ffda
001b
fff7
0014
001d
ffff
001e
ffe5
0009
fffe
ffff
001e
fff0
000d
fff4
002b
0005
0003
0027
ffff
0001
0004
fff1
0019
0012
002e
0039
0005
0012
ffeb
ffff
0016
0009
ffeb
002e
0012
fffb
001c
ffe3
ffd3
fff8
ffe6
0029
fffb
002a
0008
ffea
0001
ffea
fffa
ffdc
0011
0016
002d
ffeb
0000
0012
0006
000d
0005
0022
000c
fff7
0002
001c
001f
ffee
0006
001e
fffc
0007
ffff
0012
ffeb
ffd9
ffd2
0004
000d
0018
0015
000c
001b
002d
ffef
0002
0010
0010
ffff
ffe4
fffd
0008
001d
0015
ffed
fffb
0024
fff4
fff6
fffc
003c
004d
002d
fffa
000b
003e
0014
002a
0039
ffda
0011
ffe0
fff9
ffe2
fff9
ffff
fffb
0031
fffe
fff9
000c
0002
ffd3
fffa
ffea
0020
000e
fff5
0032
001c
001a
fff5
fffc
0018
002f
fff8
0013
0014
0009
ffd0
0007
001e
ffff
000d
ffda
0015
0024
0011
001b
ffdd
001c
ffe7
001f
0000
0029
0008
fffa
fffc
0004
ffda
0014
000d
000d
0020
0003
0024
ffea
0013
0024
0028
ffff
ffdc
0023
fff5
fffd
0000
0012
fff7
000d
0021
ffe6
fff9
fff4
0021
0021
0030
0037
000d
0030
002f
fff3
0002
ffde
ffe3
ffdb
ffd9
000c
ffdb
ffc2
fff6
0019
ffe3
0004
ffee
ffe9
0009
0019
0006
000b
ffde
000b
ffbb
ffd8
ffec
ffeb
0017
0017
001c
ffda
000d
000a
000c
0008
fff6
0005
0006
0015
0000
ffec
ffeb
0008
ffd8
fff4
ffec
ffee
fffb
0015
ffe0
fffe
0005
fffc
0004
ffff
0022
ffdc
fff6
0021
ffd9
0005
0029
ffe7
ffe2
ffdf
ffd9
0012
fff8
ffdb
000a
0006
fffc
000c
003a
fffd
001b
0022
0022
0011
000e
ffe0
fff4
ffcc
ffea
0015
0024
000c
001e
ffd5
003e
0041
fff4
0022
0003
003f
0010
ffea
fff6
fff6
ffeb
003a
ffee
0010
003d
ffe6
0010
0032
ffc9
ffd1
ffcf
ffd1
ffd6
ffe3
ffef
0014
0006
ffc6
ffee
ffb4
ffcb
ffe7
ffce
ffc0
ffe0
ffa6
0014
0035
000f
fffc
0023
0010
ffd6
ffe2
ffdf
fffa
ffd2
ffd4
0015
fffe
ffd3
0028
fff1
fff5
ffee
0010
ffe1
0022
ffdc
001e
fffb
000e
fffb
ffff
0002
fffd
0027
ffe0
fff3
001a
0002
0005
001b
ffdc
fff3
0001
0003
0001
001a
0020
0028
0011
ffda
ffcc
0023
ffe6
ffe2
001e
ffe3
ffde
ffee
fff3
001a
0003
ffe0
ffdf
ffe5
0015
ffd9
ffea
0007
000c
0001
0014
000e
ffd9
000e
000a
fffb
ffe1
ffb9
fff7
fff3
ffe3
fff6
fffd
ffda
fff9
ffe6
ffd9
ffe9
0030
fffa
001d
0025
fffd
0018
ffd5
000d
0028
fffb
ffe9
001b
0026
0019
0009
000a
ffe2
ffee
fff0
003c
ffe5
ffed
000c
0026
fffc
000f
ffce
ffd9
0005
fff4
ffe0
0024
0022
ffd6
0016
0004
0003
0016
fffe
ffe8
0006
0000
ffd9
000e
0018
ffdb
ffeb
ffe7
ffea
ffe7
ffe3
fffc
0009
fff8
ffe9
0018
002b
0029
0010
fff4
000f
0025
ffda
0001
003f
fffb
fff1
001d
ffe8
0017
0003
0028
0028
0012
000c
0033
fff2
0000
ffdd
ffea
fff2
fff7
ffdb
0008
002e
ffd9
ffe3
0012
002d
0007
0002
000f
0014
0022
0011
0016
0020
fff5
fff4
0007
0021
001c
ffea
fff3
0024
ffdb
ffd3
fff1
0014
ffe0
ffed
ffe3
0021
0024
0005
000f
0005
0002
ffe7
0003
000f
ffda
ffdf
0013
0001
0003
002b
ffee
ffdb
000d
ffc8
ffce
0021
ffd2
ffef
ffd8
ffb2
003d
0019
ffd8
002e
fff5
002e
0007
ffe6
004a
0037
ffe3
fff1
0044
ffd8
ffd9
ffaf
ff9e
0018
ffa9
fff2
0008
ffa7
ffc9
ffcc
ffd5
0015
ffd3
0017
000b
0053
001c
fff3
0060
ffbf
002c
003c
0004
0005
0001
002e
0017
0058
000f
ffea
ffbe
ffdc
ff69
ff90
ffec
ffe1
0009
0047
004c
004f
002b
ffd7
ffe4
fff3
0038
ffe4
ffd2
0077
ffe6
003c
0032
0001
0035
ff9d
003a
0037
ffee
0036
ff88
ff84
ff81
0010
ffde
ffb7
0023
003a
0053
ffee
0048
002c
0038
001b
ffca
004e
0042
ffbe
001e
ffe4
0032
ffd5
ffc8
0017
ffb8
ffc2
001d
ffda
0032
ffd8
0008
fff4
fffc
fff8
ffef
0043
fff2
0060
000c
ffd4
ffe3
0028
ffb8
ffda
fff5
0020
ffeb
ffd5
000e
0012
0031
0022
ffe1
ffba
ffba
ffc7
ffce
0033
004b
ffd2
ffd2
fffe
002c
0019
ffd1
0015
fff5
0004
0066
0024
0041
ff99
0037
0029
ffb6
fff0
005c
0025
ffde
0055
0050
ffc9
ffe6
0010
0037
ffdf
0014
0036
fff1
0013
0006
ffff
0024
ffdf
ffc0
0014
ffe8
0011
004b
ffeb
ffe9
0038
ffbf
ffcb
ffef
ffd9
fff2
ffbe
0017
004b
0049
ffd1
ffa9
0030
0016
0053
0018
ffac
ffdd
ffae
ffaa
ffae
ffbf
ff91
fff0
0046
0029
0023
0053
ffb1
002b
ffbb
0039
ffea
0029
0009
ffbe
ffcd
ff96
0025
ff8f
0013
ffa2
ffe6
0016
fffd
fff4
fffb
0009
0040
ffeb
001e
ffbf
0021
0028
ffcb
ffb8
fff9
ffc3
0030
0023
ffe2
002e
ffd2
002b
003c
005f
000c
002b
001b
0014
002c
0053
ffe5
0008
ffc3
ffd3
fffa
004b
fff6
ffbd
001e
0015
ffdc
ffd3
0038
ffd7
0036
ffe8
0055
0011
ffbd
ffdc
ff9d
ffcc
ffbb
ffef
0032
ff8d
000c
0003
ffba
005b
ffcc
ffe4
003c
0068
0007
0007
0061
ffc7
ffe7
0020
ffcb
ffee
fff0
0020
0007
ffe9
fff5
ffef
ffcd
0007
000c
0008
ffde
0023
001c
fff5
ffdc
000b
0012
ffef
fff3
0000
fff4
0014
ffea
ffe4
000b
000e
ffe0
0009
0025
001f
0007
0006
0022
fff2
ffe3
fff3
fffa
0009
0010
0008
0004
000d
0008
ffbe
ffd6
ffdc
000e
0019
0034
0014
0024
0038
ffe5
ffe5
000c
ffd9
ffcf
ffdc
0019
ffd7
ffe0
ffc5
ffdb
000b
0013
002e
fffa
0011
ffc1
0004
0000
fff3
ffd7
ffea
fff0
0013
ffde
fff2
ffea
001d
000a
0017
0019
ffce
ffe8
ffe5
0022
ffe8
0003
ffee
001a
0018
fff1
fffc
000d
0006
0018
ffee
0012
fffd
0007
0027
0034
000b
0021
0018
ffef
ffe4
001a
ffe6
0015
ffe5
0001
fff3
0009
000d
001e
0015
0032
0019
fff3
0001
ffe8
0015
0007
fff6
0029
000d
ffff
ffe2
000a
0023
0013
0005
002f
fff5
fff2
002e
000b
fff9
fffa
001f
002d
000e
0007
ffe9
ffd7
001c
ffda
ffdb
ffc2
002a
0012
000a
ffef
001e
fffd
001e
fff1
0004
0019
ffe4
0016
fff6
0001
001d
ffcb
0014
ffda
0020
000d
ffdd
0026
0007
ffff
ffea
ffee
ffdc
0024
ffd2
ffcf
ffe6
ffd0
fff8
0005
ffe3
000f
fffb
0016
fffd
fff5
001e
0005
fff9
000b
ffe8
0007
ffde
ffde
ffd8
000b
fff3
ffe1
0011
ffe9
000e
0019
000e
0016
002d
0000
0010
0023
ffe4
001f
000d
0015
0029
fffa
ffcf
0018
ffec
ffee
0032
ffe2
0034
ffcf
ffe2
000c
ffd4
000e
ffcc
0017
ffdb
001a
ffde
0039
0020
0010
fffd
0009
0006
ffe8
ffec
ffba
000c
ffef
ffcc
ffdf
0037
ffe2
0024
0001
0000
ffd1
fffd
ffe3
fff5
0012
0015
fffd
003a
ffe6
0017
ffd1
0018
ffe9
ffe0
ffcd
fff5
0010
ffed
0002
0015
0029
0003
ffdb
001f
0007
0038
0026
0022
001f
000c
000d
fff3
ffd4
ffd1
000d
fffe
0017
ffd5
ffe4
0030
0032
ffdd
002e
0003
0011
0002
001b
000a
0038
0037
ffd3
001c
ffe3
001e
fff4
0053
fffd
ffef
fffb
fff3
000e
ffd4
0007
ffed
fffe
0010
002e
002c
ffce
000d
0007
fff0
ffce
0003
0006
000e
0039
0010
0038
0034
0025
fffc
ffdb
fffa
fffb
ffe6
fffb
000a
ffd9
ffe8
ffd5
ffee
fffa
fffa
ffdf
ffe1
0003
ffeb
0017
ffe8
ffd6
001e
0008
ffe0
ffe8
ffee
fff3
fff1
000f
0025
0028
ffea
ffea
fff7
ffee
0029
0002
ffdf
0026
ffe3
0012
ffe0
ffe8
ffe8
000b
ffe1
0024
ffe5
0026
ffef
fff9
0022
fff4
0015
0005
ffff
000a
0006
ffc7
ffd0
000a
fffa
0003
0008
000b
ffce
ffd9
0015
ffed
ffdf
fff5
001e
0012
ffca
0011
ffdb
0014
0006
ffcc
001c
0013
0016
0007
fffc
fff3
ffe2
fffd
0002
ffde
0010
0003
0020
ffff
0022
ffed
002b
ffe3
ffde
001a
000c
0026
ffe8
0017
002b
ffdf
ffe6
ffe6
fffc
0007
ffd8
ffdb
fff4
0013
ffe2
fff1
0016
fff5
001c
0005
ffd3
001e
0009
001c
000e
0006
0004
0017
fffb
fff1
ffde
ffd4
ffda
000c
ffec
ffe5
0001
fff3
ffe0
ffd2
0014
ffe1
001a
0020
001c
0011
0007
fff3
000a
ffe6
0010
ffef
0020
ffd1
0038
ffdc
ffe8
0029
001b
ffd3
0000
0007
001f
fff1
fff7
ffff
ffc9
fffc
fff6
ffe6
0003
fffb
0001
0018
0038
000f
ffd5
0008
ffea
ffed
001a
0025
0000
fff3
ffe5
fff9
0011
ffd4
fff2
0009
000f
fff6
fff5
0014
ffe5
ffe7
000a
0004
0012
ffee
002f
fffe
0018
ffda
001d
ffe8
ffe4
002c
0004
ffe5
ffe5
0025
0013
001c
ffff
fffd
001e
000f
ffe4
ffdd
ffdf
000f
ffef
0001
ffde
fff3
0012
ffd7
0018
001c
fff5
001a
ffd7
ffce
fff1
0019
ffde
ffed
ffe3
fff3
0014
0001
0015
ffe4
fff2
0044
0050
0002
ffb9
ffa8
ffca
0028
fff4
0024
ffcf
0038
0018
0010
ffcd
ffeb
002d
ffc7
0020
001f
0028
0025
0019
ffd2
ffe9
fff2
0002
003a
001d
ffcf
0014
ffd7
0018
000f
0013
fff2
ffc7
002e
0030
ffe5
ffa5
ffd9
fffc
ffdc
ffe2
000c
ffde
001c
ffaf
fffc
ffff
ffde
0031
0051
0016
ffef
0043
001f
ffdf
ffb9
0026
ffe0
0008
0027
002c
003b
0021
000b
ffeb
ffc1
0007
ffd5
ffff
0012
fff1
ffd0
002f
001b
fff2
0022
fff8
0001
0017
ffe5
ffd2
ffe9
001b
003f
ffdc
fff2
0036
0001
002f
0009
fffe
001a
003e
ffff
ffe6
002a
003c
0023
ffcf
0040
ffe2
ffe1
ffe4
002c
fffe
ffca
ffe0
ffa5
ffd4
fff5
fff5
fff2
003c
004a
ffea
0014
0004
ffd5
ffb3
001a
fffe
ffcc
fff0
ffec
0006
001e
ffd7
ffbf
fff3
fff7
000a
ffca
0012
fffd
ffe3
ffd6
fffa
0040
001b
001c
ffe6
0009
fff5
ffe4
fff6
fff4
000b
000c
ffca
fff5
ffdc
ffbb
001b
0036
ffc7
ffc7
fff0
000f
0025
0023
002a
ffd0
ffcd
ffbf
0014
001d
003d
0008
fff1
0030
002f
001e
fff7
ffc9
0010
0033
ffd2
ffc6
0015
001e
0000
ffea
ffc6
ffd6
ffe6
0030
ffee
0001
ffa5
ffdc
0035
fff2
ffad
ffdc
0022
001a
0035
fff2
0015
002b
ffcb
ffd0
ffd1
ffe4
0013
003c
ffd6
0039
0026
001c
ffc8
0019
fffe
fff0
0026
ffd1
ffc7
0015
0032
ffe2
fff0
fff6
ffdf
fff4
0008
ffd2
003d
ffe4
0035
ffd6
002a
ffd3
ffef
ffd0
0032
fff9
ffc7
ffca
ffd3
ffbd
0013
0003
0029
0002
fff5
ffdf
0038
ffe4
0036
ffea
001d
fff1
004d
ffe4
0043
ffd2
0019
fff5
0029
ffcd
0037
0028
0006
fff9
0035
0014
0039
fff3
ffd3
ffef
fff9
fff7
ffd8
ffd8
005b
0035
ffe2
ffe0
0009
0025
0026
fff6
ffed
0011
ffee
000f
fff9
0001
fff5
0003
ffdc
0031
001f
ffc3
0005
ffee
fffe
ffe7
fffa
ffbe
ffba
ffe4
ffe2
ffe3
0029
0028
fff3
fff0
002a
fffb
ffe5
0004
fff5
ffed
ffd9
000b
fff4
fffb
fff7
001e
000c
fffe
0010
ffd8
fffb
0012
000f
0004
ffe9
0018
0030
002f
001f
0005
0009
0024
ffe3
ffda
0031
0032
fff9
001d
fff4
001b
ffcd
fffa
0001
ffd6
fff3
fff2
0006
fff6
ffdd
ffe7
0014
fff4
ffed
fff1
ffcc
000d
001e
ffe8
0002
0007
ffe4
0012
ffe8
0005
fffb
ffe0
0023
0021
fffd
fffd
0007
fffb
000a
0007
0001
0012
0023
001e
0028
0014
001c
ffe5
ffeb
0020
000c
0000
0027
ffee
ffdd
ffe4
ffe4
fff5
002a
0024
0001
0024
0035
0015
001c
001e
fff9
ffc6
0005
ffd6
ffde
fff4
ffde
0026
0001
ffec
fff3
0008
ffe4
ffdf
fffc
ffd5
fff8
ffed
ffcb
fff5
0001
fff1
fff6
ffd8
ffe9
fffe
fffa
fff9
000a
001f
ffeb
0025
0030
ffe3
fffd
fffa
ffe3
ffdf
0018
000d
0003
0002
0022
0010
001a
0018
0029
ffed
ffed
fffa
0009
0020
0000
0010
000c
ffec
0000
000b
000a
0004
000f
fffb
ffef
fffa
ffff
0015
000f
fff2
002b
ffd6
0024
ffe1
000d
000f
0015
ffff
000b
0015
fffa
0021
0027
0037
ffeb
fff2
001e
ffee
fff4
fff0
fff2
0000
fff7
fff8
ffe6
ffe9
ffd2
0002
0001
0003
fff9
0003
0012
ffff
0025
0012
0024
ffe9
0002
000f
fff9
0023
ffe3
0019
0009
ffd0
ffd7
ffe5
0007
ffdb
ffe1
002a
fffe
fff1
fff4
ffef
0008
0008
0023
0024
001f
ffcf
ffeb
0019
ffe5
ffc1
ffec
ffe7
0006
001d
ffd7
000e
001c
0004
0006
000c
ffd8
fff8
0009
0003
0014
000d
0010
000c
002d
ffe7
ffe2
ffe7
ffc6
ffb5
fffa
ffe7
ffd6
ffdc
fff5
ffe3
0022
ffdd
fff7
ffec
000c
000f
0034
ffdc
001c
fff6
003a
0036
0030
0027
fffa
ffe5
0011
002a
001f
ffe9
001c
fff6
0012
ffd6
0009
000f
ffcc
0025
ffed
ffe6
000f
0015
0003
0006
ffcb
000b
0007
ffd7
fff0
ffdd
002a
0036
ffe0
fff0
ffcc
fff2
ffc0
ffbc
ffe6
ffd5
fff9
0006
ffeb
002f
0005
0014
fff4
ffee
001a
000c
ffd6
002f
fff7
ffca
000b
0030
000d
002a
fffb
000f
ffe4
001c
002f
ffe6
002f
ffee
ffe1
000a
ffff
0009
0023
ffe1
fff9
ffe1
ffd0
ffd7
ffd9
fffc
ffdd
0031
001f
ffe5
ffdd
0001
ffcc
fff0
0021
ffd5
000e
0002
fff9
ffd0
fffc
0016
002b
0016
ffe1
ffd1
fff0
000d
ffd6
ffee
0029
fff1
000f
0007
0024
0022
ffcc
fff6
ffe0
ffbe
ffef
ffac
0014
ffdc
fffa
0018
ffc0
fffc
0023
fff1
ffa6
ffd0
ffc4
0006
ffd6
fffd
000b
0030
0000
003b
0007
0007
fffb
0011
0006
0014
fff3
ffe9
fff2
fff5
002d
ffe6
003a
002e
0015
ffd6
000c
0005
0011
ffe4
ffd8
0005
0020
0034
fff7
fffb
fff6
ffa9
ffbc
ffc4
fffb
fff4
ffdf
0010
0000
fffb
0029
000b
fffc
ffe2
ffd6
ffd8
ffde
001a
000b
000e
ffdd
ffce
0012
ffe4
fff9
001b
0020
fffd
ffdc
000a
ffe8
000a
0024
fff4
ffd1
0021
fff2
fff0
0015
ffd7
0002
fff0
0009
0004
0011
000f
0018
003f
0015
0013
001d
0038
ffe1
fff1
ffd2
0036
fffe
002b
002b
0006
000f
0008
fff2
fff8
000b
ffcf
fff8
ffd3
0019
000c
0014
0033
fff7
ffd4
000c
0022
0004
0026
ffd9
0008
ffd6
0027
0030
ffff
ffda
001d
ffe3
0011
0008
ffcf
000c
ffe9
001e
0008
ffd6
fff3
0009
ffc8
0017
ffc6
001e
ffcf
0009
fffe
ffd7
0004
ffe9
fff8
ffc8
0009
000b
000f
ffe1
fff6
000c
001d
0007
ffe2
001f
000e
fffc
ffd3
0016
ffe6
0008
fff0
0024
ffc9
ffd3
ffbc
ffd4
ffff
0020
0009
002d
ffeb
001a
ffce
ffe8
0013
fffd
fff3
0021
0014
0040
ffdd
ffef
001d
ffd3
fff6
0012
ffd2
ffdb
0030
0025
001c
fff8
fffa
ffd2
000f
0030
fffb
ffd1
fff7
0011
ffc7
0023
0041
0010
ffea
0009
003b
002d
fff9
fff5
000c
0015
0027
000b
001f
0008
ffbb
000c
ffed
ffce
0017
ffc0
fff5
0004
fff3
ffd4
ffdd
ffe1
0012
ffe1
ffe3
000a
0017
0034
0023
0007
0006
fff9
fffd
fffe
000d
fff9
ffe8
ffe4
0022
0012
ffb4
000e
002d
fff4
ffed
ffc4
0032
fff4
ffe9
ffed
fff1
0022
ffd0
fff0
0010
0005
0021
ffd3
002e
fff4
fffe
ffe2
fff3
fffc
fffa
ffef
000c
0003
ffea
ffe3
fffd
000c
fff9
ffe2
0005
0014
ffe5
0026
0022
ffbe
ffcc
002d
ffe5
ffff
fff1
0025
000d
002b
ffe0
ffef
ffe8
ffe0
ffd4
ffb7
ffc8
fffd
0001
0017
0010
ffeb
000b
0009
ffcd
fffd
000b
ffbb
ffd8
0019
ffc7
000c
0034
001f
ffce
0032
ffde
ffd6
0022
0015
000c
003a
0010
0027
0004
0025
0023
0040
0019
ffe0
fffb
0016
000e
fffb
ffd0
0000
0022
ffd3
0040
0007
0027
ffed
002d
0023
ffe5
001c
ffed
0013
0023
0012
003f
0039
fff3
0025
ffde
0018
fffc
002b
ffd7
ffee
0030
0002
ffcc
fff3
ffe7
000a
000a
002e
0030
001a
fffb
0050
0014
fffb
0036
002f
fffa
fff8
ffef
ffe1
fff1
ffe3
fff2
002c
ffed
fff4
0016
ffff
ffd4
ffca
001d
ffbf
ffeb
ffd1
0013
ffdd
ffef
ffdf
0025
fff2
0000
0032
ffe7
ffa6
ffd9
ffea
0028
fff7
fff9
ffcc
0009
fff7
ffe1
ffda
fff0
000e
fffc
ffe9
ffea
fff7
ffdb
fffe
0016
fffd
fff0
ffde
0021
0014
ffb4
ffd9
ffc0
ffea
fffa
ffec
0020
0006
fff8
001c
fff9
0016
ffa0
fff3
ffea
001a
fff6
000d
ffff
0042
ffd5
ffef
ffdf
ffd7
ffcd
ffed
fffd
0032
0049
001c
002f
fff4
000e
0010
ffc6
ffcb
ffd9
0041
002a
000d
0018
ffce
ffbb
0027
0032
fff3
ffe3
ffd3
000e
002f
0046
ffdc
ffb6
001e
ffdf
0005
0030
ffec
ffcb
001b
001c
ffec
ffe1
0032
0037
0014
ffd1
fff1
ffdc
0007
ffdc
002b
005a
002d
0046
000d
001c
0019
ffc3
ffef
ffec
fffc
0004
003e
0039
ffd7
fff5
0020
ffe7
fffa
ffed
ffd1
0036
ffe2
fff4
0002
ffdf
ffd9
0018
000d
fffc
001d
fffc
0001
ffe3
ffbf
ffe2
0035
ffcd
fffe
ffc6
0001
ffcb
ffd0
ffe6
001d
002d
ffe9
001e
fffb
ffd0
ffd6
003a
ffe1
0005
ffef
0016
fff8
fff7
ffa4
ffe2
004c
ffc8
ffe0
001c
0026
fff8
003d
002c
0005
ffd5
fffb
0010
0003
000c
003c
0008
002c
fffb
0005
ffda
fff8
ffdb
000a
0004
0037
000e
fff8
fff2
0040
0042
fffc
ffdb
0005
fff3
ffdc
ffe4
0002
0048
0040
ffed
fff0
0005
0036
0009
0008
ffd4
ffc1
ffe3
000c
ffcb
ffd8
ffe7
000c
0010
ffcf
000c
0009
fffb
0037
0039
ffe9
fff4
0003
fff4
ffd6
ffe6
0011
002d
002e
ffda
0011
ffde
0032
000e
ffb1
0010
0012
fff3
ffd4
ffd0
ffe7
fffb
ffd4
ffcd
002c
ffd2
0033
ffee
0040
000d
ffc2
002b
002c
0008
0001
0024
001e
ffc9
ffd7
001f
001a
ffc6
ffef
ffb2
fffb
ffee
fff0
ffce
ffff
ffec
0017
fff0
fffc
002f
0011
0038
002d
0030
ffe8
0022
ffd5
0017
ffe3
ffe7
000a
ffee
fffb
0011
ffc8
ffdc
ffd4
000e
ffff
ffec
ffd8
0017
fff1
0009
ffdf
fffa
fffe
fffd
ffec
ffd0
000f
fff3
0035
0027
ffd9
ffec
ffca
0012
fff2
fffd
ffc1
0011
000e
ffbb
001b
ffe4
ffbe
ffc9
ffc9
ffe0
ffe8
001f
fff3
0024
0035
003b
ffff
000b
ffbd
ffbc
ffbc
0007
ffcf
0026
0025
0032
002c
ffc9
0024
ffd3
fffe
0032
ffe7
ffd9
fff8
0034
002a
0010
0028
0026
0019
ffd4
0037
001b
0026
ffc9
0015
0009
ffc2
ffe8
ffce
ffd0
0013
ffbb
ffc5
0031
ffef
0000
ffc4
001c
fffa
ffa3
fff2
ffc5
ffda
ffe3
ffb3
0036
0009
0035
0008
ffa2
0014
001e
000e
ffdf
ffc2
ffcf
ffd2
0024
ffc5
0028
fff0
0013
0008
ffd7
000e
ffc0
ffc6
fffa
ffdf
ffd4
ffb7
ffee
ffdd
ffba
0017
0018
0007
fff2
003c
ffb8
fffa
fff3
0002
000c
ffeb
003f
ffef
0031
0059
ffd9
0013
0023
0042
0039
0003
ffd2
002f
0013
ffd9
0004
003a
002c
0001
ffe5
ffc4
ffc4
0023
ffd4
0023
0036
0038
000c
fffb
ffe9
0035
001a
ffed
ffd1
0011
ffe4
001f
ffd2
001f
0029
ffc7
ffd5
000b
ffd7
0024
000d
ffd0
ffe5
0010
0029
ffda
0015
001c
0021
fff6
ffd1
0010
ffe1
ffef
fff9
ffe9
0023
0020
ffe1
002f
0002
ffbb
ffef
fff6
0002
0009
001e
001e
fff2
ffd4
000d
ffed
0038
003d
ffe3
0011
ffe3
ffee
0025
fffc
ffb2
ffe2
000e
ffe9
001d
fffe
ffef
fff2
ffcb
0000
0043
fffe
ffce
002e
0023
ffd5
ffd2
fff7
ffd9
ffe6
ffe9
ffd6
0011
ffd6
ffce
0006
ffde
000b
0019
fffa
ffc2
ffdb
0027
ffc6
ffcb
002f
ffdc
002d
ffc2
ffb7
0020
fff7
001e
ffeb
ffb8
ffe8
0017
0011
fff7
ffcc
0007
0010
0012
0043
0023
fff0
000f
ffe1
000d
0031
0015
0028
0027
0029
0011
ffc4
ff9a
ffea
0007
ffcf
fff3
001d
0006
ffdc
ffec
ffed
0013
0027
000a
0025
0023
ffe2
0006
003b
fffd
003d
0047
ffe2
fff7
0006
0021
ffd2
001c
ffd9
fff4
0030
ffd3
0019
fff9
ffed
003a
ffe4
0059
000b
ffe3
fffa
0025
001c
0007
000e
000c
0017
ffde
000d
002d
000b
002e
ffe1
001a
0012
0006
0012
0006
ffcc
004c
0034
ffdb
0008
ffef
ffd3
000d
ffef
0001
0027
0037
ffe0
ffe1
0012
0002
0025
0015
0017
0017
0000
0007
0006
ffe8
fff3
0008
0018
002d
fffd
0034
ffff
ffe2
0037
003a
0004
fff1
ffee
000b
ffef
ffeb
0008
ffe3
002c
ffd1
000a
ffee
ffe2
fff8
fffa
ffcf
ffc4
ffdc
fff7
fffd
fff3
0046
001a
ffed
0023
ffe0
0028
ffe2
0020
ffcf
000c
fff4
0016
000e
0024
ffc5
ffd8
fff5
0000
003a
0021
ffd5
0007
ffc5
0008
fff3
000a
002c
0036
0013
0025
001b
0009
0014
0016
0004
ffdd
0030
000c
0011
fff9
ffdc
fff2
ffd8
ffcf
0009
fff1
0028
ffe0
ffe5
0019
000b
fff0
ffea
ffda
ffde
fffb
ffe0
fff3
0009
ffd5
0015
fff0
0013
fff5
003a
000b
ffd1
fffc
0029
ffff
fff2
0003
000b
fffb
ffeb
fffc
ffcd
ffc9
fff0
0001
0014
0006
fffe
fffd
001a
ffe2
fffd
fffd
ffdf
fff9
0004
ffc9
ffb9
0003
ffef
0042
ffe8
000d
0001
ffe8
fff4
0034
fff2
000c
0003
003c
003e
0014
0022
fff5
0001
fffe
0021
ffe6
ffd5
000e
fff1
ffd9
0009
fff1
0013
ffd8
0002
0010
0028
0008
0016
fff5
fff0
ffd3
ffd2
000d
002d
002e
ffe7
0007
002b
fff2
ffde
0009
000b
fffd
0013
fffb
0000
fff6
ffdb
002c
0019
0005
ffd6
ffed
ffc6
ffd3
0009
ffc8
000b
ffe5
ffcf
fffd
001b
ffdb
0035
fffb
ffd7
ffcc
ffe9
ffc0
ffd2
001e
ffdc
0004
0013
002c
001a
0014
0029
fff2
ffff
0008
0008
001b
0005
ffd4
ffdc
fff3
ffe4
ffd1
000f
001d
ffbb
0006
fff9
0032
fffa
0019
0001
ffd9
0014
fffd
0004
0029
0014
0026
ffb4
ffc7
000a
ffbd
ffe7
ffcc
fffe
001c
0021
fff2
fff0
ffdc
ffc1
ffcb
0009
003b
fffc
0038
fffb
ffdb
001b
ffd5
ffd5
fff7
0000
ffff
ffa3
ffdd
fff1
ffce
fff2
ffec
ffed
ff90
fff0
0014
ffad
ffd3
001b
000c
003a
000f
0022
ffd8
ffde
000d
ffec
0026
0028
0006
001f
fffb
ffd7
0022
fff6
ffc9
ffba
0008
0014
ffc8
fff4
001c
fff3
0016
fffa
fffa
fffc
ffec
0026
fffb
ffdf
0010
ffef
0006
fff8
fffb
0017
fff6
fff8
0017
0011
001c
ffcf
0008
0009
fffb
0005
ffe9
0004
0010
0031
0006
0015
000d
ffea
ffe2
0035
fff4
0029
0027
003e
ffeb
002c
0027
0020
ffea
ffee
0039
ffdb
001b
0023
0013
001c
0006
0013
ffd6
0020
ffd9
ffec
0029
ffed
0019
0007
fffb
ffed
fff4
ffe4
0000
fffe
ffe6
0016
ffc8
ffc7
0026
ffca
001a
fffe
0015
ffd9
ffd7
ffe5
ffbd
ffe0
ffc6
001f
ffec
0013
fffc
0036
0009
ffe8
ffef
fffe
0013
ffda
ffd5
0001
ffef
ffd4
fff2
ffec
fff6
0004
0009
ffca
0003
ffee
0001
0017
fff1
0000
0017
ffc5
ffbf
0017
0003
ffe9
fff8
000f
0023
0022
000d
ffe1
ffef
ffcf
ffd0
0011
0035
ffda
fffe
0016
ffee
ffec
000a
ffca
0022
ffe1
ffe5
ffe7
ffde
000d
0006
002a
0015
000c
ffe8
000f
0001
0003
000f
ffdb
fffa
ffd1
0008
ffd0
0002
ffd5
001c
0006
0036
001e
0005
0039
fffd
0003
001f
ffe1
0032
001f
ffdf
ffdf
0045
0002
0042
ffd0
ffe0
ffdb
ffb9
fff3
fffc
ffe3
ffda
0038
ffdd
ffe9
ffe0
0019
fffa
0005
0011
ffdf
ffd7
001e
ffdc
ffe6
ffed
fff4
ffd3
ffd1
0010
fff1
002e
0028
0011
fffa
fff8
000b
0008
0019
001d
002a
0010
000b
ffd2
ffd0
ffcf
ffec
0016
001a
ffeb
ffd8
ffd6
ffee
ffe5
000c
0009
0022
0019
fffb
fff2
fffe
0016
ffe6
001c
002a
0007
ffe7
fff7
ffee
ffff
ffe2
0027
0000
002f
fffd
0024
0023
0000
0001
0004
002f
ffee
ffc6
fff6
0006
ffd0
ffd2
fff8
ffb2
ffe4
001b
fffe
ffec
ffdd
0005
0005
ffdd
0020
002a
000b
ffef
fffa
ffec
fff0
ffc3
0004
fff9
0010
0017
ffea
fffb
ffdb
fff4
ffdf
0027
ffec
ffe1
ffe1
0005
0000
001f
0016
fffc
0032
ffcb
fffe
ffd8
ffec
0010
001f
001e
fff2
000f
fff9
001e
0027
0007
ffda
000c
0020
000d
0040
ffd8
0008
0030
002a
0006
fff5
002c
fffc
ffc6
0017
001e
fffa
ffd0
000e
0009
0018
ffde
0027
0028
001f
0049
ffec
ffc4
ffca
ffea
000b
0003
000e
0026
000f
0015
ffd5
ffce
0035
0024
0029
002b
fff6
ffe2
ffdd
ffed
000d
ffe8
fffb
0014
ffc6
fff6
ffda
ffd8
ffce
fff1
ffad
ffe5
0006
ffc4
0025
003c
ffca
ffbe
ffee
0014
ffd2
fff0
fffd
ffe6
0041
000a
ffd6
0019
0003
fff8
002b
0006
fffe
fff0
ffd5
ffba
ffe1
ffc8
ffff
ffca
ffc2
fff6
0000
000c
ffe4
ffe2
fff3
0006
ffe8
0002
0001
ffe7
0001
001c
ffe6
0007
0009
0025
0011
0001
000c
0023
0039
0029
ffe2
fff2
0018
0017
0041
ffda
0022
ffc5
0009
0027
0006
000c
0011
0032
0016
fff4
0008
ffce
0009
fff4
fff5
ffe7
000e
000c
ffed
ffdd
ffdb
fff5
ffe6
ffdd
0008
ffcb
0007
001b
ffe8
0028
0033
0030
0032
0038
ffd0
ffd4
ffde
0027
0035
001c
0018
000e
ffcf
0059
0053
ffe6
ffd2
0015
fffd
001f
0007
0014
ffdd
0002
ffc5
fffd
fff4
002d
ffd4
ffde
002e
0004
fffd
ffce
ffea
003c
ffd8
fff0
fff8
ffe7
fff5
fff4
fff8
ffb7
fffd
fff6
ffcb
0006
ffdb
002f
0005
ffde
0001
0011
ffef
ffd0
ffed
fffe
ffdf
0009
0004
ffc1
000c
001e
fffb
fff7
ffdc
fff5
0021
ffe2
fff4
000d
0011
ffff
ffbf
ffb4
fff0
0009
ffd2
0013
ffdd
002d
fffd
0005
002e
001e
0029
0005
ffd5
fffd
0014
ffe6
fff8
003f
0023
001f
ffe3
ffef
0038
0014
ffe4
0010
fff4
0005
004d
ffeb
fffc
0018
ffe9
000c
ffeb
ffe8
0032
002f
fffb
0017
0030
0018
ffef
0035
0003
ffe7
0018
ffba
ffd0
000d
ffd9
0009
0000
0012
fff2
0005
ffc2
ffb1
fff0
0019
ffee
0001
fff3
0018
ffdc
0008
ffe5
ffc9
0001
0009
ffe8
002b
0018
0019
ffea
fff8
0035
ffc7
0005
0006
ffdd
0001
ffef
fff6
ffed
ffce
0023
0027
0017
0010
0005
fff2
ffd5
002c
fffd
0005
fffa
0003
ffce
0010
ffe4
ffc2
ffcb
ffdf
0002
ffcb
ffe8
0006
ffff
0015
000e
fff0
fff3
ffcb
0009
ffce
001c
fff0
000b
fffe
0020
0014
002b
ffed
0009
0042
000e
0003
0009
ffd4
fffe
ffe7
ffe7
ffdf
000c
0011
0003
000c
001b
fff8
ffbd
ffee
fffc
001e
0008
0010
0023
fff5
0011
ffe9
ffeb
ffd3
0029
fffc
0038
0028
0005
0007
ffe5
ffee
ffdc
002c
0026
001f
ffed
ffc7
ffd0
0003
0027
0021
fff2
000e
ffe6
0015
0004
0032
ffc9
ffe5
002f
ffd2
ffe7
ffe7
ffd1
ffc5
001d
fff0
0024
0008
0018
0000
0029
ffcf
001b
fff7
fff7
ffce
001d
0014
002b
0010
0027
0013
000e
fffc
ffcf
0024
ffd9
ffe7
ffe1
ffce
ffdf
0009
ffab
0010
fff5
fffa
ffe3
0020
0022
fffa
0008
fffe
000f
ffdf
002b
ffdc
ffff
fff5
fff6
ffe3
0017
0011
0018
0009
ffd6
002f
ffec
ffda
ffef
ffce
001a
0025
0028
0026
001c
0005
001b
fff6
ffd1
000c
0025
0028
ffe8
0038
0001
fffa
0010
ffdf
0003
ffeb
0015
fffd
002b
fff2
0017
fffa
ffe9
ffe5
ffe9
fff2
fffe
fff1
0015
ffcd
ffcc
001f
ffe1
0005
0011
ffd1
ffd7
fff8
ffeb
fffb
0027
fffd
0011
0013
0008
0022
0007
0014
0022
ffdd
ffd3
ffe4
ffeb
ffdc
0018
ffeb
ffd3
ffee
001a
0005
001c
fff5
0009
ffec
001b
fff4
0009
001a
0012
0016
0012
001d
0017
0006
ffff
0026
000a
fffe
0026
0017
fffe
fff4
fff7
fffb
ffed
ffec
0008
fffa
0017
0017
fffc
ffdb
fffc
fff5
ffde
fffa
0001
0019
fff4
ffe6
ffda
ffca
ffd2
fffe
000c
fffd
0049
0018
0018
fff0
ffc0
ffd0
001d
002d
0033
fff2
0022
0018
ffdf
000d
ffdf
fff3
0001
001e
000f
0021
fffb
0007
0011
ffed
0014
fff1
ffe7
ffe4
fff4
001f
ffd7
ffee
fff3
fff9
ffe7
0016
0028
fff6
ffe5
000e
ffd5
fff2
fff8
001d
ffdd
fffe
000b
000d
0017
ffe9
0023
fffc
0007
ffdc
0006
ffda
001f
ffee
ffcc
ffdc
fff4
ffe5
ffe9
fff4
fffc
fff7
001d
000e
000e
ffd8
000f
fff1
000b
fff6
ffd6
ffdf
0022
fffc
0006
0021
ffe0
0006
0012
001f
ffd7
0002
0013
0000
0001
fff1
0003
0022
0003
001b
001a
ffea
0015
fff5
ffe8
000a
000e
fffa
0008
000f
0020
ffed
ffdf
ffe3
ffeb
fffa
ffe2
fff9
0004
fff8
0021
ffec
fff6
0016
ffe1
0004
fff4
0009
0020
0003
0011
0003
ffef
fff1
0000
0000
0007
fff2
001f
ffea
0015
0009
fff8
fffc
fff3
000f
0014
0011
0013
ffd6
ffdd
0010
fff4
ffef
0006
ffcd
ffef
0003
001f
0018
ffde
001b
000f
fff1
fff6
0006
ffd1
fff2
000b
004b
001f
000d
0011
0001
fff0
ffe3
0009
fff6
000e
ffdd
fff4
0014
000a
0018
0017
fff7
fffe
001f
ffea
0023
fffe
ffdb
000b
ffe0
ffdd
ffdf
fff9
0020
ffdc
ffd7
ffec
ffe8
fff2
fff1
001f
001e
fff8
fff7
ffed
0010
ffe8
0024
ffe4
fffb
fffe
000b
ffed
ffc8
ffff
ffeb
ffff
000d
ffe7
ffda
001c
fff2
0007
0018
ffdf
fff4
0005
0010
ffcc
ffe0
fffc
fffc
0002
fff4
ffdf
fff2
ffef
fff0
0009
ffeb
0018
0008
fff7
fff0
fffd
0006
ffef
fffc
000f
fff6
fff7
ffff
0002
ffff
ffef
fff9
000a
fffc
fff2
0000
000f
fff3
ffe5
ffff
ffe5
ffe1
ffe9
0009
0005
fff5
ffe9
fff3
0018
000f
ffff
ffea
ffe4
ffed
fffd
fff0
ffe9
0006
000f
fffc
fff8
fff6
ffeb
ffe9
ffe0
fffb
ffec
ffe4
ffff
fff3
fff9
fffb
0000
fff7
000e
fff8
fffa
000d
fffb
0011
000f
0009
0003
0012
ffeb
fffc
0001
0000
ffea
fff2
0003
ffea
fffe
ffee
fffa
fff2
0012
ffec
fff0
0008
fff6
ffe4
ffef
ffef
000d
ffeb
0006
000c
0000
fffc
000f
ffee
fffc
0002
0008
ffff
0005
fff5
0006
fff8
0007
ffe6
ffe5
fff9
fff7
ffe2
ffeb
ffe1
ffea
0011
fff2
000b
fff1
0016
0000
0017
0004
0011
fff0
000e
ffef
000b
0008
0010
0009
ffe6
0007
0011
ffff
ffe9
0018
fff2
0012
fffe
0010
0000
000f
0002
fff3
ffef
ffec
ffec
0013
0013
0006
ffeb
0016
ffee
fff9
ffed
0016
fff4
fff0
ffe7
fff4
ffe0
fff7
fffd
000b
0005
fff6
fff4
0009
fff4
fff6
fff8
fffa
fff4
0017
0002
0004
ffea
0009
ffed
fff3
ffee
fffa
0007
fff5
fffb
ffeb
ffea
0014
fff5
fffc
fff0
0000
0006
0005
fff5
fffc
0000
000d
0009
000a
fffd
0004
fffe
ffe6
000e
ffff
fff8
fffc
0002
ffff
0007
fff3
ffec
0007
fff0
fff5
0001
fff1
0004
0004
fff1
ffea
ffe9
ffec
0004
ffeb
000e
fff1
fff0
fff9
0010
fff3
0012
fff2
fff4
0013
ffff
fff0
ffe9
ffe6
fffe
ffeb
000d
fff6
0004
0009
fff3
ffed
0004
fff6
0011
fff6
0007
ffef
fff5
000b
fff7
0004
fffd
0009
fffe
0010
fff4
fff3
0012
fff7
fff8
fffd
fff3
ffe5
fff5
fff4
0006
0014
000b
fff5
fff9
0005
ffeb
ffef
fff2
ffd8
0005
fffb
ffc6
fff4
ffea
ffe9
ffe2
0010
002a
ffe3
0005
0020
ffd5
ffd7
ffde
fff8
ffec
0017
0018
ffef
001a
ffe9
fffd
0002
fff8
ffed
001d
001d
0000
ffec
0004
0020
0022
0027
0011
0022
000c
ffe1
fffb
fffc
001b
fff2
000c
0012
0019
0001
0015
ffe9
fff8
fff3
fff5
001d
0026
fffa
0003
002d
001a
ffe2
003e
fff3
0009
001f
001f
000e
fffb
0035
ffff
001c
fffb
fff7
0016
ffd2
001b
ffd8
fff7
ffec
0019
001b
0011
000a
fff6
000b
ffda
0015
0001
0003
ffde
ffe1
ffd7
ffca
fff0
ffde
ffd6
001b
0042
0027
0016
ffd7
001e
ffc9
fffb
000d
0001
ffd9
ffec
0008
0014
0000
ffde
fff5
ffda
ffe4
0004
fffd
fffe
ffc2
ffc7
0019
0001
0001
0013
ffee
0027
ffe6
ffd7
000f
ffe4
fff2
ffce
0011
fffb
ffdf
fff9
0001
000b
ffe4
ffd5
ffdd
ffd3
000d
000e
002d
002a
0000
ffdc
ffff
0003
0015
0013
0004
ffe9
ffdb
ffde
ffdd
002b
0020
0040
0017
fff6
fffc
fff4
fff2
0029
fff5
ffe7
0023
0012
000e
0000
fff8
0000
0018
0010
000f
0001
0002
0000
ffe0
001e
fffb
ffe1
000b
ffe6
ffdb
0029
ffe3
fff1
ffcb
0026
000b
ffea
fff4
ffe5
ffed
001f
0019
ffe4
002d
0012
001f
ffe5
0035
fff4
0004
ffd2
0002
ffe5
000c
ffda
ffe3
000f
ffd9
ffee
ffe6
fffb
fff5
fff9
0008
002f
001c
ffd8
000d
ffea
0018
fff7
ffdf
0017
000d
0012
fff0
ffd6
0021
001e
0024
000d
0002
ffd7
fff3
000f
000e
0011
0025
0036
0005
0011
002d
ffe7
0011
fffd
0000
ffdf
0018
fff1
fff0
0001
002f
0012
fff8
fffd
ffe1
fff2
fffe
fff3
ffec
fffb
002b
000c
ffe8
ffc3
ffcb
ffee
fff2
ffb7
ffde
0016
ffd9
ffed
000b
fff3
ffda
0001
ffde
fffb
ffd3
0009
0005
0000
003d
003c
0036
ffe5
ffe2
ffec
0007
0005
ffee
ffe3
0025
fffd
fff0
ffc6
0011
ffea
fffc
0005
fff4
fffc
0016
fff2
ffe7
001c
000b
ffcd
ffe2
000c
000c
ffe0
0020
ffdc
0029
ffd1
000d
000d
0013
ffe5
0008
ffe4
ffca
0027
fff8
ffff
ffde
0023
001b
0016
0013
0008
000d
fff2
0017
ffc2
ffd6
0033
ffde
ffa7
0010
ffda
ffeb
fff2
ffd0
ffba
001f
0028
ffde
ffcc
0022
0009
002a
ffed
ffe7
ffdb
ffd7
0013
000b
0012
fffc
000e
fffd
000b
0019
002a
001b
000d
0033
ffe6
ffd0
001d
ffda
0023
ffda
0002
0017
0012
0007
fff9
0007
002c
ffeb
0000
ffed
ffed
fffd
0006
fffd
ffe3
fffd
0017
0003
fff0
ffda
0021
0018
000f
fff8
ffe8
fffb
0029
0019
ffd4
003a
001c
ffe9
0001
0003
ffe4
0021
0018
001e
000a
ffdd
000b
fff1
ffed
fffe
fff8
0019
ffdd
002a
ffd8
ffe5
ffe6
001d
0028
0003
0021
ffe9
0018
0009
003b
ffdd
fff4
000b
ffcf
0027
ffcb
0023
ffc3
ffc3
0014
0010
ffdf
fff3
0032
fff6
ffd9
0006
fffa
0018
fff5
0007
000d
0025
fff2
0004
ffef
ffe1
fffa
fff8
001c
0008
001f
0020
fff8
0001
ffda
0008
ffe0
ffe9
ffce
0017
ffcf
ffca
fff0
ffac
ffe4
ffd0
ffbe
ffee
0006
fff8
fff0
0014
ffed
fffa
000f
000e
0018
0023
0025
ffee
002d
fff4
001a
ffdd
0011
0029
ffff
ffe6
003e
fffa
ffac
ffb4
ffcd
ffe7
ffb4
fff0
fff0
ffde
fffb
ffeb
000d
0024
fffa
ffe3
fff9
fff9
0029
0009
fffa
ffe1
ffd9
0019
fff8
fff6
000d
001e
000d
ffff
ffde
0023
001f
fffb
0002
ffeb
0011
0034
0003
0007
ffd7
002f
ffd0
fff4
001a
0019
ffff
ffe6
0034
fffd
0017
001f
ffec
0021
ffe1
000d
001d
0009
0011
ffd5
0024
001e
001c
0030
0007
0013
fffa
0014
0033
0000
0011
0015
fff2
0001
ffe4
001b
ffb2
000f
000a
0004
0003
ffc4
fff9
0010
ffe3
ffe9
ffc7
0019
0004
ffde
0021
001e
0013
ffdf
001d
0006
ffe8
001a
0027
0029
ffe9
0001
ffe7
001d
ffee
ffeb
0006
0006
0017
0019
ffe0
001a
fffb
fff3
001b
ffe1
fff3
fff7
fff3
000f
003a
0026
002c
0008
002b
fffd
0018
ffe1
0002
001d
ffbf
000a
ffe2
0019
001a
ffe0
fff7
fff5
0000
ffd3
ffcd
ffd8
ffcc
ffca
ffdb
ffc6
ffdc
0007
ffe3
ffe1
ffe9
fff5
0022
fffe
fff6
0019
ffe8
0014
ffe5
001e
ffe8
fff3
fffc
0003
ffec
0020
001d
0018
0003
fff4
fffb
0003
0013
ffdd
ffe2
ffe4
0016
ffed
0015
fffa
ffea
0005
ffc2
ffca
ffe1
0008
ffd5
0030
0007
ffe8
0024
ffe8
fffc
ffe1
ffd4
0004
fffe
002c
ffe8
001f
0003
ffdd
ffdd
fff0
0003
0027
ffef
0004
ffd1
fffa
fff0
ffdc
fff3
0017
0023
fff3
0000
000c
fff8
ffe7
ffe8
ffee
ffcf
ffd6
fffe
001a
ffee
0003
fffd
0009
000b
0006
ffdf
002f
ffe0
ffe1
ffee
001a
0003
0011
fff7
0024
0010
000c
ffee
ffdf
001a
ffd8
0013
ffe0
ffe4
fff9
fffa
ffd4
ffeb
0014
fff8
000a
0007
ffd6
0008
fff9
0006
ffea
ffdf
ffd9
ffc9
ffe6
fff2
ffc5
000f
ffef
002c
ffea
ffef
0020
0029
000e
ffef
0011
0008
0012
0011
0017
0017
ffcf
ffe0
001d
ffe0
ffe2
000d
ffd7
ffed
ffff
fff2
ffff
ffd8
ffef
0008
ffdf
fffe
001e
ffe0
ffee
fff1
001a
ffed
0028
fffb
0007
0001
fffb
ffe1
000f
000e
000e
ffe5
ffeb
0017
ffe5
ffe5
ffdf
ffef
000e
fff7
0010
000a
002a
fff4
0000
ffe4
0002
fff0
fff6
000e
0004
0016
0008
ffd2
ffea
fff7
ffe7
0015
ffe8
ffe4
0004
001d
001e
001b
ffee
fffb
0034
001c
ffb0
fffd
ffdf
ffb9
ffe8
ffb0
fff6
ffbe
0027
fffd
0041
0013
ffd1
ffbc
fff5
ffb7
ffc5
000e
ffe7
ffc1
ffd2
002e
0025
001f
002a
ffd3
ffea
0004
ffd7
ffd4
0011
0007
002f
000a
0002
0049
ffab
ffd4
0020
ffb4
ffce
0005
0026
0002
ffea
0035
003a
ffe7
ffe2
ffb5
ffda
ff86
ffab
ff8d
002e
ffed
ffda
0044
0032
0066
0005
0012
0020
0012
0018
0041
003a
001c
005e
0026
ffc4
0027
0043
fff3
ffe5
ffd7
001c
fff0
005b
006a
000a
0058
0034
000e
ffe6
0029
0011
ffde
0007
fff5
fff9
000e
ffbb
ffd0
003f
004f
ffee
0017
ff86
fffb
0031
0033
0033
ffb6
ffdf
ffdd
ffee
ffc3
0001
0017
001d
000f
0027
004d
ffb9
0007
0041
0009
0012
0022
ffce
0013
fffa
0030
0027
003a
0011
0050
0008
0004
0015
ffc5
ff86
ffc1
0019
fffc
ffe6
ffb5
fff8
0031
ffd2
003c
005d
001e
0027
0034
0041
ffb9
ffe6
ffc0
ffd6
0009
ffec
ffa9
ffe4
ffd5
ffa6
fffe
001c
fff9
fffa
004b
0044
001d
0059
ffeb
000f
001a
0008
ffbe
0038
ffa8
001a
ffdd
004c
0023
0002
003a
0057
ffe5
0006
002f
0043
ffe7
002d
ffa3
0014
ffbc
ffdc
fff6
ffe7
0000
0066
0038
fffe
005f
0002
ffd8
0033
fffe
000f
0018
0024
003d
000a
001c
ffee
0034
000a
0046
ffc9
ffd0
003d
fff9
0000
0035
0024
0029
0008
fff7
000b
ffb1
004c
0016
ffd8
0025
0046
005b
ffe2
0041
ffcb
ffa8
fffa
0007
ffe2
004d
0041
ffcd
ffd6
ffc3
ffff
0001
0045
0008
fffc
fffb
fff1
ffce
ffdb
ffcc
ffd5
ffb3
0000
fff1
0054
ffd9
000a
ffdd
0009
ffe3
ffd3
0055
0021
0047
0008
ffdb
0004
ffb6
ffb4
0020
0012
0002
000b
000d
002f
ffd1
ffab
ffc9
fffa
ffa7
ffab
fff5
fff9
fff3
fff7
fffa
ffc0
0018
ffbc
003a
fffa
000e
ffbd
0016
0030
ffc1
fff9
fffc
ffe4
ffcc
ff8a
ff56
fff7
ffcb
0078
00b6
ffa6
001f
003b
ff86
0000
001b
fff1
0004
ffc3
0034
ffc5
0031
ff8b
ff94
004f
ffcc
0059
001f
0035
002d
ffdf
004c
ffae
ff97
0022
ffe0
ffb9
ff5e
ff9d
fff0
ff9c
fff7
ffce
ffd8
0018
ffeb
0025
0017
ffd0
ffed
ffea
ffc6
0012
001f
0073
0042
001a
0001
0025
ffc9
ffe3
ff95
ffb6
0060
ffd8
003c
0020
ffe4
ffd0
0071
001b
fff4
ffb1
002d
000f
fffd
0044
ffda
ffcf
ffeb
ffaa
0002
ffeb
ffe3
ffe9
0037
0023
0054
ffdb
ffd2
003d
002e
ffb3
002c
ffc9
0041
001b
008d
ffba
0060
ffc1
0042
0044
0027
0049
002f
0013
ffcd
002e
002c
ffd8
ffe8
007e
0042
0002
0006
ffb8
ffcf
ffc4
003b
ffa7
006e
0003
0089
fff1
ff6d
002a
0034
ffae
ffdc
0033
ffa6
ffa0
0007
0043
ffb2
ffeb
001a
000e
0094
0030
fff4
0017
ffe6
0039
000c
ffa7
fffa
fff1
0036
004a
000c
ff98
ffb2
ffe0
005e
ffb8
0046
fff1
fffa
ffae
003a
002e
0004
0006
003d
003c
0047
000e
0047
0014
ff9e
fff8
0015
002c
001a
0070
0060
ffa8
0004
ffa4
ffce
0048
ffe8
ffcf
003f
0023
0036
0019
fff9
ff89
0068
0002
ff5e
002c
ffe9
ffda
001f
0036
ffb0
ffa1
0038
ffcb
ffbf
006a
ffc5
ffd1
ffd7
ff83
0020
0044
0030
0088
ffca
ffb1
004f
0003
0065
ffde
004e
ffb0
ff98
0046
ffd3
0014
006e
ffdd
ffda
000d
ffb5
005a
002e
000c
ffa4
0026
0008
0016
ff6e
00a2
ffbf
ffb0
ffd5
ffd9
ffbf
005e
ffdd
ffdd
00bb
006c
ffcd
0034
ff7b
ffcb
005f
0014
0033
ffba
0016
ffd1
0011
ffa5
0046
002f
ffa6
ffc6
0011
ffa8
ffc0
fffe
0014
ffb6
ffc3
ffc1
ffec
001e
0018
fffa
ffc9
0035
0019
ffd3
ffc2
fff4
ffd6
000b
ffe9
ffee
ffd5
000c
0001
0032
0036
003f
002f
ffe2
ffea
ffc7
ffd7
ffe6
0048
0003
0032
0046
0022
0013
003e
0009
ffef
0019
fffd
fffd
0025
ffe1
ffd7
fff0
0005
000c
ffcc
ffff
ffe0
001b
0023
000b
fff7
0019
000a
000a
001c
0026
0030
0026
ffef
fff5
fffa
ffd9
0016
ffbb
002d
0022
0004
001f
0002
ffd2
fff6
fff8
000e
004f
ffe6
001e
ffef
ffae
ffae
ffd9
000b
ffca
0028
ffda
001e
0003
0010
0010
0046
003f
003a
003a
ffef
0023
0025
001a
ffd7
ffd0
ffcd
ffcc
fff4
003e
0011
fff9
ffff
001e
0012
000e
0006
ffcd
ffff
ffe6
ffd4
ffdb
ffd0
000e
fff2
0022
fff8
0010
ffed
002a
0029
ffe6
003c
0019
002b
003e
002c
fff0
ffe3
ffb1
0004
ffe6
0037
fff3
fff0
ffec
003c
ffdf
ffac
ffdb
ffe7
0024
000f
0020
003d
0034
0015
ffcf
ffcc
001c
004d
fffc
000d
ffff
0017
ffed
ffbd
ffd3
0017
001d
000c
0023
ffed
ffd6
ffc7
fff5
fff2
ffe9
0001
ffd5
ffd3
0011
fffa
fff5
ffdc
0039
0004
ffef
ffe1
0001
0012
ffea
0032
0022
0048
ffed
0011
ffed
fffc
ffd8
ffc6
0035
003d
ffe2
ffe3
ffee
ffc4
002d
fffd
000c
ffef
ffda
ffe1
ffdd
ffe0
0029
003d
0008
ffce
ffdc
0030
004e
0015
0017
0013
0033
001c
0015
0033
ffbe
001a
0039
002d
0037
ffc2
002b
0005
ffd7
ffb1
ffcd
0000
ffde
000c
ffe0
ffdf
ffd8
ffeb
002a
0000
ffff
ffee
ffd2
fff5
ffdf
ffc1
fffc
ffda
002d
fff8
0002
ffbb
0040
ffe9
0016
0025
0013
fffa
ffe9
0002
0000
0038
ffeb
003b
0027
fff4
ffb8
ffd1
0008
ffdf
002c
fff6
fffd
0050
0010
0039
ffc5
ffc0
ffe2
ffad
fff5
0000
0005
ffc2
ffbd
000b
0001
0039
000c
ffe4
ffe7
ffd1
003a
002f
ffb0
0053
ffc7
fff7
ffc4
ffea
ffaa
ff95
ffe2
fff7
ffef
0002
fff0
003f
007c
fff3
002b
001d
001a
0031
ffe7
0013
ffbf
0053
0015
003b
0029
004d
ffcf
0005
ffe9
ffd3
0020
fff2
ffd6
000c
0018
ffe3
ffe5
fff8
ffa2
ff93
ffc8
ffc5
ffc2
005a
ffd3
003d
ffea
0021
0018
ff9c
ffdd
fff2
001c
0059
ffb0
0013
0028
0072
001c
0006
0056
0009
004d
ff9e
0013
0013
ffec
000c
fffd
ffc6
0017
0003
0017
fff8
ffef
fffa
ffa5
000f
ffea
ffc1
ffde
0034
ffd7
ffc2
ffc3
007c
007e
0014
0031
002c
ffcd
ffd3
001a
0023
ffe3
ffec
0022
002a
ffc2
ffe0
0001
0010
0036
0016
004b
0016
0050
000a
0053
ffe7
ffd3
0055
002d
0028
ffb8
0030
fff5
ff8c
0002
ffee
ffae
ffae
ffa3
0032
ffed
0014
0004
ffcb
fffb
ffab
0010
0049
0027
005c
fff3
0063
ffbf
ffbd
fff2
ffe3
0001
ffa1
0060
0031
0036
fffd
ffff
ffd9
0005
ffc8
ffdb
0046
ffb1
0030
ffc9
ffad
0035
ffdd
ffd0
0024
fff4
0027
0036
0042
ffdc
ffd7
ffc4
004b
ffa9
000e
002f
0055
ffa4
0025
000e
ffb7
0043
ffd9
ffd1
ff8f
0008
ffd3
003c
0002
fffb
0062
0054
ffc6
ffbf
fff7
0030
ffa9
ffdd
ffce
ffad
fffb
0038
ffde
ffdf
0004
ffd1
004c
0028
0004
ffe6
003d
ffaf
ffcc
001f
005d
ffb8
0029
ffa9
002a
0002
ffef
0001
0005
ffa9
0035
ffd6
ffbf
ffaf
ffde
ff9c
ffa7
0019
0022
ffd0
ffd4
ffca
002c
000f
0009
ffbc
0056
0029
ffcc
003d
0050
ffda
001f
0060
0053
fffa
0018
ffd5
ffbf
ffe1
0007
ffde
0044
000b
ffbf
0004
ffed
ffda
ff8f
ffb3
ffb9
ff98
ffb3
ffd4
000b
ffb5
004a
008e
0077
0024
ffc6
ffb9
fffd
fff1
0034
ffd0
0032
0031
001f
007c
fffd
002e
0045
001b
ff9c
ffc5
ffb6
fffb
ffc3
fff7
fff7
ffef
000d
0036
0030
000f
ffd4
001a
ffba
ffd4
0037
ffd7
0000
0030
0039
ffc9
ffd4
ffde
ffce
ffeb
ff9b
0004
002d
0014
0001
0001
ffdc
ffd4
fff1
0015
fff9
ffef
ffd1
001a
fff3
0028
ffbb
000b
0008
ffcc
0020
fff2
002d
0015
ffb8
ffe7
ffe9
0008
002d
001f
0013
0015
ffd8
ffe6
0067
000e
fff8
0028
005c
0010
ffbc
ffe1
ffc5
ffca
0016
ffd9
fffa
002e
0020
ffd6
0009
002b
ffdd
001e
ffcb
ffd0
ffd0
0030
0001
0026
ffe4
002d
002d
0023
0011
ffd9
fffc
0003
ffe0
001c
ffcc
000d
ffe7
ffe6
0004
0002
0031
0016
fff7
003e
ffd3
ffd7
ffc3
0006
ffc6
ffe3
0033
0011
001f
0030
0001
0026
0009
ffe0
ffe6
001b
fff8
ffdc
001d
ffdd
ffea
0008
004b
001a
ffbf
ffd6
0002
ffe5
fffe
002e
ffe2
004d
ffcb
0035
fffc
ffee
ffe9
0007
fff5
ffe9
001e
ffea
ffec
ffdd
fff2
ffb5
ffbe
002b
0020
000a
002d
003b
ffd8
0035
ffe3
002b
ffe7
ffde
0014
001d
ffe2
ffd0
ffe6
001c
ffd8
0030
0018
0012
0015
0010
ffe0
0035
0004
001c
ffcc
ffd5
002e
0006
ffd4
ffc9
ffd2
003c
ffc6
0029
0039
002f
002e
ffda
002d
ffc2
ffda
ffe3
ffd2
0012
0016
ffdc
ffd7
0009
0014
ffb7
0013
002c
001a
0008
0003
0046
0000
002b
0021
002a
000e
0019
ffc2
ffc7
ffeb
0013
fff8
0031
ffdd
001d
0039
ffff
fff7
ffb5
0019
0021
002d
002d
0039
0022
ffe0
ffd5
ffd8
ffd3
ffe6
fff5
0023
ffc2
0023
0024
ffed
ffd6
ffd2
ffb7
fff8
ffdf
0022
0027
fff8
0022
ffff
fffd
ffd3
fffb
fff9
ffc1
ffe5
0002
ffb4
ffd4
ffe1
0016
0018
001b
001f
fffd
ffe5
fff9
ffbc
ffec
002c
ffca
001d
ffd1
000c
0012
ffed
ffda
fff1
fff6
0035
fff1
000f
0012
0003
000d
0019
0008
ffb2
ffc1
0019
0032
fffc
0019
fff7
0059
0015
0009
ffcb
0006
ffca
0029
0001
fffe
0056
fffa
fffe
ffc2
002d
ffd9
fff9
0051
003b
0000
ffc6
ffe6
0016
ffec
ffdf
ffe9
fffa
0000
0021
0017
fff3
0018
003f
0015
0013
0040
0044
0068
0039
0018
005e
0023
ffef
001c
0020
ffda
0041
0047
ffe5
ffe1
0005
ff78
ffc1
ffb3
fff1
ffe9
fffc
002d
0021
fff3
ffd4
ffb9
ffd3
000d
002f
ffe0
fff4
0048
0031
002f
004c
0012
0000
0010
0022
002e
ffdd
0021
ffda
001f
ffe5
ffee
0038
fff8
fffa
0005
ffcf
0022
000d
0016
0002
ffdb
0029
002f
ffea
ffb0
0005
ffc6
0012
ffe6
0007
0021
002d
ffc6
ffaf
002a
ffcf
ffc2
0028
ffc8
ffca
0009
ffd4
ffd0
ffea
0036
ffdd
000a
0015
ffe6
0004
ffee
0007
ffdc
001f
0029
0001
ffc6
ffea
ffc3
ffcf
0004
0043
003b
0038
001a
0044
fff1
006c
002c
003e
0008
ffe2
ffe4
fff5
ffb1
ffd0
ffeb
fffb
ffd8
0031
ffe5
0031
0015
ffbf
0000
003c
fffe
0029
ffe7
fffd
ffc3
ffb7
ffcb
0008
002c
ffca
0034
001a
0042
001c
0019
000b
fff1
0005
ffe7
000e
ffe6
0008
0011
ffd5
ffbd
ffe4
fff1
ffd5
fff4
ffd2
ffd3
ffda
fff4
002e
ffcb
0023
ffc6
0020
0054
ffcb
0002
0005
001c
ffcc
ffc6
0018
0020
0030
fff1
0021
ffd5
ffce
ffe8
0014
001a
fff8
0031
0023
0058
0005
fff0
0004
fff5
fffa
0053
ffe1
0043
ffeb
ffb6
fff8
0011
000e
0006
0018
ffc3
000c
ffcf
0027
0040
000d
004f
ffc5
0016
ffec
ffde
ffdd
000a
004d
ffce
ffe6
0048
ffe1
003c
005d
0081
0001
fff5
0030
ffe0
0033
0029
0029
ffd4
ffd1
002f
001a
fff2
000b
001f
000b
fffa
0024
ffb1
ffd1
ffe6
ffd5
0018
0016
0050
0061
0070
0032
ffef
0007
ffd9
ffe0
001a
0010
0000
0023
0023
ffc4
0020
0008
ffc3
ffda
ffe7
000a
ffd4
0024
ffea
ffe7
ffb2
ffe8
ffb6
ffe3
001c
ffd9
0024
001a
fff4
ffd8
002e
ffee
fff7
0014
ffe7
0018
ffca
000e
fff5
ffd4
ffc2
001f
ffc7
ffd0
0021
ffce
fffa
ffd9
fff2
ffde
ffe6
001c
fff2
000f
0003
0009
0015
ffec
fffa
ffd2
fff5
ffea
ffdb
ffe0
0004
000f
ffdc
0006
ffec
0005
ffc4
ffd8
001e
fff5
ffe3
0024
ffdb
0022
000a
0002
ffd5
ffed
0009
000a
fff8
ffdf
fffd
0034
fff2
ffe6
fffb
fff6
0020
ffde
ffdb
000d
000c
fff0
0005
0014
fffe
0018
002a
ffe3
0023
000c
001c
fffd
000b
0009
ffe8
0012
ffef
fff1
fff9
0036
0034
fff2
ffce
ffe0
0027
ffd6
0026
fff5
0014
0015
ffa2
ffdb
0000
ffef
ffbb
ffd6
0017
ffdc
0051
000a
000f
ffd5
000b
fff0
0008
ffed
fff6
0011
ffd3
fffe
ffed
ffe7
0009
0005
fff3
0021
fff0
0005
0012
003f
ffdf
fffe
0014
ffe6
0019
001a
0020
ffe8
fffc
0021
ffe7
ffe1
ffeb
ffe0
ffee
ffe4
000d
0033
000d
0009
0024
ffdf
ffeb
ffd3
ffe0
0001
ffe6
ffe4
0008
fffc
002c
0010
0003
fff3
0017
0024
ffed
0017
fff0
ffca
ffe9
0021
fffd
0006
ffef
0043
fffe
000e
0016
001a
0014
000a
fffe
0016
ffed
ffe6
000f
ffce
ffe9
0019
0011
ffef
ffc4
ffe9
ffd6
ffe6
0010
000d
ffe0
0026
000e
ffe3
0016
0007
ffde
0013
fffe
fff1
0023
0023
ffde
ffd8
ffd7
0005
002c
0011
001f
fff9
0015
003e
001c
0016
0016
0031
0000
fff9
0019
ffda
fff2
ffc9
ffcb
0009
0004
ffd7
fffb
ffe3
ffeb
ffec
0022
001b
fff9
0005
ffe8
0002
0003
001f
fff1
fffe
fff6
0008
0042
0025
001a
fffd
0006
001f
0016
ffe9
fff3
0009
000f
0010
0019
ffdd
0000
ffe1
0033
fff6
ffd5
ffdb
0014
001f
003e
0041
fff7
0005
0023
ffd6
000e
ffc0
000a
0042
000a
ffc2
001c
ffcd
fff2
0008
fff5
ffec
0044
0041
002f
0022
001a
0029
0018
ffd3
0011
fffd
0013
0046
fffa
0029
0024
0003
0017
ffea
000a
0008
0000
0050
ffdb
fffa
002c
ffe7
0012
0049
0037
ffd6
ffd4
002f
ffdb
0014
ffe8
ffe6
002a
002e
ffdc
0005
fffc
ffc2
ffcd
0023
0013
ffe8
001f
0001
fff4
fff6
0038
ffdf
0041
ffff
0029
fff6
0032
ffd7
0001
ffd6
ffde
000c
ffb0
001b
0023
ffcc
ffd9
ffd6
fffb
ffff
fff2
002c
0033
ffdb
ffde
002a
0009
ffda
000a
ffca
0023
0030
ffd4
002b
0028
fff4
ffbc
fffa
fffd
ffca
ffc4
ff93
ffbb
ffdc
ffbf
0003
0001
0004
0056
002d
0000
0014
ffc5
ffca
0023
ffd6
ffce
002e
ffd0
ffdc
000e
0033
ffcc
ffd9
fff5
0026
ffdc
003f
0043
0047
0003
003c
ffee
ffd5
000a
ffe2
0023
fff7
0009
ffd4
0002
ffed
0019
fff5
001d
fffc
000e
0008
ffec
ffed
ffde
ffc6
ffbe
ffcc
003c
0049
ffeb
0026
ffef
ffc9
ffb5
000d
ffe1
ffd5
001b
0021
ffe0
0006
0017
ffc2
ffb8
0029
fff8
ffc3
ffec
ffc0
0004
0045
0007
ffea
fff2
fff6
ffec
fffe
0011
ffc6
ffca
ffc3
ffea
ffc4
0040
0019
000f
ffd5
ffc9
ffd2
ffff
0019
000b
0020
fffd
fff0
0019
001f
0023
ffed
0019
ffca
000c
0020
fff1
0018
ffd2
ffd5
fffe
0009
ffe7
0023
ffd7
002d
003b
ffcc
0032
000b
ffd1
0024
0002
0007
ffe4
003d
ffdf
0001
ffbf
fff9
0019
005a
0033
0029
0022
ffd3
001d
ffbd
ffca
001f
0026
ffd8
003e
0054
0011
fff9
0002
ffa7
ffe6
0015
ffbd
ffe0
0022
ffcc
000e
ffe7
0003
ffd2
0013
ffce
ffe0
ffe6
fff0
ffe2
0016
fff2
0007
ffff
ffc4
ffe9
ffec
0032
001e
ffc2
ffd2
fffb
0042
0019
002d
000e
fff2
0006
0005
ffe3
ffec
0001
fffa
ffff
ffef
0002
0002
ffe7
0011
fff7
ffd6
001e
ffc7
0017
ffdc
002e
0009
0006
ffd7
0016
ffed
001f
ffe3
000c
003a
0035
0026
fff6
0032
ffff
fff9
0000
002a
0001
ffef
fff1
0001
0007
0039
000e
001b
004d
ffe4
0026
0014
ffee
fffe
002e
ffed
0050
003d
ffee
fffb
ffdc
002e
0039
fff5
0004
fff9
fffb
0004
ffc9
ffb6
ffeb
ffcb
fff9
fffa
0007
0024
fff6
001d
0012
ffdf
0027
ffeb
fffe
ffd2
0032
001d
ffdb
ffc1
0038
ffe2
ffce
fff9
0028
0012
003a
fffc
002c
ffcc
0016
ffd9
0028
0038
001b
0002
ffee
0002
001f
0007
0013
fff7
0032
0025
fff5
ffe7
000e
0009
0000
ffd6
ffb5
001b
ffdc
0026
fffb
003e
ffe9
fffe
0003
ffc5
0012
ffe3
0033
0027
0009
ffe2
ffb8
ffc0
fffc
ffde
000e
0019
fff3
fff6
0026
0014
0035
002d
ffdd
fffd
ffc4
0002
ffe8
ffe6
0003
000f
0030
001c
003b
fff7
0028
0007
0029
0034
0044
ffe5
002a
fff4
0003
0005
001b
ffbf
ffc8
ffe1
001d
0028
0023
000b
0007
0043
002b
0007
ffc8
002e
ffef
ffdd
000b
001c
001e
fff0
0003
ffee
fffe
002e
fff6
0009
fffd
0032
ffda
ffb3
0011
001f
ffc1
ffeb
002e
ffe0
fffc
0002
0010
fffe
0025
ffcf
ffeb
0030
fffc
0018
fffa
fff2
001f
0003
003e
0019
ffd4
003e
0041
ffd8
ffe0
ffbc
0029
000e
ffc6
003c
fff5
fff7
000b
ffbb
0025
ffda
fff9
ffed
ffff
0018
0025
0020
ffd1
fffb
ffd1
ffb6
ffe9
ffd5
000b
0018
0032
ffee
0004
ffe0
001f
003d
0017
ffcc
ffdd
ffc9
ffb5
0013
ffff
ffc5
002c
ffd6
ffd9
003d
ffc0
0013
002d
fff9
ffcf
ffcf
002a
ffd3
0026
0004
001c
ffef
001e
ffd4
ffc3
0005
ffe5
001e
0012
0009
0032
fff5
ffdf
0010
ffef
ffd7
ffc5
fff9
ffe8
ffeb
ffc3
0004
001f
ffb3
ffb7
ffb1
001f
002a
ffe9
0027
0015
ffdb
0039
fffb
ffde
ffbe
ffe3
003e
ffe0
0009
0028
ffff
ffed
fffb
ff9e
ffaf
ffc2
ff8e
ffc3
fff0
ffab
ffd2
ffe8
0015
0013
0010
fffd
0051
0040
0011
ffd4
0043
0012
002e
ffd9
0040
fff7
0001
0025
ffcf
ffb2
ffcf
ffc7
0027
ffd9
0026
fff1
0012
0025
ffeb
0004
0034
ffdc
ffcf
ffe8
0041
000c
ffd2
ffd7
fff7
ffd4
0004
0009
000c
fff4
0010
0013
fff1
000d
0003
ffe2
002b
0035
000b
fff7
fff3
ffe6
ffdd
000b
ffe3
000b
0018
0004
ffd8
0011
ffdd
ffe3
0027
0030
0007
fffd
0036
fff8
001c
0030
ffe3
ffb6
ffdb
ffd9
0000
fff8
ffec
001f
0049
0037
002d
fff3
000c
fff8
ffff
ffe9
002a
ffe6
fff7
ffd9
fffa
0000
002f
ffc7
0013
0024
0001
ffe5
ffc4
0017
ffdf
ffe1
0002
0020
001b
ffed
0009
ffde
ffd2
002f
001a
fffe
002e
ffe5
ffd8
0005
0011
0016
ffe8
002c
ffe4
ffcb
fff7
fff0
001c
ffcd
0017
ffe5
0016
ffd1
ffce
001c
003c
ffee
fffe
ffe9
ffe7
0022
ffe2
002a
0016
0010
0026
0029
0009
ffc9
ffee
0020
fff9
ffee
ffb5
0024
0020
ffda
0041
fff3
0001
ffd7
0031
001b
ffc7
fff1
fff7
fff0
0035
004b
ffd2
ffdd
001c
fff6
fff9
ffbd
ffe5
0016
fff6
001e
0023
0015
0018
0000
001c
fff4
002a
ffdd
0034
ffea
ffd7
ffea
ffcc
ffff
ffcd
ffdc
000a
ffea
000a
ffea
ffd5
ffd6
ffd2
004a
0009
ffd5
ffe9
0029
ffff
002c
0046
003a
0019
0021
fffc
0002
fffa
0041
0012
fffd
ffc1
ffdf
ffe6
003a
ffee
fff7
002a
ffdc
002a
0007
fff5
0017
ffed
0004
002d
fff9
ffd7
ffce
ffe7
000e
ffd8
ffd4
fff7
ffe1
0027
ffcc
ffce
fffd
fffc
0017
0008
ffd6
ffeb
ffc1
ffef
fff1
fff3
ffd5
fffc
0008
fff1
0010
ffca
ffd9
ffe8
002c
000e
0025
ffef
fff9
ffdf
002f
0009
ffd8
ffcf
000f
0002
001b
fff8
000f
0019
ffe1
fffe
0001
0000
0001
001f
0000
ffd9
fffa
000b
fffb
ffe1
0004
002a
0016
000a
000f
0003
ffe2
fffc
ffca
0008
ffeb
0014
ffbd
ffc7
ffa4
0016
002e
000b
001d
0032
000c
fffa
0016
0024
0023
fff1
002c
fff1
0008
0012
0013
ffe9
fff2
ffe4
ffe6
000a
ffe7
fff2
fff1
ffcd
0006
ffd5
ffea
001a
002d
ffe9
0012
ffdf
ffd3
001f
fff5
fff9
ffff
fff8
0013
ffe5
0028
ffdc
ffd6
fff2
002d
001a
fff7
0026
ffdd
ffef
ffff
0009
000f
0029
0012
ffea
ffee
ffc4
fffe
0018
0014
0000
fff5
0019
ffd9
0027
002c
0021
ffe9
0017
fffe
fff2
0016
0011
000d
001b
0014
fff0
0001
ffe5
000a
0001
0000
0019
0023
fffa
fff5
0026
000a
000b
ffec
ffde
0025
ffe8
000c
ffe8
fff4
0039
fff2
fff4
ffec
ffe4
ffe4
ffef
0024
fffc
0015
ffdc
0011
fffc
000b
ffdc
ffe1
0027
0031
002d
0031
fffc
0005
ffea
fff6
fff0
ffed
ffef
002b
ffe8
000f
0000
001b
ffd7
ffd2
0019
0010
fffd
0020
0004
ffea
ffdc
fff2
0007
0003
ffe1
ffe0
0035
0042
ffeb
0005
002b
0013
001f
0033
fff5
0007
0023
ffe1
ffd5
ffe2
fffc
0021
fff6
0006
0008
0032
0026
ffed
0017
0022
001b
fff6
fffc
000a
ffed
000c
ffd6
ffc2
ffbc
fff0
ffdc
ffed
ffeb
0008
001a
ffcb
ffbe
0002
ffef
ffda
ffef
002b
ffe7
ffe4
001d
0000
003a
0002
0040
fffb
ffe3
ffdd
ffdc
0034
ffe9
000e
0020
0034
0000
0011
0018
ffe8
ffd6
ffda
0030
ffe2
fff4
002c
0009
000b
0017
ffd7
ffef
fffa
ffdb
fff7
ffdb
ffe8
0003
0009
0001
ffe8
ffdf
fff0
0059
0000
fff4
fff1
ffe8
0026
ffdd
0008
0035
0006
ffea
fff2
001f
ffdc
fff3
ffe3
0008
fffb
ffef
000e
0003
ffea
0016
0000
000b
ffce
0018
0003
ffe2
fff3
fff2
ffe4
ffe1
fff6
0029
fff5
fff2
0023
ffba
ffe2
ffc3
fff2
ffd3
ffd5
ffea
0032
ffd7
0032
0033
ffee
0008
ffde
ffd5
fff9
ffed
0000
fffb
ffff
ffe0
0018
0002
ffd6
fff2
ffe7
0015
ffd9
0024
fffe
0012
fffa
fff4
0009
0015
ffe4
fffd
fff9
0020
000b
0001
ffff
0027
0004
fffe
0020
0019
002d
000b
ffe5
0021
fffc
ffe6
0004
0017
0001
000f
0015
fff7
ffe1
ffec
002a
fff7
fff7
001c
fff5
fff9
fffc
0001
fffd
000c
001a
ffdc
0024
0021
fff1
ffe2
000b
ffec
ffe8
0027
0005
fff2
0027
fffa
0013
0018
ffd8
fffe
0030
fffc
ffcd
0024
ffce
ffca
ffde
ffe1
002a
002c
fff0
002f
fff3
ffe2
ffed
ffe5
000c
ffed
000b
fff7
fffd
001d
ffd0
ffdb
ffdf
fff6
0027
fffd
0005
0000
ffdb
0029
0014
001e
0021
0025
0002
0035
fffb
001f
ffe9
000e
0003
fff7
ffe1
fffa
ffd9
ffd4
0006
0027
fff5
0001
0028
0022
ffe0
fff2
002b
ffd8
0026
0014
002b
fff6
0015
002a
0001
0013
ffff
ffdd
fff3
0008
ffd0
ffff
ffeb
ffd5
001c
ffc9
ffab
fffc
0017
0019
ffe4
0025
ffe8
ffd2
0002
0008
0009
ffe7
000d
fff7
0033
0001
fffb
ffff
ffff
ffd2
001b
0001
001b
ffeb
0006
0006
ffe7
0014
fff6
fffe
001f
fff8
fff1
fff7
0019
ffe8
fff3
0019
ffd4
ffef
000e
ffce
ffe4
0026
ffdf
ffe9
ffee
fffc
0008
0013
0000
ffe2
fffe
003d
ffff
001d
0024
ffd5
0002
002e
ffed
0007
ffe5
ffcf
ffcf
fff9
001b
0017
0002
fff6
0010
0016
0019
0011
0022
0021
0004
ffeb
ffe4
0003
ffe1
0001
fff4
ffef
0003
ffcf
fff9
0017
0002
0012
0003
ffd9
fff6
fff5
ffd7
ffeb
0011
ffd9
000f
ffe4
0016
ffd5
ffe5
0000
fffe
ffe6
fffe
fff2
fff7
ffd5
ffec
0006
0017
0000
fff0
fff7
0008
ffe1
ffe4
ffdc
ffee
0001
ffdc
001e
0014
0031
0004
0011
002c
0010
002b
0035
0010
0010
002d
0018
001e
0009
0002
fff6
0003
0020
0002
0014
ffe5
ffda
001f
0003
fff9
ffec
fff8
ffe4
fff5
000d
001d
001d
fffc
fff7
0003
0000
000f
000a
001a
0016
0027
fffd
0028
001f
fff3
0023
0000
0008
0001
001e
ffee
001c
0008
ffe8
0017
ffe4
001c
ffee
fff6
0021
fffc
ffe8
000e
fffd
0015
0012
fff2
0003
0017
001a
0016
fff0
ffe2
fff5
0009
fff2
fff5
001f
000a
fff4
000d
fffc
fffb
ffea
fff4
ffe8
0012
ffe7
fff2
ffd9
fffa
ffeb
0000
0008
000c
fffd
0014
0006
001e
fffa
ffde
0009
0017
fffb
0018
0001
000b
0017
0001
ffed
0008
0020
ffec
0011
0005
000d
0016
ffe5
0007
fff8
ffdd
0007
ffd5
0000
000c
0018
000c
0008
0024
000a
0009
0014
fff2
000b
fff5
ffeb
0019
fff4
ffed
000e
0000
ffec
ffe4
0011
fffd
001a
ffde
fff1
0019
000e
002b
0017
fff4
001d
001d
002c
fff3
0031
ffff
0016
ffe8
fffe
0022
001f
ffe0
fffd
ffe5
ffed
fffb
ffef
ffd6
ffec
fffc
ffe2
fff9
0012
0010
ffea
fff7
0025
001b
0010
ffd9
0016
0011
ffe1
0000
0027
000a
0021
ffe8
fff8
001e
000d
000d
fff2
0018
002f
0020
ffe7
0000
001b
ffda
0006
fff1
0010
ffea
ffec
ffef
001e
0011
fffd
0017
001a
0038
000d
0004
0017
fff8
ffdb
fff0
fffd
001d
fffd
ffec
fff5
0013
0020
0027
ffe6
ffdc
ffd3
ffeb
0009
002f
001c
ffff
fffe
fff3
fff9
ffd5
0021
fff2
fff5
ffda
fff5
ffff
ffd1
0023
000c
fff5
ffd3
0002
0018
ffec
ffdc
001f
0004
ffdd
ffe7
ffd8
0015
fff6
000d
0003
fff8
ffc0
fff1
0010
ffe9
fff5
ffe1
ffe5
ffe3
0016
0012
ffe3
ffde
ffbb
ffde
ffec
ffcd
ffe0
fff7
ffc2
0000
fff2
ffbc
ffdb
fff1
0014
0044
002a
000e
0025
fff8
ffde
ffd3
ffa5
0022
ffdb
ffeb
0033
000a
ffd4
fff4
fff3
000d
fff1
0006
001f
000e
fff5
fff1
0014
001f
0022
0026
ffea
ffda
fff5
0003
fff2
ffe5
0000
fff4
ffd2
ffe0
0008
0002
0021
ffe3
ffe0
fff2
ffdc
002e
ffec
ffd4
0027
fffd
ffe7
ffef
001f
0024
ffe7
0003
000e
ffd4
ffd2
ffd6
000a
ffd9
0002
0029
0019
0035
0021
fff9
0015
ffd8
0010
fff1
0021
000b
0007
002d
ffea
000d
000b
0026
001d
ffcf
ffe0
0014
ffee
fff1
001d
000c
0003
0003
fff5
0015
0000
ffc8
ffee
ffdb
0001
ffeb
0030
fff6
000b
ffe2
ffe3
0026
002b
ffd4
ffda
002a
0003
0011
0017
ffd3
001f
ffd1
ffe7
001f
001a
ffe8
ffec
fff6
000d
001c
0029
fff1
fff9
0032
ffe6
fffb
ffef
0013
ffe5
ffe0
0017
001b
ffd1
001c
ffe3
ffda
0022
fffa
000d
0030
0018
ffec
ffeb
0036
ffcd
0018
0025
fff1
0001
0017
0011
0006
0014
000e
001e
ffda
fffd
000e
ffc9
ffe5
001f
0004
0017
003f
002a
0010
fff7
002d
0032
fffe
002b
003d
000d
002d
000e
fffd
0014
ffdb
002a
0027
ffc3
fff2
ffdb
fff7
ffeb
ffda
ffd6
0021
ffdb
0006
ffd9
001d
ffec
ffd2
fff8
fff0
001f
000e
ffe8
ffcf
0011
fff5
ffd2
fff1
000c
0006
fff5
ffeb
ffd0
001e
ffd6
0020
ffeb
ffd5
000f
ffdf
000f
ffdc
fff7
000e
ffec
0012
fff1
ffd6
0009
0031
ffe3
0013
0000
fff9
0008
ffff
0018
fffb
0018
ffe2
fff8
0011
000f
002a
000f
fff5
0004
ffe6
fff3
fffe
fffb
fff1
ffec
0025
ffef
0008
001f
ffef
ffd0
ffda
fff9
ffea
001f
ffe3
0002
ffd8
ffe8
0025
0029
0020
ffe1
fff7
fff6
0009
fff7
0018
ffcf
ffdb
fffc
ffe7
ffdb
ffcb
ffdc
fff8
ffe0
0019
002b
ffed
0020
0022
0011
0033
0040
0016
0049
0003
0017
001e
ffdd
003a
001d
ffe8
000d
ffd7
0002
0007
000e
ffde
fffb
001f
001a
0017
0000
001c
0034
000c
000f
0036
fff9
ffea
0016
000b
ffe3
fff8
ffdb
ffc5
fff7
0008
0007
ffec
ffc6
ffda
ffdf
fff1
0022
ffed
0026
ffed
0007
ffdb
fff5
0013
ffec
000c
0004
ffff
0005
ffe2
ffdb
ffde
ffe1
ffec
fffb
000b
fff9
0024
002a
001f
fffd
ffd2
fff9
001f
fff9
0018
0024
ffed
ffde
ffd7
001c
001b
0026
002d
fffe
0018
ffe7
0000
fff1
ffe2
ffbf
000b
ffe0
000f
fffd
ffee
000d
0030
fff6
ffcd
ffd0
000f
002d
ffda
000a
0035
0020
ffe8
ffe4
fffe
fff6
ffd5
ffee
000b
0024
0007
ffec
0002
ffc5
ffe7
0032
0007
0003
fffb
fff6
002d
0037
001f
ffe6
fff2
fff1
0010
fff7
0009
002c
0029
ffe5
0008
fff9
001b
ffe2
fff9
0019
000b
002c
fff4
0008
fffa
ffee
0010
0012
ffeb
fff2
0021
0009
fff4
ffd6
000d
002e
0015
ffe4
0015
fff0
ffca
0008
fff9
ffff
001f
fff0
ffdd
ffef
fff6
ffee
0020
0033
001e
fffc
0029
ffd4
0026
ffe8
ffff
0008
0004
000d
0000
001d
ffd8
ffe2
ffcf
ffc9
ffe8
0014
ffe6
0012
ffe5
fff9
fff6
ffe3
0014
0004
001b
fffd
002c
003d
001e
ffee
0025
ffe4
0004
ffd9
ffe0
0026
fffd
0026
fffa
ffe4
ffdc
ffe5
ffe7
0018
ffd3
0002
ffbe
ffdb
fff4
0006
000d
0025
001c
fff4
ffe4
fff7
ffc6
ffdb
ffee
0024
ffdc
0010
fffc
fff0
0031
ffe0
000b
ffd8
000c
ffe7
001e
fff0
0035
ffe3
ffd4
001c
0023
ffa3
ffd1
0018
fff2
0039
fff8
0034
001a
ffd3
000d
0011
ffda
0015
002a
ffd8
ffcb
ffbf
fff5
0006
ffe6
fffd
002e
0001
ffea
0016
ffc9
0009
ffdd
ffd9
0006
fff2
0012
0048
fff1
0008
003e
fffb
ffe3
ffff
ffe1
0026
0028
ffe1
ffe1
ffea
ffec
002f
ffe5
000f
fff8
0022
ffeb
002c
fff1
fff2
ffac
fff6
ffb4
ffb5
fff5
0023
ffdc
0017
0002
0022
002f
fffe
0025
fffd
0063
004c
fffb
fffa
ffcc
ffec
ffc7
ffe0
ffda
0014
003f
ffe8
fffd
0005
fff9
0017
0009
fff7
000a
000e
fff3
fffd
ffe3
0027
ffee
0014
ffec
fff1
0040
003c
000b
0002
0034
fffa
005d
002c
fff5
ffc7
ffe6
fffb
fff2
001c
ffe4
fffd
0003
0039
ffd4
ffdd
0028
0010
ffd4
0015
0000
ffc9
ffc6
ffce
0011
fff8
ffe3
0064
0010
fff2
ffea
0037
ffd1
0006
000e
ffc4
ffb8
ffff
0018
ffb2
0003
0005
003a
000f
002e
ffdd
fff2
001b
0006
0050
006b
005f
ffe0
ffee
000c
0007
0026
ffd9
ffd8
ffd9
0021
fffe
002e
001b
0023
ffdc
ffe0
ffca
fff0
fff2
000b
0009
ffec
0022
0023
fff4
0023
001a
0022
0014
0018
ffe7
ffb7
0022
0035
0007
0036
0003
ffee
ffc1
ffd9
0020
0018
fff1
fffd
0038
0055
fff8
0020
fffc
0027
fff0
ffeb
0018
ffd8
ffce
ffda
003c
ffda
ffeb
fff9
ffd7
001a
002c
ffcf
ffc0
0010
002a
fff1
0035
001b
ffc2
ffe8
0033
ffdc
0049
0028
fff9
ffec
0026
0005
ffe4
0008
ffec
002b
fffe
0019
ffee
0002
ffc0
ffe2
0018
001e
000d
002b
fff2
ffef
ffce
ffed
0031
fff4
ffe4
002e
ffe2
fffa
0006
ffde
0001
ffdc
000f
ffdf
ffc9
002b
000a
ffb5
0003
ffda
ffee
ffc7
0014
ffd4
ffe1
ffd9
001b
0010
0018
fff9
ffea
fff2
ffe2
ffe6
0018
001c
0003
ffe5
0011
ffd6
ffe3
ffdc
ffdc
ffcd
fffc
0008
0000
ffd1
0002
003e
0029
0011
0016
fff6
ffe3
0010
000b
001c
ffeb
ffde
ffec
fffb
ffe2
ffcf
ffee
ffb6
0000
0002
000a
fff6
ffde
ffdf
001a
0002
ffea
000c
0013
fff7
004f
ffc3
ffd8
0040
000b
ffe6
fff2
ffee
ffe9
000b
001f
ffc1
ffc7
0015
fff3
ffe7
000d
fff7
ffe6
ffe2
0034
000c
0011
0020
fffb
ffd5
ffdb
fff9
ffd0
002d
ffe7
0013
ffed
0009
000a
000d
0033
0008
0029
0002
000a
0014
003c
ffeb
ffe4
fff1
ffe3
0029
ffe0
0024
0006
ffed
000d
ffd5
ffe6
0003
fffc
ffd9
ffc2
ffe3
ffc3
ffea
0016
0000
0000
ffef
000b
0022
0013
ffd7
0014
001f
ffee
ffe5
fff1
0009
000a
fff1
ffd1
001b
fff2
ffef
fff3
0007
ffeb
ffe0
ffcc
fff2
001d
0001
0013
001c
0020
002b
ffcc
001a
ffdb
0006
002f
0031
fff8
0001
fff8
0006
fff0
ffe0
002a
0027
0018
003c
0011
ffeb
ffcf
ffda
000c
ffee
fff0
ffdf
002b
000a
fffd
ffe7
001c
ffda
0017
002b
0013
0006
fff3
000e
ffe3
ffeb
fff1
0032
0021
002e
ffe2
0002
0002
000a
0012
0026
ffde
ffd5
ffec
ffd2
001d
0025
000c
0024
ffe3
0000
ffdd
001d
ffd7
0009
ffee
003f
002e
0032
ffd2
0029
0029
ffd6
ffb4
ffe7
001b
0010
000d
0014
0011
ffe2
ffdb
ffc2
ffde
fff1
0036
000f
ffd9
002c
ffe1
fff2
0011
001f
0037
fff0
000e
000d
0006
fffb
0017
000e
0004
ffd9
fff9
ffdf
ffdd
0016
ffe3
ffdd
ffce
0023
fffc
0000
001a
ffd6
ffeb
ffe4
fffa
fff1
000d
0015
000d
0002
ffdb
0016
000e
0011
ffeb
000d
000c
0005
0023
ffe5
ffd9
0021
001d
fff2
0002
fff9
fffa
0005
000c
fff9
fff5
fffc
ffde
0001
ffdf
0019
0018
fffe
0000
fff6
0021
0006
0024
ffff
001d
0006
fffb
fff3
0018
0013
fff9
0006
0004
0007
ffd6
0024
0025
0006
001f
0015
0004
fff8
0008
001a
ffec
ffef
0015
001f
002a
0036
0010
0000
0006
0009
0002
0006
0016
0028
0001
ffe4
0005
0016
ffe7
0010
ffe9
0011
ffef
fff7
ffd4
ffe5
fffd
ffdd
0003
0003
fff3
0007
0001
ffee
fff4
0002
000f
ffef
ffd9
0009
ffec
ffef
0028
001b
0001
0002
ffeb
001a
0012
0016
ffe2
000c
ffd8
0004
0007
ffef
ffd7
ffe2
ffe2
0005
ffe8
ffe1
0000
fffc
0005
0006
ffde
ffd5
fff2
ffec
ffef
fffd
ffef
fff5
000f
fff0
fffb
ffee
0007
0007
ffe8
0002
fffe
fffc
fff4
0024
001b
001b
000b
ffe0
0007
ffe8
ffeb
fff2
fff6
000d
0010
0009
ffed
0016
fff8
ffe1
0019
0018
0022
fffe
001e
ffea
0024
fff9
fffd
001d
0003
0004
ffe0
ffe9
fffc
0005
0003
0018
fff6
ffe6
fff8
0015
0017
ffdc
fff6
ffdf
000a
0023
ffde
000e
ffed
ffe6
ffeb
ffd3
ffda
fffc
000b
0017
fffa
ffe7
ffe2
ffe4
001e
ffda
0008
fff1
001a
ffd9
ffe9
0005
0011
fffc
fff5
fff0
ffda
fff3
ffe3
fffe
0010
ffdc
fff4
ffd5
ffe7
000f
ffe4
fff7
fff3
fff8
fff9
fff4
ffe9
fff4
ffef
ffec
fff9
0007
fffd
0024
ffee
ffea
000f
fffe
0017
0009
0027
0001
0018
ffe1
fff0
0022
fff5
ffea
0023
0023
0014
0003
ffd9
000a
fff6
ffeb
ffed
0018
0013
fff4
0019
fff5
ffe7
fff0
001b
fffd
ffe6
fff5
0016
000c
0009
0007
001c
0008
ffe3
0001
fff4
0008
fffd
0006
ffe5
0014
0001
fffa
ffe1
000a
000e
0032
002b
001f
0016
0025
fff2
fff0
000a
0009
ffec
fffd
0008
000f
002a
fff6
0020
0003
000b
0041
fff2
001a
ffb6
001d
001b
0001
000b
ffca
ffd2
0071
0006
ffea
ffc8
001a
0032
ffba
ffe2
000e
fff5
0059
0011
ffe0
002c
0037
0008
fff2
ffdb
0027
fff9
ffdc
ffc9
ffb8
0011
ffea
0034
002f
001c
0042
ffd8
ffd6
001d
0031
002b
ffe4
ffd5
ffe6
ffee
ffac
0059
0042
ffc6
0007
002b
ffef
fff2
0014
0019
ffb8
ffd3
ffc1
ffc3
001c
0001
000c
005e
0003
ffeb
ffdc
ffba
003e
ffcb
0042
001b
ffb7
ffda
fff8
fffb
ffee
ffae
ffc4
ffbf
ffcf
0016
fff4
000b
0031
000f
005f
0054
004a
fff0
fffe
ffc7
ffc7
0008
000c
0017
0004
004b
0026
0043
ffff
fff0
0005
0009
003c
001d
fff2
ffee
003a
ffd6
ffd9
001c
fff3
fff6
fff9
ffe7
0034
ffe3
002e
ffb0
ffdc
ffbf
ffa9
ffdf
fffc
ffa9
0019
0017
ffd8
0018
ffed
0018
0015
0001
fff7
002a
0019
ffc0
fffd
0025
ffd8
fff6
ffc4
002a
000b
0033
fffa
ffdf
001e
0046
ffd9
002a
0044
0016
ffb4
ffbc
002e
0026
ffd7
ffdb
004a
003c
ffd3
0014
fffc
fffd
0011
ffdd
ffd0
0000
004e
ffd3
ffc5
000d
ffe8
0004
fff1
001c
0002
fff8
fffd
001f
ffd0
fff4
0039
ffed
ffde
0054
0001
fff9
0015
0009
000b
ffdb
fffd
0042
005f
ffe3
fff7
0003
fff0
0016
ffb7
0026
ffce
001f
ffbe
ffcb
ffe4
001a
ffdf
0018
ffa1
ffaf
ffd2
0018
ffce
0003
ffce
003a
000f
0001
ffa2
ffbd
ffdf
0014
ffd6
0000
0007
0054
ffdd
0012
0012
ffbc
ffdf
fff3
000c
fffb
ffd1
fffa
ffdc
ffd1
ffeb
001a
0032
002e
0058
005e
ffca
0004
ffed
0015
ffd8
fffc
ffcd
ffe5
004a
ffdd
0025
002b
ffbd
ffe6
0005
0027
0025
0014
002b
0033
0021
ffdc
0054
ffd4
001c
ffe2
ffed
002b
ffea
ffc8
0000
ffc6
ffc4
0029
ffd5
0013
0007
ffe5
0005
fffa
002d
fff9
0017
002d
001f
ffd5
fff5
ffee
ffed
0000
fff7
0003
0005
fff6
ffca
0004
0008
ffc8
fff8
0000
001b
fff0
ffff
fff8
ffef
ffd6
000a
0028
fff4
0029
0005
002c
0015
001b
0012
0015
fff6
0022
000e
0004
001a
0022
0021
0014
ffed
0002
000f
ffff
ffd3
ffe8
000d
fff7
fffd
ffee
ffe6
0022
000f
0008
0025
ffef
ffec
ffd9
fff3
0014
002a
0026
ffed
001d
fff9
fffe
fffd
0027
001c
0003
001e
fff7
001b
fff7
0016
ffed
fff7
001d
fff1
0015
fffc
fffe
fff8
fff1
fff1
ffe3
000a
0015
0021
0023
ffed
ffe5
0016
0025
ffe7
002a
fff8
0033
0017
0033
fff4
0013
ffe6
ffe8
001c
000d
0006
0013
fff4
000a
001e
ffde
fff2
fff1
ffe8
0022
002b
001b
fff8
000e
ffe7
fff4
ffdf
000b
ffff
0010
fff4
000a
000f
001e
0026
fff9
001c
0011
0025
fff4
ffd3
fffd
ffd3
fffb
ffed
ffe8
0024
fff5
fffe
0005
0007
fff0
0018
000e
ffe8
fff1
001f
ffd4
0006
0020
fff7
fff7
fff9
002b
0006
0017
fff6
0013
001f
0027
fff6
0024
ffed
001a
0017
0000
0003
fff4
ffd5
000f
0002
0013
ffec
ffea
fffe
fff1
fffe
0017
0029
fffa
0024
0011
fffc
fff8
ffef
fff8
fffc
0023
002b
fffe
0012
0005
002b
000d
fff6
0008
001a
ffe9
fff2
0037
0035
fff0
ffdb
ffff
003c
ffe5
001b
001d
fffe
0014
fff5
0017
ffd7
0018
ffec
ffe5
ffe5
0000
000a
0014
ffe3
0022
0010
ffed
fffa
fff4
fffc
fff0
0029
000e
0003
000b
0025
fff4
002e
fff3
002a
0002
0012
000f
ffed
000c
000c
ffd9
000c
0028
fff7
fffd
fff2
ffdd
0006
0026
000a
fff3
000d
0004
000a
ffe5
ffed
0014
ffec
fffe
001a
ffe2
0013
0008
0002
fff4
fff5
ffde
ffea
fffd
0001
0000
ffd3
0017
ffca
0005
fff3
fff4
ffde
0012
0001
fff1
0028
ffff
0006
0021
0035
fff0
fff0
ffdf
ffff
0036
ffd2
0035
004b
002e
ffed
000d
0020
ffe6
0004
ffc3
ffe2
ffe1
001e
fffa
0008
fff0
0037
0039
0028
fff9
0036
0018
fffe
0020
0018
001d
0011
000b
0009
fffd
0011
002c
fffd
001b
001a
fffd
002e
ffe3
ffeb
0014
ffed
fff6
fffc
ffc5
0026
0022
002e
ffec
0001
ffd5
ffcd
0023
0020
001b
0028
0015
0028
000f
ffcf
0009
ffd8
fff9
fffb
0010
ffdd
ffde
000d
0032
0010
ffee
fff0
0024
0000
0021
002e
0016
ffed
0011
fffa
0029
0028
ffe0
0003
0028
ffe6
fff1
0017
0001
0007
0011
ffeb
0007
ffe2
0004
001b
0010
ffee
0013
001a
ffe1
0008
000f
000d
ffd9
001b
000e
0002
fff5
ffdf
0011
fffe
fffa
0006
0020
fff9
ffe7
001a
0009
0006
fff7
0006
fff7
ffd8
ffd6
0003
000c
fffb
000f
0015
ffee
ffe9
ffd9
fff2
ffdb
0002
000a
0011
fff3
fff8
ffd2
ffe5
ffe7
0026
ffe7
ffee
ffd6
ffde
001d
001d
0004
0016
ffe0
003e
fff6
002c
0001
0030
ffe3
ffeb
ffc5
ffd2
0001
ffe9
002a
0001
ffdc
0013
000e
001b
fff5
fff3
0001
001a
ffdd
0027
ffd4
0003
ffe1
0031
000b
ffe3
0007
002b
000c
fff6
ffec
ffed
002d
fffe
0018
0010
0008
ffd4
fffa
000a
ffdf
0007
003a
fffa
0014
001e
0029
fff0
ffd4
ffff
ffe1
ffde
0014
0021
0009
ffc8
002a
fff5
001b
fffc
ffe8
000f
001f
ffc7
ffe6
0024
fffc
000e
ffd0
0003
0013
fff0
0003
0010
fff8
0032
fff5
fff3
ffe4
0003
ffd6
fffb
ffdd
0000
ffdf
000d
fff5
fff1
ffed
0010
001a
ffde
002d
0006
0000
0014
0019
000a
fffa
0012
0026
ffd9
0025
ffe2
0006
fffb
0013
0027
fff6
fffc
0017
fff4
0009
0014
ffd1
ffd8
ffe8
fff2
ffdc
0006
ffd2
000b
0004
ffe6
fff5
0003
ffff
002c
ffef
fff1
fff5
fffc
ffe8
0012
000d
002c
ffda
0025
0030
0012
0019
0028
ffe7
fff6
0001
ffe0
0009
fff8
ffe2
ffe4
001f
ffe8
ffd7
002d
ffde
0029
ffe2
ffda
0029
0017
ffeb
ffd8
0009
0026
0002
ffff
0005
fff0
ffd7
ffef
002b
0029
fffe
0014
000b
0018
ffff
0009
0013
ffdd
0013
fffe
ffff
fff9
fff2
fff3
fffb
0024
ffeb
0010
ffdc
ffd2
ffe9
fffe
fffb
001c
ffcf
001c
0017
ffe6
0020
000a
fff0
0034
0019
0017
ffeb
ffd7
0017
ffcd
fffb
0017
ffe3
001b
001e
0026
ffd4
0007
0020
fff9
0007
ffe2
ffed
0003
fffc
001e
0004
ffe3
0004
0016
0020
003f
0004
0004
ffc9
ffe5
0002
ffb2
0025
0010
fff9
0037
ffda
0044
0008
fff2
002d
ffee
001b
0010
ffd6
0016
fff3
ffd8
0024
ffee
0009
0005
0024
ffc0
ffd9
0020
0000
001b
000d
0041
ffec
0025
0028
0031
0030
0031
ffcf
fffd
ffe3
ffd5
0012
000e
ffef
ffe1
000e
0019
0008
ffee
000a
ffff
001a
ffdf
fffc
0012
ffdc
001e
002f
ffe2
fff4
ffee
fffa
ffe2
ffd9
fff0
ffd1
ffc5
ffe1
ffcb
0017
000e
ffd5
fff7
001e
ffea
0016
002c
0016
0036
0026
0036
004c
0002
fffa
ffe9
ffec
ffd7
ffeb
0004
ffe2
ffdd
000c
fff7
ffd2
ffd7
ffcb
0004
0002
fff9
0014
0011
ffd7
fff7
001b
fff4
fffe
000c
ffe1
0008
0023
fffc
ffe1
ffe6
0014
fff3
000d
0021
ffed
ffe0
ffdd
ffe8
ffdc
fff7
ffcf
ffe7
0033
0003
fff8
000e
0019
ffff
0005
ffd4
001f
000d
0019
0018
0005
0035
ffd8
ffe5
ffe0
0003
ffef
0011
fff7
002b
000e
0016
0022
ffe7
ffde
ffd7
0026
0023
ffdd
0007
0006
000c
000b
fff2
fff1
fff9
fff7
ffcf
001b
0020
0018
001b
ffe8
0001
fffc
fffe
ffc1
ffe4
ffde
001c
0020
0014
fff0
0030
ffe9
ffdf
ffc8
001b
fffb
ffe2
002e
002c
0036
0016
003a
0021
fff1
fff7
001d
ffe4
0030
ffed
001d
ffed
fffe
fff2
001f
000e
0001
ffe8
0004
ffd9
fffe
0021
0026
0026
0024
ffea
002b
fff8
ffda
ffe2
0010
fffc
003b
0035
fff0
ffec
0013
ffb0
ffd2
ff9c
ffbe
0019
001b
0028
0048
002d
ffde
fff5
ffed
0026
ffd0
ffd8
fffa
0025
ffe5
ffff
0036
ffd4
002a
ffe1
ffe8
002a
001c
0008
0028
fff7
0024
fff7
0038
ffd6
002f
002a
ffd7
0005
ffca
ffcd
0026
fffe
0013
fff0
0028
fff1
0017
002a
0003
0027
000e
0000
0026
0018
0018
0003
000c
fff3
0011
0005
0004
0014
ffde
001c
ffc7
ffcc
ffef
ffea
000f
ffea
ffdf
001b
ffe9
001c
ffdd
0020
001f
fffa
0005
ffdc
ffd2
fff6
ffd2
0018
ffee
0001
fff2
002c
ffe3
002b
fff7
ffec
ffdb
ffd9
002f
0029
0030
fffc
ffcf
000c
0019
0018
ffdd
ffec
0008
0010
ffe8
0017
fffd
001c
0016
ffd5
ffdc
fffd
fff9
002d
002c
fff5
0001
fffd
ffcd
0010
fff0
0015
ffeb
ffcd
0014
fff7
ffc9
ffeb
ffee
0037
ffe1
0039
ffca
0008
002e
000a
ffd9
fff7
fff6
001d
0010
0015
002b
ffca
ffd2
ffdb
fff9
fffe
ffe5
ffce
fffe
fff5
0026
001a
000c
ffe9
000b
fff1
000d
0001
fffb
ffe3
ffdf
ffc8
ffb3
001a
fffb
0016
fff6
fffd
ffe2
ffe1
ffd2
ffd0
0007
0019
ffd8
ffd5
0022
ffd2
ffe3
ffe3
ffe9
002e
0027
fffb
0013
fff2
0014
ffda
0024
ffe4
0033
0009
0034
ffe3
ffe3
0012
fff5
ffb9
fffa
0036
0032
fff2
0024
ffd3
fff0
0033
ffe7
fffa
0016
ffd2
0020
0004
0030
0011
ffd8
000e
0007
0022
000d
002a
fff6
ffd9
ffe0
0015
0005
ffb8
fff1
000a
ffd2
002d
ffab
0035
000b
ffdc
0038
ffe7
0039
0034
0034
fffa
ffee
000a
003c
0020
ffda
000a
0025
0020
fff6
003f
ffe3
fff8
0021
0049
ffd4
fff3
002f
0027
002e
0029
000e
001f
0036
004e
ffe6
ffd1
ffb6
ffee
ffc3
ffb6
006c
0002
fff9
0017
002a
fffb
002d
fffd
ffaf
0048
0035
0051
ffc4
0001
000d
ffaa
001b
002f
0019
ffdc
004f
ffdd
ffe7
001e
0021
0015
0009
0027
ffc2
ffc7
ffde
ffdd
ffe0
ffc2
fff2
ffeb
ffc7
0016
ffb6
0013
ffd8
002a
0041
0051
0053
0013
0056
ffd9
0018
000e
ff80
0022
0038
0019
0001
ffdf
000a
fffb
0000
fffc
0060
fff6
fff2
0033
0028
0011
0022
002a
ffe3
ffca
ffb9
0029
ffcc
0005
ffab
004c
ffb0
0010
001b
0012
ffd4
fffe
fff4
ffcf
002f
ffd8
ffed
0084
0034
ffeb
ffcc
003f
ffce
0015
fff2
0023
ffd3
fffa
0026
ffec
fff6
fff5
ffcb
ffad
fffe
0010
ffed
002d
002c
0068
003f
0012
fff1
ffe0
ffba
ffcc
ffbc
ffbd
ffc8
fffa
000a
001d
fff7
ffc0
fffb
fffa
0018
ffed
001a
ffd1
001a
ffc4
ff9d
ffe1
0007
fff3
ffb6
fff9
ffd1
ffe2
0024
0000
0016
0027
000e
ffcd
ffc8
0019
0015
ffee
0038
0007
0008
0033
ffd9
ffc2
ffd4
ffd0
fff7
0043
0022
ffb0
ffd0
ffe1
0011
001c
fffd
0036
ffeb
ffc7
000e
000f
ffe6
ffce
0026
0015
ffce
ffe4
ffed
001d
0004
0018
ffe6
0020
0028
fff7
0013
0043
ffcb
ffcc
ffb7
0023
ffcf
001e
fff2
002c
0009
ffe7
000e
0005
ffd0
0002
ffcd
ffb8
0034
0018
ffee
0041
0012
ffb6
0009
002b
0000
001b
0040
ffeb
fff2
ffe9
0013
0012
000a
ffeb
0010
000c
000b
ff88
ffe6
ff92
ffbc
ffcb
fff4
000b
002c
0042
0057
004a
0005
ffc2
0025
fffa
ffc6
0021
ffd4
ffe0
ffd0
ffe7
ffc8
ffdf
0020
ffd9
ffd8
ffcd
0020
003f
0062
0003
001d
0009
ffc2
ffdf
0030
0008
0022
0020
ffe3
0007
0005
ffe5
ffc7
ffd9
0006
001f
0038
002c
001a
000f
ffd3
002f
0025
ffc7
ffc4
ffd1
0030
ffd5
fff0
0033
0005
ffde
001d
002b
001b
0019
000b
0004
0001
ffd3
ffda
000b
002a
0030
0025
0035
0013
0022
0015
0017
002c
ffe6
fffd
ffe7
0041
0039
0039
0009
001a
ffcb
ffdb
fffc
0008
ffeb
ffec
000c
ffff
000a
0028
ffe9
0015
001c
ffec
0007
0000
0037
0046
ffe2
ffd9
002e
ffe8
0001
ffd2
ffe3
ffc2
fff7
ffb9
0008
ffc7
002c
ffdc
fffb
fff2
0023
0024
fffb
0003
0031
fffb
0029
002f
fffe
ffcc
002e
ffe4
ffe0
0024
fff0
ffce
ffef
ffd7
ffe7
0015
ffd1
ffdb
0022
ffec
001c
ffcb
fffd
fff7
ffda
0033
ffd3
ffdd
0008
0024
0033
ffcc
0026
0011
000d
0036
0016
0000
fffa
ffcf
ffdd
000c
ffe4
fff7
002a
fff4
0022
ffe5
ffe0
0032
ffd6
002f
0018
0027
ffd0
ffc6
0004
fff3
0027
ffef
fffb
0017
0024
001b
0031
0036
0007
fffb
0000
0015
ffe8
ffe9
0023
0032
000c
ffee
000d
002a
002d
ffe0
ffe0
ffef
ffe0
003a
0029
ffea
001f
ffd8
fff7
0003
fffb
0027
fff4
ffe7
ffd9
ffef
0009
ffd0
0019
ffc7
fffb
001e
fffa
002e
0039
0047
ffe2
ffd3
ffdf
ffdd
ffd8
0013
fffe
0014
0007
ffd9
ffbb
ffff
fffe
ffef
ffc2
001d
fffc
0010
ffd9
001b
ffdc
fff1
ffdc
0000
002c
0048
001c
0030
0026
ffe4
0001
001b
000b
ffde
ffcb
002d
ffc9
fff3
ffd7
ffc7
000f
ffca
ffe9
0022
fff3
0021
ffd5
0023
0014
ffc3
ffcc
0029
0022
002a
ffd8
002b
fff6
fff3
001f
ffbf
ffcd
ffc8
ffe1
0035
000f
0014
fff7
ffbc
ffdc
ffb3
ffea
ffb2
001a
fff3
0008
0006
001f
0010
0005
fff8
ffef
0027
0004
0022
0005
fff4
0004
001a
fff7
0001
ffe9
0010
0006
fffb
000d
0006
ffda
fff7
fff0
0008
0004
ffe1
0013
000e
fff3
001d
ffe5
fff4
ffe9
ffee
fff3
fffc
000a
ffff
ffed
fff5
000d
0015
0013
0016
0004
fffa
fff0
001c
fffe
0008
fff3
fffe
ffea
0017
0001
ffe9
0005
ffe1
ffdf
0020
0013
fff0
ffeb
ffe7
fff8
000d
ffeb
ffe8
0013
0012
fff3
fff4
000f
0016
001b
0016
ffec
fff2
0008
0019
ffe9
0001
ffea
fff4
0011
0002
0021
fffe
fff5
ffef
0016
ffec
000b
ffee
ffe4
fff3
fff3
fffc
ffe8
fff1
0011
fff0
fffb
0010
ffea
fff3
0006
000a
fff5
0010
0008
ffea
0010
ffeb
fff8
ffe6
000b
000f
0015
fffd
fff6
0011
0011
0012
000e
001d
fff2
001e
0007
0019
fff2
fff8
0009
000b
fff9
ffe4
ffdc
0007
fff2
0002
ffec
ffe7
0006
0013
0007
000e
ffee
ffeb
0014
0012
fff9
fff1
fff0
ffe8
ffef
fff6
ffea
0000
fff5
0010
0005
ffeb
0009
ffe6
fff8
0015
fffe
0013
0016
0009
000e
0002
ffe0
0009
ffdf
fffd
0011
0009
fff9
fff3
ffdc
fff3
ffef
fffa
0009
fff9
fff7
fff0
fff0
ffef
ffe5
000f
0001
fff1
ffde
ffee
000d
0003
0002
ffee
fff4
0014
0008
ffdf
ffe7
ffee
ffeb
ffed
ffea
ffdf
ffdd
ffe7
fff1
0014
000a
0019
ffe8
0008
0016
fff9
001e
ffeb
fffa
fffa
ffff
ffed
000d
ffe4
000a
0012
ffe5
fff8
fff5
ffe4
000f
fffb
000f
0005
0014
ffff
0015
0006
000f
0015
fff4
ffec
0012
ffec
ffed
ffea
ffe9
ffff
fff9
0000
ffef
0003
fff5
0001
0015
0002
0009
000f
001a
ffe5
ffe5
000c
000e
fff0
fff5
fff7
fff8
0007
0012
fffa
0014
fff1
000f
fff2
0006
ffe1
fffc
000a
ffe7
000c
fff6
0010
fffb
003e
0025
fffc
ffff
ffc2
0007
ffe4
ffb5
ffc3
ffc0
0000
ffef
000d
ffe9
004b
000d
ffda
fff2
fff6
000c
0006
0007
0008
0023
0006
ffec
fff9
fff4
0001
fff1
ffdc
0023
ffe2
ffe8
ffcd
001f
ffe8
0026
0003
ffe3
0010
0019
fff4
ffed
0020
fff4
fffc
001b
ffcf
ffde
0047
ffee
0003
ffd3
ffe2
fff9
ffe0
003b
0026
fff9
0013
ffe7
fffc
ffba
fff7
003a
0006
ffee
ffd5
001c
ffca
fff0
ffdd
ffe8
ffe7
002d
002d
002a
000c
002f
0029
ffdf
ffe4
001e
0006
ffd2
0023
ffd3
ffc4
ffd1
ffe2
ffd8
ffdf
ffd5
ffcc
fffa
001f
ffc6
fff9
fff9
fff5
0032
003a
002b
ffff
ffed
ffee
0000
fff0
0009
000d
0039
ffcc
0003
fffe
fff1
0031
ffe3
0025
0032
0001
fff2
000f
0054
0043
0010
002d
0030
fff0
ffed
0011
0037
0019
ffb7
fffe
0033
002c
ffda
0043
0043
000a
ffb1
000c
ffdf
ffa1
0002
fff3
ffff
000a
0031
fff5
000a
0010
002e
ffe2
0003
fff3
002e
0014
fffa
002d
fffc
ffd9
0000
0029
ffe6
0006
ffd5
0041
ffee
ffe5
0052
0027
0006
001b
0008
004c
0022
0032
ffe5
ffee
fff4
ffde
ffcf
ffd6
001a
ffdd
0013
000c
003a
000f
0035
fff9
002c
0037
004c
fff5
0038
ffbc
ffcb
0021
ffb3
0015
ffde
0010
0019
ffe9
0014
0002
ffcf
0012
001f
000b
fff9
ffee
ffb5
0007
002f
ffec
0022
0002
000e
ffd5
0022
001e
ffc6
ffde
0004
ffca
0017
ffe5
fff3
0011
0002
001c
0024
ffda
ffe6
0021
ffeb
fff8
0036
002f
ffe5
ffdd
0007
ffa8
ffab
ffdc
ffeb
ffcb
ffeb
fffb
002d
fffe
ffdf
0025
0051
ffd8
ffff
0020
ffa2
ffe5
fff5
ff9e
ffaa
ffe6
ffe7
0003
000f
ffe1
fff1
002e
0006
fff1
000a
ffe5
ffc7
fffc
0012
ffdc
ffef
ffe4
ffee
0029
fff4
ffd9
0026
ffdd
ffd0
0004
0035
0040
ffe2
000b
ffe7
ffee
fff1
0020
0038
ffa6
0005
0026
ffee
ffe1
001d
fff4
ffdd
ffd9
ffb8
ffce
ffc4
0021
0038
0026
0023
ffe2
ffe5
002b
003b
ffd6
ffc3
ffe3
ffe5
ffd6
0014
ffec
000c
ffe2
000a
ffb8
ffda
fffb
ffc4
0015
ffd8
ffa4
fff7
ffa8
ffc5
0020
ffc8
ffc4
004d
ffc9
005a
0059
0045
ffe9
ffd5
0014
0030
fff2
000f
002d
ffdd
0012
fff3
ffd7
ffd7
0042
ffce
ffda
004c
0007
ffe2
ffeb
ffd9
ffe3
ffeb
ffec
ffe5
004e
0034
0026
ffe3
ffef
ffff
ffe8
003b
ffd2
004c
0023
ffdb
fff5
0004
fff7
0014
ffb1
ffec
ffe5
0039
fff6
ffe5
0000
000f
fffc
ffd6
ffca
ffcf
0026
0020
ffec
0019
ffe0
ffd8
0024
0020
004d
fff3
0000
002f
ffe1
ffde
0007
0008
0055
ffd6
ffd5
0001
ffdf
ffe5
0002
0024
001a
001c
fff2
ffc7
ffe8
0022
0037
ffd1
ffdd
002c
ffce
ffe8
ffde
ffa9
0005
0007
0015
fffd
0032
ffd0
0017
ffd4
0010
0001
000f
fff2
ffe8
000f
fff6
001a
fffb
fff8
0002
0022
0025
001e
ffe0
ffc3
fffe
ffd7
0028
ffe4
002f
0003
0014
ffed
ffe4
0030
000a
ffee
0002
ffd3
ffd5
ffab
0019
ffcd
0002
ffcd
0006
ffdc
0039
ffee
ffff
0025
000e
ffc6
003e
0011
000b
ffea
ffcd
ffd3
002a
0035
000c
ffed
003b
ffe1
fff7
ffc6
0001
ffdf
ffeb
ffda
0033
0028
0017
000d
ffb1
0047
0026
ffc6
fff6
0038
ffef
0015
ffe1
0012
ffed
0007
001d
002f
0035
0034
0011
ffcb
ffff
000a
fffd
001d
002a
000e
001c
ffcb
fffb
0033
ffcb
ffe5
fffd
fff9
0003
ffb3
ffc5
0020
0021
0019
0027
ffc4
001e
0028
ffcd
ffd6
ffdd
ffdb
0039
ffe0
ffd1
fff4
ffef
fff6
003d
fffa
000b
0003
ffd0
ffe3
0019
0015
000f
ffce
ffec
0040
ffc4
ffe4
ffc8
fff9
ffc3
ffe5
002b
0036
0014
ffb3
0044
002d
003c
ffec
ffd1
005d
0041
fff1
ffdc
0014
004a
001e
0015
fffb
0010
0037
004e
0031
ffc4
003f
fffd
ffff
0026
003c
ffdc
fff0
ffe3
002e
0030
ffd6
002f
ffd1
ffc7
000b
ffec
ffe6
0026
000c
ffbb
ffcf
0017
002c
fff1
002e
fff0
ffb5
003a
ffbe
ffbd
ffe4
0024
ffdd
ffee
ffee
000b
0012
003f
000a
ffeb
fff3
0001
ffd2
0012
000d
003a
ffed
0012
ffe2
0042
0053
003a
fff0
000b
0032
ffe4
ffe6
001c
fff7
002a
fff7
ffbd
0017
ffdb
ffc7
0019
fff5
0049
0035
ffff
ffe2
ffe2
ffe1
0008
0001
fff0
0032
ffd7
ffe9
ffd9
0026
fff6
fffb
fffb
ffb9
fff1
fffe
ffcf
0014
001e
003c
ffc2
fff1
002a
001a
0012
002b
ffcf
ffe6
0012
000e
ffe2
0021
0048
ffd4
003d
ffea
0034
000b
000c
ffb8
ffbb
ffdd
0042
fffb
0022
003a
0011
0009
0019
002c
ffdc
0002
fffb
ffd5
0018
0020
004a
0028
ffef
0003
0029
ffc8
ffc2
001d
0004
ffe1
0011
ffdf
000e
ffd6
ffc9
ffda
ffe4
fff3
0012
000c
0008
002b
002d
ffe5
0034
ffe9
000b
ffed
fffb
ffd3
ffd6
0045
0049
ffdf
ffe3
ffed
ffea
ffe7
ffd4
0039
ffd1
ffbb
0008
0006
004d
ffda
fff2
002f
ffcf
0032
000c
0005
ffc5
0034
ffda
ffc6
ffd2
000f
ffad
ffb2
ffcf
0017
0018
0026
ffde
000c
ffc8
0030
ffdd
ffd5
ffe4
ffe6
fff6
000a
ffd1
000a
003b
0017
0006
ffd7
0028
ffb3
ffb3
0001
0008
0032
ffe6
ffd5
fff3
0028
0018
0021
ffc9
0023
001b
ffea
0032
fff0
ffe4
0027
0015
ffed
0024
001f
ffdc
ffd0
0037
0000
001c
ffbd
001f
0013
001c
0013
0014
001d
0013
ffbe
0008
0019
0003
0046
fff8
ffcc
ffce
fff2
ffda
ffc0
002b
ffea
ffe4
ffec
ffde
0014
0029
ffff
0017
ffe3
0015
0000
0013
0001
fffc
0021
ffbb
ffbf
ffb2
0004
fffd
001c
000e
fff6
000d
ffde
ffe6
ffdf
0016
ffd8
0029
001c
fffa
0011
0025
0033
0002
fff1
fff4
ffdd
ffff
ffc7
fff0
001a
0011
fff4
0023
0035
001e
ffc1
fffb
fff9
ffc6
ffa0
ffc0
0014
004e
0036
0021
002d
ffe4
fff8
ffdc
0016
0033
001c
0009
0010
0048
000c
0000
002c
ffd6
0008
0001
ffd0
001e
ffe9
ffd6
0022
0005
ffff
fffb
fffc
fff0
002a
ffff
0015
001d
001b
0007
ffea
ffea
fffc
ffd8
fffc
ffd3
0015
000b
ffd7
001e
0017
001c
fff5
002f
0002
fffb
001d
ffe5
0022
fff8
fff3
002e
ffd9
ffef
000a
ffe8
fff5
ffcf
ffd6
0016
0004
002f
ffe5
ffe1
ffe3
ffe1
fff6
0027
ffeb
001c
ffe8
0002
fff7
fff2
002d
ffe6
ffe5
fff1
fffb
fffc
0011
0018
0002
001b
000d
ffc6
ffd5
ffd9
ffeb
ffdc
001b
001d
0013
0013
0003
0025
fff5
0005
fff1
fff1
fffb
fff0
0002
ffee
ffe9
ffe2
000a
ffd8
001c
0003
ffff
0001
ffe4
0011
ffeb
001e
0012
0012
ffff
0011
fff7
fff2
0013
ffe5
ffdb
ffdb
0029
0031
ffe8
0017
fff2
0004
0004
fff7
0033
ffdf
0027
0022
fff2
0001
0023
ffeb
0021
fff8
0017
ffdd
001a
ffd9
0021
000e
ffdd
000f
000c
0008
001c
0022
ffe9
ffd1
ffd3
ffe3
fffa
ffca
002e
fff4
ffd4
ffec
0005
ffd1
fffd
ffd5
001f
0007
0012
0023
0024
ffdd
ffe5
0005
000d
fff8
0032
ffeb
fffd
ffdc
001f
0019
0022
0006
ffda
fffc
0007
fffb
000d
ffc7
0006
ffd7
ffd0
0012
ffdd
001a
001e
002a
fff0
000e
ffe4
ffda
0020
fff3
0006
fff3
000b
0002
fff8
002f
002b
ffec
ffcd
ffd4
0005
002c
0014
0008
0003
ffd5
0008
fff9
ffd8
fff4
fff1
ffff
0005
ffe3
fffe
fffa
ffe5
fff3
0005
fffc
002d
0001
0000
fff9
0010
001d
0006
fff2
001a
0009
000e
0013
ffef
fff8
0015
fff3
ffd0
0019
001d
ffd5
0022
fffa
fff1
0013
ffea
ffec
0001
0014
000f
0004
ffec
fff4
000e
0000
000e
fffa
ffdd
ffea
0019
0001
0019
0004
0011
fffa
ffe6
ffc4
ffc0
0006
fff4
ffd7
fff3
0006
fff4
0010
001e
001a
0005
fffb
ffe6
ffd0
fff5
ffff
0025
0009
0022
000a
0014
ffdf
fff8
0016
ffff
0003
fffc
ffff
fff9
fff2
0002
fff7
001c
fff1
ffee
ffdd
fffc
0000
fff0
fff2
0002
0001
0006
0027
001a
fffe
fff3
fff5
fff9
ffeb
fff5
fffd
ffe6
ffe9
ffef
0020
ffe9
000d
0019
ffe2
0015
ffdb
fff8
001d
ffed
0023
ffee
ffee
000e
ffe6
002c
000e
000d
0016
000d
0010
0015
000f
0011
0028
0025
ffea
0000
ffe0
fff3
000e
000a
fff4
0002
ffda
ffe3
0018
0002
fff4
ffe2
001b
fff6
000d
ffef
fff6
0027
002b
0022
ffe2
0000
002d
fffd
0001
0007
0014
0017
0005
0007
fffa
ffd3
ffcf
ffde
fffa
ffea
ffe8
ffdc
0000
fff6
ffec
0015
0005
fff7
fffd
fffd
0010
ffe2
ffe1
0014
fffe
fff2
ffff
fff8
ffe8
ffee
001b
0003
fffc
ffd9
ffe6
ffe0
fff1
ffd7
ffc8
002e
ffe0
ffdd
0017
ffee
001b
ffee
fff9
0018
fff0
fff0
001e
ffee
fffc
fffe
ffdc
0018
fff5
000c
fff7
0008
001c
fff5
ffed
fff4
001b
fff8
ffec
ffda
ffe6
fff9
000c
fffa
ffef
0002
0021
fff5
fff2
0003
ffed
000a
0011
000b
000a
000a
0006
000c
0014
fff9
ffe0
ffea
0016
ffe5
fffb
ffe7
ffdf
ffff
ffff
fffb
ffe9
fff6
ffe2
0018
000d
fffb
000e
fff8
000d
0006
fff1
0005
0011
ffef
ffe6
fffb
0018
ffe5
fff2
fff7
0022
0014
ffe7
fffd
ffdb
ffec
fff7
001f
001e
001a
0007
0006
fffd
0005
000b
0007
0018
fff8
0000
0017
fff5
fff7
fffb
0032
0027
000d
001b
fff7
fff6
fffb
ffff
000c
0003
0007
000b
fff1
ffed
0016
0005
ffeb
fffe
0020
0011
ffea
fff6
0011
ffef
001e
0017
fff2
000d
001c
0019
0006
ffe0
0010
ffe6
fff8
ffdf
ffe8
ffe3
fff6
0004
0016
fffb
ffd7
fff4
ffe6
0015
0027
000b
0004
0004
0001
ffe0
0000
0004
000e
ffdd
000d
000c
fff7
0017
0000
0021
0020
ffe0
0005
0003
fff7
000f
fffd
ffea
0007
fffb
fff9
ffe5
0009
0019
fff8
fff9
fffa
ffe5
fff4
000f
fff6
fff7
000b
0006
0005
0004
0015
0006
001f
0001
000a
001d
fff1
0012
fff0
0020
0015
000f
0013
001f
0012
001b
0018
ffe0
fffa
000a
ffea
fffb
001e
0016
000a
0011
0003
0005
0012
fff2
0011
0002
0016
001e
001e
0008
000f
0019
0000
0014
fff9
0017
0017
0005
000e
0012
000a
000c
fff2
ffe7
0009
000e
0003
000c
ffed
0005
0017
000f
0002
000d
0005
0015
0002
0007
0008
ffe5
fff4
001a
0010
fff1
fff6
fffc
000f
ffee
ffe9
ffe7
ffea
0006
001c
0008
ffee
ffe8
000c
0012
fff9
0013
fff6
ffe2
0015
ffe3
ffeb
fffd
0013
0023
0020
0015
001c
fff6
fffe
fff9
fff1
ffe9
0012
0006
0018
fff5
000f
fff3
ffe6
000f
000b
ffec
fff8
0017
0028
fff7
fffe
0003
0013
0013
0002
0011
0001
0009
fff8
0012
0010
ffed
fff5
ffef
0012
0016
0009
0012
000a
001c
0005
000e
0023
0016
ffeb
fff8
ffff
0006
001c
0012
0004
ffff
0010
fffa
0009
0019
fff7
fff8
fff4
0011
001c
0001
0009
ffea
001b
ffe2
ffea
000d
ffe3
0012
fff3
000a
fff7
0014
0014
0011
0007
fffe
fff3
000f
ffff
0021
0003
0024
0010
0008
ffb3
ffca
003c
ffde
fff4
001e
002f
0045
0020
0014
002e
ffcf
ffec
0026
fff1
ffd5
0009
fff6
0005
ffde
ffed
0015
0029
002b
ffd7
ffcf
0016
ffda
ffe7
0000
ffeb
0030
0017
000a
001c
000c
000b
fff7
ffcc
ffda
0004
0035
ffea
000f
005b
ffc7
ffed
ffe3
0014
003e
001f
000b
0009
fff8
0030
003e
0019
0021
0045
ffec
fff2
ffe6
ffdd
000b
ffef
ffbe
0008
0030
ffdf
fff0
000a
ffae
0009
0002
ffbc
0028
fff4
ffce
000f
0045
0000
0034
fff0
ffdf
ffd7
ffec
ffff
0006
0015
ffef
ffe5
000a
0038
ffc7
ffdc
ffe1
0059
0043
004c
0009
0027
0007
0002
0028
002a
0047
fff7
001d
ffb3
ffca
0032
0026
fff7
0002
0008
004d
0028
ffaf
ffd6
ffe5
ffd2
0045
0001
ffe8
0039
0033
ffca
0026
0014
fffd
fffd
003b
ffc2
ffe4
0023
0011
fffe
002f
ffd9
ffd7
ffdf
0031
ffc9
fff9
ffba
001a
ffed
ff89
ffdb
001c
ffd0
002f
004d
ffd7
ffd0
ffe4
ffe1
001a
0033
0004
ffe3
0037
ffee
ffc5
001f
ffd2
ffb3
ffd5
003e
fffb
0013
001c
ffd4
fff1
ffc9
ffbb
ffb6
0035
002f
fffe
fffe
0008
ffe8
ffe7
001e
fff1
0031
fff1
fff9
ffe2
fff9
0004
0007
ffc1
000e
000c
fff3
001f
ffd5
0030
002a
ffbe
0011
ffff
ffa0
ffea
ffce
ffca
0020
ffc6
0018
ffd2
000a
ffee
0005
0047
005f
fffb
0008
001c
ffdd
0001
ffad
0002
ffc9
0029
ffeb
0050
fffd
0021
0000
ffc9
ffc8
0000
ffd3
000b
ffe4
fff0
ffda
fff4
ffe7
0010
001e
000c
fff3
005d
0028
ffd9
ffeb
ffd5
0006
0007
ffc7
0034
fffb
ffd7
ffd8
ffe6
0038
0002
000c
ffe6
003a
0024
0008
ffef
0049
ffde
ffdd
0039
002f
0020
0020
ffd8
ffc1
ffd2
ffb9
0013
0023
000c
ffe0
0033
0014
ffc4
ffdc
ffc1
ffee
ffec
0004
0001
ffed
fff4
fffa
000c
0015
ffe8
fff5
ffde
fff5
ffe6
ffea
ffdd
ffd0
0025
0037
000d
ffe9
002b
0025
ffea
fff2
fff8
0003
0006
ffeb
0004
0018
ffee
fff4
0013
001b
0010
ffed
fff1
ffe3
ffee
ffe2
ffe5
0013
ffea
001c
000b
0012
ffe3
0009
0014
0016
ffec
ffe1
ffc3
ffe4
fff2
002a
ffda
ffdb
ffe1
ffdd
ffdf
fff1
0014
ffe3
ffef
0004
0018
ffe4
ffde
ffee
fff8
0018
0029
000a
fffd
0004
ffe5
ffff
ffe6
001e
001c
0012
ffed
0017
ffe8
001a
fff1
ffea
fffa
001f
0002
0010
ffe7
000a
001f
ffea
ffe7
fff5
001d
ffe5
ffe3
ffe7
0002
ffef
0012
ffee
0010
ffec
000c
000c
fff8
0004
ffe5
fff3
ffe7
ffef
fff5
0013
0008
0019
fff8
0023
ffec
0012
ffd6
0015
0009
fff3
000c
0022
fff1
0006
000b
ffdc
ffeb
ffff
001b
0002
000c
fff5
fff8
ffef
fff3
fff6
000d
ffea
ffdd
001e
0007
0005
000c
fff3
ffda
ffcf
fff0
fffe
0009
000b
ffea
ffeb
0029
0016
fffb
ffea
0019
001e
fff1
0004
0015
0012
0002
0015
fff8
ffe4
ffff
ffe8
0005
0015
0020
0022
fff7
fff6
ffec
001b
ffff
ffe9
0017
ffd9
ffe8
000b
000e
0002
ffe1
0001
001a
fff4
000f
0010
0026
0011
ffe2
fff1
000f
ffe4
ffd9
0009
001e
fff0
ffdf
ffee
ffd8
0013
0010
ffd9
0010
fff2
ffef
ffd1
0017
ffed
ffea
ffeb
ffcd
ffd8
fff8
ffdb
000e
ffed
0023
0003
0012
fff0
ffdf
fff1
fff9
0010
fffb
0004
0022
001d
ffe0
001e
001f
0028
ffe3
fffc
0000
fff7
0017
000a
ffe6
000d
0014
0020
fff8
001c
0005
ffe1
001c
ffe2
ffd1
ffeb
0021
000e
0005
0008
0003
001b
0001
0009
0003
0003
0024
0026
ffee
ffe7
0012
fff9
fff2
fff0
fffc
ffed
0023
0007
000a
fff4
ffe9
ffe4
ffe3
