fffa
fffb
fff6
fff1
0008
ffeb
ffff
0008
fff5
fff3
000d
000e
0006
0008
fff3
ffff
0022
0022
0005
001f
000c
000d
ffee
0000
000f
ffe6
fff5
0002
000d
0007
fff8
fffb
fff8
ffec
ffea
ffff
0007
0003
fff8
0008
fffd
000d
fff6
fff0
fffd
fffa
fffc
fffc
000f
fff1
fff1
fffa
0004
fffb
ffff
ffe8
0006
0003
ffef
0006
0001
fffa
ffea
fff3
fffe
000a
0011
fff5
ffe9
0008
0020
0004
ffe5
0014
000b
000b
0016
0011
000d
0009
fffc
fff6
0009
fffb
fffa
0006
ffe3
fffa
0007
fffd
fffa
0013
ffee
000d
fffe
fff9
0014
0014
fffc
000a
000e
fffd
000a
0003
0014
ffe6
000b
0003
0001
fff6
0007
fff9
fff6
0003
fffc
fffa
000e
0000
000a
0009
fff6
000e
fff1
fff5
000b
ffe8
ffdd
0022
0001
0014
fffa
ffea
000a
fff4
0012
ffff
000d
fffd
fffc
0009
0016
fff3
000e
0001
0007
ffe0
ffc5
0008
ffec
000b
fff5
0021
fffc
001a
ffd0
ffff
fffa
ffe3
0004
0009
001c
ffef
0011
ffeb
fff6
fff5
fffc
0002
ffd5
fff0
0022
0009
000b
0016
fff4
ffed
fff2
001b
0012
0007
0019
ffe1
001a
fffb
0004
001e
0011
000d
ffe4
ffdd
fffb
0016
fffa
fff0
ffe9
000a
ffe7
ffe8
001a
0015
0016
fffb
000a
000e
000b
000e
0011
ffd3
000e
0016
0016
000b
ffe6
0010
fff7
fff5
ffe8
0012
fffc
000c
0024
0021
0002
ffe6
0014
ffea
fffc
0012
0017
fffb
ffe6
ffff
fff5
fff6
0000
0021
001c
fff7
0007
ffec
ffff
fffe
fff2
ffed
0018
fff4
fff5
0022
fff7
ffef
fff9
0017
0008
ffce
ffef
0005
0027
001a
ffef
001d
ffe2
0001
ffec
ffdf
fff5
001d
0002
000a
ffe8
ffff
fff6
ffea
0016
fff1
0017
000e
fff2
ffe7
ffed
fffa
0017
fffe
fff1
000b
fff3
0020
fffb
0023
0008
fffc
fffa
fff2
fffa
0003
000b
0002
0002
ffe1
0008
000b
0002
0005
000a
ffec
fff4
0005
0003
0001
fff5
0007
0001
fff0
000b
fff1
fffc
0002
0007
0005
ffed
fffa
fff7
fffd
fffd
fff6
fffb
ffff
fff6
ffef
0012
0009
0006
0013
fff1
0010
0011
0015
000c
ffe5
fffc
ffff
fff3
ffea
fff2
000f
fffb
0001
fff4
fffc
fff5
0017
fff4
0007
0001
fff2
fff3
0009
0019
0012
0002
0016
ffea
fffa
000b
0008
0014
0005
fff4
fff8
fffc
ffed
ffff
fffe
fff8
fff3
fff9
0006
ffe7
fff6
fff5
ffff
fff4
000e
0006
0007
000f
fff1
fff6
0004
fffc
0015
0008
0008
001b
fffc
0004
0007
0005
0007
0012
0003
000e
fffd
fffd
0001
0002
ffec
0007
fff9
fffd
ffea
fff7
fff0
fff4
000f
000a
0009
fffb
0005
fff6
000a
fffc
ffee
ffff
0010
ffee
fff0
000f
fffd
000c
0002
fff5
fff4
fffc
ffff
fffb
fffe
0001
0009
0010
fffc
fff0
000c
fffd
fffc
ffee
fffd
fff6
ffff
fffb
fffa
fffa
fff8
0000
fffd
fffe
0007
fffe
0003
000f
000a
fff0
0007
fffd
fff2
fff9
fff9
fff3
0002
fff3
000b
000d
fff3
ffff
fff5
fff6
0007
0002
0003
fffc
0005
fff7
fff8
fffe
fffd
fff9
fff9
0000
fffc
0005
0000
0009
000a
0005
fff9
fff6
0005
fffd
fff6
000c
fffc
fffc
fff5
fffd
fffa
000d
0007
0001
0001
0002
0001
0005
0002
fffa
fff9
0004
fff9
fff9
0006
0008
0006
0001
0001
fff9
fff4
fff8
ffff
0005
0003
fff9
fff5
0002
fffa
fff7
fff2
fff6
fff5
fffd
0004
0002
0002
0009
ffff
fff4
fffd
0004
ffff
0010
ffee
0007
0004
fff7
fff2
0000
000b
fffe
fffb
fff8
000d
fff8
fffa
000e
fff2
fff3
0005
0004
fff4
fff2
000c
000b
ffff
0001
fff4
fff8
000b
fffd
fffa
0000
fffb
000a
000c
0008
0006
0007
0005
0000
fffb
0001
fffe
0004
fffc
fffa
fffc
fff8
fffe
0005
fffb
fffd
0004
0009
fff9
fff9
0003
0004
fffb
fff8
ffff
0002
000d
0009
000a
0004
0000
ffff
0009
fff5
0001
fffb
fffc
fffb
fffa
fffe
0005
0007
fffd
0001
0009
0000
fffd
0001
0003
ffff
fff9
fff0
fffb
fffa
fffe
0004
ffff
fffa
000c
0003
0008
0003
0004
0000
0004
0000
0001
0002
fffe
fffc
0000
fff7
fff8
0002
fffb
fff7
0007
fff8
fffb
fffa
fffe
fff5
fff8
fff2
fffb
0003
fffe
0006
000b
0007
fff4
fff7
fff7
0001
0005
0005
0009
0002
0009
0008
0002
0005
0007
0002
0004
fff3
fffc
0005
0000
fffe
fffd
0007
fffb
fff8
0003
0000
fff7
0001
0000
fffa
fff8
0004
fff8
fff5
fff6
000b
0000
fffd
ffff
fffc
fff9
fffb
000a
fffa
fffd
fffa
fffe
0007
000b
ffed
0003
fff5
000c
fff4
fffd
000a
000a
fff8
fffe
ffff
fff2
fff6
0002
0010
0000
fffd
0002
0002
0008
fff6
0008
fffd
0010
000b
fffd
0001
0006
fff4
0003
fff5
ffff
fff8
fffa
fff8
fff7
0004
0005
fffb
fff0
0008
fff7
fff1
fff9
fff6
0005
fffb
0007
0004
fffe
0012
0000
0007
fffe
0001
0007
fff8
000b
fffe
000b
000a
0000
0003
0009
0005
0003
fffc
0009
0000
0003
fffc
fff6
000b
fffa
0001
0003
0007
000c
0013
fff1
fffa
fffe
000f
0002
0009
0006
ffff
000e
0006
0014
0005
000c
fff9
0003
0009
0008
0014
0007
fffc
000c
fff0
0000
000a
fffe
0003
fffb
0000
0005
fffc
fff7
0008
0017
fff7
000a
0005
0006
fff6
0009
0000
0004
0002
0001
fffb
fffe
000f
000d
fff9
fffb
fffa
0001
fff3
0000
0003
0006
fff9
fffa
000b
ffff
fffd
fff6
fffd
fff5
0005
ffee
fff0
fffd
0005
ffe5
000e
0009
000c
ffeb
fff2
0010
ffe5
fff6
0000
fffa
0012
fffb
fff8
ffe3
ffe3
fff1
0006
fff9
fffe
fff8
ffed
fff4
0003
fff1
ffea
0009
fff1
0010
0000
fffa
0008
fffb
fffd
ffec
000b
000c
ffe7
ffed
ffef
0001
000e
001b
0001
000d
fffc
ffe5
000a
fff6
0006
fffa
0014
001c
000f
000e
0000
0009
fffb
0017
0006
001d
fff4
fff3
fff3
0004
fff9
0011
fffa
fff5
ffec
0004
fff8
001f
0005
000c
fff6
fff9
0009
000e
ffe9
0023
ffff
0004
0003
0002
0003
fffa
0012
000e
fff1
0002
0007
0008
fff4
fff9
0001
fff5
ffe0
ffe5
fffd
fffc
0017
fffc
000e
0017
001d
fff0
fff9
0017
fff0
ffee
ffe1
ffff
fff6
0011
0001
ffd9
fff5
ffff
0010
fffe
0003
0000
fff8
fff8
0005
ffff
000f
ffde
ffe3
0007
fff8
0016
000b
fff9
001a
fff8
0019
000d
000d
0001
0003
0000
0005
fffc
fff3
0006
000b
fff5
0008
0012
000d
0002
fff3
fffd
fff9
000b
fff8
fffe
fff2
fff8
0004
ffef
0005
000e
ffff
0000
ffff
ffff
fffd
fff9
0002
0003
0005
fffe
0008
ffff
000e
fffe
0007
0000
0006
000c
0002
fff9
ffff
fffe
fffc
fff4
fff4
0006
0004
0006
0007
0009
fff3
0005
0008
0005
0003
fff6
fff8
0004
fff5
0005
0005
0008
fffc
fff8
0000
fffa
000b
0009
0000
0004
fff9
fffd
0004
0006
0000
fffb
0000
fff7
fff9
ffeb
fffe
fff8
0009
0004
ffff
0000
fff9
0008
0002
0000
0006
0007
0005
000b
000c
0002
fff1
000d
0002
fffa
fff2
fffb
fffc
000e
fffe
0004
0002
0000
fffa
0012
0009
fffe
0005
0009
0006
fffc
fffd
fff3
fffc
fff9
0004
000c
0004
fffa
fffd
fff7
fffc
0001
fffb
0008
0007
0004
fff5
fffc
fffe
0004
fff9
fffd
fffc
0001
ffff
001a
001a
ffe2
fffc
0010
ffec
ffee
ffe1
fff4
fffe
000a
0009
ffda
0007
0019
0011
fff6
0002
ffe7
0011
ffe2
fff4
0019
fff0
0003
ffde
fff6
fffb
0007
ffd4
fff8
ffee
fff5
fff0
fff0
ffda
fff4
001b
ffff
0006
fff6
0011
fff3
ffec
0012
0015
fffd
fff2
fff8
0007
0002
0019
ffd2
0006
fff3
0022
0009
ffee
0018
0006
ffed
fff4
001c
ffde
001c
0017
0013
000b
ffec
000d
0000
0015
fffc
fffa
000e
ffe0
0015
fffb
0006
ffef
0007
fff9
0003
ffef
ffe9
0023
fffe
000a
0005
001d
0009
ffe6
0019
fff7
0005
fff7
0009
fff4
fffa
000a
fff8
fff9
ffe1
000a
0018
000b
000a
fff9
0003
000b
0010
ffed
ffef
fffd
fffa
0008
0012
0010
0000
fff7
0023
ffef
000a
0012
fff6
fff2
0020
0009
000c
0009
0000
ffe9
0000
fffb
0013
000d
0006
ffe7
0016
000e
fff4
fffe
0015
ffe5
fffe
0014
fffb
000d
ffff
0000
0004
fffc
fff6
0007
ffff
0004
0005
fffb
fff6
000f
ffe9
0003
000f
fff2
0007
0000
0017
0008
000c
0013
fffe
0012
fff6
000f
0009
fffb
fff9
0009
ffe7
fffd
0005
0004
0008
0009
0001
0012
0012
0009
fff8
0002
fff9
000b
fffe
fffe
fff7
0008
0005
fffa
fff0
000c
000b
000c
fff0
fffc
0002
000a
fff5
0015
0004
0013
fffa
fff4
fff5
fffc
0005
fff3
000c
001a
ffeb
0000
fff7
ffe9
001e
000b
0007
fffd
0009
fffb
fffc
0006
0003
ffed
ffe9
0013
fffe
ffff
fff3
fff5
0001
fffe
fff7
ffee
0001
fffb
000a
0011
fffd
000b
fffb
fff4
fff9
0003
0003
fffd
0005
fffb
0011
0014
fffb
fffa
0006
fffd
0026
ffff
fff1
0006
fff9
0013
000b
0007
fff6
fff1
fffd
0008
fffa
0009
000a
0011
0000
0011
fff5
0001
0003
fffa
ffef
0001
fffa
0028
fff7
0007
fffc
000c
000a
0006
000a
ffeb
000d
0018
0002
ffe5
ffef
000e
ffd3
0008
ffed
0011
ffff
fff3
fff7
001c
ffee
0011
ffde
ffd9
0004
fffc
0000
ffe1
0006
ffe8
0003
000d
0007
ffe6
0000
0010
0007
001d
ffeb
fffb
fffa
ffe8
0008
ffeb
fffe
fff7
fffb
fffd
0003
ffe8
fff2
0017
ffef
0014
ffef
ffef
0011
001b
0015
0003
0009
ffea
ffed
0013
0013
fff0
0005
fff2
ffef
0001
0016
000c
001e
fff7
000c
0012
fff7
000a
0003
ffec
fff6
000b
ffe3
ffe1
fff9
ffe1
ffef
ffef
ffe8
0015
ffea
0021
fff5
0009
001a
001e
000a
ffea
001f
fff8
0008
0005
ffdb
fff2
ffe6
0003
000c
0018
fff0
0015
ffec
fff5
000c
ffe9
fff0
0002
ffd9
ffeb
0002
0000
fffb
0007
0015
fff0
000f
ffe7
0002
ffdf
000a
0009
fff0
0002
fffc
000b
ffe9
0006
ffda
0005
fff1
ffe3
000a
ffe3
0018
ffe3
fffc
fff6
000c
fffd
ffe8
fff4
0019
0001
ffed
0013
0039
0016
0008
0009
0018
0006
0029
ffed
fff9
0003
fff8
0018
fff6
fff4
0000
ffdd
0003
ffe6
fff6
ffe0
fff9
0019
fff3
0004
001e
0008
0000
fff8
ffeb
0006
fff7
fff2
0015
001b
0008
0018
0006
0009
fff2
001b
000e
0003
0010
0001
0011
fffa
000e
0000
ffe2
0005
0002
0002
0003
fffd
ffdf
fff5
0012
002a
fff0
001f
fffd
001e
0005
fffd
000a
ffed
0003
fff5
ffdd
000c
ffdf
000c
fffd
0009
fff9
000f
0014
fff7
0014
fff1
0005
ffee
ffe2
0003
ffff
0006
ffef
fffc
0001
0011
000c
fffa
ffdf
000b
fff0
fff8
ffe7
0010
ffe2
0016
0008
000d
ffe8
0008
0021
fff3
0001
fff3
fff0
fffb
0005
fff5
001f
ffc2
002e
000f
fff1
ffff
000a
ffff
0015
0014
0001
ffe9
000a
fff2
0009
0020
000a
ffec
fff7
fff5
0009
0017
fffb
ffe5
0012
0009
ffff
0006
0003
000d
fff7
000a
ffee
000a
fff2
fff2
ffe8
0018
fff0
0001
0003
0002
ffe7
0006
0003
000b
000a
fff1
ffef
fff7
001a
ffec
0011
ffee
000a
0001
000a
ffdf
ffff
0015
ffed
000b
fffc
fff2
0001
0006
0001
fff8
fffe
ffeb
0001
fff5
fffd
0018
ffee
001a
0025
fff8
0009
001a
fff2
000b
001a
ffec
ffee
ffe7
fff8
ffec
ffdc
fff6
0020
fffe
fff7
000b
0006
001c
fff7
000c
ffe1
000b
fff7
0002
0018
0004
fff9
0018
fffc
fff0
fff0
000f
fff6
fffd
fffd
0008
0002
fffc
ffef
0002
fffe
ffea
0005
fff1
fffc
001e
ffee
ffee
fffe
fff4
0011
0007
ffdf
0014
0003
ffe3
fffb
ffff
fffe
0000
fff0
000e
0007
0013
000c
fff6
0007
0011
ffe1
0004
fff0
ffed
0003
0013
0009
fffe
ffef
ffef
ffdf
fff3
0005
0006
fff8
fff8
000d
ffe5
fffe
fff8
0028
0003
fff8
fff3
000c
fffa
0008
fffb
0008
0011
fff3
000b
0004
0018
ffed
ffeb
fff9
fff1
fff5
fffe
0014
0007
fffc
000d
ffed
ffff
fff4
ffed
ffe4
0001
0000
0006
fff3
fffc
ffee
ffe1
fff4
0008
0002
000a
0001
0002
0008
0000
0016
ffef
fff4
0000
0000
001d
ffeb
000e
001b
fffe
fffa
ffe8
001a
fffd
0017
0008
fff3
0007
0001
fff6
000b
ffed
0001
000b
fff0
0001
000d
0000
000f
0009
fffd
fffb
fff2
fff9
fff7
0015
ffe6
0003
fff5
0003
fff4
0006
ffe6
0010
0007
0017
000c
0011
fff8
000e
ffec
ffff
000c
000e
fff5
000f
000f
0007
0007
fff4
fff5
0018
0009
ffe6
fff6
0005
fffd
0019
ffff
fff8
0013
ffeb
fffd
0007
0012
0015
0000
0006
fffe
0002
ffee
001c
fffd
fff5
0006
fff0
ffec
0016
ffdc
0013
000c
fffd
0008
ffff
0005
fffd
0014
ffe8
ffe9
0006
0000
ffeb
000d
0001
0012
ffe3
ffee
fff4
ffe9
ffe9
0004
0020
ffe6
fff5
fff5
0021
0001
000d
fffd
000d
fff5
ffef
ffee
0001
fff0
0000
0010
fff5
fff0
fff8
000d
0000
0004
ffe8
001c
ffe9
000a
000e
ffec
001e
0009
ffe8
ffdf
ffdf
0009
0014
ffee
fff7
0015
0010
000f
0013
ffff
fffd
fff0
fffd
0001
fff0
fff4
0019
0005
0022
fff0
ffe5
000d
ffda
ffe7
ffe6
000d
0014
fff0
0002
fff3
0014
0004
0006
fff8
000d
0001
fff9
fff8
0014
0018
0004
001a
fff8
0018
fff7
0020
ffe5
fff4
fffc
0007
ffe3
fff1
fff9
0006
fff4
000c
fff3
fff6
0015
0003
0004
0000
fff2
0015
fffe
fff5
0009
0001
fff3
001e
fff0
ffff
001a
001c
0008
ffef
ffeb
0005
0005
fff6
0014
fff1
0011
000a
fffa
fff1
0000
0009
0012
fffc
fffa
0009
ffdf
0008
ffe3
fff9
ffe4
ffe4
ffff
ffea
fffc
fff5
0014
fff2
fffb
000c
000c
0005
fff6
0018
fff9
fffe
ffff
fff8
0007
ffff
ffe8
0000
0001
0007
fffb
fffd
0000
0000
0008
0012
000e
0000
fffa
0011
0005
fff9
0017
0013
0003
0004
0005
000e
fff0
fff9
fff7
000a
fffc
ffef
fff9
000f
fffd
000f
fffa
0011
0001
fffa
000e
000d
0006
fffd
fff8
fff8
fffb
ffeb
fff5
0005
fffa
ffed
0003
fff1
0005
001d
fff7
fffa
0008
000b
0005
000a
fffe
0016
0018
ffea
0001
fffc
ffff
ffef
0007
000e
0006
0007
fffb
0007
0007
0009
fffe
fff3
fff8
0006
fffb
0017
ffeb
ffe5
ffeb
0006
0002
fff9
0015
000b
ffff
0007
000a
fff4
fff1
0003
0011
0001
ffff
fffe
fffe
ffeb
fff6
0014
fffe
ffec
000d
0000
fffe
0014
0001
ffff
fffb
fff6
fff2
0002
ffee
fff8
0005
0001
fff5
0012
0010
001c
fff2
0016
0009
0007
000d
fff5
ffe7
fffc
ffef
fff2
fff2
0001
ffee
0006
0007
ffef
0008
ffff
0007
ffe9
0002
fffb
0008
000e
ffeb
fff5
001b
0012
0011
ffe2
0003
fffb
0004
0009
ffee
fff6
fffc
0001
0003
000a
ffef
001b
0004
0007
000c
fffa
fff4
000d
fffe
000f
000a
0005
001b
ffee
0007
0000
ffed
fffc
ffef
fff6
000b
fff8
0000
ffed
0008
0013
0000
0002
ffeb
fff2
000c
0002
fffa
0008
0004
0010
000d
0006
ffed
fff8
000c
001e
fffb
ffea
fff2
ffe9
0009
fff5
ffff
ffe4
ffea
fffe
0017
fff6
ffe3
0008
ffe4
fff6
0010
000a
0014
0005
fffc
ffea
000c
ffff
fff5
ffec
0001
fff1
fff9
0001
0004
0012
0008
000d
001a
0006
0000
000d
0016
fffb
ffec
fff3
0002
ffeb
fffe
000b
0000
0005
ffe3
fffd
ffed
ffe4
ffff
000c
ffed
0004
fffa
0001
0003
0017
0005
0001
0007
fffc
ffec
fffc
fff2
fff8
fffb
0004
0009
0000
0003
fffc
0008
0002
ffee
0010
000b
0005
0000
0004
fff4
0008
0007
0004
0008
ffeb
000e
fff6
fff7
0001
0002
0001
0003
fff2
fff9
fff6
fff8
fffd
0006
fffb
000a
ffff
000d
ffff
0003
0001
fffd
fffd
0011
fff1
ffff
fffb
fff0
fffd
0002
0007
fff7
0000
fff9
0008
0003
ffff
000e
fffa
000a
fffa
fff5
fffc
0004
fff2
0005
000d
fffa
000f
0002
0017
fffa
fff2
fff7
fffc
fff3
000b
0003
0007
0002
0004
fff3
0006
0002
ffff
0002
0004
0010
fffd
0001
0007
0009
fff7
000e
0007
0002
000b
0005
fffb
fffb
fff5
fffd
0007
000f
0014
fff7
fffd
000c
fffe
fffa
fff6
fffd
0009
fff2
fff4
fffc
fffc
0002
000d
0002
fff5
0001
0000
fff4
ffff
0001
fffd
fff4
0013
fffb
fffb
fffd
0008
fff3
000c
0006
0006
0007
0008
000a
000c
fff8
0005
000b
0007
0009
fff4
fff6
0009
0008
fff9
0012
fff9
fff1
0008
fffa
0000
fff7
0001
fff0
0007
fffc
0002
fffc
fff8
0007
0009
fffe
0005
fffb
0006
0004
0009
fffc
0001
fff8
fffd
0011
fffc
0007
fffb
000e
fff8
000c
000b
fff9
fffd
0002
ffff
fff1
fffe
0001
000e
0006
fffb
fff4
fff8
000a
0002
0013
0011
ffef
fffa
ffe7
0006
0002
0001
fff8
000a
fff8
0013
fffc
fffd
fff8
0000
0004
0003
0003
0008
fff3
0000
fff9
fff5
0010
000a
0008
0007
0007
000c
ffff
fff5
fff5
0007
0004
fffc
000e
fffd
0009
fffc
fff6
0007
fff2
0004
000a
fffc
0005
0009
000e
0001
fff7
0008
0007
0004
fffd
0007
0005
0006
0005
0014
fffa
0016
fff5
0014
0008
0014
0005
0000
fff9
fff9
0006
fffb
ffff
000c
0009
000a
fff9
0003
fff5
fff8
0004
0002
fffa
fff7
0000
0005
0009
0000
ffe3
0000
0010
fff5
001c
0009
ffed
ffff
fff3
ffe2
000d
0013
fff6
ffff
0006
ffdb
0014
ffed
fffe
002a
000a
fff7
0001
000c
0010
ffe7
ffe1
0009
ffe2
fff8
fff7
fffa
fff9
fff6
0007
000a
000a
000e
fff2
0001
002a
0010
0002
ffe5
fff5
0004
0005
0002
ffff
fff4
0011
0007
000a
fff1
ffe0
0008
fffd
0003
ffef
000a
0001
fff1
ffee
fff3
0008
ffed
0003
ffea
fffa
fff1
0024
fffd
0006
0020
ffe8
0009
0016
0000
ffe9
ffed
ffe0
ffef
0014
fffc
fff7
fff4
0000
fff4
fffb
000a
ffe0
0026
fff8
ffe6
fff9
001d
0010
0000
000f
ffdb
ffe8
ffec
0007
fffc
0006
ffcc
fffb
fff1
ffeb
0008
000d
0009
0010
000b
fff1
ffee
0003
fff2
ffe7
ffff
0005
000a
fffe
fffc
fff3
fffa
fffb
0028
fff7
0001
fff3
ffe7
000f
001c
fffb
fffb
fff2
fff6
000a
ffef
000c
ffec
0015
ffdc
ffe8
ffdd
fff0
0029
ffef
fffc
0018
0019
0005
000b
fffe
fff2
ffdd
fffb
ffff
0006
ffef
0018
0025
ffe6
0014
0006
ffe8
ffe7
000f
0019
ffed
ffe6
fffd
0002
0016
fff7
0002
fffe
001f
fff2
fff3
0008
ffe7
0007
fffb
0012
0024
0016
0017
0007
ffeb
fffa
0009
fffc
ffee
0002
fff5
ffff
0007
0003
0016
ffe5
fffa
ffdd
001c
0008
000a
ffe1
000e
0024
0025
0008
ffe3
0001
0007
0010
ffe7
000c
0009
ffd6
003d
0000
0008
fff2
fffb
fffa
0003
003c
0000
ffd2
fff7
ffee
002c
0004
0006
ffed
0022
0008
fff7
ffe9
0014
0011
0019
001c
000e
fff7
ffeb
fff5
0024
000c
fff0
0008
0018
0000
fff8
fffc
000e
0004
fff0
000e
ffec
0009
0028
0000
0018
ffef
0008
001a
ffee
0011
0016
ffd6
ffdd
0018
0015
ffde
0002
0023
fff5
0007
fff9
001c
ffe2
fff7
0028
ffee
0006
fffa
ffe8
000b
000c
fff1
ffea
0007
fff8
fffd
001c
fff8
fff9
0004
0003
fffe
0005
ffe9
fffa
000c
0009
ffe9
ffe9
0000
fff2
ffee
ffea
fffc
0006
0003
0007
0000
ffff
0005
fff4
0000
0005
fffa
0008
fffa
0007
ffee
fff5
0010
fffe
0004
fff5
0005
000d
001a
0004
fff7
fffa
fff2
fff7
0008
0006
fff2
000a
fff3
fff8
fff5
ffeb
fff9
000a
ffff
000d
fff9
000f
0008
0004
0018
0001
fff6
fffe
0001
0015
001f
0008
0014
0004
000e
000f
ffef
ffe3
fff5
ffff
0007
0001
0009
fffb
0013
fffa
0009
000a
fffc
ffeb
fff8
fff0
ffff
0009
001d
fff0
fff8
ffef
ffed
0003
ffef
0017
fffa
000c
fff8
fffc
0004
ffdf
fffa
fff0
fff7
fff6
0013
0006
0003
000e
fffd
fff6
000a
fff5
000e
0004
0009
0007
0007
fff1
fff9
ffe9
000c
0001
fffa
0016
000c
000e
0008
0009
fffc
ffdb
0006
fffd
ffef
0004
0012
0001
0004
fffc
0003
0000
0010
000a
ffef
fffd
ffff
fffc
001e
fff7
0002
ffe7
ffeb
ffff
0001
ffff
fff4
000a
000a
001c
fff4
0004
0007
0006
ffff
000d
fffd
0004
0005
ffed
fffc
ffff
fff6
0008
ffff
0005
000d
ffff
0000
fffb
0016
0004
fff5
000a
fffe
000b
fff8
fffe
0002
fff2
ffee
fffe
fffd
fff8
ffeb
fffa
0005
0007
000c
ffec
fff5
000a
001b
0004
fff4
fffc
001a
0002
fff1
000f
0005
fffa
000f
0003
0013
0001
0009
fff7
fffc
fff2
fffa
fffd
fff3
0004
ffec
0019
fff6
fff3
fff7
0011
fffb
0009
fffe
0005
fff8
fff2
fff5
0016
0000
fff5
fff9
000f
ffff
fff7
fffd
fff6
ffee
fff6
000b
000b
fff6
0009
000b
0001
fffd
0001
fffa
000d
fffc
0007
0007
fff7
fff9
0003
000a
fff9
ffff
fff5
0001
0006
0006
0001
fffd
0004
0006
fff3
ffff
fff8
ffee
0012
001b
0000
ffe0
fff4
ffea
000f
ffce
0004
000d
0023
0011
ffef
ffef
000c
0000
0037
fff6
ffdb
0006
001e
ffeb
0013
ffff
ffff
0004
0008
0017
0014
000b
fff3
ffec
ffec
0017
ffe9
fffa
ffe4
000c
0007
fff9
ffec
fff6
000b
0004
000f
001a
0010
ffed
fffe
fff4
fff0
ffed
fff1
0002
fff5
0024
fffc
000d
0002
ffe8
ffeb
0002
ffe6
0005
fff3
001d
fff6
fffa
fffe
fff0
000a
ffeb
fff1
0019
ffff
ffd7
0009
0001
ffe6
0004
ffea
fffd
0011
ffe3
0016
001a
ffe1
0008
fffe
fff7
fff7
001d
fffe
ffee
fff7
000b
0018
ffec
fffb
ffef
001a
fffe
0007
001d
001d
0017
0005
0019
0005
fffe
ffd8
fffe
000b
fff8
fff2
0004
fffe
0003
0013
fff5
fff2
000c
fff9
0004
0014
fff9
0013
ffd6
0000
0003
0000
ffee
0007
ffed
fff1
ffee
fff7
ffdd
0011
0008
fffc
fff5
0004
fffe
fff3
000a
fffe
fff5
0001
000e
001e
0008
0006
001a
000d
0009
fffe
fff4
000b
001f
0001
ffea
0006
fffd
0001
ffee
ffeb
000f
fffd
000e
0010
0004
fff8
0000
ffe3
0002
000b
ffff
ffed
fffb
0011
ffe4
ffe4
0015
0013
fff8
fffd
0005
0004
0003
fffe
0002
0010
0003
ffed
000c
fff4
0007
fffb
ffe5
001a
fff3
ffea
0014
ffe6
ffe9
fffb
0012
0002
fff6
0010
fff8
fff9
001b
fffe
0014
0002
000d
fff9
0017
fff6
fff8
000a
0007
0009
fff9
ffe7
0001
000e
ffe9
001b
0007
0005
fff0
fff5
0017
fff7
fff7
fff1
fff9
0003
fff0
001a
0003
001a
0014
fff9
0002
0004
fff5
0007
ffe9
0016
000e
0004
fff5
ffe3
fffe
ffed
ffee
fffd
fff9
0006
000f
fff1
0015
fff5
0018
000b
ffec
0006
000f
fffd
fff6
0005
0012
fffd
000f
fff1
0009
0008
000c
ffff
0005
ffe7
000d
000a
fff6
ffec
fff9
fffa
000a
ffee
0006
0002
fff3
ffef
0011
0006
000f
fffa
000c
fff5
0014
ffee
0010
0008
0001
0002
0010
fffa
0005
0005
ffe4
000e
ffff
000d
0010
0014
fffd
ffee
ffe7
0009
0009
0005
000a
fff9
000c
0006
fff7
0001
fffc
fff8
fffd
0000
fff2
0011
fffa
fff8
ffff
ffff
fff4
0009
fff6
000f
000d
0005
0008
fffd
0012
ffeb
ffff
fffb
ffe3
001b
0016
0006
ffe6
fffa
fffb
ffff
fffc
0013
fff6
0010
0023
000a
fff1
fffe
0005
fffd
0015
fff1
ffea
0004
fff6
0007
fffb
0002
fff5
000f
0010
fff9
0015
0009
fff8
0011
ffe4
0007
0003
0013
0003
000c
fffd
fffb
0007
ffe9
fff5
0010
0015
ffef
000e
000b
0009
fff3
fff3
fff4
0008
fff4
000f
fff3
ffec
fff3
ffee
fffa
0001
fffb
fff4
ffea
ffef
fffd
fff0
0018
0002
fff6
0010
fff3
0019
000a
000d
ffea
ffec
fff7
0024
0006
0016
0011
fff3
ffea
0007
ffe4
000e
fff4
ffdf
0005
fff6
fff6
fff1
ffe4
000d
fff2
0010
0016
fffe
000a
0001
fff3
ffea
0019
0000
fff0
000b
0019
ffff
000a
fff7
001b
ffe8
fffb
000e
ffef
0006
0002
fff1
0005
0002
ffe9
ffe7
ffed
002a
fffe
fff5
001a
0004
001d
fffc
0016
0006
0013
ffeb
fffd
0011
000d
001c
fff0
fff8
000b
fff9
ffe7
fffa
ffe4
fffd
0001
0009
ffff
ffdc
ffee
ffe9
0000
000c
ffff
0000
0003
ffe2
0000
fffc
0016
000b
ffe0
000e
ffee
0005
0018
0001
001a
000e
ffee
ffff
000e
fff0
0011
ffff
fff9
fff8
ffe0
ffed
ffe9
0009
0000
0012
000d
ffea
0008
fff6
0021
0016
fffd
000e
001c
ffe2
fff0
fffc
ffdf
0016
ffff
0000
fffc
ffe8
ffec
0025
fffa
000c
0016
fff7
fffe
000e
fffe
0000
0001
0013
0008
fff9
fff5
fffe
0004
0013
001c
0013
000e
ffee
ffd9
0033
0000
ffeb
0002
0008
0024
0008
0009
ffe8
0024
0000
0000
fffb
0002
0009
0002
fffe
ffe7
fff2
fff2
001b
fffb
000b
fff5
000a
0007
ffe4
0003
001c
fffb
0024
ffe9
0020
000e
fff2
fff8
0006
fff6
fffe
000f
fff1
0001
ffdf
0022
0009
fff3
000d
0008
0004
0004
000e
0006
ffeb
ffe9
0016
ffeb
000c
0016
fff5
ffea
ffe9
fff8
0000
0004
ffda
0005
fff6
000a
0006
0002
0019
0021
0008
ffe6
fffa
fffc
ffe2
fff2
0010
fffd
fffc
001c
001c
0002
ffff
0004
ffee
0009
0000
0012
fffd
fff9
ffe7
fff6
ffef
000c
ffff
000a
ffee
0007
0010
ffe4
fffb
001f
fff3
ffed
ffe6
000b
fff8
fffd
fffc
000f
0003
fffc
001b
fff0
0013
0010
fff2
ffe9
001c
0009
0004
000c
ffe1
000e
0025
0003
000f
ffd9
ffe1
0003
ffe5
000d
000a
0004
fff8
000f
ffe0
0004
000e
ffeb
0009
fff4
0009
ffe6
000d
0013
0001
0007
ffd8
fff9
ffee
fff8
0014
0008
0020
ffff
ffec
ffed
000f
001d
fffa
0003
000b
0005
0005
0003
000d
ffe5
fff2
fff8
0004
fffc
fff0
0006
000b
0026
0007
fff4
ffe9
001a
fff5
ffef
0011
fff3
fff4
ffed
ffd4
000d
0014
ffe4
fff8
0005
0014
0001
000c
0001
ffff
001c
0004
0003
0000
0010
ffff
fffb
001b
0013
0014
0009
0005
fff2
fffb
002c
fff9
0006
0000
fff2
ffe7
000b
0008
0013
0008
ffed
fffc
0015
000d
ffea
000d
ffe7
0014
fff3
ffe0
fff2
fff0
0018
fff8
0017
ffee
fffa
0023
fffb
fff4
fff0
fff6
fff0
fff8
0008
fff2
0000
0001
ffe6
0006
0004
0004
ffef
001f
ffe8
fff7
fff5
000a
ffeb
ffee
ffe9
0015
fff7
000b
000f
0006
0019
0017
fff2
000a
ffd2
fff5
fff6
0009
0023
0007
0012
fff2
0016
fffb
001e
0003
ffda
ffed
fffe
ffde
001a
fffa
000c
0006
ffd9
0007
fff9
000d
000d
ffe9
0019
0004
ffdb
0014
0007
ffe7
0015
0020
ffe3
ffe2
0019
0016
0009
ffd7
0007
0016
fff1
ffda
ffe0
ffde
001c
fff0
fffc
ffea
0005
fffc
0024
0006
0008
0026
0000
ffdd
ffef
0016
ffed
fffd
fff7
0000
0035
ffea
0012
fffe
000d
000e
ffee
0017
000a
0016
fffb
fffe
fffa
fffc
0006
fffa
0008
0019
ffed
ffde
0010
ffec
0008
001c
fff5
0008
0002
fff4
0017
0005
0010
0006
0009
fff1
ffe1
fff1
fff3
000a
fff6
000a
000d
000b
fff7
0011
0019
0012
ffea
0011
0004
fffd
ffed
fff7
001c
ffef
fff8
0018
0008
ffdd
001c
fff6
ffed
000c
fffd
0014
0022
0029
0006
002b
fff4
0001
0000
000e
0008
fff7
000e
ffe7
0017
fffd
ffef
0016
ffee
fff0
ffe6
001b
0009
fff0
0016
ffe7
0020
0002
fff0
fff1
000d
000e
000c
0003
fff5
ffe7
000f
0000
0020
fffb
ffee
0002
001c
ffe2
002d
ffef
0017
000f
0004
fff5
0004
ffea
ffdf
ffff
ffee
000d
ffeb
0010
fffa
0013
ffea
0023
0000
fffa
ffe4
fffe
001b
000d
fff4
ffe1
ffe6
ffed
0004
0018
ffff
0004
001b
fffb
ffec
0004
001e
fffb
fff4
0002
0013
000b
fffd
ffff
fff5
fffa
0001
fff7
ffed
0010
0004
ffe7
fffb
0009
000e
fffa
fffa
0017
001f
fff3
fffd
0017
fffc
0006
0000
0011
fff3
fff0
0015
0015
fffa
0018
ffdb
fff3
fff3
fffc
ffec
fff6
ffdd
fff9
001d
000e
000e
fff8
fff3
0004
0016
ffe9
000a
ffef
fffc
0024
ffe5
ffe8
0007
fffe
fff5
0002
fff7
0000
000a
0005
001c
fffd
000a
000d
0002
000e
fffc
0014
0007
fff8
ffd6
fffd
fff0
ffe8
0002
000b
000c
000f
000e
fff0
000d
fff5
0002
ffd6
fffd
0003
0003
ffff
fffa
fff5
000b
fffd
0001
0002
fffa
0008
0005
0008
0005
fffe
fffc
fffc
0002
fffe
ffff
0001
fffc
ffff
fff5
000a
000b
fff9
fffc
0008
ffff
fff7
0003
fffb
fffb
fffa
fff9
0001
fff9
0002
ffef
fff4
fffe
000b
0000
fffa
0004
0002
000a
fffb
0003
fff6
0005
fff7
fffd
0005
ffff
fffd
0004
fff9
fff8
0000
000a
0000
0009
ffff
0001
fffa
0002
000b
fffb
0006
fffd
fffa
fffe
000d
fff6
0004
0007
fff6
fff8
fffa
ffff
ffff
fffb
ffff
fffc
0002
fff9
0009
fff7
fffd
fffe
0005
fff5
0005
0005
fff7
fffa
fff8
0006
fffb
0001
fffa
fff9
fffb
0007
fffb
0006
fffb
fffe
0006
0003
0004
fffc
000d
000c
fffc
fffc
0001
000b
ffff
fffd
0009
0002
fff9
fff9
0002
fffd
0006
0004
fff9
000a
0005
000b
0005
0008
fff9
0002
fffe
fff9
0001
ffff
fffc
fff9
ffef
ffe6
fffa
0019
0011
0000
fff4
fff5
000b
0011
ffff
ffe9
fff9
0008
0015
000c
ffff
fffb
fff0
0003
0003
0013
ffec
fffc
0015
0000
fffc
ffef
fff7
0011
fff4
0006
fff4
0018
fff8
ffff
fffd
0006
fffe
ffee
0002
000e
ffe0
0006
0010
0004
fffa
000d
ffe4
ffed
0009
fff6
0006
0007
0016
0005
0007
0006
fffa
0005
fffc
fffc
0005
0002
fff0
ffef
0017
fff0
fff6
0012
fff2
0002
0005
ffe6
fff4
ffff
000e
000c
0000
ffe6
000f
0008
000e
0008
0001
fff0
fff4
fff4
fffd
001a
fff1
000a
000a
ffe7
ffff
000d
ffef
ffe2
fff6
0009
0001
ffe8
fffc
ffe8
0009
fffa
ffff
0001
fff9
0003
0016
fff8
0001
fff8
fffa
0010
fff1
0005
ffeb
ffe5
000d
0010
fffe
000b
0009
0009
fff5
0008
0007
000c
0013
000b
ffe3
0000
001d
fffe
000b
0004
0011
000a
fff0
fffc
fffc
0008
fff4
0008
fff6
fff1
fff4
ffe4
0015
0005
0010
000e
fff3
ffe2
fffe
0000
fff3
000a
0001
fff4
0007
000f
ffed
fffe
fff2
000b
fff6
0013
0018
0008
fffb
000d
0005
0011
fff6
fffd
fff0
fff6
fff2
0014
fffb
0017
0004
fff1
0008
ffe6
0002
0002
ffe7
000b
fff1
fffc
0000
ffee
fffd
0005
0004
ffeb
fff2
fffe
fff0
fff3
fff5
fff5
0002
0002
fffb
000a
ffe1
fffb
0003
0006
0007
fffb
0008
ffef
fffd
0006
ffff
ffe9
0000
000e
0013
fff6
ffff
fffb
fffe
000a
fff5
ffef
000a
ffec
0006
000e
0006
fff2
ffec
000a
fff6
fffb
0006
000c
ffe8
0008
0001
000b
ffe8
0000
ffea
fffa
0009
fff6
fff3
fffd
000e
000e
ffe9
0016
0006
0010
000e
000d
000c
fff6
000a
0018
0002
fff3
0001
ffec
ffff
0006
fffd
000e
fff2
0014
ffdf
fff6
000f
fff4
ffee
000b
0012
000a
fff1
001f
ffe4
fffe
fff0
001c
0008
fff8
0017
fff2
fffb
0007
fffc
fff7
ffde
0018
0016
0000
ffe6
ffdf
0018
ffe5
000d
000e
000c
ffef
ffe5
ffef
fff0
fff2
0003
0007
fff4
0014
0017
fff3
fffe
fff3
ffff
fff4
0010
ffef
0001
0002
001f
fffd
001a
fff9
0011
fff8
000e
0006
0007
fff7
fff2
fffd
000b
0018
ffff
0009
fff3
fff6
000c
0015
fff0
ffe7
000a
fffa
ffea
0005
fffe
ffe8
0016
ffff
fffe
ffef
ffef
0006
0009
001b
ffe8
ffe9
0013
fffc
0010
fff7
fff6
0012
0000
fff8
0004
fffc
0015
001b
fff0
fff5
fff8
0005
fffa
fffa
ffed
ffee
000b
ffff
0006
ffe2
001a
0004
0011
0006
fffd
ffe5
fff6
fff2
000d
fff1
fff3
0006
ffef
fffb
ffe5
fff1
0022
0001
fffa
0002
fffc
0002
0018
fffb
fffd
001c
0006
fffc
fff4
0003
0000
000b
fff0
0003
fff7
0015
0003
fff6
fffa
fffe
fff5
fff0
0008
fff8
fff4
fff7
0001
ffff
fffa
0006
0001
0017
ffec
fff2
0005
0000
001d
0014
0015
fff2
0002
fffe
0002
0010
ffec
0000
fffb
fffa
0010
fff7
fffd
fffd
0000
ffed
ffee
ffe6
0002
fffc
0004
0020
0006
ffff
0006
000d
0006
000d
000c
fff1
fffb
0011
fffb
0012
0006
0009
fffe
000c
ffee
ffea
0003
ffff
0002
0019
0008
fff6
000e
0000
0014
ffee
001c
000c
fffe
000b
fff2
fff9
fff6
0012
0004
0000
fff3
fff9
fff0
0009
fff3
000a
ffee
0016
0010
fffb
001b
fffa
001f
000a
fffb
fff0
ffee
0009
ffee
0010
0003
0005
0002
fff6
0009
0000
fff9
0009
000e
0009
fff5
fff6
fffe
0009
fff9
fff7
fff4
000c
0013
0008
0008
fffe
fff5
000c
fff5
fff9
ffef
fffc
0009
000b
0008
0016
0005
fff2
000f
fffa
ffff
ffe7
fffa
fff6
0020
0006
0014
0002
fff8
fff7
ffed
000b
fff3
ffff
000d
ffff
0005
0007
fffa
fffe
0013
fffb
fff1
0010
ffee
fff9
0014
ffe2
0012
ffe0
0008
ffed
000d
0011
0006
0004
000e
0006
fffe
000c
0008
ffe9
0017
000a
fff3
0005
ffe3
fff3
fff1
0010
fff2
fff1
fff2
001a
0018
000d
fff1
fff9
0013
0002
ffdc
fff8
0000
0001
0008
ffe3
0013
fffb
0015
ffe4
fffa
0013
fffb
0019
ffff
0009
fffb
0016
0010
0017
fff8
fff4
fffb
0007
0023
0019
000a
000e
0008
ffd2
ffe9
fffd
fffb
000d
0005
fff0
ffe9
fff7
0006
ffe9
000a
ffe6
000c
ffe2
fff5
0016
0008
fff7
ffe6
000c
fff8
000d
0017
fff9
ffeb
fffc
fff7
0006
0012
ffff
fffd
fff9
ffef
fff7
ffea
fff9
000c
ffef
0008
ffff
0014
0005
fffb
fff5
ffe4
ffd8
0007
fff7
001f
0002
000b
0023
0010
000e
ffeb
ffdc
000e
ffea
0014
0018
0016
000b
0005
0001
fff8
fff6
0017
001a
fff9
0006
ffea
ffdc
001a
000b
ffdf
ffe8
0006
fff2
0001
ffe3
0003
000b
fffd
0011
fffe
000c
fff5
fff9
0019
000f
0011
fff4
fff2
fff4
000f
000c
000e
0013
000b
0010
0009
0006
0014
fff8
ffe9
0011
0000
fff7
ffed
ffe8
0026
fff1
0017
0016
000e
001f
001c
0011
0011
0013
0018
ffe4
fff4
000a
fff6
fff8
000d
000e
ffe1
0007
0024
ffe3
fffb
0012
fff2
000b
fff5
0015
ffed
fff9
0007
fffd
ffdc
0005
ffde
000a
fff4
0017
ffdb
000e
001d
fffe
fff2
0013
ffdc
fff2
0000
ffff
0005
0007
fff8
fffa
001c
fffb
000b
0002
ffef
0017
0014
ffff
0000
001a
0007
fff2
ffe4
fffb
000a
fffc
000b
0008
ffe8
001c
0002
001d
0000
0011
fff2
fff0
001e
0002
000a
fff9
fffa
fffc
fff0
fff3
000c
ffe6
0009
fff9
fff1
ffee
fffd
ffff
0009
0014
ffee
fff9
ffeb
ffd4
000a
ffe7
001a
0019
001f
0003
000b
fff6
000e
ffed
ffeb
0003
fff8
fffd
fffe
fff6
0019
0008
0012
0002
0020
fff1
fff9
000d
ffff
001d
0014
0014
ffec
fff4
fffe
0021
001b
0015
ffef
0013
0015
ffee
0013
000a
0010
fff1
0028
ffec
0005
0018
0003
0013
0017
ffe4
fff9
fff8
0011
fffa
fff5
fff6
000f
0007
ffeb
001a
002e
ffdc
001f
fffd
0009
ffed
ffe0
fffb
0004
fff9
fff9
fff7
fff8
fff2
0014
0007
fff3
fff9
fff1
fffd
000f
000c
ffe4
fff8
0013
fff2
0000
0005
0003
ffe7
fffc
000d
0016
ffec
ffec
ffe4
0008
001f
0009
fff8
001e
fffd
0026
fffc
0009
0014
fff1
fffb
000d
0019
0002
fffa
0020
0010
0005
0005
ffe1
fffb
0004
fffe
fff7
0014
0017
fffc
0028
fffb
0028
0014
fff9
000d
ffe2
ffe5
fffd
0019
fffd
ffed
0005
ffe9
fff9
001f
000c
000e
000e
001f
0009
0017
0002
fffe
ffff
000b
0006
fff9
0010
fff3
0008
fff4
ffec
0011
0004
fffd
fffd
0007
0009
000c
0001
fff6
0008
fffd
0004
0010
fffe
fff5
fffd
0011
ffef
000c
000d
000c
0009
0002
0001
ffef
fffd
ffe7
fff7
000b
fffd
fffe
000f
0007
0008
fff6
fff6
0004
fffd
0007
0011
0002
fffb
fff9
000c
0006
fff5
0006
0001
fff8
fff8
fffd
0002
fffa
0001
fff1
ffff
000c
ffeb
000a
0023
001c
0005
0004
000a
ffff
ffe8
fffc
000e
0017
0006
fffe
fff8
fffc
0012
ffff
fff5
000a
0008
fffb
0004
ffef
000e
0001
0004
ffea
0006
0002
fffe
ffef
ffe6
fff1
0010
fffb
0001
fffd
fffe
0012
fff2
000b
fff7
ffec
0010
000c
fffd
fffb
fff1
0002
0001
fff2
fff9
000a
fff9
ffeb
fff4
000e
fffe
fff1
0002
000e
fffc
0009
fff5
0009
fff8
fff9
fffb
0006
000d
0003
ffec
0010
0010
0013
000e
fff1
000b
0006
fff3
001f
ffe4
000f
000d
0004
ffd3
fff4
ffe7
0026
0005
0010
fffd
001d
ffe3
0018
fffa
000e
0010
ffec
000d
000d
0010
fffe
fffc
ffed
0002
000d
fffa
ffe8
0008
ffec
0001
fffe
fffc
ffee
000a
fffc
0001
0015
ffe3
0011
0017
000c
ffff
fff0
0013
fff6
0024
fff8
000f
0018
fffb
0007
0003
001c
ffde
fffa
0001
ffeb
ffeb
fffe
ffff
0011
ffe6
fff8
fffd
ffe9
ffe9
0000
ffd7
0004
ffeb
fff6
0008
0020
0006
0005
0018
ffe1
fff6
0005
fff1
fff3
0005
000a
0009
ffef
0003
000d
001c
ffee
0005
fff6
000c
fffb
fffd
ffef
fffa
ffff
0015
001a
ffed
0000
0006
0013
0013
fffd
ffe2
000f
fff7
fff5
fff8
0004
0009
fffe
0006
0001
0012
0006
0006
0004
0005
0008
fff2
0011
000b
fffb
ffe4
fffc
0002
000a
ffeb
0018
0007
0010
0004
fff4
0009
fff5
0005
fff3
fff7
fff3
ffed
fff8
0008
ffee
fff3
fff8
ffea
ffec
fffd
fffb
000c
000b
0006
ffef
fffc
fff3
0009
fff7
0007
0009
fffe
000e
fffd
ffff
fff8
ffff
000b
0009
0000
fff7
ffff
fff5
0006
0000
fff9
0006
0005
0007
ffed
0005
0005
0010
0000
0005
0006
0002
fffe
fffa
fff5
000f
0003
0005
0011
0011
fff5
fff0
ffff
0008
fff1
0010
0000
0003
fff8
0002
fffa
ffed
ffff
0002
fffc
ffeb
0002
0004
0006
fff2
000a
0002
0008
fff4
ffed
0001
fff6
0003
0008
0012
0006
ffff
fff5
fff6
0005
000c
000b
0002
0001
0008
0019
0016
fff5
000d
0003
ffed
0004
ffe9
000b
ffe8
fff5
ffec
fff6
0007
0008
000e
fffd
0009
fff6
0008
0011
0003
0006
0018
000e
0001
0005
fffe
ffed
fffc
0007
0000
ffe6
fffe
fff3
fff5
ffe3
0007
0016
0008
fffc
0017
000b
001e
0003
000e
fffa
0004
fff9
0000
ffdf
0006
fffd
0007
000c
0004
ffe5
001b
fff1
0021
0014
0002
fff8
ffeb
fffc
0011
fff9
fff3
fffd
ffec
fff7
0001
fff9
fffe
fff3
0006
001e
0006
0023
0002
fffd
000c
fff3
fffe
000a
fff4
0005
fffe
fffe
0014
fff6
000d
fff6
0007
fff8
0005
fffb
fffe
ffe0
fff6
0003
0019
000f
0009
0011
0005
0009
fff5
fff7
ffed
0011
fffd
fff9
0005
fff1
0008
0013
0016
0006
0003
0014
ffff
fff2
0010
fff0
fff5
fff8
fff0
fff0
0013
0011
ffff
ffee
0007
ffff
fffe
0003
000f
0006
0004
fff5
fffd
ffeb
000a
0004
fff8
fffb
0012
0000
ffed
0011
fffc
ffea
0000
fffa
ffeb
fff2
fffd
fffa
ffee
fff1
fff4
0020
fffd
0010
fff1
fff7
ffe9
0009
0019
fff4
fffd
ffef
fff9
0016
000c
fffe
0004
fffd
fff1
ffe9
000b
fffd
fff5
000a
ffe3
ffe4
ffdf
ffea
fff3
000d
fff9
0000
001b
0024
0005
000f
ffe2
0000
001e
ffee
fff2
0021
0008
fffc
000b
0019
ffe6
0001
fffc
0014
000e
ffff
fff1
000b
0018
fff9
0018
000c
0013
fff1
000b
fffe
0008
fff1
0007
fffc
fffc
ffe1
0015
fff5
0003
ffff
ffee
fffa
fff4
ffe0
fff8
0017
fffe
ffe9
0006
ffee
0009
ffe1
fff1
ffeb
000e
000f
ffee
0003
0004
000c
0001
fff1
0008
ffe3
ffd9
001c
0014
0007
0016
001e
001a
fff6
001d
0013
fff4
0003
0012
0007
0002
ffdf
0011
fffa
001e
fff9
0018
ffe3
0004
fff4
000f
0006
ffe8
0013
fff1
fff0
fff2
ffd8
0011
fff2
0005
000c
001b
ffda
fff7
0009
fff8
0008
ffed
001c
fff3
0001
0005
ffcd
000b
fff0
fff7
ffde
fffd
000d
ffee
0002
fffc
ffec
fff8
fffd
ffff
0011
0016
ffe5
0008
fffd
0015
0005
ffea
0001
fffa
ffef
000b
fffd
0009
fffe
000e
fff4
0003
fffa
fff1
ffe3
000b
000b
000a
0011
ffec
fffa
fff0
ffff
ffee
000a
ffef
0007
fff3
fff4
0004
0009
0003
0002
001c
0016
ffec
fffe
000a
0007
ffff
0001
fffb
ffeb
0000
0019
fffa
ffe8
0001
fff8
0001
0009
0015
0002
ffff
fff8
fff9
0002
fffe
fff6
ffef
fff3
0018
001f
ffff
0017
ffee
0000
0000
0003
0011
fff4
0006
0007
ffe1
0015
fff2
ffe6
0008
0003
0007
0011
0010
ffed
fffc
ffec
ffe6
fffb
fff6
fffc
fff3
fffe
fff2
0005
0006
0011
fff8
0003
ffea
0009
fff1
fff1
fff3
ffe9
0012
ffef
fffb
0004
0011
0010
001b
fff0
fffa
fffe
ffff
fffe
0014
fffc
0005
fffa
0000
fff2
ffff
0003
0009
ffed
fff4
fff0
0013
0004
fff6
fff3
fff9
0013
0000
0002
ffed
0012
0005
0003
000d
fff2
ffe4
0004
fffb
fffc
fff6
0010
0001
fff4
fff6
0017
ffe7
000e
fff9
ffe4
ffe0
0011
0010
fff0
fff8
000d
ffe4
ffee
fffd
0003
001f
0002
0019
0021
ffdc
ffe3
ffde
0002
fff7
ffe9
000a
ffe7
001b
0018
0001
ffe5
fffa
fff4
0000
ffed
ffef
ffee
0003
0007
fff6
fffe
001d
0002
001a
0013
ffea
0010
ffe8
0019
ffeb
0002
000a
ffe1
001a
ffeb
ffee
ffe5
0011
0004
fffb
fff0
0014
ffeb
0021
fffe
ffec
0007
fffb
0018
000f
fff6
ffed
ffee
000b
fffd
0019
0018
fff5
0001
ffed
fff6
0008
0002
fff9
fff9
0005
ffe9
0019
fffa
fffb
ffec
ffeb
000a
000b
ffee
fffd
ffe9
fff9
0018
000d
000d
fff8
0001
0004
ffe8
ffe9
000c
000c
0009
ffdd
0013
0009
0006
0009
ffe8
000a
000d
ffe8
000a
0009
0011
fffa
fff6
ffff
0001
000e
0000
0003
fff2
ffe3
0021
fffb
0002
fff5
fff9
fff9
0016
fffc
000e
ffe8
fffa
fff8
fffe
0000
fff8
0002
0011
0005
0002
ffff
fff5
0009
000b
fffb
0008
000f
fff4
0003
fff8
fffd
fff7
0000
fff6
0010
fffc
000a
fff8
0001
000c
0005
fffd
ffeb
0002
fffe
ffee
ffff
000b
fffb
0002
000e
fff5
0010
fff3
0001
0004
0008
fffd
0008
0006
ffff
fffa
0001
fffb
fffb
0006
fff9
fffb
fffc
0009
0000
fff4
0000
0001
001b
fff8
fff9
0004
fff9
0002
fff0
0015
fffc
fffc
0012
fff7
fffb
0009
0000
fff0
fff6
0003
fff8
ffec
000b
fff2
0006
fffe
0006
0003
fffc
ffff
0005
000e
fff4
0009
fff3
0000
0011
000d
0007
fffe
fff1
ffff
fff5
000b
0010
0002
fff9
0006
fffb
0001
fff9
fff9
0000
fff8
fff4
0015
fff9
ffec
fffe
0003
fffa
0004
0006
0002
fff9
fff8
fff1
fffb
000c
fff6
ffff
0000
fff0
fff4
0001
0004
000a
0005
0004
fffd
0005
0003
ffea
0007
0009
ffff
000a
fff3
001c
fffb
ffeb
ffe6
fff3
fff9
0007
ffe6
000a
ffe2
fff8
fff1
fffc
ffd4
ffef
fffa
001d
ffe4
fffb
000c
000d
ffd0
ffea
000b
ffdd
0020
fffe
fffc
0006
ffff
ffe9
fff7
000e
0016
fff6
0009
fffa
000f
0016
000a
0020
001a
ffda
fffb
ffe9
000b
ffff
ffff
0012
ffff
0016
0002
0002
fff5
002b
0008
fff6
0011
0018
0011
fffe
0017
001b
ffff
0001
0014
fff6
fffb
fff7
0010
0022
ffeb
000d
fff8
fff5
ffef
0015
ffeb
fff5
ffe8
fff4
ffe4
fffc
ffdc
fff3
0018
fffd
0002
fff5
000c
001a
ffe6
000d
ffe8
fffd
0000
0008
0005
fffc
fff5
0005
ffe2
000d
000c
000b
000b
0006
0003
0012
ffff
fffa
fffc
0013
000d
fff4
0002
fffe
fff5
0007
0015
0010
000b
0009
0004
000e
fff2
ffff
ffd7
ffe6
ffee
000c
0001
fff8
fff6
0009
000a
fffd
fff3
000b
fffc
fff4
ffed
fff9
fff5
ffef
fffa
ffec
fff1
fffe
fffa
ffe6
0022
0016
001b
000c
ffe3
0005
001f
ffff
000f
fff8
fff3
ffe6
ffdf
0008
fff9
ffea
fff7
ffeb
ffe3
000c
0018
0006
ffe2
ffea
ffeb
001c
fffd
0012
fffe
000f
0003
ffea
000c
0015
0019
ffe4
ffe7
ffff
0004
fff8
0003
000b
000c
0005
fff5
0002
000e
fff7
000a
000d
000a
ffe3
fff8
0019
fffd
fff9
0011
fff8
000a
001b
0002
fff4
0012
fff8
0028
fff4
0013
ffff
000a
001a
fffa
0006
000a
0002
ffff
001d
ffea
ffe3
fff5
ffff
fff1
000b
0014
fffb
fff2
0014
fff5
0006
0004
0004
000e
fff0
fff5
ffeb
001c
fff2
0007
fff2
ffef
fff7
fff1
001d
ffed
ffec
0003
fffc
fffc
fff1
fff6
0013
0003
0001
fff6
ffde
fff2
fffb
ffff
0016
0003
000a
0004
000f
0010
fff9
000c
000b
0014
fff7
fff9
ffec
0016
ffef
ffff
0009
ffec
ffef
fff6
000a
ffe5
ffe4
0018
0005
ffe8
ffe4
001e
fffb
fffc
fffa
fffe
000d
000e
fff7
ffee
fff6
0001
0018
fff5
000f
0004
0006
fff7
0035
0004
001e
001b
001b
ffe9
0009
0008
0024
fffa
0003
fff7
fffd
ffed
0009
001d
0004
fff8
ffdf
fff6
fff5
000b
fff6
fffc
0001
0010
000a
fff7
000b
0007
fff1
fff3
ffe9
0008
000b
ffec
fffc
0013
001e
0011
fff0
fffb
0008
0001
0008
ffea
0004
000c
000e
000c
000c
0016
ffee
ffe3
0007
000e
0006
fff5
000b
0007
fff6
ffed
fffb
ffec
000f
0022
ffff
0007
fff9
fff3
fff2
0003
0006
000c
0005
ffe2
fff3
000e
fff2
0006
0010
0003
0014
fff7
ffeb
000e
000a
ffef
0014
000a
fff5
fffe
ffec
0007
000f
000a
0022
ffec
0011
000f
fff9
fff5
0008
0004
000c
0009
ffeb
0003
ffe5
ffff
001b
fff6
ffff
0023
fff0
fff0
001a
0019
0000
0000
0002
ffe5
ffe5
002e
0012
002c
0016
fff4
0008
0018
0018
fff3
001d
ffe7
fff2
fff9
0005
ffff
000d
ffea
ffe3
ffe2
fffd
fff7
fff3
002d
0008
0012
fff5
ffe7
fff9
0007
0012
ffea
fffd
0007
000c
0011
0000
ffe9
000a
0003
0011
0011
0005
0010
0012
fff0
ffee
fff1
fff9
0005
0008
ffef
fff5
0017
fffe
0001
fff9
0002
0003
ffe8
fffb
0007
0007
ffdd
fffb
000c
0015
0003
0012
ffe5
0001
0006
fff4
0006
fffd
0001
0001
0005
fffa
0025
fff4
0012
fff3
0013
0009
0004
ffec
001e
ffe7
0003
fffd
fffe
fff8
0014
fffa
fff4
fff0
0001
fffb
0027
0001
ffd6
0015
0006
ffe7
fffd
000f
0003
0005
0019
0012
0006
001e
ffe5
0003
0008
ffee
000b
ffec
fff6
ffec
fffb
ffea
002a
ffea
fff7
0010
000a
ffe6
0017
0003
fffe
0010
fff7
fff5
ffea
0024
0013
ffeb
fffe
fff4
fff1
fffd
0011
ffe0
ffe0
0009
ffde
fff0
0013
fffa
ffee
fffb
ffec
001e
0017
002c
ffea
ffe4
0019
0004
0016
000c
0014
fff0
ffeb
001b
0008
fffd
0013
0031
ffeb
fffd
0004
000a
001b
0001
0008
0014
fff0
fff7
0013
000b
0001
ffed
ffef
0029
ffdc
ffed
0020
fff2
000c
0010
0019
0011
001f
0003
fffc
ffed
fff5
fff4
fff9
ffdb
fffa
fffd
fff0
fff4
0015
000b
000c
fffe
0014
fff4
0016
fff8
0006
fffe
ffd5
0007
001a
fffd
fffd
0013
0002
0011
fff9
0002
0011
0004
0009
0029
000d
ffd8
0005
001d
ffed
fff3
0019
002a
ffe7
0012
0001
ffff
0030
0006
0005
fff8
001d
fffc
000e
fff3
001b
0006
fffa
001c
ffe6
0000
ffe9
000a
fff3
fffc
fff8
0001
ffff
0010
0010
fffa
ffde
fffb
0003
ffd6
ffeb
0011
ffff
0008
fff7
fff5
ffe6
fff2
0013
000c
0001
0007
ffec
0009
0010
ffc7
0008
fff1
fff1
000a
ffe2
ffff
0028
ffec
fff7
0004
ffff
ffe3
0008
fff0
0020
001e
ffe8
fff8
fffd
fffb
ffed
0009
ffea
ffe7
0011
ffec
ffeb
fffb
ffe1
fff7
ffe4
000f
ffd7
fffe
fffc
ffec
000c
ffff
fff6
ffe9
fffc
0005
fffb
0012
0018
0006
fff4
0004
0018
0002
ffe0
0018
0016
000f
ffea
000f
fff6
001b
ffe0
000d
0009
000d
000d
fff6
fff7
fffc
0003
000a
fff9
fff0
0006
0003
0026
fff5
001d
0005
0004
0005
fff4
ffec
0002
0008
ffe3
ffe9
fff8
fffe
0003
0017
0027
fff4
000a
0005
fff9
000b
fff9
fff6
0020
001c
0012
0001
ffe5
fff8
fff1
0015
fff0
001a
0007
fffa
ffe5
0015
ffea
fffa
0008
ffdd
000e
0010
fffc
002a
001c
0006
000e
0001
fff8
002f
ffee
fffd
0007
ffdb
0018
000b
fff6
000f
ffdf
fff5
0009
ffe5
fff7
000f
fff4
ffcc
fff7
fff7
ffe7
fff5
0001
fff8
fff9
0001
0005
0005
0007
0010
0000
fffb
0000
fff5
fff0
0007
ffed
fff0
0004
0016
0006
fff2
0010
0010
fff6
fff0
fff5
0003
000a
0001
fff3
fffa
0015
0013
fff8
ffff
0016
000e
0003
0004
fffd
fffa
0009
ffe8
fff4
0001
ffef
fff6
fffe
ffeb
fffb
0015
0023
0012
0011
fffd
0013
fff8
fffb
0003
0006
fff9
0006
ffed
000f
fffd
0000
0002
000c
0002
0000
fffe
fff5
0007
fff6
0012
000f
fff2
ffe8
0005
fffb
fff6
0001
fff1
fffe
ffea
fffa
ffef
fff0
fffc
fff5
0007
0008
fff9
fff6
fff4
0005
0007
000a
0009
fff6
fff4
fff8
ffef
000a
0000
fff3
0012
fff4
fffb
0011
000b
fff3
0010
0016
fffd
fff9
0015
fffe
0005
fff8
0010
0016
0007
0013
0000
fff4
fffd
ffff
ffeb
fff6
0004
000b
000a
000a
ffff
ffe7
000a
0011
0002
ffff
fff2
0002
0012
000d
ffee
fff1
0014
fff1
0018
0012
0008
0019
000f
0000
fff8
0006
ffef
0000
0017
0013
0021
0016
0016
fff5
fff1
000e
0003
0010
0015
001b
fff1
fff4
0019
0014
fff3
000b
001a
fff4
0002
000a
fff7
fff6
0002
fffa
0004
ffd2
0007
ffde
fff8
0003
0031
000c
0026
ffec
000b
fffb
fffe
0020
fffa
0019
fff9
0003
ffdb
000a
0002
0011
fff2
0001
002a
ffd5
fff9
fffe
0037
0009
0003
0013
ffed
fff5
fffa
fffe
0003
0012
ffe1
fff0
ffe8
0007
ffd5
fff7
fffa
fffd
ffde
fff7
0035
0014
fff1
0001
fffa
0012
fffc
fffd
0011
fff3
0004
ffd8
001b
0018
fffa
0001
fff6
ffef
ffea
fff3
ffea
0015
fff5
fff3
ffe8
fff2
fff3
ffe1
0003
0009
fff8
0011
ffeb
001c
ffed
fff3
0007
0034
ffe5
0007
001a
fffc
0007
ffee
0018
0018
0001
fffb
001a
ffef
0001
0016
fff4
0019
fff0
fff1
fff1
0001
000b
0000
000b
fffb
0002
fff7
0011
fff4
0019
0021
0012
ffe7
0001
000f
fffd
0007
fff9
0007
fffb
fff9
0000
0013
001b
0000
fffe
fffd
0002
fffc
fffe
0007
0003
0001
fffd
fff6
fff9
fff5
0019
000a
000b
ffe0
fff5
000b
ffef
001e
0007
ffe8
0008
0009
0000
fff7
fffa
000c
fff7
0006
fff9
0019
0009
0007
000c
000c
0004
000a
fff1
ffe2
0003
0006
0013
fff4
0000
0003
000d
000a
fffd
fffe
fff6
fff4
ffff
ffef
0013
fffb
000b
0018
ffff
ffef
fff6
ffec
ffe5
0001
fff0
000c
000e
fffd
0010
0007
0013
0001
0003
ffff
ffe9
0006
0008
fff6
0006
fffc
fffe
fff7
0001
000e
0005
0009
fff7
fffa
0001
fffd
ffea
0004
fffd
fffd
fffd
0014
0002
fff4
ffe9
000f
fffc
0003
000e
fff6
fff7
0012
000a
0009
0008
000e
0012
fffc
fff2
0005
fff7
0010
0000
fff6
fffa
fffa
fff1
fff6
fffe
0003
fffe
0002
ffff
0002
fffd
fffc
fff7
fff9
fff8
fff8
0006
fffa
ffff
fffc
fffb
fff9
fffe
0001
000a
0001
fffe
ffff
0007
fffc
0005
fff9
fffe
0007
0002
fffb
ffff
fffe
fff7
fff3
fff4
0000
0008
0007
0005
0000
fff8
0000
fff8
fffd
fff9
0003
fffc
fffa
fffb
0001
ffff
fffb
0002
fffd
0000
fff7
0004
0001
fffe
fffb
0007
0006
fffa
0003
fff9
fffd
fffd
0003
0003
0009
0007
ffff
fffc
0000
fff7
fff9
fffa
fffe
0000
0004
fffc
fffc
0005
0002
fffe
0005
fffb
fff5
ffff
fffa
fffc
0000
fffe
0005
fffa
fffd
0001
ffff
0002
0001
0004
0000
0001
fffb
fff5
fffb
fffa
fffd
fff9
fffc
fff4
0004
ffff
ffff
0004
fffe
000a
fffb
fffe
fff9
fffc
0006
0000
fffa
fffc
0001
0007
0002
0003
fffc
0001
0006
0004
0007
ffff
0000
0006
0010
0007
001d
000d
ffec
000c
000c
000a
ffdc
0015
0013
0000
000a
fffa
ffcf
0005
0022
fff4
0011
0011
fffb
ffe1
fff6
0004
000f
000d
fffa
fff7
ffed
fff8
0004
fffe
fffb
ffff
0009
fff4
000b
0014
0009
0006
ffe5
fffa
ffea
ffde
0000
fff0
0001
0019
fff8
000f
fffb
fff1
fff1
fffd
0000
000d
0025
fff0
0022
ffee
000d
000c
fff2
0019
ffec
fffd
0006
0004
0018
000e
fff4
0008
0008
000a
fff3
0018
fff8
0003
0004
ffeb
ffe3
0000
0013
000f
000f
ffe9
0005
fffe
001a
fff6
fff6
fffa
0011
0012
ffe1
000f
fff7
0015
fff1
0017
0008
001c
001b
0019
fffb
0002
fffa
ffe8
fff8
0017
fffa
ffe8
0003
ffee
000d
fff7
fff5
ffed
fff7
ffeb
001c
ffe9
fff1
001b
000b
ffe1
001c
fff7
0000
0006
0007
0001
ffef
fffd
fffe
001b
fff2
fff3
fff6
0017
0009
fff8
ffff
ffec
ffef
ffda
0020
fff4
000a
ffee
0008
0021
000d
0017
000d
fff4
000c
0001
fff4
0000
fff1
0001
0023
ffef
0008
0018
ffe6
0014
ffe5
fff2
0004
0002
0026
ffe1
0005
0002
0007
ffef
0009
0001
ffeb
fff9
001e
ffdb
0009
0000
fff6
fffb
0020
fffc
fff6
0005
fff7
fff0
ffea
0016
ffec
001a
ffea
ffe8
fff6
0013
0000
fff0
001d
0023
ffef
0007
001c
ffec
0015
fffd
ffdb
000d
0022
001c
0004
0016
fff9
ffec
fffc
fffa
ffe4
ffde
0014
ffd8
002f
001a
fff5
000a
0007
fffb
fff1
0023
0017
fffa
ffe0
ffd3
fff4
0003
ffff
ffde
fffb
0010
000d
0000
fffa
fff6
fffe
0016
ffeb
fff5
ffe0
0002
0009
ffe8
001d
0009
ffed
fffc
0004
ffe4
001f
0005
0004
ffe9
ffd8
fff2
fff3
0013
002b
fff4
fff0
0023
0008
ffea
0012
ffef
fff7
001a
ffea
ffeb
0004
fff3
ffeb
fff2
0011
0010
0012
ffeb
000f
fffe
000b
0006
0001
fff9
fffb
fff1
fff2
0009
fff2
fffe
0005
fff5
fffe
001b
ffdf
ffe6
fff2
000b
0001
0004
001b
fff4
ffe8
fffb
fffe
fff6
0007
fff9
0004
fff5
ffee
000c
ffea
0018
fff3
0019
ffee
0005
ffef
0000
ffeb
ffff
fffd
fff5
ffe4
fff6
fffd
fff1
0007
000a
0003
fff6
0016
fff3
0004
ffde
0009
0016
ffef
ffeb
0005
ffff
0021
fff1
ffeb
fff4
ffec
0008
0005
0014
0002
0010
0012
fff8
ffee
ffe6
ffee
000b
fffc
0014
fff0
fffb
0007
ffff
0001
0020
fff7
fff8
0015
ffff
fffe
000b
0004
ffdf
000d
0018
fff3
ffef
ffdf
ffe5
0004
0013
0006
0010
fff6
001b
0012
0001
000d
ffee
000b
000f
0001
0013
000b
fff9
ffed
0001
0010
fff5
001e
0001
ffe8
fff4
fff0
fffa
fff1
fff7
000f
0002
0004
ffe8
ffe5
fff2
0017
000a
0012
fff4
fff7
0002
000d
0007
0000
ffed
0009
fffd
0002
fff5
ffd8
fff7
0018
0011
fff6
0008
fff1
fffa
ffea
fff6
fffa
0000
000c
0012
0005
0003
fff0
fffb
ffef
fff7
ffff
0006
0001
0000
fffe
0005
fff8
fffb
0016
000f
0006
fff5
000b
0004
fffe
ffff
fffb
0010
ffff
000d
fff5
0000
fffe
ffef
ffff
0002
fffd
fff9
0004
fffc
0014
000f
fff2
0007
fffd
ffee
0000
fff7
0018
ffee
0000
000f
fff5
fff9
ffe6
fffc
fff3
0005
fffe
000b
0001
ffd9
ffea
0011
fff0
0004
fff8
fffb
0006
ffec
0000
001c
0006
fff8
0009
000a
0003
0008
fff6
fffa
fffb
000b
0005
0011
0000
000c
001b
0006
fffc
0003
0000
000e
fff9
fff3
0000
000c
fff7
000b
fff6
0000
fffe
0010
001f
fffa
fff6
fff4
0005
000a
0016
fffa
0005
fff5
fffe
fffc
fffb
0002
0005
0001
ffee
0008
0009
000a
0002
0001
fff0
0004
0001
fffc
fff0
fff8
fff9
000b
0006
ffff
0003
000d
0009
0007
0004
ffff
0001
fffe
0002
fffb
fff4
fff6
0000
fffc
fff0
0008
fffb
000c
fffd
fff8
0001
fff8
fff8
fffc
fff3
0010
0002
0000
0006
ffff
0002
fffc
0001
0001
ffff
0005
fffc
fffb
000f
ffff
0011
fffb
fff6
fff7
0009
0002
fff6
ffff
0008
0009
fff8
0001
0004
fff9
000e
000b
0012
fffd
0005
fffa
0003
0003
0004
fff3
0003
000b
0000
000f
fffd
0010
0005
0003
000b
000a
000b
ffef
000a
ffff
0010
0005
0002
0001
0005
fff8
fffd
fffe
0004
000d
fff7
0007
fff4
fff7
fff9
0000
0009
fff8
fffc
fff9
fffe
0000
fffb
ffff
0002
0001
0005
0008
0001
0004
0006
fff9
fffb
fffc
fff7
fff8
fff9
fffb
0002
fff2
000d
0000
0003
0003
fff9
fffa
0001
0006
000b
0009
fff2
fffe
0004
0005
fffb
fff5
0002
000d
0004
fffe
fff8
ffff
0003
0013
fffd
000b
000d
0000
0007
0005
fffa
0003
000d
fffb
fffc
0001
fffc
0003
0009
0002
0006
fff5
0004
0011
fff8
000f
fff7
fffd
fff9
0005
0008
000c
000f
fff2
fffb
0000
0001
fff9
fffe
fffd
fff8
fff8
0004
000b
0007
fff4
fff3
fff7
fffe
fff1
fffe
0004
0004
0009
000c
000a
fffe
0005
0001
0008
ffff
000a
0001
0009
fffe
0008
fffb
000c
fffa
fff9
0007
0001
ffea
000b
0000
000a
0004
fffe
000c
fffa
0007
0006
0004
000b
fffd
0003
0015
0001
0000
0001
0007
0004
0001
0006
fffc
fffc
0008
0002
0000
fff9
0004
0007
fffc
0012
ffff
fffd
fffb
000c
fff4
fff2
0003
0014
fff6
fffa
fffc
000a
0009
0002
0001
fff4
fffa
fffe
0006
0003
fff0
fffe
fffd
fff1
fffd
fff9
fffe
fff5
fff7
fffa
fff8
0001
fffe
fff8
ffff
fffe
0002
fff5
ffdf
0005
fffd
0011
0004
0003
0019
fff1
fff6
ffef
0001
ffe6
fff8
fffb
fff2
0000
0005
fff1
fffe
000d
fff9
0018
ffe0
0009
0017
0000
ffeb
fffc
fffa
fff7
000c
0028
fff1
fff8
ffd9
ffea
fff7
ffeb
ffed
ffe3
0004
0013
0007
fffc
0027
ffe0
001d
fff2
fffb
fff9
ffff
0008
ffed
000c
fff8
001e
ffe0
ffde
ffe6
0014
ffec
0013
0000
fff1
001d
0000
000c
fff2
0000
fff9
000a
fffa
000b
fffa
fff5
ffe4
0012
000c
ffe0
ffe6
ffda
000b
0010
fff6
0010
0015
0005
fffb
ffe7
0008
0026
ffe6
0001
fff2
ffe0
fffb
fffc
fff7
0000
0016
ffe8
0010
fff9
ffe4
ffec
fff8
ffef
0020
0016
0005
fff4
fffb
fff3
000d
0004
000c
0013
ffe7
fff8
ffe8
fff6
fff8
ffe5
0016
0001
0003
0010
fff2
fff5
001c
0021
ffe3
ffe1
ffee
fff9
000b
000b
ffff
fff9
fffe
ffeb
001d
001f
001d
fff3
fffe
000b
000e
0010
ffe1
001c
0001
fffa
0023
fffd
000f
fff6
fff5
000b
ffe2
ffe9
0026
0003
fff6
fff7
fffc
fffa
fff9
fff8
fff2
fffe
ffee
0000
fff1
000a
fff9
fff8
0003
fffe
ffe2
fff5
ffee
0022
000b
fff7
0009
0023
ffef
fff8
0001
fff8
fff7
0005
fff0
fffa
fff6
0017
fff8
fffc
000f
fff6
fff0
0006
fff4
fffe
fff7
fffd
fffc
ffe6
0012
0010
fff2
ffdd
fff2
fff1
0014
fff1
ffec
001c
0004
000e
0006
0002
fffa
fff6
ffe9
000a
fffd
fff8
fff6
fffb
ffeb
0017
fff8
0003
ffee
fff8
fffb
0008
ffe4
0013
fffe
ffec
ffe9
0004
fffa
0007
0013
ffe3
0008
fff6
0006
000a
fff8
fff4
0001
001b
000e
fffe
fffe
0012
fff5
fff1
000b
ffe5
0013
0005
ffeb
ffe9
0002
000b
fff2
fff9
ffee
001a
000c
fffc
0006
ffee
fffb
ffdd
0004
fffc
fff4
000d
000d
fffb
000e
0002
ffe5
fffc
ffd7
fffb
fff7
fff0
ffea
0005
fffa
fffd
fffd
ffe0
ffe5
0021
001d
0000
0011
0012
fffc
ffe5
fff3
fff8
fffb
ffed
002f
000e
0001
001f
001d
fff1
000f
000c
0014
000b
0002
000b
ffe1
ffe8
001b
0010
0000
0007
fffc
0001
ffef
fffa
0013
0024
fff2
fffc
0008
fff8
fff7
000d
ffdc
0010
fffa
fff5
0018
fffb
0002
0007
0002
0016
0005
fff8
000d
0005
001c
0008
ffed
000a
ffed
fffe
001a
fffb
ffe9
fffc
0001
0028
ffec
ffff
001b
ffee
0001
0012
0019
fff3
000e
0001
0012
ffe0
001a
ffea
000f
ffec
0018
0023
000b
001f
fff1
000c
fff0
001a
ffe4
000f
0004
fff3
0003
fffd
0013
ffe5
fff7
ffe6
0005
ffe5
0001
fff5
0019
001f
0001
ffea
0011
fffa
0012
0005
000f
fffd
000b
fff0
0012
fff6
fffd
fff8
0013
0012
fff8
0024
ffda
0008
0008
001c
fff1
0014
fffc
fff3
ffee
fff6
fff1
fff1
fff1
fff8
0021
0007
0010
0006
0014
0011
fff8
ffd3
0015
0018
fffe
0009
fff4
0008
0010
fffd
ffea
fffb
001b
fff2
0006
ffed
fffc
000c
0009
0009
fffa
0012
0017
fff2
000a
ffe3
fff1
0000
ffd9
000a
fff9
fff6
fff5
ffe4
fff3
0017
0015
ffec
0007
fff4
fffd
ffff
ffe8
ffe6
ffea
0004
fff2
0005
ffe7
0017
ffe8
fffc
0007
0005
fffb
fffc
0024
fff6
0009
0001
ffd8
ffd8
fffb
fffd
0000
fffe
0008
0003
0007
0017
ffee
ffe6
0015
ffcf
0008
fffb
0002
fff9
ffef
ffe7
0007
fff6
fffa
0017
000c
0007
fff6
0001
000a
0030
fff8
000d
fff2
fff1
000a
001b
fffa
000a
001e
0017
fff9
0013
fff8
0004
0011
0001
0030
0017
0000
001a
0008
0001
001e
0009
ffef
0015
fff8
0010
fff7
000e
000c
0017
fff5
0023
0002
ffd5
0013
000e
0019
0024
0009
0006
000e
fffd
0004
0018
0015
0015
ffea
ffff
000e
fff1
0008
fffa
fffa
0011
000c
fff4
0009
ffdb
ffe8
000f
ffdd
fff4
ffda
fff3
000f
0004
0019
0010
ffed
ffe2
0002
fff5
001f
ffea
0006
ffe6
ffeb
0008
001f
fff4
fff4
000f
0005
fff7
fffc
fff9
0013
fffb
ffe9
ffe1
fffe
ffea
0017
ffec
000f
fff9
ffe9
000b
ffec
0020
fff9
000c
fffc
000b
fffd
ffee
fffa
000c
fff3
fff8
ffff
001a
ffec
fffd
0023
000e
0004
0006
0008
0008
0006
fffd
ffee
0003
ffdf
000b
0007
000a
0019
ffed
0013
0001
ffef
fffe
0011
ffe8
fff6
0011
0008
0005
0004
fffa
ffef
ffe7
fff9
0003
fff9
ffe9
0003
000b
0007
fff1
fffd
0004
ffff
ffff
0015
fff9
0006
0005
fff2
fff1
fff0
fff4
ffef
001c
0011
0010
ffe6
0010
0001
fff2
0004
001a
ffec
fff9
0005
0002
0009
fffc
ffe9
fff7
0005
0007
ffe9
0012
fff3
0008
000e
000c
000b
0006
fffa
0011
0008
000b
0003
000d
ffff
0015
fffd
0008
0005
fff1
0002
0002
0012
0013
0010
0009
ffee
0008
fff4
fff1
0002
fffe
fffe
0001
fff0
fff8
fffc
fff2
fff7
fff9
ffe5
fff6
000d
0009
0017
fff2
0001
0008
ffff
0008
0007
0018
ffe1
fff2
0005
000e
0005
0004
fffc
ffe5
0007
0010
fffd
0007
ffdf
fff8
0019
0001
0006
001a
0001
000c
0014
0011
000c
ffec
fff8
fffe
0001
fff9
fffb
fffd
0002
fffe
fff8
000a
ffe9
000b
fffd
0011
0001
0013
0021
fffc
0006
0003
000f
ffed
ffe9
fffc
0004
fff4
0001
000d
0008
0007
fff0
0009
0008
fff9
fffb
fff1
0008
0016
fff9
0006
fff2
fff6
0000
fffe
0011
000a
fff1
fffe
fffe
000d
0012
0005
0010
0005
0015
000a
0010
000f
fff1
fff5
0004
0010
0007
0002
0006
fff4
0002
fff6
fffb
ffed
ffe8
fffa
000c
ffeb
000c
ffea
fffd
ffed
0001
0006
fff2
fffa
0005
0008
fff5
0013
001a
ffe8
fff3
0000
ffea
0015
ffee
0012
fff4
fffa
fff4
fff2
fffa
0016
ffea
fff7
ffe7
0020
001b
000a
0007
0019
0010
0000
000f
0012
fff0
0002
0005
0017
0015
0001
0007
fff3
0006
ffff
fff6
000e
0014
ffff
0018
fff3
ffeb
fffc
ffe8
000c
fff1
fffe
ffdb
fff5
fffc
fff6
0005
000f
0013
fffc
0009
ffdd
ffeb
ffe6
0003
ffde
fff4
0002
ffed
fffa
000b
0006
ffeb
fffe
ffe7
fff4
000c
0009
fff0
ffff
0003
0001
ffff
0019
ffe9
000b
0001
0015
fff4
ffe5
fff9
fff3
0015
fff7
0001
ffec
fff3
0002
fffb
fff8
000d
fff2
0002
fff7
000e
0009
0002
0011
0005
000d
0002
fffd
fff9
fff0
0011
0007
fff1
fff6
fff8
fff0
ffe2
0007
001b
fffe
fffb
0007
fff6
fff0
0017
0018
000b
0002
0001
fff7
0018
ffea
ffec
fffc
fff4
0001
0001
fff0
0004
0014
000f
ffed
ffee
0009
fff6
0027
000f
001d
0000
fffb
0005
0012
fffc
ffff
fffc
fff8
0007
001b
fff8
000b
0017
0010
fffa
000a
fffc
0026
0028
0016
0023
fff7
0005
0017
fff5
fffc
0002
fff9
0014
ffee
fff1
ffff
ffde
ffed
0011
fffc
0000
0009
0005
ffe9
0003
0000
0008
fff6
000e
0007
ffe5
ffe2
fff9
0007
fff6
0024
0036
000a
0001
fff6
0000
0005
ffe7
ffef
ffea
fff4
0016
0014
0004
ffff
000e
fff4
fff1
fff2
0001
0013
fff5
0005
000a
000c
001b
ffe2
ffeb
fffc
ffe5
000b
000a
0012
ffe5
ffee
fffe
fffe
fff6
fff3
fff0
0000
0012
0002
0002
fff2
0002
ffff
0001
ffff
0003
fff3
fff6
001d
fffc
0005
fff8
0009
fffe
0009
ffe6
000d
0000
0022
0015
ffe3
fffd
ffed
0003
ffee
0007
fff7
0022
0007
000c
fff3
ffe4
fff9
0020
fff5
fff7
ffe8
0008
0004
fff2
0006
ffe0
fff3
fffb
0006
0001
0012
fff7
000e
ffff
ffec
fff6
0016
0002
0005
0011
0002
000f
000b
fff9
000f
0009
fffe
000b
000a
0011
ffff
fffc
000b
000a
fff0
0008
ffe4
0002
fff4
0006
0015
fffd
0015
0003
0019
0011
0011
fff4
ffff
0002
fff8
fff3
ffe6
0003
0007
fff3
fff3
0000
fff8
0011
fff9
001b
fff9
0013
000d
0004
fff7
0002
fff6
000f
0001
0009
0010
0018
000d
fffe
000f
0003
ffe3
ffea
0005
000f
0010
fff8
fff3
fff6
fff3
000d
ffe4
fffa
ffe7
fff2
ffff
ffef
0019
ffed
fff8
0017
000d
fffa
0005
ffff
fff7
0004
0023
ffed
ffe1
fff5
001f
001f
ffea
fff6
0009
001e
fff6
000d
000a
0020
000d
0000
0010
fff1
fffc
fffe
fff6
000f
0016
fff0
ffe9
0012
0011
ffd9
fffc
ffe3
0001
ffe0
0016
ffee
0004
0011
fff9
0004
fff4
001b
ffff
ffe2
ffdf
0001
0019
0001
0027
fffd
0001
fff8
ffff
0004
fff5
fffa
fff5
0009
ffeb
0006
0006
fffa
0004
ffe9
ffff
000d
fff9
0003
000f
000b
0010
fff5
ffe8
000b
001f
0006
0004
fffb
fff2
000f
fff9
ffe7
fffc
0012
0001
0008
fffe
ffe4
000b
fff0
fffd
0013
0013
fff2
000f
0004
ffe1
0005
0020
000c
0008
0001
ffff
ffe0
0003
0037
fff7
ffed
0013
ffed
fff3
0013
000a
fffa
001b
ffef
fff0
fffc
001e
ffe8
ffe8
fff2
0002
ffdd
0007
ffff
000e
001b
fff3
0013
0004
000a
000a
0017
fffe
0018
0015
fffe
001a
ffec
fff2
0001
0000
fff7
fff5
0005
0023
ffee
fff8
fff5
fffd
0013
fffa
0014
ffe9
0007
001c
ffed
ffd7
000b
001a
ffee
0012
0000
ffe3
ffee
002a
0021
fffc
001d
000b
0005
0017
000a
0008
fffc
fff5
ffed
0006
fffd
fffa
ffea
000b
ffff
0001
fffc
fffb
0006
fff6
0009
0007
0003
fff4
fffd
fffd
fff9
0013
0012
0011
0001
ffff
ffef
0002
fff9
0007
fff2
fffa
000a
fff9
fff8
000c
000a
0005
fffd
fff4
fff3
000d
001c
000b
fffb
0004
000f
0001
ffff
0003
0004
0016
fff5
000a
0019
0002
000d
0002
fff9
000d
fff0
000b
fffb
0004
0011
fffb
fff1
fff1
001a
0001
0000
fffd
fff1
0002
ffe4
0003
000c
0008
000b
0011
000a
0016
ffef
fffc
0007
0007
0003
0010
fff1
000d
fff9
0003
000c
0015
0017
fff3
0001
0002
fffb
fffe
fff3
fffa
000e
fffb
fffa
000a
fffb
fffb
0006
0004
0000
ffee
0000
0009
0016
fffb
0004
fffa
0005
fffa
fffe
fffd
0006
0004
0005
fff3
fff4
000a
0009
fff8
fff9
fff3
0002
fff8
0004
0015
0016
fff8
0000
fffe
0015
fff9
0000
fff5
fffb
001c
0013
0018
ffd4
0012
0002
fff8
001b
0012
0008
0017
001f
ffe8
000b
fffc
fff3
0002
0002
fffd
0002
fff6
fff9
0003
ffde
001c
0010
0012
fff9
000a
0004
ffe9
fffd
000f
ffee
0000
ffee
0006
000c
001a
0005
fff3
ffe8
000b
0014
ffff
000c
ffe4
0008
0005
fffb
ffe5
ffdd
fff5
ffef
000f
ffe9
0002
0002
fff4
0008
fff4
ffef
000a
0002
ffff
fffb
000c
0002
ffed
ffee
001d
ffef
0015
001f
0001
fff7
0001
0003
fffb
fff9
000e
0002
0011
ffe8
ffe1
001d
0008
0006
0027
0010
0011
fffb
fff0
fff5
0017
0023
ffeb
ffef
0004
0006
0007
0018
fff0
0008
0007
ffef
000a
0013
0018
0018
001e
000a
0009
0006
0024
ffeb
ffeb
ffea
fff6
ffde
0021
0006
0010
ffdd
0006
fff3
ffe8
fffb
fff9
fffe
0013
ffee
fffc
fffd
001a
fffa
ffd0
000c
fff7
ffff
ffe6
0006
ffff
fff7
fff9
ffff
fffa
fffa
fffc
ffe4
fffc
fff5
0007
fffe
0007
fffe
ffe5
ffff
fff1
fff4
000a
000d
fffe
fff2
0008
0001
ffeb
fff3
ffec
0004
0014
fff3
0006
fff3
0001
000b
0007
ffea
ffff
fffd
ffed
fffd
0008
0004
0000
fff5
001d
0014
0007
fff2
fffa
0001
0003
ffff
0011
fffb
0004
0003
0002
0002
0014
fffb
000d
0001
0014
ffff
0009
000a
0006
fffc
fff3
ffff
000c
fff3
0001
ffff
000f
ffea
fff5
0008
000e
0006
0005
0001
000e
0007
0001
fffb
0005
fffa
0004
000b
fffd
ffeb
fffb
fff6
fffe
0001
fffe
fff2
0005
fff5
fffa
fff6
0010
fff1
fff4
000e
0005
0004
fff8
fff6
fff8
ffe9
ffff
000a
ffff
0002
0002
fff6
0014
ffff
fff6
fff7
0004
fff5
000d
fff6
0003
fffe
0008
0001
ffff
fff6
000d
fffd
0010
fffb
fffc
000e
0001
fff4
0002
0005
ffeb
0001
fff5
000e
0013
fffd
fff8
fff4
000e
ffd9
0000
0019
ffde
000d
fffe
000c
0000
fff3
0009
0006
fffd
ffe1
fffe
ffe9
fff1
0016
0002
fffe
000b
0019
0015
000c
fff3
ffcf
ffdf
0020
fff3
fffd
0008
fffe
0011
fff4
ffe9
fff9
0007
fff0
fff7
fffc
fffb
fffd
fff7
ffff
ffeb
ffec
0018
ffe0
fff4
0012
0008
0011
fffd
0018
ffea
fffa
fff8
fff2
fff5
0005
ffeb
0005
0012
001b
000e
0007
0009
0000
fff4
ffed
001e
fffa
fffd
ffed
ffe2
0010
0000
fffd
fff7
fffd
ffdb
0003
0010
fff2
0004
ffdc
000e
fff4
0002
0007
0010
0017
ffe7
fff8
0006
000c
fff7
0002
fff8
0016
ffe0
ffe8
0017
000b
ffeb
ffe5
fff9
ffe1
0004
0005
0010
fff9
000d
fff6
0019
0011
0002
fffd
ffe5
0002
0014
fffd
001b
fffd
fffa
fff7
000e
0012
0015
ffea
0016
ffe6
ffdf
0024
0009
ffee
ffec
0003
0011
fff9
0008
ffef
fffb
ffef
fff2
ffe8
fff7
0010
fff2
0017
0013
0003
ffe6
0011
0003
fff1
000e
fffa
fff6
0006
000e
0014
ffe2
ffe6
fff7
fff7
000b
000f
0006
fff5
0008
000d
0016
ffec
0006
0012
0004
0002
ffe7
000e
0005
000c
0002
0002
000c
000f
0009
fffe
fff2
0014
0009
ffd6
ffd6
0008
000b
000d
fff2
ffea
0001
0001
0010
0004
fffc
fff9
ffe5
0016
0016
0021
ffe3
0012
0001
fff7
fff2
0001
fff4
fff9
ffe6
ffe4
0006
0013
ffe9
0019
000b
fffc
0006
000c
000b
ffee
0016
ffeb
0005
000b
ffe7
0006
fff9
000d
0000
0009
ffed
0014
000b
0001
fff8
0001
fff9
fff4
0001
0009
000d
fff6
0004
fff8
fff4
0010
001a
fffc
000a
fffc
0025
0000
fff0
001b
fff9
ffde
fffe
000c
fffa
ffff
ffed
ffee
0013
0000
fff5
ffef
0008
ffff
0013
0016
fff4
ffe7
0000
0009
fff5
ffeb
fffe
0005
ffeb
000a
fff0
fffb
0002
ffe8
000e
ffe8
fff9
0014
0002
ffe2
001b
fffd
fff5
0025
ffe1
001c
0012
ffd8
fff8
fff8
ffed
0011
fff0
002b
fff7
fff6
fff2
000f
ffff
000e
0009
fffe
ffdd
ffd7
0016
0008
0024
fff8
0009
fffd
0001
fff9
0017
000c
ffff
001a
fff2
fffe
fff0
003b
001c
ffde
ffef
0005
ffdf
fff8
001a
fff0
fffa
ffe4
0018
000b
ffe1
ffdc
0008
ffee
0025
000b
ffde
fff5
fffa
fff5
ffe6
ffe8
0007
000e
0013
0002
fff4
fffe
0016
fff6
ffd9
0009
ffe3
fffa
fffd
0009
0009
000c
0006
0008
ffff
0013
ffd5
0003
0013
0002
0016
ffeb
000f
0014
fff4
0003
fff3
000b
fff0
000f
000c
fffb
fff2
0008
fff9
0016
ffe9
ffed
0012
fff5
fffc
0016
fff0
ffff
000c
ffee
001f
fff0
0017
ffed
0006
000b
000a
fffb
000e
0002
fffa
fff7
0019
0015
0005
0002
fff4
0008
ffff
fff9
fff1
fffe
fffd
0007
0005
0003
fff6
0008
fffe
fff4
fff4
fffd
fffb
fffc
0009
fffd
fffb
000b
fff6
fffe
fffb
0000
fff4
fff1
fffc
fffb
0011
000d
fffe
001b
000d
0001
0001
0006
fff7
fff9
0012
fff3
0005
0001
0005
fffa
0005
fffb
0001
fff6
fffd
fffc
0007
0005
fffa
fff6
000a
fffc
000b
0008
0008
0002
fff9
fffa
0009
fff5
fff4
fff6
0003
fffa
0007
0007
fff4
000c
000e
0000
fff3
fffa
0001
0002
0007
0000
fff3
fff3
0002
0001
0005
0006
0009
0006
000b
0011
000c
fff9
0011
0004
fff8
fff3
000a
0002
0007
000c
fff6
fff8
0001
fff5
fffd
0001
fffc
0009
0007
fffe
0005
fffd
fff9
fffb
fff6
0000
0001
0005
fffc
fff8
fffc
fff8
ffff
fff5
fff8
0004
0006
fff1
0009
fff4
fff9
fff9
fff4
ffff
0009
fffc
0006
0002
fffd
0004
fff3
0003
000c
0002
fff8
000b
fffa
0004
0011
ffeb
fff2
0001
fff7
fff9
fffb
fffd
0010
0005
fffd
0017
ffff
0001
fffe
fff0
fff8
0002
000a
fff8
0008
fffe
fff6
fffc
000a
fff0
0008
fffc
fffb
0003
0001
ffff
ffe9
ffed
fffc
ffed
ffff
0000
0008
0002
0003
000a
0005
fff4
fff3
fffe
fff5
0005
ffff
fff3
0004
fff7
fff7
0004
0006
0013
000a
fffe
fff2
fff4
0001
0001
fff8
0010
0000
0000
fff5
ffed
ffe9
fff3
0009
000e
fff0
fffb
0006
fff7
0009
0010
ffff
fff0
fffc
0007
fffb
0013
ffff
0007
ffff
0005
fff8
fffc
0003
0004
fffd
0000
000d
0005
0004
0004
fffc
0001
fff6
fffb
0000
fffc
fff5
fffa
0005
000d
000d
ffff
000c
fffd
0001
fffc
fff4
fff6
0007
0007
fffa
fff1
fffe
0000
fff5
0001
fff6
fff9
0012
0001
0005
0010
0016
fff5
000f
000a
0006
fff6
fff6
ffdf
fffe
fff2
fff1
fffa
0011
0004
000b
ffdf
000f
0012
ffd9
0011
ffeb
ffff
0011
0013
ffd6
fff7
0000
ffe8
ffec
ffdb
0026
0025
fff4
0015
000e
0027
ffff
0008
0006
fff7
fff2
ffda
000b
001a
000a
ffef
ffe8
0018
ffe9
fff7
ffe6
fffb
000f
ffe2
0002
fffb
ffed
fff9
000b
fff3
fffc
0018
0002
0011
ffdb
fff6
0004
ffeb
0003
000a
000f
0003
fff4
0011
000c
0001
0027
0005
0000
ffe0
0022
ffdd
0015
0009
0000
0001
fffe
fff7
0026
0019
0003
fff8
ffe8
000d
001b
fff8
0005
ffee
fff5
ffea
0005
000a
0004
001f
0001
000f
ffed
0016
0016
0019
0013
0005
0014
0018
ffd9
fff5
001d
ffeb
fffb
ffdd
ffe4
fff1
ffe5
000b
ffdc
0026
ffec
ffd9
000c
000c
fff4
0007
ffd1
0003
0016
fff4
ffeb
fffd
0000
fffc
0016
fff9
0000
0008
001c
0013
0005
fff4
0014
fffb
000b
0002
0023
ffea
ffec
ffe8
0006
fff1
ffeb
001e
fff5
0005
000d
fff3
0005
fff0
0018
ffe4
0014
fff2
fff8
fff6
ffeb
0014
fffb
ffef
000d
0016
000a
fff3
fff2
fff9
0004
0009
ffe8
0001
0019
0011
0018
0000
0005
0005
ffd4
ffea
000d
fffd
0019
000e
ffe1
0024
fff1
0001
000a
ffdf
fff5
fff0
0004
001b
0010
fff6
000e
0010
0010
0012
fffb
001a
fffd
0018
000b
ffff
0018
001d
001d
0010
000b
fffb
ffe0
fff7
0015
fff3
ffe8
0004
ffec
fffe
fffe
fff3
fffa
0001
001a
0003
fff9
fff0
000e
0005
ffff
001e
0000
0014
ffe8
0016
fff6
0003
0012
0010
0004
0010
000d
fff9
fffc
0021
0017
ffee
0005
0000
fffc
0016
0001
ffe5
ffe5
fff1
0011
0011
fffa
0000
0015
0001
0014
fffd
0007
fffa
fff5
0002
fffb
0000
001d
ffe9
000e
000d
0006
000e
000f
fff8
001b
ffe8
000a
ffef
fff4
0001
0003
0004
0007
fff2
fffe
000a
ffed
0010
0004
000c
ffe2
001b
002d
fff4
001f
fffd
fffc
fff5
0012
0008
0008
001a
0009
0015
0002
fffe
ffee
ffff
ffea
fffe
fff6
0006
ffee
0007
ffed
ffe9
fff9
fff5
fff7
ffec
fff5
000e
001e
fffc
0024
000b
ffed
ffff
fff7
0000
fffb
fff3
ffe3
0009
0007
fff9
0002
fffb
fff4
ffec
ffe2
0016
000b
0001
0025
0003
0003
0009
0017
0011
000e
002f
0013
0011
0005
ffdf
fff7
fff9
fff1
ffeb
ffe9
ffef
ffdc
000d
0009
fff5
000c
fffd
0005
000d
0003
ffed
0012
000e
fff3
0017
ffde
0014
ffff
fffd
fffd
000f
0009
ffff
ffe9
fffd
0013
ffe7
000f
fff2
ffe5
0021
0005
fff1
0006
ffe8
fff5
0012
0009
0005
fff4
ffdb
0024
000a
ffea
ffff
ffe6
0024
001e
fffb
ffe9
fffb
002e
0010
fff7
000e
0009
fffe
0015
fffb
0001
ffdd
ffe6
fffb
ffe7
0011
ffd3
fff2
0019
0014
0005
ffe0
ffdd
0017
fffd
ffff
0012
001a
0001
ffe2
fff7
0002
000d
0005
fff6
fffc
fff1
000d
0002
0017
fffb
0011
fff4
0005
0003
fff6
ffea
0006
0014
ffed
0019
fff9
fffc
fffe
001c
ffe5
fff8
000e
000a
fffd
ffee
ffe7
0000
fffc
0016
ffeb
ffd7
fff2
fff6
000f
0003
000b
fff4
fff7
000b
ffeb
0026
0013
ffdd
000f
ffeb
fff4
000a
ffee
fff7
0010
000b
000e
ffe6
ffd5
ffdd
fff4
fffc
fffc
0019
0006
000c
fffa
fffd
000b
0014
fffb
001e
ffee
fff6
0012
0011
fff5
fffb
001e
000f
fffa
000b
0000
0018
000f
fff7
fff5
fff8
001b
fffa
fffc
0004
000e
fff7
0020
fffb
ffff
ffef
fff8
0005
fffa
fff2
000d
0018
ffff
fff5
ffeb
ffe5
fff8
000d
0008
fffd
fffc
0006
fff8
ffe6
fffd
fffd
fff3
ffe4
000c
0018
000a
0002
fffa
0010
000b
0004
0009
fff5
0001
fff7
fff7
0009
0000
ffeb
000c
fff7
fff6
000b
0012
fffd
0005
000d
fff9
0001
fff6
ffff
0005
0001
0007
fff9
000b
0004
000f
000c
fff4
0001
fffd
000e
0005
0002
0000
fffc
ffff
0012
0004
fff4
0000
000a
0009
000c
0000
0001
fff7
0000
fffd
fff3
0002
0005
fff7
0005
fff9
000d
000a
fff5
0005
fff0
0001
fffe
000c
fff4
fff0
0003
fffd
0000
fffe
0004
000a
0004
fff9
fffc
000c
fffd
fffb
000a
0007
fffb
fffc
0002
0008
0006
0013
fff4
0005
ffff
fff3
0004
0004
0003
ffff
000f
0006
0000
000b
0001
0008
0005
fff8
fffd
fff8
fff3
0002
fffe
0008
0001
0004
ffff
fffe
fff6
fff0
0006
0011
0003
0000
0006
0004
0001
0004
0006
0005
0000
0004
000c
0008
0003
000d
fff7
ffff
000b
fffc
fff5
0006
0005
fff3
ffec
fffd
fffa
0003
0005
0012
fff4
fffd
fff9
fffa
0015
fffc
fff9
0001
0008
0009
0000
fff4
ffff
0006
000c
fffe
0003
0007
000e
0001
0001
fff6
0006
ffff
0002
0005
0005
0011
0005
000d
ffee
0001
fff4
0007
0000
fff7
000f
000f
000a
ffee
000a
fff9
0001
ffef
fff8
ffff
0000
000a
fffd
fff9
fffb
fff3
0000
ffff
fff4
fff3
000e
0008
fff9
0004
0007
ffea
fffb
ffff
ffff
0002
fffb
ffec
fffb
0008
fffa
0000
fffb
fff5
fffa
0009
fff6
fff2
fff5
0004
fff3
fff1
fff1
fff7
0007
0001
000e
000d
0003
0004
fff6
000e
fffd
0006
fff0
fffc
000d
fff8
fff0
fff2
0003
ffed
0002
0002
0001
fff2
fffa
0010
000e
000b
0006
000f
000d
ffff
0005
fffc
fff5
fffd
000b
ffe9
fff0
0003
fffd
ffee
fffc
fff1
000a
0001
fffb
fffa
0003
fff0
fff1
ffff
fffb
ffed
0005
000e
0002
ffe8
001c
0003
000c
0011
ffe8
ffff
0000
0014
ffe5
0004
0000
0000
0003
0007
ffe9
000c
fff0
fff2
0004
ffec
000e
ffe3
fff7
0004
0003
0007
0005
000e
ffed
0015
001f
001e
ffec
fffb
0005
0011
ffda
fffa
ffe5
ffea
fffd
ffff
fffd
0013
fff8
ffeb
ffff
ffe7
0003
fff0
0001
0005
ffe2
001a
0011
0028
0012
fff7
ffea
001d
0019
0000
ffff
fff0
0008
0014
0003
ffff
fff7
ffeb
0008
001d
fffd
0014
ffdf
000f
0008
ffd8
0005
0018
fff7
0007
ffff
000b
ffe4
0001
0007
0000
001b
0013
ffeb
0027
fffe
0018
fffe
0018
fffb
0003
0004
001d
fffe
000d
0009
fffb
0001
0014
fff5
0028
fffd
fff8
0016
0029
ffe5
fffc
002a
ffdb
fff1
0005
0006
fff0
000f
fff0
fff3
fff5
0008
001a
ffe1
fff4
0018
0013
000d
ffe2
ffff
000f
0005
000b
000e
fff1
0008
000e
0006
0021
000b
0015
ffee
ffeb
fff6
fff2
fff4
fff0
0031
0015
ffe9
fff9
fff5
0005
0011
fff9
0007
0001
0002
000c
0000
fff9
fff2
fff4
fff9
000c
fff3
000c
0004
000c
000b
fffa
fff9
000f
ffe5
0004
001e
0013
000b
0008
ffe7
0001
0008
000b
fffe
0002
0005
ffe9
0013
0005
fffc
ffec
fffa
fffe
fff4
000c
fff9
ffed
0009
0006
fff6
0004
0000
0001
ffe0
0016
fffd
0001
fff3
fff5
0012
fffc
0004
0011
0007
fffe
fff9
000f
0005
0004
000a
000b
0003
0003
fff7
ffff
fff1
0002
fff3
fffe
ffeb
fffa
0003
000b
ffef
fff3
000c
fff6
0009
fff4
0005
fff0
0010
fff8
0014
0012
0013
ffed
0001
ffee
fffe
ffeb
000c
001b
0008
fff9
fff0
fff7
fff9
ffec
ffe6
0006
001a
0000
fff0
0007
ffef
ffe4
fff6
0005
000c
ffff
0007
fffd
ffef
0001
ffe7
001e
000c
001a
0014
0005
000e
0012
0027
0013
0010
fff7
fff1
001b
0001
ffeb
000c
000c
0001
002c
0005
0013
0015
fff7
ffd9
0015
0016
0021
fff3
ffda
ffeb
0002
0003
000b
0006
fff9
fff3
ffd8
fff7
0003
000a
fffe
0001
0016
0002
0007
0004
0009
fffa
ffee
ffec
fff1
0004
fff2
000e
fff8
000e
0000
ffe4
0015
fffe
0003
fffe
000b
fff6
fff0
000e
000b
001b
fff5
0007
0010
001a
0009
fffd
fff0
fffc
0004
0005
0017
fff9
0005
ffe2
0016
000d
0009
0001
fffa
0010
ffe5
ffeb
000f
fff7
000e
fff2
fff7
0006
fff2
000c
0012
ffec
ffdb
0008
ffe3
ffe7
0013
fff1
001b
ffdc
0002
fff8
0008
ffed
000d
ffe0
ffef
0014
ffed
0011
000d
ffde
ffec
0021
ffe3
0005
000c
0008
000b
ffff
0001
fff1
000a
000c
0001
0007
0006
0026
0011
0004
000f
0017
0014
0013
0016
0013
ffec
0000
fffd
000f
fffb
fff7
0005
ffe9
ffe4
fff2
ffec
0004
fff4
fff4
fff7
fffd
fff8
0014
0002
0011
0009
001a
0002
fff4
ffed
0002
fff1
000e
0000
000c
000b
0001
fffb
ffec
0000
fff1
0004
ffec
fff7
fffd
ffe6
fff3
000c
fffe
fff3
ffed
0007
0010
ffed
fff8
0006
0009
0002
fff7
0006
0003
fffe
fff3
fff6
0006
ffff
0001
fff6
fff0
ffff
0014
000b
fffb
000d
fffe
0008
0004
fffc
0003
0014
fff8
fff3
0013
0004
ffec
0001
fff1
0014
0002
0005
fffb
fff9
0007
ffef
fff6
0010
ffe6
fffb
fff8
fffd
000e
0000
fff7
0002
0005
ffea
0000
0019
ffed
fffa
fff8
000d
fff9
fff1
0006
fff6
0001
0003
fff9
0013
001c
000e
fff3
fff3
0002
0001
ffef
ffed
fff9
fff0
fffc
fffa
0011
000e
ffea
0017
000f
000d
fff1
0010
fffa
0016
0001
ffeb
fffa
000d
000c
000f
fff8
fff8
0006
ffe5
0001
fff4
fff6
fff1
0004
000e
fff0
000f
fffa
0008
fff5
ffe1
fff5
ffef
0006
fffd
ffd9
0007
fff8
0001
ffc8
000f
ffeb
0027
000e
001a
ffea
ffec
ffe1
0003
ffef
ffeb
000c
ffe7
fff6
fffc
ffea
ffe7
000b
fffa
002c
fff3
0009
fff4
0015
0018
0001
0008
ffdb
ffdc
0005
fff5
ffef
001c
0018
0022
ffde
fffb
ffeb
ffe0
ffe6
0022
001b
0023
0005
0021
000a
fff4
0004
ffeb
ffef
0008
000c
ffcb
fffa
001e
fff5
002c
0025
001f
0005
ffdd
ffd9
0000
0001
fff6
000a
ffe8
ffff
0001
ffdb
ffed
000c
fffe
0014
000f
ffef
fffb
000d
000f
000a
fffe
002c
0019
ffee
0005
0001
0008
0020
fff2
0012
000f
fff1
fff1
ffef
0013
fff1
fff0
0009
fffa
000b
ffec
000d
fffd
ffef
ffe9
0026
0017
0006
0022
0021
ffe5
0011
000f
ffd4
0007
0009
0009
fffd
ffec
0016
ffee
ffd8
0012
fffd
ffec
ffdd
0018
001c
0000
001a
fff8
0003
0010
0011
0014
000d
000d
0005
fffb
0001
0006
0009
0005
000a
ffff
0002
0011
0006
000e
0013
fff8
0000
000c
0012
fffe
001d
0001
fff1
000e
fff8
000d
000e
fffc
fff9
0006
fffd
0004
0001
0016
fffd
fffb
ffe9
fffc
fff3
0000
000d
0007
0014
000d
fff5
0007
0001
000e
000d
fff1
fffa
0005
0001
000d
fffc
000a
0010
0006
0019
fff6
0001
fff1
fff5
fffb
fffc
0000
0003
000a
0003
000c
fff8
fffe
0007
fff9
0006
0006
0001
fff4
fffa
fffd
0009
ffef
fffc
0006
000d
fff8
0003
0008
ffec
000b
0004
0012
fffa
fff5
0009
000e
000f
0003
0002
fff2
0001
0005
0002
0003
0004
fff9
ffe8
0003
0007
fff9
fff5
0013
0006
0003
fffd
0011
000c
fff5
000c
000b
0006
0008
0012
0005
fffc
fff7
0000
0001
0003
0000
0004
0002
0011
0004
000a
0007
0010
fffa
fffc
ffe8
ffe1
000f
0004
ffff
ffe2
0004
0002
0002
0015
0012
ffeb
ffe3
fff5
fff9
fffd
0004
0012
fffb
ffef
0003
0001
0016
fff5
0006
fff6
000d
fff7
0007
fff0
0006
0000
0009
0015
fff9
0006
fffd
fff7
fff1
ffee
0009
0009
fff4
fffa
0009
0004
ffe0
fffe
0011
ffe4
fff9
001f
fffb
0016
ffe8
0003
0002
fff3
fff9
0002
0001
fff9
fffb
000c
fff0
fff7
ffff
fffb
0000
001b
0005
fff7
ffe7
0013
ffff
000f
0022
0013
ffed
0012
fff1
fff0
fffb
fff9
fff7
ffff
0001
0012
0013
fff7
fffa
fffc
0003
0009
fffb
000e
0014
fff1
fff9
000f
000a
fff6
ffe1
0008
ffff
0016
000b
0011
0009
000e
fff3
fff4
000b
ffed
ffe7
0008
000a
0007
ffff
fffa
fffc
fffb
ffea
000b
0016
0007
0010
000a
ffee
ffeb
0008
fff1
fff0
0000
fffa
0003
000c
0019
0009
fff1
fffd
ffe7
ffec
fffe
ffe9
000c
fff8
ffed
ffe8
000f
ffef
fff7
0010
fffa
0025
002d
fff3
fff8
000c
0027
fff2
000f
000f
0006
0000
ffe2
fff7
0002
ffee
ffff
0009
ffe1
fffe
0002
0007
000d
0004
fff2
fff6
ffec
000e
0005
000c
000b
0004
ffde
ffd9
fffa
ffef
0018
000b
0000
0009
ffe3
ffdb
0004
fff1
0005
fffa
0006
fffa
0020
000a
ffe8
0009
000a
000d
0001
0007
0001
fffa
0007
fff5
fff5
fff2
000b
0007
0002
001b
ffe6
ffee
0013
ffe2
fff4
0016
ffdc
fff9
001e
0005
000a
000c
001f
ffdc
0018
ffdc
0013
fffe
fff5
ffed
ffeb
0003
fff8
ffff
fffb
000c
fff9
0008
ffff
000e
fffc
ffed
000f
fff7
ffee
ffed
fff5
0011
ffee
0019
0004
ffff
000a
fff8
0003
fff8
0004
0004
0013
ffed
0007
0007
0006
0008
ffe2
000b
0008
ffe7
000d
0011
0000
fff6
0016
0019
0019
fff3
ffff
fff6
fff8
ffca
ffec
ffff
0011
000b
fffc
0008
001a
0016
0003
0001
fff1
0009
ffeb
000f
ffd3
0006
0027
0015
fffd
0000
0007
0006
0012
0005
0003
fff1
0018
000c
000d
0003
000e
ffea
fff8
fff7
fff3
fff2
0004
0003
fff2
fff8
0004
fff3
ffff
ffe7
fff5
0007
0007
000b
0016
0025
0010
001e
000d
0007
ffec
0013
ffef
0021
0007
0020
000d
fffe
0005
fff0
0000
000a
ffed
000e
000b
ffe9
000c
002c
fff9
fff3
fffc
fff0
ffe6
ffd2
ffdc
0023
0013
0017
ffee
0005
001a
fffc
fffd
ffed
0002
0005
0006
000d
fff8
001c
fff9
ffd5
000f
0008
0004
ffe1
fff8
0017
0035
000b
fffc
fffd
ffda
fff9
000c
ffeb
fffa
0018
0017
ffe7
fff4
001d
fff9
0013
fff5
0006
ffdd
fffa
001b
fff7
fff0
0012
0007
ffe7
001b
fff9
000d
fff9
0024
ffe9
fff2
0002
0023
ffeb
ffe1
002e
001d
fffc
fff2
ffd7
000a
ffe5
0002
fff5
0002
ffec
000c
000f
0000
fffc
0019
0019
0023
0025
fffe
ffd9
0026
0000
0010
001e
ffdd
fffa
000b
fff0
fff3
0002
0010
ffff
ffe4
ffee
0010
fff9
0000
000b
fff2
fff3
0000
0008
0008
000f
0011
0002
000a
fff0
0011
ffdb
000a
ffef
0001
fffe
fff5
fff6
001e
0000
fff5
0007
0009
000a
fffc
0004
0009
fff8
ffed
fffc
001b
fff7
ffd8
fff2
ffec
000f
fff3
0007
ffdb
ffeb
ffef
fff7
ffec
ffec
fff6
000e
ffe2
0018
fff4
fffe
fff7
fff3
ffea
0019
ffe3
fff1
0002
0017
0002
0005
0012
ffe8
fffa
0008
ffeb
ffd8
0023
ffe6
ffff
0013
fff6
000c
ffef
0016
0015
0013
ffe4
001a
0006
0000
001c
0007
fff1
fff3
001f
fff9
ffe5
000f
000b
fff7
0012
0000
fffa
0005
fffa
ffe1
000b
0004
fff5
0004
ffff
ffe8
0013
fff6
fff5
001f
ffe4
ffe5
0001
0002
0003
fff3
fffd
ffe7
fff0
001c
001a
ffe6
0015
fffa
fff6
000e
000c
0008
ffec
0002
000d
0017
0005
0011
ffe8
fff9
0018
ffe5
0006
0004
0008
0004
ffe4
fff7
0012
0017
ffee
ffeb
ffff
ffe7
0013
0003
0010
0007
fffb
000a
0002
fff2
ffe9
ffd8
fffa
fff0
000c
ffdd
fff1
ffee
fffb
ffff
fffc
ffff
fff5
0025
0022
0003
ffe1
ffff
001c
fff5
0011
ffe9
0012
fff9
0009
fffa
000b
000f
0009
001d
0015
0001
fff5
fffa
ffe8
0008
0006
0007
0006
ffe9
ffe3
0013
0011
ffe8
0016
0006
0006
0000
0001
fffb
0029
0013
fffa
fff9
0006
000a
000d
ffeb
fff0
ffe2
0011
0029
ffff
0006
0002
ffe6
0000
001b
fff2
0004
0015
000d
ffe7
0021
0013
ffe6
000c
fff2
0018
000b
ffd8
ffe2
002b
ffe0
ffe9
000a
0012
fffc
001f
000d
0003
fffd
fff7
fff6
ffef
0010
000f
000d
fff8
ffb9
000c
fff3
fff2
001d
0004
fff9
ffe1
ffee
fff4
ffe1
0000
fff9
0029
001b
ffe7
000e
0011
ffec
0009
0003
fff7
fff0
ffea
fff7
fffb
000d
fffd
0003
000e
ffe7
ffed
0005
0011
0014
0003
fffa
0006
0004
fffb
000a
0004
fffb
0022
fffc
0023
fffa
ffee
0008
0026
000b
fffe
fffb
0029
0030
fff1
fffc
0003
0021
000f
0014
0009
0005
fff8
0002
001e
fff4
ffda
fff5
fff3
000a
0016
ffef
fffc
ffef
0007
0008
fffd
ffd7
fffc
ffdf
0016
fff6
fff4
ffee
0018
0004
ffef
0013
0013
fffc
ffed
000a
ffef
0001
fff5
ffcb
0012
fff4
0016
ffe5
0005
fff8
003b
0011
000d
0010
ffe1
ffe6
0008
ffe1
001c
fffc
0006
ffef
0006
0017
0009
ffe9
0027
ffec
ffe2
fffd
fffb
0005
001e
0012
ffdd
ffe7
0007
fff3
0003
ffe3
fffe
fffd
0015
000f
ffe2
fff9
ffff
0010
0017
000c
000b
0002
fffc
fff4
fffe
ffee
fff3
0008
0012
fffe
0000
fff4
ffed
0004
0017
001f
fff7
ffeb
000c
0005
ffe6
fff9
ffff
0004
fff9
ffe4
fff3
fff8
0006
0010
fff0
0007
ffee
0009
0014
000f
0015
000f
0002
ffe5
fff1
0002
000d
000f
0011
ffe8
0004
ffeb
fffb
0002
000f
000e
ffe8
0002
0006
fff2
ffe4
0006
fff1
ffee
fffd
000e
0002
fff1
000f
fff7
ffe1
0015
000c
0015
000f
fffd
0005
ffee
000c
fffc
fffd
000e
fff0
ffe9
0012
0004
0005
001b
0000
0009
fffa
fffc
0006
0009
0018
0008
fff7
ffec
000b
0012
000c
fff5
0002
0005
0012
ffee
ffeb
fffb
0013
ffe9
0002
0017
000d
fff4
fff6
fffe
fff5
0001
000d
fff4
fffd
fff6
000a
000f
fff3
ffd8
ffe8
fff4
000c
0008
0011
ffff
fff5
0011
ffff
0010
ffed
fffb
fff3
fff9
ffea
fffe
0004
0017
0003
fff9
ffeb
0008
fffa
ffff
fff2
fffa
fffb
ffea
fff3
ffdd
fffc
0001
0016
fffc
ffec
000f
0006
000c
fff4
0002
0000
fff4
0000
fffe
0005
fffa
000b
ffef
ffea
0007
0007
fffe
fffc
fff7
ffed
000e
fff7
0000
ffee
0016
fff5
ffed
fffa
fffb
ffff
fff8
fff7
0012
fffb
fff2
fffa
0012
000c
0011
fff9
fff1
0009
ffff
ffdb
000b
0010
ffe5
000e
0007
fffc
fffe
0005
ffeb
0007
0007
fffc
0007
0012
fff4
fff3
ffec
fffe
fffe
fff9
0015
0001
ffe7
0002
ffdf
ffed
fff0
fff1
fff6
fffd
fff9
0011
0009
0011
0003
0009
0004
fff0
ffea
0012
000c
fff3
ffec
fffe
fff7
fff2
ffe4
fffa
0000
fff7
0005
0006
0007
0010
0002
fffc
0010
0001
fffc
0002
fffe
0004
fff1
000b
ffea
0002
fff8
ffef
fffe
0014
0002
ffff
fffd
fffc
fff4
0003
0008
fff6
fff4
fff2
ffeb
fffd
fffc
0003
000c
fff7
000e
fff5
0004
000f
fffc
ffe1
fff1
ffe4
fff4
ffff
000f
fffc
ffdd
0010
0025
0025
0014
0005
ffdc
ffe9
ffda
fff0
0014
0000
fffc
001c
0017
ffd8
ffff
0021
001e
0004
001d
0016
0019
fff8
fff0
0000
fffd
fff0
0007
0000
0018
0009
0008
001f
fff9
ffeb
fffc
ffe7
0008
fff8
000c
0000
fff6
0013
0007
fff6
0005
0011
0006
000f
0004
fffd
0005
000c
ffff
000c
fff7
fff3
fffe
fffa
000f
0015
ffeb
ffd0
000d
fff2
0009
0004
ffd9
0004
fff0
001e
ffef
ffe6
0010
fffe
fffa
fff5
001e
fffa
fff2
0017
ffee
000b
001f
0002
fff2
0011
ffe9
0023
0004
fffc
0004
fff0
ffe7
fff3
0017
ffe9
000b
fff6
0014
fff3
0002
000a
fff6
fff0
000a
0006
fffd
0010
ffe5
0016
0016
ffee
ffe4
0005
0021
fff7
001f
000f
ffef
fffc
ffe6
fff0
ffeb
ffdc
000d
000b
0013
0017
001b
fff7
000f
fff0
002c
fffb
000c
0006
0015
ffff
fff9
fff4
002a
ffe3
000c
fff5
0012
0002
fff6
000e
fff7
ffff
0012
fff8
0029
fff1
fff6
fffa
ffef
fff6
ffd9
000f
fff4
fff7
ffe5
0012
ffe3
0016
0009
0011
0009
0014
001b
fff7
000b
fff7
fff2
fff7
fff6
0012
0000
0007
000e
fff4
fff8
000b
0011
001c
0001
0002
000d
fffb
fffe
0018
0007
0022
fff7
fffa
fff8
ffff
ffff
000e
fffa
ffda
000c
0007
0016
fffa
0005
ffe4
001f
ffd9
fff0
ffe4
0016
ffe8
ffe7
fff4
ffe8
0009
0003
0014
ffe5
0003
fff6
ffd8
0011
fffa
ffde
fffb
ffe6
0024
0017
0007
fffa
ffe5
0020
0009
0007
0001
fff4
0011
001e
ffee
0012
0005
fff8
0007
0018
ffe2
0008
fff1
ffed
ffe9
0000
000b
fff6
0000
ffe2
ffe2
ffd8
fff4
ffda
0005
0010
ffeb
000a
ffed
fff6
ffde
ffdb
fff9
ffeb
0009
ffed
ffdc
ffe4
ffe6
ffe9
0012
ffe0
0005
fffe
ffec
0014
000f
0005
0009
ffe7
fff7
fff9
ffe0
ffd7
0016
001d
fff3
fff3
0007
0007
0018
0015
fffe
0014
fff7
0000
0016
fff9
0003
0003
0022
000c
0014
000d
fff1
000d
fffe
0003
000c
ffff
0002
ffea
000c
ffed
0013
fffd
0003
fff4
000e
0012
0024
fff9
0003
ffe7
0001
0009
ffed
ffed
000d
0014
fff4
ffec
fffc
0005
0021
000a
fff2
0014
ffef
0001
0001
000f
0008
0008
fff6
fffa
ffe3
fff0
ffea
fff8
0022
0002
fff6
fff9
000d
0011
0003
0003
0027
0013
fffe
fff2
fff1
ffeb
001e
0009
0000
fffb
fffa
fff1
fff6
fff4
0001
fff3
000d
000f
ffe2
000c
001a
ffe8
0006
ffe0
0005
0008
ffde
ffec
fff6
000e
fff6
0011
0000
000b
0017
0001
fff6
0010
fffb
ffe4
0000
fff8
0019
0019
fffd
0009
fff7
001e
0001
0005
fffc
fff8
0008
fffb
ffff
000d
0000
000f
fff8
fff4
0002
0004
0015
0003
fff8
fffc
0022
000e
fffd
fff2
000d
0012
0001
0001
000c
0009
fff8
ffee
0001
fff9
0008
fff5
fffb
fff1
0005
fff9
fffe
0009
fffb
000b
0004
0004
fffb
fffe
0009
0016
fff2
fffa
0008
0003
0001
fffb
ffff
fff6
0001
fff3
fff7
fffd
fff8
0000
0000
fff8
fffa
fff4
000e
fffa
fffe
fffc
000b
fff5
ffeb
0002
fffc
ffff
0007
0004
fff8
0008
0009
fff4
fff7
0004
0001
fff9
0000
fff5
fff4
fffc
fffa
fff6
fff3
fffa
000b
0004
0005
0005
0002
000f
fffe
fff3
fffd
fffa
000c
fff6
0004
000c
fff5
fffb
0008
fffd
fff5
000d
ffff
0001
ffee
0011
0005
0003
0006
0001
0009
0005
000b
fffb
fffc
0009
ffff
000b
fff5
0003
fffb
fffc
0005
0007
fff2
0008
0000
fffd
fffe
0000
000a
0008
fff8
0007
fffb
fff7
fff7
fffe
001c
ffe9
fff0
ffed
000a
fffc
0012
fffe
ffea
fff1
fff8
0001
fff1
fff1
0000
fffb
0016
0001
ffed
0009
fffd
fffb
000f
0000
0015
0011
0006
0010
ffec
000b
0010
0007
fffa
0011
0002
ffed
0003
ffeb
000c
000c
0008
0023
0008
0009
0003
ffff
0005
0009
0013
0001
ffec
fffe
0010
0012
001b
fff4
fff0
fff2
fff1
fff4
ffe5
ffef
fffd
0001
fff5
0005
000e
ffef
0002
fff1
0013
000b
001d
0018
fffc
0005
ffe8
0004
0002
0003
0000
fffb
fff0
fffb
fff3
0010
fff9
000d
fffb
fffd
ffe0
0008
0005
fff8
0007
ffef
0007
ffef
0001
0015
001f
001d
0002
0008
0016
001a
0008
fff5
ffee
fff3
0019
fff7
fffa
000a
fffa
000c
fff2
fff8
0011
0014
fffc
000a
0011
fffd
fffe
ffe9
0005
fff4
ffe9
ffe6
fff4
ffea
ffe7
fffb
0000
ffec
fff5
0001
ffed
001a
000a
fffa
fff5
0008
fff4
0006
fffe
0008
ffed
fffd
0004
fffb
0009
0005
0002
fffb
fffd
fffe
0000
0008
0009
0002
fff1
0014
fff4
0000
fff4
fff4
fff3
fff9
0007
fff8
fff9
0002
fffe
ffff
0008
000e
000d
fff3
fffe
0010
0006
0006
fff2
0003
0005
fffa
fffd
0004
fff2
0004
fffa
fff9
0004
fff3
fff9
fff5
fff7
0003
0003
000c
000f
0000
0009
fffa
fff5
fff8
ffea
fffd
fff9
fff5
ffff
0003
0000
fffa
0003
fff7
fff8
0009
0001
0000
fffb
000b
0002
ffff
0003
fff0
fffd
0000
0007
fff8
0006
fff0
fffe
0004
fffb
fffd
0000
0004
0002
000e
000d
0003
fff2
fffc
fffd
000d
fff3
0002
fff7
ffff
0001
fffb
0007
000a
fff8
000d
fffe
fffa
0000
fffd
fff8
fffe
0000
fff1
fff2
0008
0009
0003
fff5
fff8
0008
0002
fff0
fffd
0002
fff6
000b
0005
0003
000b
fff7
fff2
fff9
fff9
fff7
0001
0016
0003
fffd
0010
fffc
000d
0036
001e
0004
001b
fffe
ffed
ffe6
fff5
0006
fff5
fff3
ffe0
0004
000b
0017
0003
ffeb
0005
ffe0
ffe4
fff8
0029
0017
ffec
ffe2
0014
ffef
001e
0007
fffe
ffdd
ffec
ffeb
ffec
0020
000d
fffe
ffff
0014
ffb0
0002
000a
000b
ffe5
0012
fff5
ffcc
fffc
fff0
fffd
ffd0
001a
000c
0003
ffea
0016
0006
ffff
0025
000d
0004
fffd
fff7
fffe
fff7
0022
fff6
000c
ffd4
fff7
000f
fff1
fff1
ffe9
fff1
fff1
fffb
0010
fffd
fff8
0013
fffa
ffe9
ffed
ffd3
fffd
ffe9
0008
fff8
0012
0007
fff7
ffe4
fffb
fff7
0001
000a
fff4
0022
ffee
0017
0011
fff9
fff7
0007
0009
0007
0004
0018
fffa
001a
ffce
ffff
000b
0001
ffe8
000e
000d
fffc
000d
000f
ffea
0024
001b
000e
0015
0005
fff6
ffe9
fffc
000b
fff3
001c
ffff
0002
001c
0016
ffee
ffff
ffee
0000
0013
fff2
fff8
fffe
fff6
fff6
fffe
000f
001f
fff5
ffe9
fff8
0007
ffea
ffee
000b
0005
ffee
0001
000e
0000
0001
0004
000a
0012
ffe8
000d
fffb
000f
fff6
fffb
fffd
0000
000b
fffa
ffe9
000b
0006
0015
0008
fffc
ffed
fff7
0009
ffe1
fff3
0017
000e
fff5
fffe
0001
ffed
000d
fff5
0018
fffc
fff3
0007
fff9
0010
ffea
000f
0016
fff5
0007
fff9
ffef
000d
0005
0013
0016
001e
ffeb
ffed
0012
0015
000a
0006
ffec
0004
fffc
ffe9
0007
0004
0009
0000
000b
ffff
ffff
fffd
fff0
000f
ffe7
000e
0013
ffef
0007
ffff
000a
0004
000d
fffc
fff9
0004
fffc
000c
ffe6
0000
fffa
ffee
fff7
fffe
fffc
0001
000e
0001
fff0
fff6
000c
fffd
fff4
0000
fff9
fff9
fffc
0008
fffc
000b
fffa
fffa
fffe
0000
0006
fff5
0008
0011
ffef
fff5
ffe4
0009
0000
0017
000c
ffff
ffdb
000e
0011
0001
000d
0007
ffea
0009
fff9
000b
fff8
fffe
fffb
001a
000a
0004
000b
fffa
0014
000c
0007
ffee
0004
000e
0015
ffe4
0012
fff4
ffe4
0008
fff2
fffe
fff8
fff0
fff5
0009
000c
001f
0008
000c
fffa
ffee
0009
ffee
fff1
001d
ffe9
0006
ffea
ffe8
0005
ffe5
0005
fffb
fffe
0002
0015
fff8
fff7
ffff
0003
fffb
ffeb
000e
0003
000c
ffee
0008
0003
0019
fff2
fff9
0001
fff8
fff4
fff1
001e
ffeb
0001
0014
0013
fff7
ffeb
fffb
0005
0017
0000
fff6
ffff
0009
000b
ffe1
fffe
000b
000d
000f
0020
fffe
0013
001e
000a
ffeb
0008
0003
0000
000a
0010
fffc
000a
0003
fff1
fffd
000d
fff8
ffee
0013
fff9
ffe4
fff7
0013
000b
0002
0016
ffed
ffe8
001d
fff0
ffea
ffe7
fff0
ffeb
0014
0014
fff4
0002
0013
ffec
000a
ffff
fff4
fff0
000b
ffef
fffd
fff4
ffd8
fff9
fff6
0006
fffc
0017
0011
0005
ffe1
0006
000e
0026
fffa
0004
0019
0016
0011
fffb
0010
002a
ffee
ffee
0003
fffb
0019
fffe
0012
ffe4
000c
000b
fffd
000e
fff3
0000
ffee
ffe6
ffe8
0015
0023
ffd7
0032
ffd7
fff5
fffe
000b
fff6
ffe3
0012
ffe6
fffc
000e
0015
ffd2
0009
fffb
0006
000b
001e
000b
fffb
0024
0016
0019
0014
ffe6
fff8
fff3
0021
0022
0001
ffd1
ffdc
ffe4
fffc
ffea
ffc8
ffd7
001a
0018
0011
ffea
000d
fffe
0018
fffd
ffee
0007
ffd4
0008
fff8
000d
0004
fffb
0003
ffe7
001a
001a
0005
000a
ffeb
0014
000b
0002
fff8
0013
ffee
0008
0015
fff7
001a
fff0
0013
fff4
fff8
fff0
0001
000f
ffde
0003
fff9
ffe3
0007
0015
fff9
ffef
fffc
0017
0004
0004
0012
000e
000e
000f
ffe4
0005
0011
ffe2
0014
ffe7
fff2
fff8
fffa
000b
ffea
fff1
ffee
fffc
fff3
fff3
0002
0006
000e
0007
000a
000a
0015
ffe7
fff1
000d
fffa
0012
000b
0005
fff2
fff4
000e
fffb
000f
fffc
fff4
fffd
fff6
000d
0004
fff3
0007
fff6
fff8
0006
000e
0008
0001
0007
0013
000f
fffb
fffc
ffff
fff1
fff8
fff5
0007
0002
fff9
ffff
fff6
fff5
fffd
fff1
0000
fffc
0004
fffe
fffa
ffed
000e
000d
fffa
fff4
fff9
0015
fffe
000f
0007
fffa
0012
0005
fff0
fffa
0000
fff7
0006
fffd
0010
fff4
fffc
fffd
fff3
0006
fffe
ffdc
ffff
fffa
fffe
fff9
fffc
ffff
ffec
0008
0005
0006
fff5
fffb
fffc
000d
000a
fff6
0005
0000
0002
fffa
000b
fff9
000c
fffe
0002
fffe
ffff
0009
0005
fffd
0015
0007
fffd
000d
fff7
fffa
0012
fff1
0004
0002
0005
0004
fff1
0005
0013
000a
0001
0005
fffa
fff5
000d
fff8
fff7
0011
000a
fff1
000a
fff5
0003
0009
ffff
fffc
fffd
0000
0005
0004
0004
000e
fffd
fff8
fff8
0009
fffc
ffe8
0006
fff7
fff5
fffe
fffb
fffd
0013
0006
0018
0003
fff8
fff9
000f
fffd
000b
0000
fff9
fff5
ffec
0011
fff2
000a
0004
ffe9
0010
fff9
ffe5
0001
ffff
0006
000e
fffe
fff5
fff2
fff0
ffe2
000c
fff9
fff6
fff9
fff0
ffe3
fffc
0001
0003
000e
0014
0007
0002
fffc
0001
001d
ffec
0018
0010
0013
000e
0007
fff5
fff9
fffc
000a
0019
000a
ffe5
0008
fff3
0019
000a
001a
fffc
0008
fffe
0005
0013
fffa
fff6
0016
fffb
0000
0009
ffff
fffc
fffc
0002
000a
fffa
0017
fffa
ffe8
fff7
0001
000c
fff3
fff2
fff2
ffed
fffd
0001
0001
0003
fffc
0012
000d
fffd
fff1
fffb
0001
fff7
000f
000c
0015
fff7
ffff
0003
0009
fff3
0011
fffd
0001
ffea
000b
fffe
ffef
fffc
0005
fff9
0003
000b
fff8
0004
001a
fff4
000d
0005
0018
fff0
0013
0005
0010
fff4
fff1
000c
0008
ffed
fff9
0011
000d
0010
0007
0005
fffe
0001
fffa
000e
fff8
000a
fffc
000e
0001
fffe
fffb
ffed
0006
0000
0004
ffed
0012
0001
ffea
000c
fffa
fff1
fffb
fff1
fffa
000c
000a
ffeb
ffee
fffd
fffc
fff3
0007
0015
fff9
0004
000b
fff4
fff4
0003
000f
fff9
fff5
fffd
0005
fff8
000a
000c
0006
000a
fff2
0008
0006
fff6
000b
ffde
000b
fffd
fff7
fff8
0000
0000
fffa
fffa
0007
fffb
000b
0016
0002
fffa
0000
fffa
fff9
ffec
0005
000f
fff8
000b
fff5
0001
fffb
fff2
0000
0000
fffc
fffc
fff5
0008
0003
0006
0016
fff8
ffed
0004
0007
fffc
fff7
fff4
0014
ffff
000b
fff5
fff7
0011
000a
fffa
ffe6
fffb
fffd
fffc
fff5
ffef
0019
fffb
0007
fffe
ffe6
000e
000a
fff6
ffe6
ffe2
000f
ffec
ffea
002d
ffdc
000c
0022
0001
0004
001c
0009
0016
0003
ffeb
0009
0009
000d
ffee
fff4
fff5
fff4
ffee
fff2
0001
fff2
ffff
fffd
fff5
0011
000c
000d
ffe1
001d
fffc
fffa
0009
fff4
001a
0014
000e
fff8
0017
fff2
fffe
fff8
0005
0011
ffe7
ffe4
0009
fffd
0009
0010
0017
0013
ffeb
fff8
000e
0000
ffeb
fff7
000b
0016
0021
ffe2
fff4
ffe7
ffef
ffdf
000d
ffef
000f
fffe
ffe4
ffeb
000a
0010
ffff
0000
0000
fffc
fff3
0004
ffce
ffef
0010
fffb
ffdd
ffef
000b
fff5
0000
001c
0007
fff4
fff3
0012
000b
ffff
ffea
ffec
fff0
001a
0021
ffec
ffef
ffff
fffc
0008
0011
fffc
001b
fffa
fffd
001c
0009
001c
ffef
0002
ffe9
0027
001e
fff3
fffc
fffa
fff0
0007
0016
fff2
fffa
000f
0001
fffb
0001
0016
0013
ffe9
0009
fff7
0003
fffc
000e
fff6
fffb
fff8
0009
ffef
0002
ffef
fffb
000d
fff9
ffed
fff4
fff2
000d
0005
fff9
0001
0010
ffee
0003
fffe
fff2
0018
fff0
fffb
0000
0008
0007
ffee
fff3
0002
0001
fff6
0009
fffd
0001
0005
fff4
0005
0002
0004
fffc
0016
000d
fffa
fffc
0007
fffa
0008
fffa
0002
fffd
001c
fff1
000a
0007
000e
000e
0011
0006
0004
0004
fffc
000a
0002
0008
fffb
fffa
fff9
fffc
0006
fff0
fff1
fffb
ffe9
fff4
fff3
0002
0014
fffe
000b
000a
0003
0008
0010
000f
0008
ffee
0004
000d
fff2
fffc
fffb
fff5
000c
fff9
0007
0000
fff5
fffd
0000
000b
0011
ffff
fffe
fff6
ffec
0000
0005
fff9
0002
0003
0002
0012
ffed
0002
fff5
000b
0004
0009
0007
fffa
0007
fffd
fffc
000b
0008
0009
0004
0003
0003
fff8
fffd
0000
0009
0013
0012
0004
0000
000b
fffd
fff7
fffd
fff7
0007
0005
ffea
0011
0025
fffe
0020
fff1
0000
0011
fff7
fff1
fff2
fff3
ffea
0001
0003
fffd
0007
000c
fff9
ffe9
fff9
fffd
ffed
0010
fff1
0009
fff2
0001
ffea
fffe
0016
fff1
0009
fffc
fffe
0001
fffc
0012
fffc
0007
ffec
ffd1
0004
fff6
fff2
0008
ffec
fff0
ffdd
fffe
ffcb
000a
ffea
fff6
fff8
fffc
ffef
ffee
ffff
000c
ffea
fffa
000e
fff8
0010
fff3
fff2
ffe6
fff8
0013
fffe
0006
fffc
0007
ffec
ffe8
fff6
0000
ffed
0009
0006
fffa
000b
fff8
0015
000f
0006
0012
000a
fff9
0005
0006
fffc
000a
fffc
0014
0004
fff6
0001
0016
fffa
0009
fffa
ffee
000b
ffe2
fffc
fffb
0010
fff7
fffc
fff3
fff6
0007
fff6
fff1
0019
fff7
0001
000b
0006
fff4
ffee
fffd
001a
0006
0007
0000
000b
001a
fff4
fffe
0000
0009
ffe0
ffeb
ffdf
0014
0002
fff5
0000
0002
fffa
0008
fff9
0002
fffe
0029
0011
fff7
fffe
fffa
fff7
fffe
0000
fffe
000e
ffe9
0017
ffff
fff7
0005
ffe0
ffea
ffff
0012
0004
fffe
fff2
0013
001a
0007
fff6
001b
000d
0006
fff2
fffe
fffc
0002
fffb
0003
fffb
0008
000e
fffc
fff6
fff6
fffa
000c
0002
fff9
0003
fffa
001b
fff9
0002
0000
fffc
0011
ffff
0000
fff3
fff7
fff7
ffee
0004
ffec
000a
0009
fff0
ffff
fffc
000a
0003
fff8
ffed
fff3
ffff
fff9
fffa
fff9
ffeb
fff0
0004
fff6
0008
001c
ffe3
0004
0007
0019
0005
0007
fffa
0002
000a
fffe
0011
fffc
fffb
0009
0019
000f
0006
0010
fff7
fffd
fff6
0007
000f
0000
000e
ffff
fff7
fff5
fff7
ffe4
000d
0012
0004
0016
0018
fff3
fff8
000a
fffe
fffe
ffec
0001
fff9
fff8
0010
0013
001a
0019
0016
fff1
ffdb
0018
fff5
000c
ffee
0007
fff5
fffd
fff2
0004
ffef
fff4
0016
fffb
0016
0004
000c
0002
001e
0010
ffeb
fff8
ffed
ffef
0011
0009
0004
fff5
fff0
0010
fffc
fff7
000d
0012
ffeb
fff3
0011
fffc
fff2
0009
0011
0005
fff4
fffa
0009
0005
0005
000b
0006
000a
fff2
000b
0006
000b
0000
0011
fff5
fffc
fff3
0000
0015
fffe
0006
0007
fff2
000a
001b
fff3
fffa
fff3
0005
fffe
0000
fff7
0000
fffc
000d
0018
0007
fff9
fff1
fffd
000a
0009
0000
ffef
ffea
ffff
ffed
fff0
0012
fff4
fffb
000a
ffe4
fff8
ffed
0009
0006
fff9
fffd
fff7
0005
0003
000d
fffb
001a
ffef
0008
ffeb
0008
0013
fffb
fffe
0001
fffe
000f
000c
000c
fff0
000f
0007
ffed
000e
0006
0007
fff2
fff7
0000
0000
fff7
000a
fff0
0005
ffff
ffff
0007
fffd
fff6
0002
ffe4
fff9
0013
0003
fff6
0004
fff1
0002
ffe1
ffde
0019
ffec
000d
0001
fff9
ffe9
fff3
000e
0009
000e
0018
ffda
fff2
0023
fff9
fffd
000e
fff9
0017
fff4
ffee
0006
ffda
fff6
fff6
0001
ffe7
ffea
ffe5
ffe7
ffef
fff3
000f
fffe
fffc
0013
0013
ffe8
fffc
fffa
fff9
fff4
0010
fffb
000c
fffd
ffe0
0006
fff9
fff7
fff4
ffe5
000b
0021
000e
0016
fff5
fffb
0006
0015
0001
fff1
0003
fffd
fffd
ffe0
000f
0006
ffd5
0009
ffeb
fff5
0019
fff9
fff0
ffec
0004
fffa
fff9
000b
000e
fffa
fff1
0008
fffe
000d
0014
0012
fffb
fff4
0023
0007
000b
000e
fffc
0001
ffef
0003
ffea
ffed
0010
001b
ffe5
0002
0003
0005
0010
0002
0015
ffeb
ffdf
fff9
0002
001b
000e
fff9
0011
fff3
fffe
000c
fffa
0006
0013
0009
0028
0021
ffe3
fffb
ffef
ffed
0007
0018
fff4
ffe8
0006
fff0
0008
fffc
000e
ffe6
fff9
0000
ffea
fffa
0000
0011
0009
ffff
0001
ffe4
0000
0007
ffe9
0022
0008
0005
000f
0008
000b
0008
000e
0014
0016
0001
000d
0015
fffc
0001
fffb
fffb
0003
000c
ffe5
ffdc
ffdf
fff7
0007
fff2
0005
fff9
ffeb
0001
ffea
fffe
0011
0017
0006
fff4
000d
fffc
fff2
fff0
ffca
ffe8
fff7
fff9
ffef
fffe
fff9
ffed
0016
0002
0006
fff6
ffe8
ffee
fff1
000c
fffe
000d
0028
0015
ffca
000a
fffc
000b
0003
0000
0001
ffdc
000c
ffe2
fff4
0025
0001
0001
fff7
ffd9
ffed
001d
0018
ffe1
000d
ffed
0017
ffed
0002
000f
ffe4
fffa
fffc
fff2
fff1
fff0
0005
fff3
000b
0000
0017
ffdd
fff7
0011
fff6
ffe8
0009
fffd
ffeb
ffef
000e
0007
001f
ffdf
0013
ffeb
000a
fff4
ffe1
ffd8
0015
fff7
0008
0010
fff0
0008
0017
0000
ffeb
000d
0026
ffed
ffe6
0003
000e
0010
0009
000f
ffeb
000e
fff3
fff7
000c
0002
000e
ffee
fff3
fffa
000f
fffc
fff8
fffe
0005
000f
0001
ffff
fffd
fffb
001c
fff9
0009
0002
0000
ffea
ffef
0010
0003
0011
ffee
fffa
0013
fff6
0008
fff2
000e
ffec
fff3
0000
fffd
0004
000e
fff5
000f
0003
000c
ffff
fff9
fffc
0015
fffd
0017
0003
fff9
0004
0023
fff1
0004
0008
0005
000d
000e
fff1
fffc
0018
0003
fffa
000e
ffe8
fff0
0009
fff2
0006
fff4
0004
0003
0008
fff6
fff9
fff4
000a
ffef
fff1
fff6
0019
000b
fff5
fff4
0019
fff3
fff6
fffe
ffef
fff1
fffa
fff3
0000
ffeb
0013
ffef
ffea
fffd
fffb
0000
fff7
0007
fff5
fffb
000c
000e
0012
000a
fffc
fffa
000c
0005
0001
0005
0000
0001
000d
0005
ffff
0001
fff2
fffd
ffeb
000b
0000
fffb
fff8
0008
fff3
0005
fffc
ffee
0009
fff9
fff5
fff4
0006
0003
000b
fff3
0007
fffb
000f
0007
0007
0002
0003
0007
000c
0015
fffa
fffc
fff5
fff9
000a
000c
fffc
000f
0005
0003
0007
0017
0009
0002
0007
fffd
ffff
fffb
0004
0003
0002
0003
0008
0016
0011
fffe
fffd
000f
fff8
000e
0006
fffb
fff7
fff9
fffd
fff9
fffb
0011
fffb
0010
0012
000f
0001
0005
0000
fff2
000a
fff2
fff7
fffb
fffe
0008
ffe3
000a
0005
ffe8
0008
0001
000b
0007
fffb
fffb
fff6
fffe
0007
000a
fffd
fff4
fffb
000e
fffd
0001
fff9
0002
0008
0000
fffb
fff0
0008
0023
fffd
fffd
0008
fff4
0006
0007
fff3
fffe
fff7
0003
0008
fff3
ffec
0004
ffff
ffff
0011
0002
fffc
fff8
0009
0010
0005
0005
fff7
0009
fff4
fffe
0009
0013
fffe
fff2
0010
0000
0010
fff3
fff1
0011
fff4
0002
000f
fff9
fffa
fff9
0008
0007
fffc
000b
fff8
fffe
0007
0027
0015
000d
fffb
fff6
ffff
fffc
ffea
fff9
fff3
fffb
0024
fffd
ffec
fff9
000a
ffea
0000
fff8
ffe1
0014
0021
000e
fff6
0002
fff7
0008
fff3
0010
ffee
0005
fff4
0006
0017
fffd
fff5
fff6
fffa
fffd
001f
fff1
ffe8
fff2
fff5
0006
ffde
0006
0008
fff8
ffe9
ffe8
000e
fff9
0017
fff7
fff4
fff8
fffb
000b
0016
0003
ffe9
000e
fff9
0006
fff1
fffe
0017
0014
fff0
fffc
fff7
fff9
000f
ffeb
fff4
ffe4
fff4
fff6
ffe0
fff0
fffa
fff9
0003
fff5
000d
fffe
fffe
fffe
ffeb
fff8
000d
0000
0011
0012
ffe6
0004
0011
ffeb
0009
ffee
fff2
fff2
fff0
0030
0002
0012
0000
0002
fffb
000f
ffea
000b
fff5
fffe
0007
000d
0007
ffef
0004
fff6
0010
fffd
fffa
ffe1
0015
000c
0009
000f
0001
0005
0011
000f
ffef
fff8
ffff
0016
0006
0016
000d
ffff
0012
000d
fffb
001c
000a
ffdf
fff2
ffd4
ffe6
ffee
000d
0012
000a
0004
0018
ffef
fffd
ffec
000b
ffe4
000d
fff3
fff3
fffe
001f
fff6
0015
fff9
000e
ffea
fffe
000f
fff5
0018
ffec
000b
ffea
fff4
0015
fff8
ffd4
0020
000e
0018
0023
ffeb
0007
0014
fff4
ffec
ffee
fff6
001a
0010
fff9
0015
0005
0016
0010
ffee
0004
0002
ffed
0008
0010
fffc
fffa
0010
fffd
ffeb
0004
002f
0002
ffea
ffff
fff8
0033
0007
000d
001b
000c
ffec
fff3
0004
fff3
fffc
0009
ffea
fff8
ffdf
000e
fff8
fff5
002b
0006
fffd
fff9
ffe8
000e
ffec
fff1
ffff
000d
0011
000f
0012
0011
ffe7
000b
fff4
0010
0011
ffed
0001
0003
ffd7
ffe7
0003
fff4
000a
ffef
ffe0
0011
0004
ffef
001c
0002
001b
000f
001e
0012
fffd
0008
fff6
fff5
fff0
fff6
fff6
000e
0006
ffe8
000c
000b
fff0
fff6
ffda
0002
ffe2
0015
0001
fff6
0005
000a
ffe2
ffe2
ffe4
0023
0034
fff0
fff7
fff8
fff1
000a
0004
ffee
0012
0035
000a
000b
ffe5
ffe8
0014
0012
001a
0003
ffe5
ffff
ffff
0019
fff9
0015
000e
0002
0005
ffee
ffe6
0013
0003
ffe3
000e
fffc
0008
fff8
0005
001d
0005
ffdc
001f
ffe1
0000
000d
ffea
000b
ffe9
0013
ffd3
fffb
fffb
0003
0006
fffc
0008
0018
0007
0023
ffe1
0013
fff1
000a
000c
fff2
0015
fff7
0019
0004
ffec
0010
0015
ffda
fff4
ffdb
0015
000e
ffe8
ffee
fff6
001a
002e
0014
fffb
0003
fffd
fffd
ffe8
fff2
000e
0018
0018
0000
ffff
000e
0017
0000
0019
fff7
0008
ffe8
ffe5
0012
fff2
fffb
0000
000a
000d
0019
ffea
fff0
001d
fffc
0016
fffb
001d
fff2
000a
001b
fff6
fff2
000f
0005
fff0
fff8
001e
ffe3
ffef
001d
0022
0011
0005
0013
0004
000a
0004
ffec
0002
000c
0028
fff8
000b
ffe2
0009
fff1
fff9
ffea
0011
000c
000b
fff8
0006
fffb
0015
0005
0015
0016
ffe2
fff4
fffd
001a
fff5
000d
fffa
fffb
001f
ffec
ffff
0014
ffea
0009
fff0
0016
0002
0016
ffec
0023
0021
0004
fffc
0000
ffdb
0012
0005
0006
000a
ffee
fff3
0029
fffd
0007
ffe8
fff5
0002
fffe
000a
ffff
0003
000b
fff4
0005
001c
ffec
0024
0000
ffff
ffec
fffc
fff4
0012
0013
0021
000e
fffb
fff1
0001
0008
fff2
ffe9
000f
0016
fffa
0004
0005
0019
ffdf
0007
001b
0021
0005
ffe0
ffd9
000a
0015
0000
000e
fffe
fffa
fff9
fff7
ffec
ffe6
0013
ffe8
fff9
fff4
fff2
ffef
0007
fff1
ffe8
fffc
0009
0007
000c
fff7
0013
0008
0007
ffe8
0001
ffff
ffff
0021
0018
fff0
ffd5
0020
0009
ffe6
0007
ffeb
0020
ffed
fff6
fff8
fff2
000f
ffe4
ffe9
ffe5
0020
ffe9
ffec
0008
ffee
fffe
fff6
ffea
000f
0023
0000
0001
ffea
ffe8
0000
0008
0007
000a
0017
fff1
001c
ffe4
ffe9
ffee
000e
fff6
0018
0020
fff0
0013
000f
ffed
fff8
ffeb
000a
fffa
fffc
0005
fff8
fff8
ffec
0009
0005
0009
fff7
ffef
fff6
0006
0011
ffe9
000a
ffda
fffb
fffc
0018
000d
fff2
ffee
fff1
000a
ffec
fff9
0006
fffa
0019
fff2
000b
0002
fffc
0010
0004
fff5
fff3
fff6
ffd6
0000
ffef
fffe
0007
0007
fffe
000a
0005
ffff
fffd
fff2
fffa
0007
000c
000b
ffdf
ffec
0011
0019
fff9
ffff
fff8
fff8
fffe
0012
0002
0016
001a
0009
0024
0007
0014
000e
0011
ffed
fffa
fff2
0009
0014
0007
fffe
fff1
ffed
fffc
fff3
0006
000d
0002
0011
000f
000a
ffee
fffc
0007
fff4
ffed
0017
0011
ffe6
000a
0002
fff9
0005
0020
fff3
ffda
000b
fffb
