02c9
fe13
0069
ff53
0131
fe1c
0214
ff41
0296
fe6a
fd47
0287
fc9e
00eb
fe23
fde7
010b
02eb
fd31
feb0
0025
febe
0333
0361
fe82
0200
023a
04fe
05ba
feb4
f822
0317
055d
049e
f815
fdb7
0885
f664
06b1
f94a
04bf
058e
f9c5
facc
f98c
03e7
fa1b
f5f7
03bd
0d11
fef7
0023
07f2
f627
fbe3
0593
05b5
f955
fdd3
ff54
fd7d
098a
fb0e
0482
051b
0403
fc0c
fadb
fc25
fbcb
07b2
f797
0072
fdcd
06fd
f820
f6b3
07c5
0aa4
07de
f6de
0063
ff82
0132
ff98
017f
015f
010e
0018
0048
fffe
0015
00b7
00c0
002d
0011
00d0
ff20
ff01
00cb
fe73
fe93
00c3
ff3b
00fb
fffd
ff55
009d
fd64
ffcc
f8c1
fc78
050f
0708
011f
04b5
fad0
052c
0313
03de
fbb9
fb2a
fcf5
facb
06f2
fc78
fc01
0840
ff63
feb6
f995
fb7c
0608
0736
f94d
fad9
0db9
f6ea
0467
fe2a
f777
0264
02fc
ff9f
fac6
0d14
fcce
f6c7
0519
005a
fb2c
0a78
0110
f535
0a30
fb1b
fd26
f428
041b
0bb2
f793
0880
fb2b
00f5
ffaf
fd92
feb8
ffbc
0153
0415
0300
0206
fbd2
fc92
ff0b
01c3
ff71
0335
0356
fe19
fd05
fcf1
fe94
fd4a
043b
fe72
01bd
01d4
0433
00d3
02c9
03bb
ff77
017b
fdc7
fec8
fd50
fe14
00cb
0575
020c
0427
00f0
fd33
fa90
fb9f
fc09
04d6
0074
fddc
ff62
fb8f
02e2
0126
01a2
ff15
fff7
fd15
0065
fec5
0333
0298
000b
0404
01c8
fe28
02a9
ff04
fd24
03b2
0375
015c
fcf8
fc17
0242
ff19
feff
02d9
fce8
fe9c
fb65
fb71
023a
ff23
0070
ff29
0088
ff86
ffd0
fec6
fdcb
fd90
0016
ff90
ffd6
01f6
0181
fee8
fecc
ffe6
00a5
fe28
ff22
0051
00d7
00d3
00af
0169
0070
00a1
036d
fe1b
fe14
01f1
ff66
0304
fd28
fe90
0142
ffaa
fca5
0218
ffec
0344
ff67
012b
039a
0358
fcf3
fbc9
fd00
01b2
fd86
0265
fd16
fdf2
0101
0105
fef9
0086
ff6f
ff7b
ff8f
ff66
ff89
001a
feb8
ffea
0125
fee9
ff8a
0126
003e
ff86
ffd1
ffdc
ff51
ffa4
ff6f
00b1
0037
ff3d
ff0a
00ad
01a1
fd39
00e6
02b7
022a
0096
fee2
0225
fdae
feaf
007e
02f6
0293
fea0
fc8e
fe5c
0146
0053
fdaa
fe09
02df
0301
fcde
0019
00d2
ff69
01d6
fe53
fe8b
0754
fef4
fd1a
fd53
0320
0300
f7eb
fced
051f
03f7
00dd
05f2
01a6
06a5
fb0c
0437
00e5
f8cc
fd63
fcaf
0579
f843
02c9
05a3
f817
fff2
0375
fd52
ff8c
fcb7
fce4
fcb1
00d5
fd70
037f
0085
fe1e
0172
ff37
0407
0252
021e
0252
028b
01d7
ffdd
fd21
015d
fdbb
0097
02d5
fbcf
0063
00cd
003a
0111
00f7
0147
00ea
00f8
00d8
ff90
ff76
006d
006b
00a9
fe8e
ff06
fe82
fe98
016b
ff93
0015
feb2
0135
fe57
0116
003c
00cf
f8c9
02e9
f871
f565
fcd9
036e
0765
06fc
ff49
0b1d
07e9
fdf2
fbb0
034d
0847
feea
fb85
fa75
fed5
f8a0
fb02
f977
086b
fdc4
0593
fbe0
048b
ffe1
01e3
02cb
024c
fed7
0085
fe3d
ffef
026f
003e
0043
ff3c
fdf8
03cc
fcec
010f
fdfa
fee9
fe8e
fe82
ff65
001a
0359
fcd7
026f
fcf9
fd1b
fee8
ff3b
0075
013e
0097
fff1
ff2a
0084
00b1
00e1
ff38
feaf
012d
ffaa
ffc4
00ec
0134
018a
ffb2
0045
ff96
00a9
0010
006e
0002
0091
ffd4
02ec
0456
fe5d
043e
0089
fe4a
fd9f
011a
027a
fb8b
fc1e
fcab
fcd9
0453
ff91
0390
fc60
fd77
fcc2
0368
fe5e
fdb8
0311
0378
fc2c
fe5b
0277
0175
01e6
ff33
fe8a
ffda
fdc1
fdb2
003d
ffa0
fe47
ff6d
ff2e
fe9d
01a4
025e
0054
0115
01c3
0080
00de
ff38
0171
0059
01a9
fff7
00df
00cc
fe00
ff22
00aa
fd78
ff96
0200
ff67
02e4
fd67
ff17
02a7
fdd3
fed4
024f
0138
fe51
fccd
fed8
03a6
01c8
02e5
ff3b
feea
0287
0262
fca9
fc08
050c
00df
0585
fb7d
faf9
fe55
0134
009c
ffa2
fe09
feda
fbf3
ffdb
fc25
fd47
02f6
fcc9
fdae
fdce
027f
01f5
024c
fe70
018b
041f
0081
024c
ffec
ff39
ffbb
ffe5
0079
0064
ffcc
00b8
ffbf
ff3c
0053
ffdf
0078
ff30
ffcf
0000
ff97
fffc
0052
ff86
ffcc
ff1e
ff67
ff70
ff98
ff80
ffa7
feae
01be
fc42
033a
0092
fd16
059a
008d
ff12
fcd8
fe84
ffa7
ffeb
0249
fbbf
02d5
fd77
fcf9
0504
fd4b
fe0c
0157
002f
023f
046d
0396
f9be
fd61
fdb2
fe51
fd4c
fd5d
0170
fcca
0451
0282
ffb3
01e6
002e
fe5f
fcb7
fff7
ff7a
fe0e
04f0
004b
fd7e
00a8
034e
0364
03a8
ff7a
01e0
fc55
ffbc
ffa2
0026
ffac
ff58
ff82
ff72
ff55
0015
0000
0027
ff97
0026
ff5a
ffce
ffdc
ffc7
ffcc
0063
ff9a
00ab
0090
ffb8
ff8c
000f
ff6e
ff92
0281
03ec
fb39
005d
fb89
ffd8
03f8
ff32
fa5d
07d9
fde9
fa7f
ff20
fb84
008c
fa7c
0202
0276
ffd4
ff6f
04f3
f99e
0451
0341
0287
0022
015d
fa96
f4cd
02d0
ff1d
0a67
fa35
02c7
0378
03c6
070b
06da
0164
f528
f606
0344
fe08
08f4
fedd
02df
f9d4
ffaa
f77f
0765
0a53
f90c
06bb
f44c
0320
0171
007b
faa2
fcf1
fb19
ff49
00c1
03a8
fbf2
fc79
00a6
0264
01ba
010f
016d
ff0f
fb3b
0318
ff15
003b
fd31
047b
0185
03e3
0091
022a
043f
fce4
fec7
ff6f
ff8d
00e6
fd67
05aa
fc05
04f7
fdb6
fa38
0354
fe51
0482
ff78
04e7
f8cd
04c1
0065
f9ff
04c4
ff63
048e
f933
0534
fcf7
f6b8
069c
ff45
059f
019b
fce0
0179
0120
0590
03c9
0273
0009
f73f
041f
f8b2
04a2
f6cb
fbb8
0296
0516
fe87
fee3
0272
fd15
067a
f7be
05f7
