fff2
ffec
fffa
0006
ffec
fff4
fffb
fffe
000f
fff9
fff6
fffa
001a
0003
fff1
fff5
fffc
fff6
0008
ffe9
0000
ffff
ffeb
fff2
ffee
ffec
ffff
0007
000f
0006
0008
fff6
000f
fff8
fff5
0005
fffb
fffd
fff3
000a
0000
ffe4
000d
0009
0007
000d
000e
0003
fff5
0006
0006
0003
fff5
fff9
0008
0002
0002
fff8
fff3
ffdc
fffe
fff0
ffff
fffc
fff6
0004
0022
0018
fffc
001c
0022
0013
fff8
0003
0005
0009
fff9
000d
001f
0010
fffd
000d
000c
fffa
ffff
0006
000d
0003
0000
0002
ffee
fff0
fffd
fff1
0000
0009
0002
0010
000f
fffd
0002
fffe
ffe6
000d
0001
fffb
fff5
0003
000b
fffb
0002
0006
000c
0001
000d
0004
0001
fff3
0007
0009
000b
fffb
fff8
001f
000c
0013
fffb
ffed
fff7
fffa
fff8
ffe2
ffec
0001
ffec
0011
fffe
ffed
ffea
fffb
fff7
ffff
ffff
fffe
0002
000d
0007
0014
0006
000a
0003
000d
0003
0004
fff8
0012
0006
001e
0008
fff6
0003
0004
fffd
000a
0008
0012
000d
fff7
fffa
ffec
fff6
001e
0005
0017
fff0
0008
000a
0005
fffd
fff8
fff9
fff0
fffa
0000
fff5
0003
fffc
ffec
fffb
fff9
fffc
0019
0018
ffff
000f
0005
fff6
fff2
fff1
fff7
fffc
fff4
fff1
0002
fff3
000c
fffa
fff8
fffb
fff1
0004
fffe
000e
fff3
fffb
0010
fff9
ffd9
ffff
ffeb
ffe4
fff4
ffe8
0007
0001
000d
0006
fff5
0016
0017
0003
0008
0011
fff0
ffef
0010
0004
0008
0006
0019
000e
fffd
0001
000d
0001
0007
fffa
000c
0001
0001
ffea
0003
ffe9
0005
fff3
0005
fffc
0008
fffe
0009
0014
0013
000a
fffb
0010
0007
0011
fff7
0006
fffe
fff5
fff9
0008
0011
ffe9
0000
001e
0014
0008
0000
0005
fffb
0020
0021
ffff
0007
0004
fff8
fffc
0001
ffe5
fff3
0007
ffff
0014
0009
0001
0019
000b
0013
fffd
fffc
000b
ffdf
ffdd
ffe2
0016
001f
0016
fff3
0011
fff7
0008
fffa
000d
fff8
fff4
ffff
0009
fff9
fff2
ffef
fffc
ffe9
ffe7
ffec
fff6
fff2
ffde
ffe7
0009
0004
0009
fff0
fffb
0002
0008
ffe6
fffa
0017
0005
0001
0006
fffb
0003
0004
ffe3
fffa
fff3
ffef
fffa
ffff
0000
ffee
0007
0005
0008
fffc
fffd
0006
0003
0001
fffa
0006
0011
fffa
0013
0003
0001
ffe9
ffee
fffb
fff8
0000
000d
fffb
fff8
fff6
fffe
000f
fff3
fffb
fff9
fff3
0014
0013
0014
000c
fffc
fffb
0014
000d
0013
fffb
fffc
000b
ffef
0003
000a
fff7
0000
0008
000e
fff9
000b
000e
fffd
ffee
001e
fff6
000a
001a
0006
fff9
0003
0010
fffd
0014
0014
0006
000c
ffea
ffe6
ffec
ffe6
0006
000b
fff3
0014
000a
0003
0004
ffff
fff1
0001
0015
fff5
fffd
fff6
ffec
0001
0013
0007
000f
0000
fff9
fff9
000a
fffe
0005
fff6
fffc
ffe2
0007
0003
0010
ffee
0004
fffc
fff3
0005
0002
fffa
fffa
ffeb
0007
000e
0007
fff4
0000
0000
fff3
fffd
ffea
000a
000f
fff9
000c
0009
0003
fff1
fffa
fff6
fff3
0009
ffe9
000e
0019
fffc
fffe
fff1
0006
0003
0003
fff5
fff5
0006
000a
000b
fff1
0004
fff7
ffe8
0002
fff1
ffe7
ffdd
ffff
0005
fffd
0022
000c
001c
fff1
0001
ffeb
0007
001b
0014
0005
fffd
fff6
fffa
000e
000f
fffd
ffea
0016
fff9
ffed
000a
0009
000a
0019
fff4
0015
0001
0007
0012
0006
fff6
ffe5
ffff
fffb
fffb
001c
000d
fff4
0002
fff4
fffd
ffff
0005
ffec
fffc
fff0
0005
fffc
0009
000f
fffd
fffd
0016
000d
0009
0012
fff3
fffd
0012
000e
000e
0005
000f
ffff
0001
0007
ffff
fffd
0007
fff8
0006
fff8
ffe0
fff0
fff6
ffea
ffc5
ffe4
0008
0026
0008
fff7
0005
fff5
ffec
fff0
fff7
0011
000b
002c
0005
ffe4
fff5
000f
0019
ffe9
0021
ffe4
ffe8
0018
fffc
0005
ffeb
0016
001a
000d
0014
fff5
ffd0
fff3
ffe6
ffe5
ffff
0002
fffc
0002
fffa
ffff
ffe3
ffe9
ffe3
ffee
0013
0004
0004
0015
fffe
fff2
0009
fffe
fffb
000e
001c
ffde
ffd6
000d
ffef
ffdf
ffe8
fff2
0011
ffd6
fff7
001b
ffeb
fff5
0017
0027
fff6
ffe3
ffec
0008
fff5
000c
000b
fff9
fffc
0009
ffd2
fff3
0002
0008
fff4
fff6
ffd5
ffed
ffee
0001
fff0
0000
001b
0020
0022
0029
fff5
0006
0009
0004
fff4
0013
000b
ffe9
001e
fff8
0016
0032
0009
0012
fff4
ffeb
ffe8
0006
ffed
001d
fff1
0012
fff2
fff9
000c
fffd
001b
001f
ffea
ffe8
0012
0018
fff8
fffc
0007
0022
0004
0003
0019
0006
0003
fff9
ffe1
ffe5
ffde
0015
001a
ffeb
fffe
fff6
fffb
0031
001d
fff9
0004
ffff
0017
fff4
001e
000d
0023
ffe8
0011
ffe6
ffec
000d
000d
000e
0001
fffe
ffe4
fffa
ffed
ffe4
ffdd
0032
0015
0010
fffb
fffb
fff5
001f
0016
0005
ffe7
fff4
fffa
fff0
fff8
0007
fff0
fff8
0010
000d
ffe9
ffee
fff5
fff5
000a
ffdc
001f
ffee
ffe7
fff7
fff8
fffe
ffe8
0023
000c
ffee
001a
fff1
0009
ffdc
0015
0008
0014
0012
0016
ffed
000f
0001
fffb
001b
fffe
fff0
000a
ffed
000c
fff9
000e
0001
fff4
0007
000b
ffef
ffdd
ffff
000e
0001
0023
0010
0011
fffa
ffdf
ffe3
ffd3
002d
000d
0017
000e
ffee
ffea
0004
0016
0025
002b
001b
0016
ffd5
ffd8
fff1
000b
001f
0005
ffff
ffe6
0002
ffea
000a
0010
0003
fffb
0008
fff7
0004
fffe
fffa
fff5
ffeb
0010
ffeb
ffe8
0008
0025
0015
0012
002d
fff8
fff1
fffc
fffb
fff8
ffff
000c
ffc2
0002
ffed
0024
0029
0014
0000
0021
000d
0003
0024
0002
ffcd
0000
fffb
ffe6
ffeb
fff4
fff1
0014
0020
ffe6
0006
ffea
ffee
ffe5
ffe2
fffc
ffe4
000d
000a
0012
000b
0008
0007
0017
0007
0020
ffff
fffb
0001
ffef
fff9
ffe6
ffca
ffd6
fff0
ffff
0017
0033
fff4
fff5
0002
fff8
ffdf
fff6
0008
001c
000e
0000
ffcd
fff4
fffc
0021
0021
000e
fffe
001c
fff5
0009
fff1
fff7
ffe2
0011
fffd
0007
0011
ffdc
0013
ffec
0022
fff5
0000
ffff
000e
fffb
ffe6
fffe
ffff
fff6
fff3
fff2
ffe2
0003
0005
ffed
ffdd
0008
0019
0018
0018
0011
000a
fff4
0017
ffef
0013
fff5
000a
ffe2
fff2
0022
fffb
001e
0014
fff7
ffe7
fff6
ffef
ffef
fff2
0013
fff6
fff9
0015
fff2
ffed
0017
ffe1
0025
0007
0008
0003
001c
fff8
ffce
ffdf
fffc
ffe8
ffef
0004
ffef
000d
0005
0020
001b
0006
0027
fffb
0010
fff5
001a
0012
000f
0026
ffef
002a
001f
0012
001d
fff8
001b
fffb
ffe2
0005
fff3
ffe3
0001
fff7
0022
000f
ffec
ffea
0007
0017
ffdf
ffd7
fff2
fff0
fff5
fff4
0022
001d
001d
fff6
000f
0006
0002
0007
ffdb
0004
000a
ffe1
fff5
000e
ffe8
0011
001c
0001
ffff
fffb
0023
fffb
fff6
fff7
ffe1
ffff
ffea
ffea
fff5
000c
0016
001a
ffe5
0003
fff1
fff3
000d
0012
0017
ffee
0008
0006
000e
0019
fff8
000e
fff2
0001
0017
0018
ffe7
000a
ffe3
fff5
ffed
fffa
ffdf
fff2
fffa
fff2
0009
fff0
0017
0024
0032
0014
fffe
fffb
0015
ffee
fff1
ffe9
0013
0007
000b
0011
fff1
ffe9
fff3
fff9
0015
ffec
0020
000a
fffd
fffd
fffb
ffeb
ffc8
002f
0023
0046
fffc
000e
0008
fffe
fff9
fff4
fffc
fff3
0002
0014
fffa
fff0
0006
fff8
fff2
0003
fffe
fffb
fffa
0012
0000
fff5
0003
0008
0007
000b
000b
fff4
fffa
ffff
0002
fff6
0002
0002
0002
0001
000f
ffee
ffe1
ffea
0001
ffff
0008
000c
0014
0011
000b
0008
0004
fffc
0002
001a
0021
0021
0005
0005
fff5
0012
000a
0001
fff9
fff1
ffec
0012
001d
000f
fff4
0001
000f
0000
0005
fff3
0004
fffd
0003
000e
fff7
0007
0001
fffc
0004
0003
fff5
ffea
0002
0007
0007
0001
ffef
0006
0001
000f
0004
0000
fff0
0002
fffe
0013
000b
fff6
0001
fff5
fff1
fff1
0003
0006
fffc
ffe7
fffb
fff7
0002
fffe
fff3
ffe8
0007
0001
ffed
0007
0005
0009
fff3
fff0
ffed
fffb
ffff
0005
fffa
fffa
0008
000a
fff7
fffe
fff3
0008
fffd
0007
fff8
fff7
fffd
0006
0006
ffe1
fff6
ffeb
fffb
fff8
fffb
000e
fff4
000b
ffff
fff3
fff5
ffe5
fff6
fff6
fff7
ffef
ffef
000e
0008
ffef
0012
0000
000e
fff9
0009
fffa
ffec
0007
0006
0001
fff3
0002
0013
fff8
0007
fff3
fff1
fff8
000a
ffef
0010
0008
0009
0003
0011
fff8
0014
0000
0015
0004
fffb
fffc
000c
fff8
fff9
fff8
ffe5
fff0
0004
0006
fffc
000f
fff9
000c
ffff
fffe
0014
fffe
fff3
000f
0000
0000
ffea
0006
0000
fff6
fff2
0012
001a
0010
000f
000f
fff7
0002
fffb
000d
fff8
fffd
0001
0009
fff2
fffb
fff4
0005
000b
fffa
fffc
ffff
ffe8
fff2
fff5
0016
000f
0018
0017
0001
0011
0015
fff4
0007
fff6
0018
0007
000a
fffd
fff0
0001
ffe8
ffff
fffd
fff2
0002
0000
fff3
fff3
0002
0008
fff3
0009
fffe
fffa
000f
0019
001d
fffa
ffff
0012
0015
0026
0005
0002
fffa
fff3
0006
0016
001a
0004
ffec
ffea
0007
ffff
0004
fffa
ffe6
fff2
fff7
000b
fff8
0003
fff1
0008
0013
fff3
fff6
0014
0018
fff9
ffef
0005
fff1
000d
ffeb
fff4
0007
fff6
fffc
fff8
fffe
fffa
0004
fffc
0003
000a
ffe9
ffed
0010
ffeb
fff1
ffff
000a
000f
fff4
fffe
fff3
0000
0002
fff8
0000
fff8
0012
fff3
000b
000f
0012
fff9
fffc
fff3
0004
0006
fffa
0002
001f
ffe7
0002
0009
fff1
fff6
fffa
fff7
0005
fff5
0009
0013
0006
ffff
0008
ffea
fff8
fff4
fff5
fff3
0013
000e
fff0
fff9
fffa
0006
0006
000d
000d
0007
001a
ffec
fffa
000f
0012
0006
ffff
fff1
000c
000b
000c
fff6
0001
0000
0010
0004
fff8
0013
0013
fffc
fffa
0011
000f
0015
0003
000b
ffff
0008
0006
0011
0008
0008
0003
fffd
0011
001b
000f
0004
0011
fffc
fffe
0000
0000
0004
0005
000a
fff9
0007
fff5
fffd
ffef
0005
fff9
ffea
0003
0007
0011
0009
0008
0012
0002
000f
0007
0003
000a
000e
fffb
000e
fff1
fffb
0014
fffd
fff5
fffb
000a
fffd
fff1
fff9
ffff
0001
fffc
0011
001b
0002
0017
fff8
0000
ffec
0001
fffc
fff8
0007
ffea
fffb
fff9
fff9
0007
0013
fffb
fffd
fffb
fff2
fffd
ffea
ffee
fffd
0000
fff7
fff6
fff0
fff1
fff0
fff8
fff8
fffb
fff4
fff5
fff9
ffff
000f
0005
fffe
000a
000a
0011
0004
fff5
0009
fffa
0004
0005
fffb
fff2
fffc
000d
0005
fff3
ffe7
ffea
fff6
ffe7
fff9
fff7
000a
ffe1
fffb
000d
fffc
fff7
000d
fffa
ffee
0002
fff6
fff5
ffff
0000
fffa
fff3
0010
fff8
fffe
0010
ffee
0004
fffa
fff4
fff0
fff7
ffef
fff6
000f
fff8
0000
fffd
fffd
fffc
fff1
000c
000c
fffd
0017
0019
0002
fff4
0001
000a
fff5
fff2
0010
fff8
fff4
0005
fffc
fffe
fffc
0000
0005
fff7
ffff
0001
0011
fff3
fffb
fff2
fff9
fff7
fffe
0001
fffc
0001
0001
fffe
fff9
fff3
0009
0012
0007
0000
0010
0007
0008
000f
fffc
fff9
0002
fff6
fff0
fff8
0002
fff8
000c
fff5
fff6
000a
fffd
fffc
fffe
fffe
fffc
0001
fffe
fff7
ffee
fffd
fffa
fff8
fffd
fffd
0011
ffef
fff6
fffb
0005
ffff
ffff
fff2
fff4
fffa
fffb
fffb
0002
ffee
fffa
fffa
fff2
0000
fffa
0003
0000
fff9
fff8
fffc
ffef
0004
0000
0000
0003
fffb
fffd
000d
0002
0005
fffe
fff6
0008
0004
0007
0009
fff3
0003
fffe
0002
0002
fffa
0003
0006
fffb
0010
000f
0002
0002
0009
000a
fffb
fff5
fff5
fff0
fffc
fff4
fff8
0007
0003
000c
0000
fffd
fff9
fff3
fff2
fff2
fff2
fffd
0006
fff9
0006
0008
0007
fff9
fff8
fff1
fff1
fff3
fffb
0006
000a
0002
0000
fff6
fffb
fff3
ffff
0006
0005
000b
0006
0001
000c
000d
0004
fffe
fff9
fff3
fffc
0007
fff0
ffff
fffd
fffe
fff7
fff5
fffe
0000
fff4
fff6
0009
000f
0009
0007
fffe
0002
fffb
0002
0004
fff8
fff5
0003
fffe
0000
fff9
fffc
0003
0003
0001
0005
0005
fffe
0004
fff7
ffee
0005
fff8
fff8
fffa
fff1
0000
fffe
fffa
000f
fff9
fffd
0001
fffc
0004
fff9
0003
0004
fffa
fff9
fff1
0000
fffc
0000
0000
fffb
0004
fffc
fff7
ffff
0017
0005
0008
fffd
fff8
0000
ffff
000b
ffff
0009
fff4
fffc
fffb
000a
fff6
0002
000c
0005
0004
0009
0008
fff9
0004
fff8
fff7
fff6
fff8
fff8
0003
0005
0005
0003
fff6
fffd
fff4
fff3
ffff
fff6
fff7
fff8
fffe
000c
000d
0003
fffa
fffc
0009
0000
fff5
fffc
0000
ffee
0001
fff5
fff9
fffe
0001
fffd
ffff
fffc
fffc
fffa
fffa
0011
ffff
000d
fff7
ffff
000b
0007
000a
000d
000d
0001
0009
000a
fffa
0001
000c
0002
0008
0002
fff4
fffa
fffc
0001
ffff
fff8
0001
0005
fff1
fff6
fff2
0002
fff3
0008
fffa
fffa
0003
fff5
fffc
fff9
fff8
fff9
0007
0004
0000
fffc
fffd
fff9
0009
0003
0002
fff9
0006
0002
0000
0006
fff7
000f
0000
0008
0000
fff7
fffa
0006
ffff
fffa
0000
0001
0000
0000
fffa
0001
fffb
0002
fff7
fff9
0000
0007
0004
fff4
0002
fff4
0007
fff8
0002
ffff
0008
ffff
0004
0002
000d
0005
0008
0000
fffe
0003
0002
ffff
fff3
fff9
fff8
fff7
fff3
fff5
fff5
0001
0007
0002
fff9
fffd
0007
fffa
fff8
fffe
0007
fff7
fffb
fff9
ffeb
fff2
fff9
fff6
fff3
fff6
fff5
fff7
0004
fff5
fff3
fffc
ffff
fffd
fffb
fffd
fff4
0004
fffb
fffb
0004
0002
0000
fff9
fffc
0002
fff4
fffd
fffc
0009
fff6
fffb
000e
ffff
000d
0004
0004
fff4
fffd
0000
0006
fffd
fffb
fff1
fff3
0004
fff6
0006
fff5
ffff
0002
ffff
0008
0010
fff6
0004
0001
ffee
fff9
fff7
fffd
0007
0003
0000
fffc
0004
fff0
0003
fff8
fff7
fff8
0003
000a
fff2
ffff
fffc
0005
0000
fff1
0003
fffb
000b
0015
0008
0000
fffe
ffff
0002
0002
fffb
000a
0009
fffa
fff8
0008
0005
0005
000d
fffd
ffee
fffc
fff8
fffb
fff9
0006
fffa
fffd
0005
0009
000e
0002
ffef
fff1
fff2
fff9
0006
ffff
fff3
fffe
fffb
fffd
0005
0007
000c
0002
0004
0003
0008
0001
fff4
0002
0005
fffb
fff2
fff6
0009
0004
000c
0009
0004
0008
000b
0001
0000
0004
ffff
0001
fff3
fffd
0001
fff0
000a
ffff
fff4
fff2
fffa
fff9
fff8
0008
fff8
fffb
000b
fffd
ffff
000a
fffd
fffa
fff5
0009
fffa
fffd
fffd
0004
0000
fffe
0004
ffff
fffb
fff9
fff8
0002
000a
0001
0003
0009
000c
0001
fffe
0005
0008
000b
0006
0001
0006
fffc
fffd
fffe
0007
0005
0003
fff7
0005
0004
0004
fff3
0000
ffff
000b
fffb
fffb
000b
000a
0008
0001
000b
000a
fff9
fffe
fffc
fffc
fff9
0004
0003
ffff
fffa
fffc
fff8
fffd
fff1
fffa
fffe
fffa
fff3
fffc
fff7
fff7
fff7
fff8
fff5
fff8
fffc
fffe
0002
0002
0004
0005
fff9
fffc
0004
fffb
fffb
0000
0001
fffd
0002
0000
fffb
0004
0001
0004
000b
0009
0000
0002
fffc
fff9
fffc
0003
ffff
fff9
000c
000d
0004
0003
0009
0000
0008
0004
0003
fff8
fffa
fffb
fffb
fff6
0000
fff8
0000
fffa
0004
ffff
0004
fffb
0007
0002
fffb
0005
0001
000d
fffb
000c
0005
0009
0008
fffc
0005
000a
0009
0003
fffa
0004
fffb
fff5
0002
0000
0006
fffb
fffd
ffff
0006
0000
0002
0009
0005
fffb
0002
fff5
fffc
0004
0004
0001
fffd
0003
fffd
fffb
fff7
0001
ffff
fffc
fffb
ffff
fff9
fffb
0001
fff6
fff9
fffa
fffe
0004
0000
fffe
0007
0008
fffd
0005
0008
000f
000a
0007
0004
0002
0005
fffd
0002
0000
0001
0001
0000
0003
fffa
0009
fffe
0002
0005
0000
fff8
fff6
fffa
fffd
0003
fffd
fffb
0001
fff7
fff6
fffd
0003
fffc
0003
0001
ffff
fffe
fffc
0007
fff9
0002
0001
fffb
fff0
fff4
fffc
fffb
fffb
0005
fff9
fffd
fffa
fffb
fff8
fff9
fffe
fff8
fffc
fff7
0004
0004
ffff
000b
ffff
ffff
fffc
0003
fffa
0006
0002
0002
000c
0005
fffc
0004
0003
fffb
0003
fff6
0008
fffc
fff9
fffa
0003
fffb
0007
0000
0004
0002
0007
0003
0000
0002
fffd
0002
0004
fffa
fffc
fffc
0000
0001
fffb
fffc
0001
fffb
0001
0000
0002
0000
fffc
fff3
fffe
0001
fffc
fffc
fffc
0002
ffff
fffd
0000
fff7
fffe
fffe
fff7
fffa
fffc
fffc
fff8
fffa
000b
0004
0002
0002
0005
000d
fffb
0004
0002
ffff
fff7
fffd
0001
0003
0007
fffd
fffa
0004
fff8
fffa
0006
0001
fffb
0005
0005
0007
fffa
0005
0001
fff6
fffe
fffa
fffb
fff7
fff5
fff7
fffa
fffd
fff8
fff8
0000
fffa
fff2
fffd
fffa
fffa
fffb
0005
0002
000a
0003
fff7
fff7
0007
fffe
fff9
0007
0000
0006
0006
0004
0006
000b
000a
0007
ffff
0007
fff8
fffb
fff3
fff4
fff6
fff7
fff5
fff7
0000
fff9
fff9
fff7
fffd
0002
fff6
0001
fff9
0002
0005
0005
fff9
fffc
fffa
0005
ffff
fffb
0006
0009
0001
fff6
fffa
0002
fff6
0006
0004
0009
0002
0007
fffb
0008
0003
0003
fffa
0002
fffb
0002
0006
0005
0004
0004
fffe
0007
fffa
0002
fff8
0002
0003
0002
000b
0004
fffe
fffc
fff9
fff3
0005
0002
fff7
fffc
fffb
0004
0001
0005
0003
000a
fffd
0000
0002
fffe
0000
fffe
0005
fffd
fffa
fffd
fff6
fffd
0002
0007
ffff
0000
0004
fffb
000b
0006
0008
fff8
0001
fffd
0004
0003
0002
0000
fff9
0000
fffd
fffc
fffa
fff7
fffb
fff3
fffb
0001
0000
0004
fff8
0000
0003
0000
000a
fffa
0004
0006
0003
fff8
fffd
fff8
fffe
0004
fff6
fff4
0005
fff8
fffb
0001
fff5
fff5
fff8
fff9
fff5
fff6
0002
0003
ffff
000b
000c
fff9
fffc
0000
fffd
0001
0007
fffd
fffe
0004
0001
ffff
0003
fffc
fff9
fffc
fff7
fff7
fff7
fff9
0003
fffd
0006
fffb
0007
0005
0000
000a
0002
0000
fffd
fffa
fff9
fffd
0003
fffd
ffff
0006
fff8
fffa
0001
fff8
fffc
fffe
0008
0007
0006
0007
0006
000c
0008
000b
ffff
fff1
fff4
ffed
fff8
fff7
fff4
0003
fff0
ffef
000a
fff5
0004
fffd
fffd
000c
fffa
0009
fffd
fff4
fffc
fffa
fffd
fffd
fffe
0005
0006
000a
0005
fff8
0007
000a
ffff
0002
fffa
fff8
000a
0008
fffc
fffe
ffff
ffff
fff9
ffff
0007
0004
fffb
fff2
fff4
0000
fffd
fff6
fffc
0006
fffd
0002
0003
fffd
0008
0010
000b
fff9
0000
0000
0006
0004
fffd
fffd
0007
fffd
0001
0002
0004
fff8
fffc
0002
0003
0001
fffa
0008
0005
000c
0002
fff6
fff5
fff8
fff2
0008
fff9
fff6
0004
fffd
0006
000e
0000
0010
000d
0003
000a
000b
0005
fff7
0005
fffd
fff4
fffe
fffd
0001
fff3
fffc
0002
0006
fff5
ffee
fff8
fff4
fff5
fff6
0002
0003
0012
0002
0005
fff5
0002
0006
fffb
ffff
0005
000c
fff7
fff8
fffe
fffe
0002
fffa
0001
fffe
fffb
fff8
0006
000a
fff7
fff7
fffb
0009
fffe
0004
ffff
0009
0007
0005
000a
0015
ffec
fffb
fff5
fffb
fff6
fff0
fff3
fff9
fff6
0008
000c
fffe
0006
fff7
fffb
fff9
fff0
fff1
0000
0003
000a
fff9
0006
0002
fff8
fff6
fffc
fffc
0006
0005
fffe
fff8
fff9
fffb
fff9
fff0
fff7
0007
0003
fffd
0007
0004
fffa
ffed
ffef
fffe
fffb
0000
0002
0012
0008
0004
0003
0000
0005
fffe
fff7
0007
0006
fffa
0008
fffe
fff9
0003
0000
0001
fff9
000f
ffff
0007
0002
fffa
0007
fff8
000e
0002
000d
000b
0007
0005
fffd
fffe
0004
ffff
0005
000b
000c
0008
0008
000a
fffd
000c
0001
0000
0000
fffa
0003
0003
0008
0006
000a
0009
0009
fffd
0007
0005
fffa
fffd
0003
0003
000d
0009
0003
fffc
000a
0002
0004
0009
000e
0004
0002
0000
0005
fffc
000d
0003
fffa
fff3
0004
fffc
0000
fffe
fff8
fff6
fffa
fff6
0009
000b
ffff
0011
0006
fffa
ffff
0004
fffb
0001
fffb
fffb
0004
0003
fffd
0000
000c
0007
000a
0000
0009
000c
000b
000d
ffff
0013
0002
0009
fff5
fff1
0002
fff5
fff9
fffa
000b
fffb
ffff
fffe
000a
0004
0005
000f
000d
000c
0007
0002
fffe
0001
fff8
0009
0010
0002
0003
0006
ffff
0005
000b
ffff
0007
0010
0010
000e
0003
000d
0009
0006
fffd
000b
0001
0014
000d
0005
fffe
0005
000a
0006
0010
000c
0004
000e
0009
fff9
000c
0003
0009
0003
fff7
fff9
fff7
0009
000e
0003
000e
0008
0009
0015
0008
0014
fffc
fffe
fff6
0007
0002
0009
0005
fffc
0002
0003
fffe
000c
fffa
fffa
0002
fff0
0005
0004
000a
0000
0009
fffe
0007
000a
fff6
0006
0010
fffe
0004
fffb
0000
0003
0001
0007
0002
fffb
fff9
0002
ffff
0000
0008
ffff
0003
0005
000b
0001
0002
fffc
fff3
fff7
0009
fff7
0009
0004
0002
0008
0014
0016
0018
0017
000b
000d
fff8
fff7
0000
fffd
fffa
000a
fffc
fff5
000e
0005
ffff
0004
0005
0006
ffff
fff6
fffb
fff6
fffb
fffb
0005
0009
fff8
0006
0007
0000
0001
fffa
ffff
0004
000b
fffd
0003
0002
fffa
0007
0005
0001
fff7
0009
fffe
fffb
0007
0002
fff9
fffe
0008
0006
fffd
000f
0005
000d
0002
000d
fffa
000a
000e
fff9
ffff
fffc
0007
fffb
fff9
fff4
0000
fffa
fff1
fffc
fffd
0001
0007
fffa
0002
fff3
fffb
fff7
0008
0000
0005
0005
0000
0003
0008
fff9
0006
0006
fffd
0005
fff0
fff9
fff0
fffe
fff2
fffa
0003
fff6
0005
000b
0004
0008
fffd
ffff
fffa
000a
0000
fffd
fffa
fffa
fffe
fff6
ffff
fffa
0005
fffd
fff8
fff7
0004
fff5
0002
fffe
fff2
0005
0001
0001
fff3
ffee
fff2
0010
fff6
fff0
0013
0001
0013
fffd
ffda
fff1
fff8
0005
0023
ffe7
0007
ffe5
fffc
ffe8
ffee
000e
0010
fff6
fff1
0009
0005
fff7
0005
000c
ffc7
fffb
ffed
ffeb
fffb
000b
fff8
fff2
0008
0002
000f
0010
0009
0014
000e
ffe5
ffff
0009
ffe8
fff6
0013
fff7
ffef
0000
ffe4
ffe4
fff9
fffa
0002
0003
000d
0012
fff4
ffed
ffdf
fffb
fff1
fff8
0007
fff8
fffe
fff3
0005
ffe3
ffe3
0012
0011
ffe3
0003
001d
0014
fff1
0013
000f
0003
0006
0003
fffe
0015
fff9
0001
ffec
fff1
fffe
fff4
000b
ffef
fff8
fff0
fff4
0000
ffed
0018
0010
0006
fff4
ffeb
000b
0002
0003
000b
fff1
0000
fff1
fff2
ffe5
ffde
ffea
fffa
0005
0012
0009
ffef
0007
0022
fff1
0007
0015
fff4
0010
0007
001a
0004
0000
001e
ffe6
fff0
fffa
ffe8
0005
0003
0008
0014
0014
0016
fffb
0001
fff2
fff5
fffd
fff3
fff9
ffeb
ffec
ffeb
0001
0017
000b
000f
0005
fffc
000c
fff3
fffc
ffff
ffe7
0001
fff9
fffd
ffed
fff9
001d
0001
ffef
fff0
0017
000a
0001
0001
0005
000a
000e
0009
0000
0003
001b
0014
000e
0023
0001
fffb
001a
fffa
000d
fffd
001e
0001
fffc
0010
0011
0017
ffe5
fffe
0008
ffef
000a
fffd
ffeb
fff0
fff6
000a
0015
0002
0006
0017
fffa
ffff
fffa
fff7
ffee
fff3
0014
000b
0018
0009
001c
0011
0008
000d
000f
000c
0002
fffa
000e
fff6
0006
ffe8
0000
fff8
0005
ffe9
0009
000c
fffa
0019
fffb
fffc
0007
fff3
0017
0003
0000
000d
0006
0009
0007
fff5
001d
0006
0005
0018
fff4
ffef
001c
0016
fff3
0004
0005
001c
fff3
fffc
fff6
ffff
0004
fff5
fff4
0009
fff9
fff5
0012
0019
0011
ffec
fffd
0010
fffa
fffa
0003
0009
fff5
0006
0010
000d
ffec
0008
ffff
fff7
0004
fff9
fff3
000c
fff8
fff7
fff9
0001
001f
0002
0006
fffd
0005
ffff
ffe1
fff7
000c
fff1
0000
0000
fff6
0016
0015
0009
fff9
ffef
fff7
fff8
0009
fffd
0014
0013
000e
000a
0001
0011
ffe9
ffee
fff5
001a
0023
0014
fff6
0014
ffff
ffec
fff0
fff9
0004
ffff
0006
000f
0003
0015
ffe3
ffe7
0002
0003
0012
ffe9
0003
000a
ffe8
0003
fffa
0008
000a
0001
0012
fffa
000e
000d
000e
fffe
fff8
fff1
fff1
0008
0004
fffe
0002
ffec
fff4
fff6
0007
fff5
ffd8
000d
0008
0002
fff6
0010
fff4
fff8
0010
0000
fff9
0000
0011
fffd
0001
0006
000d
000b
fff5
fffe
0004
fff5
ffe0
ffef
0002
fffe
ffe5
0001
0005
0010
fffd
0002
0008
ffea
fffc
fffb
fffb
0005
0017
ffe8
000c
fff5
fffc
000c
000f
0003
000e
0016
000c
0003
0017
fffd
fff3
0010
001d
fff4
000b
ffff
fff0
ffe4
ffef
fffc
fff9
0008
fffc
000f
0017
0009
0017
001a
fff0
0009
fff2
000c
ffee
0010
ffe2
0002
ffe1
000a
fffd
fff5
ffff
fffa
000a
fff0
fff6
fffc
0010
fffb
0011
ffef
000d
fff5
0001
fff8
0002
ffef
ffd9
fffb
fffd
000f
fff5
0003
fff0
000b
ffff
0010
0006
0011
0010
fffa
0007
fff3
fffe
000d
0005
0016
0003
0009
000a
fffb
0000
000f
000c
000f
fff8
0015
001a
0014
fff8
fffb
0006
ffff
0005
fffa
0003
0009
ffff
0010
0012
fffb
000f
0013
000f
ffe7
ffde
ffe8
ffe4
fffb
ffe3
0006
fffd
fffa
0007
fff7
fff7
fff0
fff8
0000
fffe
0010
0016
000c
0011
0013
000b
fffb
000f
0005
fff9
001b
000e
0005
001a
0018
0022
0023
fff8
fff6
0005
000b
0019
fff2
0020
0004
000d
0001
000b
fffc
000d
0001
0009
0010
0001
0025
000b
ffff
0003
0012
0007
0013
0000
0002
0010
fffb
0005
fffc
0000
000d
fffc
0002
000d
0009
fff3
0012
fffd
0006
0006
fffb
0001
0000
000b
fff6
fff9
0007
fff5
0009
0002
fffb
0008
0000
0006
0017
0012
0000
000b
fffd
000d
0000
0008
0005
0002
fffe
fff5
ffff
fff3
fffa
fff7
fff7
fffd
0005
0000
0005
fff9
000a
fff9
0007
000b
fffe
0007
0004
fff8
0006
0002
fffd
fffe
0003
0004
0002
fff2
fffb
fffa
0001
fff8
fffd
fff5
0009
0004
fff6
fffe
fffe
ffef
fff4
fffb
fff3
0005
ffff
0001
fffd
000e
0007
fff9
0009
ffff
fff1
fff3
fff7
0000
fffd
0003
0005
ffff
0000
0005
0000
ffff
fff7
0002
fff1
fffd
fff5
fffa
0004
fff9
fffa
fffe
000c
0002
fffd
0003
fff7
0003
0006
0006
fffb
0005
fffc
0002
0001
fffe
fff9
0003
fffa
0008
0012
fffc
0001
ffff
000b
0006
000a
000e
fff7
000e
0004
fffe
fff7
0005
000c
0007
0005
fffa
fffd
0000
fff3
fff6
fff8
0006
fffd
0006
fffd
000c
fffa
000a
0001
0002
000c
0004
fff7
fff9
fffb
fff1
0008
ffff
fff9
fff3
fff1
fffe
0000
0003
ffff
fffc
fff5
0001
fff5
fff4
0002
fff7
fff6
fff4
fff9
fffc
fffb
0006
0008
0000
fffb
0004
fff4
0002
0000
0006
0003
0010
0000
0007
fffe
0009
0000
0009
0007
0004
fffe
fff3
fff9
fff7
fff8
0005
0004
0006
fff4
0008
fff4
fff2
fffb
0005
fff6
fffa
fff7
0003
fffc
fff1
fff4
fff6
fff7
fffd
fff9
fff8
0001
000b
fffe
0004
0004
0001
fffb
fff5
fffc
fffb
0005
0005
ffff
0005
0004
0005
fff9
000a
0009
0008
ffff
0002
fffb
fffc
0006
0004
000f
fff8
fffe
fffc
fffb
0000
0009
0007
fff5
fffa
0004
0008
000f
000b
ffff
000a
fffe
0009
0004
0002
0007
0000
fff6
0008
0003
0004
0008
fffe
ffff
fff9
ffe8
fff0
fff6
fffd
0002
0006
fff9
0004
000f
000e
000b
0006
0005
000b
fffc
0000
fffc
fffc
000b
fffb
0008
0003
0000
0000
0008
fff9
0000
fff7
fffe
fff6
fffb
fff9
fff8
0006
fff2
ffeb
ffef
fffd
fff5
fffe
fffa
fffc
0006
fff8
0007
000a
fff9
0009
fffa
fffe
fff4
0004
0004
0003
0002
ffff
0002
fff6
fffe
0000
fffc
0008
fffd
fff9
0002
0002
0003
0008
000a
0004
0007
0002
0002
0002
0002
0000
0003
fff9
0004
0006
000b
0012
0002
0007
0007
0001
0002
0005
0002
0002
fffd
000b
0004
fffe
fffb
000c
0005
fff4
0003
0002
fff6
0006
0000
fff1
0000
0006
0002
000d
fffd
0002
000a
0002
fffb
fffc
0008
fffa
fff1
ffef
fff8
fff2
fffe
fffb
fff8
fffb
000c
ffff
0003
fffc
fff8
000a
000d
000e
0008
0002
0002
fffe
fffc
ffff
fff6
0004
fff6
fff5
0004
0002
ffff
000b
0006
0000
fffc
fff9
000a
fffa
000a
000e
fffc
0012
fffc
000b
fffc
0009
0008
0003
fffe
fffe
0004
0003
fffc
0005
fffd
0002
0003
0009
0004
000a
0005
0006
0002
fffa
fff7
fffc
fff9
fffd
0005
fffd
0000
000d
0002
fff3
fffa
fff4
fff7
fffc
fffb
fff2
fff1
fff9
ffff
0000
0002
0004
fff6
0008
0007
000c
fffb
0007
000c
0004
0008
fffe
ffff
fffa
fff9
0004
0007
fffd
fffb
ffff
fff8
fff7
fffd
0005
fffa
fffc
fff9
fff7
000d
0001
0005
0001
ffff
fffb
fffd
000c
fff9
0008
fffa
0006
fff3
0007
fff7
fffc
ffff
0004
fffc
fff6
ffff
fff5
0001
0001
0001
fffc
fffd
ffff
0008
fffe
0008
fff7
ffff
0004
0000
fffa
fffe
fff9
0003
fffd
fff9
fffd
fff5
fff4
fff6
fffc
fffa
fffa
fffb
0001
0001
fffa
0000
ffff
0012
0031
fffc
001a
001a
fffe
0010
001a
0016
0021
0001
ffe2
ffee
fff6
ffdd
fffc
000b
000a
0006
0010
ffe4
fff4
ffff
ffec
0011
0009
0013
ffee
ffee
ffe9
0007
ffe1
0009
fff0
fff5
fff4
0001
0018
fffd
fffe
0010
fff7
0005
000a
0028
fff0
fff6
0009
0006
fffb
fff3
ffda
ffea
0000
000a
0007
fffa
000e
000f
0019
0023
000c
ffff
0011
fff6
fff9
0010
fff6
fff2
ffed
ffeb
0002
000e
0005
0007
ffe7
fff7
0002
001f
0011
fff0
fff7
fff9
ffe2
0010
0008
ffde
fff4
ffee
ffeb
0002
0019
000d
0004
001c
fff0
000b
0006
000e
0003
ffff
fffc
fff4
ffde
ffdd
ffeb
ffed
fff6
0014
0013
0015
fffb
fffa
000b
000f
0007
0011
ffe5
fff7
ffd4
fffb
fff2
fff7
fff8
ffd7
ffe3
fff4
ffee
000e
fffb
fff3
fff5
ffff
0006
ffff
fff0
fffb
fffc
0021
fff0
ffdc
fff8
fffd
ffda
0000
0002
fff1
fff4
0005
ffee
fff9
001b
fff8
0008
fffb
ffff
fff3
fff7
fff3
0006
fff3
ffe8
fffb
fff6
0004
000d
fff3
0011
fff2
0004
fffc
fff3
fff0
000f
ffe5
ffec
fff1
0000
0027
0012
0006
0000
000d
0015
0024
ffec
000b
fffd
000a
fff3
fffa
fff2
ffed
0007
ffef
fff8
fff1
0008
ffe7
0007
000a
fff6
ffe7
0002
0012
fffe
fff4
0019
ffff
ffed
fff7
ffd2
0006
fffd
0004
0006
ffff
0016
fff7
fff3
ffeb
fff7
0015
0022
001a
ffee
fff4
0009
fff2
0014
fffb
ffee
000a
0007
0011
0018
fff5
fff7
fffe
0006
ffe6
000f
fffe
ffed
0008
0013
000f
fff4
ffff
0014
001b
001c
000e
0012
ffef
ffde
000d
ffef
fff4
001c
000c
0002
fffb
0017
ffe6
ffdc
ffee
0013
000a
fff2
0001
000b
fff7
000b
fff2
ffec
fff7
ffff
ffeb
000d
000b
fffd
0004
0000
0007
ffe0
fff5
0015
0001
fffb
0001
fffc
0021
fff9
ffde
fffa
fff3
fffe
000a
000e
0003
0014
001b
ffe0
ffec
000b
ffe3
0015
0022
fff1
fffb
fffb
0019
0017
fff6
0006
ffea
ffee
ffdf
ffef
0003
fff2
fff1
0007
fffe
fff2
ffed
fff9
0004
fff4
fff2
0003
fffa
0002
fff5
ffef
ffe8
fff6
ffe3
ffe9
000f
0004
0018
0023
0011
001b
0010
fffe
001b
0031
001d
000a
fff6
0006
ffe4
0005
fffb
0004
001f
001d
fff3
0016
0009
0009
fff5
ffe3
0009
ffe6
ffef
0011
0012
0019
0006
fff1
fff7
fff7
0002
0004
0006
0005
fff0
fff6
001f
fff7
0009
0011
fffa
0009
0001
fffe
0009
fff4
ffd9
fffb
0001
fffa
000d
ffef
fff1
000a
0004
0008
000c
fff8
ffe0
fff4
ffee
fff9
ffec
fff4
0011
ffe1
fff6
fff4
0004
000a
0002
000a
fff6
0018
fff3
fff9
0013
000b
0014
0019
fff6
000a
000a
fff0
fff9
fff9
fff6
fff2
0007
0003
ffe9
fff0
000d
000b
0004
0015
0015
0010
fff5
001e
ffed
ffed
ffff
ffda
0005
ffef
ffee
0012
0011
fffd
ffeb
fff2
ffe1
fffa
0009
ffe6
fff2
0008
ffff
ffe8
fff1
0012
001d
000d
fff8
0010
0001
fff1
0000
0000
ffe2
0003
fff0
fff7
fffb
fff3
fff7
0023
0014
0004
000f
ffef
0004
000a
0018
000a
fff7
0006
fff4
0012
0002
fffa
000c
fff6
fff7
0021
0001
fff2
ffee
000e
ffe6
0020
fff9
001c
fffc
0009
000a
ffd2
fffd
000c
fff8
ffeb
0011
0009
0008
fffa
0007
0000
ffe7
fff2
ffdf
ffe9
001a
0027
0013
0000
000e
fff6
fffd
fffb
0003
fff5
ffe7
0013
0002
001a
001f
000d
ffea
0011
fffb
0006
ffe8
ffe3
fffc
ffe7
000e
fff2
0017
0016
0020
0003
001b
000e
0008
001d
0003
fff4
fff6
ffe3
0017
fffe
000c
fff8
0010
0015
000b
0004
fff6
ffe5
000e
fff5
ffec
fffe
fffe
ffff
0007
0014
ffeb
000d
0006
fffb
0001
ffed
0014
000d
0005
fffc
0013
ffff
fff7
000d
0019
0000
0002
fffe
fff6
0004
0004
0008
ffec
fffc
0004
fff4
0011
fff6
0010
0015
0001
0007
ffff
fffd
0015
ffff
fff5
fffb
0008
0004
ffe1
fff1
fff1
0005
fff6
fffb
0003
fffb
ffe7
0003
0001
fff6
0001
fffe
ffef
000f
ffff
ffff
fffb
ffe9
000a
fffa
fff2
0003
fff9
fffd
fff9
000f
fff9
001a
fff8
fff2
ffdc
000e
fff1
0007
ffff
0005
fff8
0000
0003
0002
ffed
0017
fff0
fffd
fffb
0008
fffa
ffee
0008
000c
0005
0005
0015
0013
0022
0003
ffe7
fffe
0009
0011
0003
0012
0002
fff9
fff4
fff6
0003
0009
0018
000f
0001
0011
0002
0009
0000
fff8
000f
fffb
ffff
0012
000d
fff9
0007
0004
000d
0009
fffd
0009
fffd
ffe7
ffff
0014
fff5
fffd
fff7
0004
0009
0005
ffff
0008
0006
0004
fff4
000a
fffc
0008
fffe
0006
0005
0009
0009
0016
0008
0001
001b
0003
0001
0012
ffe4
ffea
fff0
0012
000d
fffc
0012
0009
fff9
ffef
0009
fff8
000e
001f
0017
0002
001f
0020
fff4
fff9
fff0
fffd
0016
000b
fffc
000a
001c
fffe
fff9
0008
ffeb
fffe
fff9
ffeb
0014
fff7
000e
0000
0004
0008
fffa
0009
ffea
0005
0003
fffc
0003
fffa
fff5
ffef
fffb
fff0
0008
fffc
fff9
000c
fffb
0006
fff5
000b
0003
000c
fffe
000c
000d
fffc
fff1
fff0
0005
0017
fff7
fffc
fff3
0008
0010
0002
ffe7
fff1
fffe
000a
fff9
000c
0010
fff5
fffe
001b
0011
0015
fffb
0015
0009
0004
0002
fff4
fffc
0013
0006
0007
0005
fffa
fff7
fff4
0009
fff4
fffd
0009
fff5
fff5
ffed
0006
0002
fffc
0011
ffff
ffe8
0005
fff5
0008
fffa
fff3
0004
fffc
0014
000c
fff1
fff7
000e
001a
001e
ffd9
fff8
ffeb
0001
fff5
0009
0000
0018
0019
0008
fff7
fff7
ffdd
ffee
ffe9
fffc
0013
000e
001e
0015
0011
0001
000b
0001
fff9
fff4
0007
fffc
fff4
fffe
fffd
000e
fffe
0002
0009
0008
ffea
fffc
fffb
fff8
fffa
0019
fffc
fffd
fff6
fffc
0006
fffa
ffe8
fff6
0003
fffb
000f
fffa
ffed
0010
0021
ffeb
ffe9
fff4
fff4
000e
0013
fff8
fffa
0015
fffe
ffe7
fff2
0018
ffff
000d
ffe9
fff7
fff3
fff3
fffe
fff0
fff5
000b
ffff
ffee
0001
fffe
0005
0001
fffe
fffd
0010
0002
fff7
0008
fff9
fff6
ffee
ffe6
fffd
0009
0001
0008
fffd
fff0
fffb
ffdf
fffe
0005
000a
0001
0011
ffee
0011
fff8
ffe6
0008
fffd
0006
000b
fff3
000b
fff1
fff5
fff7
fffb
0004
fff5
0008
fff4
0002
0015
0006
fff9
0000
ffed
fff2
0003
fff7
fff4
ffe5
0003
fff4
fffa
fff6
fffd
ffea
000e
0002
0005
fff4
ffeb
fff2
fffb
fffe
ffe8
0011
0011
fff4
000d
000e
0014
0002
000f
fff9
fffb
ffec
ffff
fff3
fffa
0004
0006
001a
0006
0004
fff9
fff8
fffd
ffe9
0001
0001
0026
0008
001c
0011
ffff
0009
fff6
0005
fff1
000a
000d
0018
0006
0019
0007
0017
fff9
ffeb
000c
fff2
0013
0003
000f
0009
000b
ffee
0001
0008
0007
0005
0001
0005
fff6
ffec
fff5
0004
fff1
001a
ffe2
ffec
fffd
ffdd
fff8
ffeb
0008
fffc
ffea
000f
fffa
0005
0009
fff8
0009
ffec
fff7
0008
000a
0004
0017
0013
0011
000b
fffe
fff0
0000
fffb
ffec
0008
0011
fff3
fff2
0009
fff5
000d
000e
000a
0001
0015
ffec
000f
0003
0000
0000
0007
fffa
ffff
ffe6
ffeb
ffef
fff7
ffdf
ffed
0001
fffb
fff7
ffec
fffa
0004
0009
000b
0028
ffe7
fff5
0018
fff7
ffeb
0009
000f
0007
0006
0005
ffff
fffc
ffe8
fff4
0015
000c
000d
000e
0006
000a
0013
fff0
fffd
0006
0009
000d
ffe8
000a
001c
0011
0007
ffeb
fff0
0009
fff7
000d
0012
001e
fffb
0018
0024
0014
ffed
0002
fff7
ffff
fffe
ffe5
fffb
0011
0027
ffef
0001
000a
fff7
000e
0006
0010
0006
ffd3
fffb
0038
0004
0008
0002
ffea
fff4
ffed
fffc
0011
0011
0011
fffd
ffdd
fffa
ffff
fffa
fff4
ffe9
fff3
fff3
0009
0011
fff7
ffee
000f
fff1
001c
001c
0017
000f
ffee
0001
fff7
fff2
0011
0014
0014
0009
ffde
ffe9
fff7
ffd5
ffd9
0007
001b
0019
0004
000c
0002
ffec
fffc
fffe
fffd
0006
0000
fffb
ffeb
ffdd
ffe1
ffe5
fffb
ffe7
0006
fff1
ffec
fffa
ffe8
0002
ffde
0012
0003
fff8
000b
fffe
000d
fffb
0002
000f
0007
fff8
001d
fffd
ffe6
000e
0011
0012
0000
fffb
001a
ffeb
0010
0002
000a
0001
0007
001e
000e
001b
001d
fff8
001a
ffff
ffeb
0003
fff7
0003
fffb
0001
001f
fffe
fffa
000e
0010
fff0
ffe8
0006
0012
ffec
0008
0013
002a
0004
ffeb
0001
0011
0014
fffe
000b
ffff
0002
fff7
ffeb
ffdf
fffa
fffb
fff8
ffec
fff8
fffd
0010
fff3
0013
0003
fffe
fff1
fff5
ffe8
fffc
0012
0013
fff2
fff7
0013
0002
0017
001c
000a
0019
ffef
fffb
0001
001b
0014
ffe9
0003
fff4
ffef
0006
0004
ffe7
ffef
0010
ffdf
ffe8
0011
fff8
ffdc
fff0
001b
0006
000f
ffee
0015
ffe9
fff5
fffc
0003
fff0
0004
0014
0009
ffd7
ffed
fff9
ffea
0006
0012
fff7
ffed
ffe8
ffe3
ffed
0013
000d
fffd
0010
0013
fff6
fffb
0012
fff0
000d
ffe3
ffda
0005
001d
0006
0033
fff2
ffed
000e
ffd2
ffef
fff9
0016
0003
0001
0002
fff3
fff5
0016
fff8
0002
000a
000c
fff4
0008
fffb
001e
000f
0004
000d
fff7
0006
ffe6
000e
000c
ffff
0012
001e
0012
ffee
ffdb
fff4
fff7
fffe
fffa
0008
000a
fffb
0001
fffa
0003
0000
0009
0006
ffec
0006
0001
ffe9
fff6
ffed
fff2
ffed
000b
0015
001c
0017
ffe3
ffe8
fffa
fff2
ffe1
fffd
fffd
0005
fff9
0008
001a
0013
ffe1
0015
0005
0013
ffef
0000
0003
000f
ffef
001b
fffc
0000
ffe8
fffc
0000
ffff
0015
0002
fffa
000a
ffea
fffa
fff8
ffff
0021
0008
0005
0018
fff5
fffa
fff9
0004
0009
ffff
000b
0020
001a
0014
fff7
fffa
001e
000b
0004
001d
000a
ffdf
ffe8
fff2
ffea
fff7
ffee
0018
001f
0004
ffee
fff8
fff8
ffff
fff4
ffea
0008
ffe6
ffce
fff4
0005
ffc2
fff5
ffe6
ffdb
fff6
fff8
0014
fff2
ffe5
fff1
0009
ffe6
0016
fff1
0011
0003
001a
0010
000c
000c
fffd
0005
fff4
0018
000c
ffed
0007
fff0
0007
ffef
ffdd
0015
0020
002c
fffd
ffec
fffe
0001
ffd9
fff5
ffe7
fffb
ffe4
000c
0011
0024
ffe8
ffe9
fff4
001d
0006
fff0
000b
002b
001e
0002
0004
0015
ffea
ffd9
ffdd
ffe8
fffa
ffeb
0019
0014
000e
0002
0018
0013
0005
0000
001d
fffb
fff4
fffb
ffed
fffb
0000
0007
ffe9
000d
000f
0015
ffeb
fffc
0019
fff0
000d
000d
ffef
000f
0010
0006
fffa
ffe7
001c
fff3
fff3
0002
ffe4
000e
ffe4
ffdf
fffc
ffef
0003
000a
0003
0013
0016
0009
000d
0008
ffdb
fff0
fffc
0000
000c
0002
0006
0005
0000
fffc
fffa
0011
ffef
000b
ffec
fff6
fff2
ffe9
000e
000b
ffe9
0006
fff9
fffe
0020
ffda
fff2
ffe6
ffed
0005
000a
0000
0000
fff1
0017
ffee
0006
ffe3
ffce
0005
ffef
000a
000b
ffed
ffde
ffe3
fff6
0008
0013
0018
0001
ffff
fff1
ffe3
fff1
000e
fff4
fffc
000d
0006
ffff
fff6
fff1
0009
fffe
000c
0013
0001
ffea
fffd
0027
0006
0017
ffe8
0005
0013
0006
fff4
fff1
0013
000d
0019
ffe5
ffe6
ffdc
0001
000c
0014
fffd
ffed
fffa
0016
fffe
0013
0000
0005
fffa
0039
001c
000b
0001
0016
fff1
fffd
fff3
0008
0008
0016
fff0
0009
000f
fffa
0003
0018
fffa
fffd
fffd
0006
fffa
ffe5
ffe0
0029
0011
fffb
ffea
ffed
ffe9
0005
fffb
fff9
0002
000e
0004
0003
fff3
000d
0007
fff8
fff0
001a
fff3
0018
fff6
fffa
000a
fff6
0012
0007
0004
fff4
0006
000f
000c
0000
0004
0004
0001
ffdd
fff5
ffd9
0003
0003
fffe
fffe
ffea
ffe6
001d
000f
000f
fff6
ffed
000a
fffa
ffe0
0003
000e
0004
fff9
ffee
0016
fffc
0019
0016
0010
0013
fff3
0003
001e
fff3
0004
001b
ffed
fff9
001e
0019
0010
fffc
0008
fff5
ffef
fff2
0000
0007
0006
0003
fff8
fffd
0000
ffe5
ffeb
fff1
fff5
fff9
0006
0012
fff9
fffb
fff7
fff7
0003
fff7
fff2
fffe
ffea
fffc
0015
0001
ffe1
ffff
001b
ffea
000d
fff9
0008
002d
ffe3
000a
0018
ffed
ffe9
fff9
0006
fff5
000b
0004
0009
0003
ffee
000f
fff2
ffef
0003
ffef
001b
fff2
fffd
fffb
000e
000b
ffe8
ffef
0003
ffff
0010
fff2
0010
ffec
0002
0005
0001
fff2
0014
ffff
0011
ffff
0027
0013
fffa
fff8
fffc
000f
000e
fffc
fff4
0003
0000
fff0
0009
ffec
ffe2
fff5
ffe3
000b
0005
0014
ffed
000e
0002
0000
000b
0006
0002
0007
001f
ffea
0003
fff5
0013
0007
fffd
0016
0007
0002
ffdf
ffef
0008
0000
fff5
ffe5
ffff
0020
0012
0006
ffde
ffeb
002a
0010
0012
fff3
fff0
ffe8
0010
000f
001f
0020
0003
000c
fffd
0011
0005
0034
001e
001b
0019
000e
0005
ffd6
ffc8
ffdb
fffd
0033
0023
0003
000a
fffb
ffff
fffe
ffed
0017
fffd
0007
0003
0009
ffde
0000
fff5
fff3
ffec
ffe9
ffdd
ffe1
ffd0
ffdd
000c
0006
0013
ffed
ffdf
ffe5
001b
fff0
000c
001c
0006
0009
fffd
ffe3
0006
fffe
0009
0009
0013
ffdc
fff9
0001
0008
ffe9
000f
0011
0006
0028
0014
0008
ffff
ffff
fff7
0008
0020
fff6
0014
fff6
0006
ffee
fff1
fff6
fff8
001f
0005
fff2
0020
fffe
ffee
000c
0008
0000
ffe2
0011
fff2
0018
0003
fffe
ffee
001e
ffff
000a
0004
ffff
0006
0030
fffb
ffee
ffef
000d
ffeb
0007
fffc
ffec
fff1
fff8
0001
000d
fff9
fff7
0011
0001
fffd
0002
000c
0013
ffee
ffff
fffa
ffff
fff3
000f
ffdf
fff8
0007
0018
000b
0002
0002
fff4
fff0
000d
fff5
ffe1
fff8
fff9
000b
0006
ffe7
0005
0003
0012
0010
fff9
0010
000c
ffe2
fffd
fff8
fff4
0016
0028
0008
fff9
0008
0006
0010
fffa
000d
fff3
0010
0003
ffe8
fffb
ffe8
0014
0008
002b
0005
fffc
0021
ffef
fff8
ffed
fff3
fff0
0006
0011
0001
fff9
fff1
fffc
fff3
0005
0011
ffec
fff0
0007
0003
0017
fffb
0012
fff0
ffef
0005
fff3
0018
fffc
fff5
fff2
ffff
001a
001f
000a
ffd4
ffc9
ffc2
fff4
fff1
ffd1
002e
0023
0004
ffff
000f
0014
0007
fff9
fff1
fffc
0009
ffe8
ffff
fffe
fffb
ffef
000a
000e
fff0
ffe6
ffff
001b
fffb
001a
0015
fff2
0008
fff1
0014
0020
0000
fff7
0001
0008
001a
fffb
ffe9
ffd6
ffdf
000a
000a
001b
0016
0008
fff2
ffe8
fff5
ffec
0009
fffd
000a
0009
0020
000e
ffeb
0005
000a
0014
0005
002b
ffec
fff0
ffed
ffef
fff7
fffe
0008
fff6
fff5
ffff
0000
ffed
0009
fffc
000f
000d
0017
fff9
fff1
fff6
fffb
fff5
fff1
fffd
ffe5
ffef
0010
ffee
0012
0019
000f
0016
0009
ffed
fff3
fff9
ffff
ffe2
0007
0007
0006
fff7
ffed
ffe1
0003
0027
0013
0003
000d
001c
0005
ffeb
fff7
ffe9
0001
ffee
000a
fff9
0027
0021
ffee
000b
fff0
000f
000a
fffb
fffa
ffef
fff2
000b
0028
fff3
fff2
ffee
000d
ffe7
ffe8
ffde
0016
002d
0018
ffeb
000b
fff7
fff0
fff5
001a
fff7
0001
ffd6
0004
0006
0003
001c
ffff
ffeb
0002
fff7
000f
0001
ffe7
fff7
0005
ffeb
0006
fffa
0012
ffff
0003
fff8
000a
ffe3
000b
0006
fff7
002b
000a
ffdb
fffd
0014
fff1
000a
fffd
ffe9
ffef
0000
ffe6
fff8
fff7
ffec
ffef
fff4
001a
fffe
fffd
fff1
ffec
0004
000d
0016
0011
000d
fffa
0018
ffee
fffa
fffa
0003
000a
0008
fff1
ffeb
0001
fff4
fff3
000d
000a
0007
fff3
fff1
ffdf
ffe3
fff8
0005
ffff
0003
0016
000b
0015
fff3
0010
000e
ffed
0005
0002
fff5
000b
0007
0009
0028
fffc
fff5
0022
0011
fff2
000b
0007
0008
0001
ffe4
0008
fff9
0006
ffed
0007
0003
0001
0007
0003
fff1
fff8
fffd
0000
fff2
fffe
fff5
ffeb
0014
ffeb
ffec
000b
fffe
0001
ffef
fffc
ffed
fff5
000b
fffc
000b
fffd
0012
000a
000f
0018
0001
000e
fff9
ffee
0010
ffef
0018
001a
0013
0019
0003
0025
fff1
fffb
fff9
fff8
0002
ffe3
0005
0009
0007
0011
000d
001a
fffc
0005
fffc
fff2
001f
0005
fffc
000b
fffd
0005
002d
001a
ffe2
ffff
fffb
ffec
fff5
fffc
0009
ffee
0011
001c
0019
ffe7
0010
fff2
ffee
fff8
0015
0011
ffe9
ffec
ffea
ffd7
0001
ffdc
0017
0005
0028
fff6
ffed
ffee
0017
0020
0009
0026
0006
fffe
fffe
0007
ffe3
fff7
0002
fff4
0006
000b
0009
0011
000c
0006
001f
000a
ffff
001c
0007
0008
0000
fff7
fff8
ffeb
0018
000c
ffe3
ffdf
000e
ffe1
ffe6
fff0
fff7
000b
000c
000f
0008
fff7
001a
ffed
ffef
0002
ffef
001d
0011
0018
0015
000d
0004
0004
0004
0005
fffd
fff9
fffc
0002
0002
0018
000c
000e
0003
fffc
0013
0008
0030
fff0
fffc
fff4
fffc
fff0
ffe4
001d
0010
000f
000f
002f
0016
fff6
000e
0008
000d
fffd
000a
fff9
0014
fffd
000b
0007
ffee
0008
0000
0023
ffe6
0002
0008
fff7
fff6
fffc
0009
fff5
fff4
ffef
000b
fff1
0013
0002
fff7
000c
000d
fffe
fffc
ffeb
ffec
ffea
0004
fffb
fff2
0005
0006
ffe4
fffc
fff1
0001
fffb
fff3
fffc
fff3
0009
fff8
001e
fffd
0002
fffc
ffee
ffe8
ffff
fffa
ffee
0012
0006
fffe
fffe
fff3
fff2
fff4
fff4
001a
000e
fffe
0011
fffa
0000
0001
0007
fff8
fffd
fffc
ffdf
ffe9
0000
ffef
0014
fff1
0021
001e
0003
fff1
fffa
0014
ffe3
ffec
0009
0005
fffb
0012
000c
fffd
ffff
ffef
0004
ffee
fffe
fff6
fffb
000b
0000
fff8
000e
0012
fff0
000d
fffd
000c
000e
ffef
0004
0009
0007
000f
ffff
000b
0013
000c
000f
0016
000c
ffe8
0006
000c
fff6
0002
ffee
0004
0007
000e
fffe
0012
0011
fff7
fff5
fffe
ffe1
0001
fff9
0007
0004
fff6
ffeb
ffe2
fff0
fff7
ffef
0005
ffed
fff6
0009
000e
0003
0000
0015
000d
0013
fffb
0015
0011
0009
ffe8
000b
fffd
fffe
ffe5
0015
0005
ffef
0002
0010
fff0
ffef
fff1
fffd
0008
ffdf
ffe8
000a
0004
fff3
0012
001d
0004
0005
fffa
000f
0015
0006
fffd
ffff
fffa
fff8
001d
000b
000e
fff8
fffb
fffb
000d
000d
0003
0000
fff7
ffe5
0004
0015
fffe
fffe
0012
fff4
fffc
fff8
0011
001a
0027
0028
fff8
ffd8
ffeb
0003
fffd
000a
fff9
fff8
fffe
0002
000d
fff3
0011
0011
000c
000c
ffff
001f
ffff
fffa
0005
0009
fffa
0008
fff6
fffc
000b
fffb
000d
000c
0001
0008
0014
0012
0017
0011
ffe5
ffe9
fff8
fff3
fff5
0004
fffb
000b
0001
0014
0004
0004
0003
fff8
0006
0018
0001
ffff
0003
ffed
ffeb
fff9
0001
ffeb
fffc
fff6
001d
fff9
000c
fffa
0001
fff1
0000
fff9
0005
fff5
ffe9
ffed
fffb
fffe
ffec
0001
0002
0014
fffc
0010
0010
0007
0003
fff5
fffa
fffc
fffe
ffde
000e
000d
0007
fff3
ffee
ffed
000d
fff4
0004
ffff
001e
001d
0009
fff4
0010
0014
fff8
ffed
0014
0005
ffff
ffe4
fff5
0006
000e
0001
ffff
0013
ffff
0000
fff7
000e
ffef
0006
ffff
fff3
0001
fff3
0000
fffe
0015
fffc
0014
0017
0004
ffee
000d
fff7
000b
ffe1
fff5
0001
0006
fff4
0008
000d
ffe8
0008
0012
0017
fffc
0002
fffd
000b
fff3
000a
fff8
ffe7
fff8
0001
0004
0003
0012
0002
000b
ffff
fffd
0008
0005
0010
fffc
0000
fffe
fff4
0026
0016
fffa
fffa
fff1
ffef
fff6
000d
000b
fff4
0005
0000
0005
0000
ffea
0007
0012
0000
0001
0016
0019
001d
fff4
0004
fffa
ffeb
ffd5
0015
0019
000e
ffd4
0000
ffd8
001b
0000
ffe1
0011
fffe
0013
0016
0013
fffa
ffee
000e
fffb
ffe8
fff0
fffd
0001
001a
0003
fffa
fff0
fffd
0004
0000
ffef
0017
0001
0006
0007
0008
fff0
0004
000a
fff3
0012
fff3
ffee
0007
ffdb
0000
0015
0001
000f
001f
0004
fff6
fffa
fff1
ffed
000b
fffe
fffc
fffc
ffed
000c
0002
0007
0001
fffa
0000
fff9
000b
0009
0001
ffe8
fff0
0007
fff2
0001
0001
ffff
0015
fff6
000d
0012
001f
0013
0000
fff6
0003
ffe7
000f
fff7
0005
fffd
0009
0016
000d
0000
fffd
0006
0012
fffd
fffb
0002
0001
fff0
fff2
fffd
001d
fff8
fff9
ffe9
fffb
ffff
fff7
0002
ffdf
ffee
0015
fffd
fffc
ffee
ffe6
000f
0018
0001
0003
0009
ffe8
ffe4
fff5
000f
000e
ffec
0003
ffeb
0003
fff7
fff4
001b
0020
002c
0006
0008
000d
fffd
ffe6
ffe9
fff8
fff3
0010
ffd7
ffe6
fff9
0007
0015
ffff
0009
0017
fff3
fffb
fffa
000c
000d
000a
ffed
0011
fffb
0016
fffa
fff8
0001
000f
0015
000e
fffa
0018
000b
ffec
ffef
ffef
ffef
ffff
fff4
0004
0003
000c
0005
fff4
fff4
000e
fffc
ffde
0013
fff5
fff5
0006
ffff
000f
0004
fff0
0017
000f
fffe
0008
fffb
0007
000b
ffe5
0008
0007
0013
000c
fff7
fff4
fffc
ffee
fffe
fff5
fffe
0020
fffc
0018
fffa
0018
fff2
0009
fff4
fff4
fff6
ffe6
0003
0019
fff9
fff6
fff7
ffe7
0012
0005
000d
fffd
0010
fffd
fff7
0009
0009
0019
0000
fffe
0011
ffff
fffc
ffef
fff2
fff8
0006
0012
0008
0013
fff1
0004
0005
ffeb
fff8
fffe
fffe
fffd
fffe
0007
000b
0007
0008
0004
fff7
0012
001b
0022
0006
0015
ffee
fffa
ffef
0000
0002
fff9
fff4
0006
0014
fffe
0009
fffe
000c
0007
000e
0002
0011
ffef
ffea
ffee
fffe
0000
0003
001c
0003
fffa
ffef
fffd
fff1
ffe4
ffe4
fff5
0016
0011
0018
0006
0006
ffe7
0000
fff0
000f
fffd
fffc
ffec
ffee
fff7
0003
0016
0009
fff5
ffe3
ffdc
0006
0011
ffec
0013
0012
0005
fff8
000c
000c
0006
0009
fffd
fff7
fff0
000c
0008
fff7
fff7
0012
ffff
ffff
0009
fff6
0005
fffa
fff7
fffd
fffd
0006
0011
0027
0014
ffff
0016
fff6
ffe8
fffc
fffb
fff7
ffe9
000a
ffe6
0006
0006
fffb
0000
ffec
0000
ffed
fff3
fff8
ffeb
0016
fff6
0011
000d
0000
000c
ffec
0001
0018
0005
0018
0012
fffd
000e
0001
ffe3
fff3
fff6
000c
ffee
001a
0009
0002
fff4
ffff
fff9
ffff
ffe9
fff6
ffeb
000a
ffe9
0002
0017
0004
0004
0002
001c
0022
0020
fffb
0007
fff4
ffe6
001d
0008
ffe2
fff5
0019
0001
ffee
fff5
ffdc
0026
001e
0021
0009
fffe
ffdc
0001
fff0
fffd
ffff
000d
0003
0001
0012
fffd
0009
0007
0003
000d
ffee
fffa
ffde
fff5
000a
0002
ffe5
ffef
000e
000a
ffe0
ffee
000a
0000
ffe8
0001
ffda
001c
0018
fff0
0011
fffa
fffd
0000
fffa
000e
0017
0010
fff7
fff2
fff5
fff5
fff2
fffa
fffa
fff0
0001
fff9
fff7
fff8
fff1
fff5
fff5
000d
fffb
0013
0000
0000
ffff
0006
0015
0004
0006
fffe
ffea
ffe8
fff8
0010
0009
001c
0000
fff9
ffec
ffe9
fff6
000c
0007
000a
0003
fffa
fff5
000e
001d
0009
000b
ffec
0017
ffe3
000b
001e
0016
0000
0007
0009
000d
0008
fffb
ffe8
fff3
ffff
fff8
ffdf
000c
fffc
fffb
ffdf
0006
0002
0010
0009
fff3
000f
0019
0014
0009
fff1
0008
ffee
000c
fff1
fff9
fff7
0014
fff2
fff4
0015
000d
0011
000f
0010
fff9
0002
000c
000f
0001
001a
0015
0013
000a
000e
fffa
ffff
fffe
fff1
fff9
fffd
0001
fffc
001d
fff0
0006
000c
001c
fffd
fff4
ffea
000a
0001
000b
fffc
0014
fff0
0007
fffc
fff6
fff4
fff2
000c
fff3
0019
000d
0014
fffb
0005
fffe
0009
000d
0022
fffe
fff7
ffe5
fff0
fff7
ffef
ffe9
ffe5
0018
0006
ffe8
000d
000a
000c
fff5
ffda
fff8
ffd7
ffe9
ffe7
fffe
0011
ffff
ffe6
0007
0001
fff8
000d
fff7
0007
0000
0014
ffec
0017
000a
fff0
fffd
fff3
fff1
0002
0003
000b
0001
fff3
0001
0003
0002
0014
fff1
0004
fff0
0004
ffec
0014
0022
0006
0005
0011
0009
fff8
fff0
fff1
ffff
000d
0004
ffe5
fffd
0001
fff4
0000
fff7
fff9
ffe4
ffe8
fff9
fff8
0003
0010
0014
0014
0011
0019
0000
0018
fffa
000f
0014
0004
0005
0005
0007
001a
0005
0000
001e
fff8
fffc
ffe1
0010
0018
ffe7
fff5
0006
fff7
0007
fffe
0016
0020
0014
ffec
0013
ffe5
0001
fff4
0005
fff4
0004
fff9
fff0
fffc
0010
fff2
0014
0007
fffe
fff6
ffee
ffe3
fffe
ffe8
ffe2
fff1
000b
0012
ffec
fff9
fff2
001b
fffa
0006
ffd5
ffde
000d
fff4
ffdf
ffe4
0012
000c
0037
fff9
001e
fff3
000b
fff8
fff3
fff6
0005
fff9
0002
0015
fffd
0004
001b
0003
fff4
0007
000a
0004
fff6
ffe7
0014
0000
0005
000e
fff9
fff2
0001
0019
0016
0015
0004
000a
ffed
fffe
ffe6
ffe9
ffdc
fff5
ffef
fffb
fff7
0009
0007
0008
000b
0001
0010
fffa
0014
fff3
ffef
ffe3
fffb
001e
0003
fffb
fff9
fff0
fffa
fffb
fff2
ffff
0026
001a
0007
001a
fff1
0018
fffb
001c
ffdd
0013
001f
0008
0014
0007
0006
ffef
000c
0007
fffc
ffeb
0015
0000
0002
0005
ffe8
ffea
000a
0005
ffef
fff4
0004
fff6
ffeb
000e
0014
0014
0014
0005
fff6
fff1
0003
0014
fff6
0011
ffe1
0008
0017
000a
0016
fff4
0007
fffa
ffdd
0006
0007
fff1
fffc
000e
000b
0000
0015
0002
0016
0009
ffe4
000b
fffc
0012
001f
001f
0016
fffc
001c
fff5
ffeb
fffa
fffc
fff7
ffff
0009
ffec
fffb
0001
ffdf
ffec
0003
fff5
0008
fff3
0010
0014
ffe3
0012
0010
ffd5
fff9
ffec
ffe0
fffa
ffe4
fffc
0007
fff4
ffe4
fffd
fff1
0009
ffff
fff8
0002
fff6
ffea
0001
fff0
fff7
fffc
ffe5
ffeb
fff1
fff5
fffc
fffc
ffff
0014
0001
0011
fff1
fff2
0002
fffe
0000
fffb
fff3
fff2
ffec
000c
ffff
0011
000a
000c
0007
0001
0008
0005
0009
fff9
0008
fff6
000e
fff6
fff5
0018
0002
000a
0013
fff9
000f
0007
0015
fffe
fff7
fff5
fff3
ffff
fff6
fff7
fff2
fff8
fff2
fffe
ffe9
0007
ffea
fff3
0014
ffff
0007
ffef
fff6
ffe8
ffef
0009
fff9
0000
000f
0010
0010
0001
0009
0000
000a
0007
ffed
0009
0007
fffb
000b
ffea
fffd
fffd
0003
fff7
000c
0000
fff6
0009
0010
0000
fff7
fff5
0005
0008
fff5
fff9
fff8
0012
fff7
fff9
fffb
000e
fffe
fffc
0000
0000
fff4
ffe6
fff4
fffa
000d
0005
ffeb
0011
0013
0003
fffb
0005
0002
ffff
0018
fff9
000a
0009
fffc
0017
fff7
0004
0004
0013
fff2
0003
000e
0003
0000
000f
0007
0004
0003
000c
000a
0005
0014
000f
0009
000e
fffb
ffee
fff7
fff0
0003
0008
000f
fff9
fffa
0011
0012
fff7
0007
0001
0006
000a
0003
0004
fff2
fffc
ffe6
ffff
fffe
ffef
000e
0008
fffc
fff9
000d
fff9
0001
000f
0016
fff6
fff0
fffd
0000
fffc
0010
000f
000a
fffa
000f
fffa
0009
fff2
fffb
0011
fffe
0010
fff8
0001
fff8
0005
0001
fffa
0009
fff4
000e
000e
0008
0006
0006
000d
fffb
0009
0000
0006
fff7
0005
fff5
fffd
fff5
ffee
fffb
fff8
0004
fffb
0010
fff8
000b
fff7
000b
fffb
fff7
ffed
ffff
ffeb
fffb
ffee
fffc
fff5
0012
fffb
0002
0005
fff0
0000
ffff
fffa
fffb
fff2
fff0
ffed
fff5
fff1
fff5
0003
fffe
0017
0004
fff1
ffe5
ffff
0007
0005
fffa
0000
0012
001d
000b
0008
000a
fff7
0000
0003
fff2
fffa
0011
ffe5
0005
0008
fffb
fffb
0008
000b
fff7
0000
0010
0005
fffb
000e
000c
000a
0018
fffc
0012
fffe
001e
0008
000f
0016
ffff
001b
0015
0018
000f
0018
fffb
ffea
ffff
0002
ffeb
0001
fff8
fffe
0001
fffc
ffee
0006
fff8
ffff
0009
000d
ffef
ffef
fff6
000e
ffee
0007
0013
fff8
0006
000e
0004
fff1
ffff
0006
fff6
fffd
fff9
0007
fffe
000e
0001
fffb
0009
ffef
ffff
0007
fff7
0002
000d
0007
000e
001e
0019
0009
001f
0005
0005
fffe
fffa
fff8
fff7
fff3
fff2
fff0
fffc
fff8
0016
0000
ffef
0006
fff4
fff8
0006
fffb
000c
ffff
000b
0017
fff2
0008
fffa
ffeb
fff1
fff6
fff2
ffe5
fff2
ffed
fffd
ffeb
fff9
ffee
0004
0006
000a
fffe
0008
0002
fffb
fffd
000d
fff9
0014
0015
0012
0015
001a
001b
0007
000b
0008
000a
fff3
ffff
000c
fffe
fffd
0007
0009
0003
fff6
000a
0008
0011
fff8
fff4
000c
fffa
000b
fff1
fffd
0006
0005
0003
fff9
fffd
fff2
0011
001c
0002
fff5
0001
ffff
fffc
0006
ffff
fff0
fff1
fff0
fffe
fff1
fff3
000a
fffe
fff6
fff9
ffe8
ffeb
0001
fff1
0003
fff6
fff9
ffe5
fff5
0014
fffe
0003
000d
fffe
000a
0003
0000
ffec
fff6
ffe0
fff2
000d
0005
0007
ffee
0000
fff8
0004
000f
fffe
fff9
fff1
0005
0014
fff8
0006
fffd
0001
fff3
0004
fffb
ffff
fff9
fff9
fffa
fffb
fff9
0002
0007
fff6
0016
000b
fff4
fff2
000d
ffeb
0006
0002
fffc
fff2
000d
ffee
fff5
ffe8
ffec
fff8
fff8
fffb
fff2
0005
0004
fffb
0010
0001
fffc
fffc
fff2
fff5
fff7
ffea
000a
0012
fff4
fff1
fff0
0010
0007
000a
fff7
001c
0005
001f
000a
fff2
0011
fff8
0003
0016
0001
fff8
fff8
0009
0000
ffff
0007
0007
000f
fff1
ffff
000d
0007
0001
fff2
fff5
000e
fff7
fff4
ffe7
ffea
fff1
fffc
fffc
ffe9
fffb
000b
ffef
fffa
0013
fff6
fff2
0008
fffc
fff8
fff2
fffd
000f
0001
0001
0005
0003
ffec
ffee
0003
001d
fffe
0006
0009
0019
fffb
0007
0004
0000
fff6
ffef
ffec
0014
0013
0008
0016
0000
fffb
ffff
fff9
0011
001d
0007
fffa
000c
0008
ffe9
0007
000b
fff9
0002
0004
000c
0002
fffb
ffe5
0002
0006
0008
fffb
fffc
fffc
000e
0007
ffff
ffec
ffeb
ffef
000f
fffe
fff5
001f
0000
0005
001b
0008
0009
fff4
0012
0002
0010
000a
0011
fffe
fffa
fff9
ffe2
0001
fff9
ffe3
0003
000f
0002
fffb
fffb
fffd
fff8
0006
0004
fff1
fff7
0009
0009
000c
0004
ffef
ffee
fff5
ffef
000f
fff6
fff9
fff4
0000
fffc
ffef
0001
0003
0001
0001
0008
0003
0003
fff3
ffeb
ffff
000a
000a
ffff
000f
ffef
fff9
0017
000c
001b
000b
fff5
0003
0004
0003
0005
000b
0007
ffff
ffff
0007
000c
ffeb
0010
000b
fffa
fff5
fff6
0010
fff4
ffef
0002
fffe
000d
ffec
0004
ffec
fffe
fff5
0016
000d
000f
0014
0005
0005
000a
0002
0005
000c
0005
000e
fffe
000f
001b
ffdb
ffea
fff1
ffee
fff2
fff2
0000
0007
fffe
ffff
0000
0000
fffd
0004
ffeb
ffed
fff8
0003
fff9
fffc
0004
fff7
000d
ffef
ffec
0010
0016
fff6
fffd
0011
000d
000b
0003
000a
0000
fff8
000c
000f
0002
0000
0003
0008
0001
ffed
0007
000c
fffe
0008
fffd
000c
0003
0013
fff5
fffa
fff3
0000
fff3
fff2
0006
0002
fffc
fff2
0009
ffeb
0008
0019
0002
fff2
0011
001a
001b
000c
001a
001e
000b
0002
000f
0009
000d
fffa
fffb
ffec
0004
0008
000c
0002
0014
0004
fffc
0001
0007
0010
ffea
001c
000a
000d
0018
000f
fff7
0006
fffc
0003
ffea
ffed
000b
000a
0000
fff8
0006
fff1
0004
000c
fff1
fff0
fff7
001e
fffa
ffee
0010
fffb
0006
ffff
000a
ffea
fff0
fff0
000f
fff2
ffe6
fffe
ffee
ffe9
fffe
ffff
000a
0009
0008
001d
ffdf
fff5
ffec
fffa
0012
ffff
0002
0002
0010
ffe4
ffec
fff6
0007
ffea
fff9
0002
fff0
fffe
fff0
0005
ffff
0017
ffe6
fffd
0010
fff6
fffe
ffe7
ffe2
ffe3
fff5
ffff
fff3
0008
000b
fffb
fff2
ffe4
fffc
fffe
fff6
fff6
0004
0014
fffd
0010
000a
0008
0015
000a
0015
0008
0006
0014
ffee
000b
0006
0005
0005
0012
ffee
fffc
0020
fff6
fff1
ffea
000f
fffc
fff0
000c
ffff
0003
ffe5
ffff
0006
0006
0008
fff5
0010
000f
fffa
ffec
ffef
ffe2
000d
0001
0000
fffd
0007
fff1
fff2
ffff
ffff
fff9
ffee
fffe
fffc
0001
0016
000c
0003
0004
fffd
000f
fffd
0012
0006
0012
0007
0008
0013
fff6
000a
000d
fff5
ffef
0010
001a
0004
0003
0012
0006
0000
fffa
0011
0000
ffef
fffc
ffff
000d
0005
fffd
0014
0016
000f
fffb
fff8
fffb
fff2
0002
fff3
ffec
0000
fff0
0005
fff3
ffff
0005
fff6
0002
0008
fffe
0009
ffeb
0009
0002
0007
fffe
0008
fffc
0008
000b
fffb
0012
0009
0000
000d
0002
ffff
0005
0015
000e
0003
ffe3
fffa
0003
ffeb
fffd
0011
0005
ffee
ffed
0014
fff9
0011
ffe4
0003
ffe5
fff3
ffff
fffa
000a
0012
000c
0002
0005
fffb
ffed
fffb
0004
0014
0004
000d
000e
fff5
fffa
fff9
ffed
0005
0001
fff8
fff2
000b
0003
0003
fffd
fff3
0017
0004
000c
fffa
0005
0004
000f
fff2
0001
0000
fff5
0010
0007
0019
001d
fffd
fffc
000c
0008
fff6
ffec
0001
0000
ffe5
fffc
0004
fff7
000a
fff2
0012
0000
000a
fff8
fff2
0001
fff8
fffb
fffd
000d
fffe
0004
0017
0007
0002
0009
000c
fff9
fff4
0000
0003
fffc
fff8
0003
fff6
fff6
ffff
fffc
0007
ffff
000a
0008
0009
0001
fffe
0002
0004
fff2
fff2
ffee
0000
fffb
ffff
0010
0000
ffff
0004
000b
0006
fffd
0005
0005
fffb
ffed
ffff
0000
000a
fff9
fff6
0004
ffff
0004
fff2
fff4
fffe
ffff
0007
0008
0006
000d
0000
0007
000a
ffff
0001
0004
0001
fff5
0002
0008
0001
fff1
fff8
ffeb
fffc
0006
fff8
000e
0004
000a
000e
fff6
fffa
0000
ffec
fff7
0003
ffef
fff2
0001
fff2
0004
000f
0002
ffec
fffd
fff4
0001
ffff
0002
0009
0003
fffa
fff9
fff6
fff2
0002
0004
fff2
fff9
0009
0001
fff7
fff6
fff3
fffd
0001
fff8
0004
fff5
0005
fffd
fff9
fffa
0001
0006
fff7
0000
000f
fffb
fffa
000f
fffa
000a
0004
0015
000e
ffff
0004
0005
0015
000d
fffb
0009
0001
ffff
ffff
000a
0009
0003
0002
fff6
000d
0001
fffe
fffa
0011
fffd
000f
000c
000b
fffd
fffd
fff7
0013
0011
000b
fffa
fff6
fff1
fff1
fffe
fff1
ffff
0012
000c
0010
fffb
fff8
0008
0005
fff0
000f
0014
fff6
fffd
000e
fff9
fffc
0002
000d
0009
0005
0007
0010
fff9
0001
fff7
0009
fff3
ffff
0000
0000
0004
0002
fff9
fffa
ffff
fffc
0008
fffc
fff6
0003
0003
0003
fff8
000c
ffff
fff7
0005
fff1
000e
0013
ffff
0002
fffa
fff9
000a
0002
000a
0004
000b
fffd
fffa
000a
0006
0008
fff5
fff8
0008
fffd
fffc
fff5
0000
fff8
0004
000d
0001
0005
fff2
fff1
0000
fff2
0005
0002
0005
fff7
000d
fffa
fffc
0001
fffa
000d
0008
fff7
000f
000c
fffb
fffc
0002
0011
000d
000e
0017
0006
0002
0003
fffa
0008
fff9
000c
fff2
ffff
0004
0004
fff7
fff6
000c
0005
fffc
000d
000c
0010
fff3
fff9
fffd
0005
000b
0006
0005
000d
0003
0006
fffa
000e
0007
fff1
000a
fff9
0002
fffe
fffc
000b
0004
fff9
fffb
fffb
fff3
fff9
fffa
0007
0006
0000
fff8
fff7
0002
0012
fffd
fffb
ffff
fff3
fff6
fffe
0002
fff8
fffe
fffa
0004
ffff
000a
fff8
0010
0012
0011
0004
fffd
0000
fff6
fff6
0001
000b
fff1
fff2
0007
0007
0004
0003
0009
0004
fffa
fff6
fff7
fffa
fff4
fff4
000e
fff4
fffd
ffff
0007
0007
fff0
fff4
0002
fffd
fffa
fff5
000b
0001
0008
fff9
0005
0005
0001
fff7
fffb
fffd
0005
000a
fffb
ffff
fff7
000d
fff5
fffc
0009
000b
fffd
fff7
fff6
ffee
0007
fff4
0006
0007
000f
000d
0008
0012
0014
0000
fff5
0003
fff7
0003
0006
fffa
fffd
fffd
ffff
fffb
000c
fff7
000a
0002
fffe
0001
0003
0008
fffa
fff9
fffd
ffea
fff6
ffed
fffb
ffe9
fffd
0000
fff6
0003
0009
fffc
fffb
fffc
fff2
0001
0000
fffa
fff4
fffb
0008
ffff
fffc
fffc
0000
0004
fffc
000d
000b
0002
0002
0011
fffd
0002
000d
fff8
0011
0008
0002
0008
0002
0009
fff5
ffef
fff6
ffe8
0001
fffb
fff8
fff2
0000
0004
fffb
fffc
fff4
000d
ffff
ffff
ffff
0000
0005
0007
0001
ffff
0000
fff9
fffd
fff8
0002
fff5
fff4
0004
0006
000a
0013
fff2
0004
0005
fffb
0008
fff6
000a
fffb
fffd
fffc
fff5
fffd
0001
0000
fff0
0008
fff7
fff0
0007
fff3
0003
ffff
000a
000c
0002
0002
0006
0006
0003
000a
fff8
0006
fff1
fff3
000a
0007
000b
fff4
ffee
0008
fff7
0006
0004
000a
0008
0010
0010
000c
0003
000e
fff6
fff8
fffa
fff0
0006
0005
fffa
0000
0005
000b
0002
0005
0003
0007
0007
fffd
0006
0009
0011
fff0
fff3
fff4
fffe
fffc
fff9
fff6
0005
fff4
000c
0009
0008
0002
0008
0008
fffc
0013
0006
fff9
000b
fffc
000b
0012
000f
fffb
fff4
fff9
0000
fffc
0006
fff1
fff2
0004
fff4
0008
fffe
fffb
fffc
fffa
fffb
0004
fff7
0000
0002
0008
fffe
fff7
0003
0001
fffd
0001
0001
0006
fff9
fff0
fffc
fff5
0011
0007
fff6
0004
fffe
fffc
000b
fffe
fffe
0002
fff9
fffc
0003
fffc
0011
0009
fffb
fff8
fffc
fff1
fff1
0007
fffe
0007
fffa
0009
fff7
fff4
fffd
fffe
0011
0000
0003
0005
0001
fff9
000c
fffb
fff3
0008
000b
0006
fff3
0000
fff8
0004
0004
fff5
0006
0009
0001
0005
0009
fffc
fffe
fffb
0000
0001
fffe
0007
0007
fff8
0003
0000
fff5
fffd
0004
0005
fff9
0011
fffe
0009
fffa
fffc
0006
0010
0011
0007
0006
000f
0002
fffb
fff0
fffc
000a
000e
0004
fff6
fffb
fff8
0000
ffeb
fffc
000c
fffd
fffe
fff1
000b
fff5
fffc
0008
fff9
0005
fffd
000f
fffd
0001
0004
0002
0002
0006
000f
000b
ffff
fffa
fff9
fffc
fff1
0002
0004
0001
fffe
0004
fffc
0008
0001
fffd
0002
fff9
000e
0009
0008
0010
0006
0001
000b
fff6
fffb
fff6
fff9
0000
fff4
0004
fffe
fffb
fff8
fff2
0009
fffa
000a
fffb
ffff
fff6
0002
ffff
0003
0003
0013
001a
0002
0005
0011
0004
0009
0005
ffef
fffb
fff4
fff4
fffa
fffe
fff4
fff3
ffe7
000a
0000
fffe
0006
0010
0001
fffa
0002
0000
fffa
fff6
0001
fff7
fff9
ffff
fff8
fff6
fff6
0004
000a
000e
fffb
000b
fff8
0004
0000
ffff
0013
fff8
0008
fff9
fffc
0001
0005
0003
fffd
0007
ffff
fff7
fff8
0005
0005
fff7
0000
0006
fff6
000a
0004
0000
fff9
0009
0003
0003
000e
0006
0003
0004
0004
000a
0008
ffed
fff3
ffef
fff3
fff5
0000
fff8
0000
000a
fffc
fffe
fff9
0001
fff4
0009
fff5
fffc
ffed
0003
0010
000d
000a
0011
000a
0004
0005
000c
0008
fffa
fffd
000c
0007
0008
fffe
0006
0007
0002
0002
0006
000c
000a
000a
fffc
ffff
0009
0004
fff7
fff5
0000
0002
000a
fff5
fffb
0005
fff9
0007
0008
fffc
fff5
0004
fff4
fff6
fff9
fffc
0001
0001
fffc
000e
0009
fff3
fff9
fffd
0001
fff3
fffc
0009
fff8
fff2
fff4
fffc
0007
fff7
0002
fff6
fffb
fffa
ffff
0007
fff3
fffa
0003
fff2
ffeb
fffa
000e
0004
fff9
fff5
0003
000a
0000
0005
fffd
fffc
0007
fffb
fff9
0005
fff6
0004
fff9
0009
0002
fffd
0006
000e
fffd
0000
fffa
0001
000e
fff8
fffc
fff7
0001
ffff
0000
0008
0001
fff5
000f
0007
fffd
fff5
fff9
0004
fffc
fffe
fffb
fffd
ffff
fffb
fff8
0007
fff4
fffe
000d
0005
000c
000f
0010
0006
000d
0004
fffe
0005
000e
0001
fffe
0014
000c
000a
fffe
fffa
0005
0000
fffd
0016
fffd
ffea
ffff
fff5
fffd
0009
0002
0014
0003
0015
0015
0008
000c
fffd
0006
0014
0009
0013
0011
0005
0011
0008
000a
0000
000a
0004
0007
fff9
0007
0006
fff1
fff9
0003
fff1
fffa
0006
000a
0001
0007
fffb
fffa
0004
fffb
ffff
ffed
0009
0006
000c
0000
ffee
fff7
0009
0002
fffe
0003
000a
0004
fffd
fff9
fff9
fffb
fffb
000c
0003
0004
fff9
0007
fff5
0004
ffee
ffff
fff8
fff9
0003
fff9
0004
fff2
0003
000b
0002
fff9
0009
0000
fffa
0000
fff0
fffb
fff7
fff9
0002
0009
0000
0006
0005
fff2
0005
fffe
fffe
000a
0009
0009
0006
0003
0000
0002
fff7
000c
ffe3
fff3
0001
ffee
0000
0004
001a
ffe8
0010
fff8
001d
001b
fff5
ffea
ffef
fff3
001c
fffc
001c
fff1
0009
000e
ffe8
fffb
ffed
000b
fffb
000a
ffff
000e
fff3
000c
fff3
fffa
fff5
ffe5
ffe2
ffff
fffb
fff6
000d
0009
0017
fff8
0013
fff5
0018
0011
fff6
0015
000c
fff7
ffff
0004
000c
fffd
0006
0003
0011
fff3
ffdb
ffe9
fffd
0003
0014
000f
ffe9
000b
ffed
0006
fffa
0000
fffe
fff7
0000
000a
002a
0009
000d
0000
000a
fff2
0001
0006
fff7
0018
0016
fffc
0001
0006
fff1
ffff
000c
ffea
000c
fffc
0010
001f
0008
0020
ffe7
fff9
000b
ffd2
ffe1
0018
0012
fff6
0009
0012
0016
001f
ffe2
fffb
ffde
ffff
fff8
fffe
000d
000d
fff7
0013
fff9
000c
fffa
ffeb
0011
ffea
fff9
ffff
ffed
fff0
fff6
ffff
fffc
fff1
0007
0024
0003
000a
000a
fffb
ffe4
fff7
000a
ffff
0017
0008
000e
0001
0017
ffee
fff2
0005
0002
0016
0001
ffd5
fff7
0004
002a
0019
000b
000c
0010
fff8
fffb
fff3
0002
fffe
0014
fff2
ffe5
0000
fff6
000b
fff5
0013
fffb
fff5
0004
0019
ffee
0017
0005
fff3
fff8
fffa
0002
0028
0009
000e
ffff
ffe3
fff1
0001
fff4
ffea
0001
0014
0011
0006
0007
fff6
0007
fff2
fffc
fff0
000a
0018
fff9
fff8
fff1
0000
fff1
fffd
ffe0
fff0
ffff
ffff
0008
000c
0014
0006
fffd
fff6
0014
001a
0003
0001
0011
fffa
ffef
0008
fff0
001c
000a
0004
ffe8
0010
0001
fff9
0000
0000
fff1
001f
ffeb
fff9
ffee
fff8
fff8
ffff
fff3
fff8
000a
0004
0008
0008
0012
0013
ffed
0013
fffd
0010
0003
0015
000e
0001
ffea
ffea
0001
fffe
fffa
0015
fff3
0003
fff1
fffc
ffe6
ffff
0024
fff7
0029
ffed
fffd
fffc
0022
fff6
0006
001e
001b
fff6
0020
0027
fffd
fff1
ffe8
fff8
000f
0023
0009
0002
0002
0016
0016
001f
ffff
0000
0000
000d
ffe9
fff9
ffe9
0009
0005
0000
ffed
fffb
fff4
fffe
ffe0
ffdb
ffe9
fff6
ffef
fff1
ffe1
ffe9
0014
0006
0006
0002
fffc
fff9
0004
ffe6
fff7
0011
0004
0009
fff4
000b
fffe
ffd3
0000
ffe1
001a
0007
fff4
fff0
000c
fff9
fffb
000c
001a
0003
000a
000a
ffdf
ffe1
ffe0
0006
0007
0018
0026
0008
000a
fff3
fff8
0005
0002
fff8
ffe6
fff4
fff1
fffd
fff9
0007
ffff
001d
001d
0013
0026
fff8
0010
000a
fffd
fff4
0000
000f
ffff
ffe6
000f
0025
000c
ffe6
ffdb
ffee
0024
0004
ffe8
0007
ffff
000e
ffec
fff4
0009
fffd
0007
fffe
0005
000f
fffc
fff9
fffb
0017
0006
0005
fff6
fff4
ffcc
ffff
0007
0008
fffb
ffee
ffe9
fffb
fff1
0017
0007
0002
ffeb
0004
fff2
ffe9
0008
fffb
ffff
fffc
000d
fff9
fffe
0018
0009
001b
fffb
fffc
0010
000d
fffd
fff8
000b
0017
0021
0018
fff1
0008
ffec
0010
ffee
0008
ffe9
fff0
0003
0013
ffe7
fff9
fff2
0001
fff1
ffff
ffe7
0006
ffe7
0002
ffff
0009
ffe6
fff6
0005
0017
0010
fff7
000a
ffe8
0013
0007
fffe
0007
fff0
ffee
fffc
0006
000a
0004
fff3
0005
fffc
000e
fffa
0010
fffe
ffde
fffb
ffef
fff2
ffe3
0028
0013
ffed
0004
fff7
0027
0008
ffff
0001
fff8
fff5
ffea
fff3
fff4
fffc
fff0
ffe7
0009
000d
fffd
000f
000c
0004
fffe
001c
000c
0007
fff6
fffb
001c
000a
0001
fffb
0001
0019
0005
fff2
ffe4
0008
ffef
fff6
0008
000e
0001
000a
fff6
fff2
0007
ffef
fffb
000c
0004
000c
0013
0023
0000
ffec
0017
0015
001c
0015
fff0
fffc
ffe4
ffdc
0003
001e
ffeb
ffe8
ffe8
000d
000a
ffdd
000c
ffe9
ffec
fff0
000a
0003
fffb
0029
001b
0009
001c
ffef
0001
0005
ffda
fffc
fff0
ffed
0015
0018
fffe
0015
ffea
0019
001f
0034
001c
0005
001e
001e
001d
000b
fff7
fff8
0000
fffe
ffe7
fff8
0018
fff2
fffe
fff2
fff1
ffdd
ffdb
ffd4
ffed
fffb
fffc
ffc8
ffce
ffff
ffe3
000a
0008
0006
ffd7
fffc
fffa
ffef
fffd
0001
0037
0018
0003
0013
fff8
0025
0009
fffe
000e
ffe6
ffe8
fff4
fffe
0014
ffe5
fff1
ffe7
0006
000a
0011
000c
ffe8
0012
fff7
0003
ffe7
0002
ffe9
ffdf
000f
0002
ffed
0013
0019
fff4
000d
ffff
ffed
0001
ffcc
fff9
ffe6
0005
fffe
000e
fffd
0010
0014
ffeb
0002
0009
fffb
002f
0016
0004
fff7
ffe9
fff7
0007
0007
0007
0002
fff3
ffee
0013
fffe
ffec
0006
0015
001f
000b
0030
fff7
fff2
ffe3
002c
0009
fff3
ffec
ffec
ffed
0008
fff7
001b
000f
ffe7
fff4
0005
0028
0007
ffed
001c
ffec
fffb
000f
ffe5
0019
0012
ffff
fffc
0004
0024
0001
0011
fff5
0016
ffe9
fff4
fffe
0017
0016
0006
000f
0007
fff7
ffd8
0008
ffeb
ffee
ffec
fff6
fffa
0003
0001
0000
0009
ffe7
0026
000c
fffc
000a
ffeb
fff0
ffee
ffde
0009
ffd8
0002
001c
0022
0005
fff5
fff6
fff4
ffed
ffff
ffd1
0002
fff0
0007
0004
0011
fff4
0003
ffe6
ffd8
0007
0016
0015
0009
ffe7
ffe5
ffe3
ffe6
000b
fffa
0006
ffe9
0003
ffdd
ffe3
fffe
001f
001c
0001
0001
0021
0008
fff7
0012
0017
000a
0018
0008
ffea
ffe1
fffc
0003
ffdb
000e
000f
fff9
001f
0024
0000
fff5
ffe4
0025
fff9
ffee
000c
0008
001e
0003
0015
ffe3
0001
ffe5
fff5
0001
ffe7
0013
fff1
0007
0029
fffb
0005
0010
0003
fffc
0004
ffe7
fff7
ffdf
0014
000c
0027
0004
0016
0009
fff9
0012
ffda
ffd6
0008
fff7
000f
003d
fff7
ffd9
0016
0000
ffe5
0024
0013
0008
fff5
001d
0024
fff2
fff2
0002
fff0
fffb
000d
0016
ffe9
fffa
ffe5
0005
fffd
0003
000a
0014
0004
003c
0024
fffd
fff2
0000
0025
001c
fffc
ffd2
ffdf
0000
ffe7
fff7
ffef
fff6
ffee
ffee
0007
0005
0012
002c
0021
0019
fffd
0004
ffe3
ffea
ffe9
0006
0013
fff3
ffe1
ffed
0004
0015
ffef
0022
0007
ffe1
0002
0008
0018
0017
fff1
fff7
002a
fffe
ffed
ffe9
0005
0014
001f
0014
fffd
001e
ffff
0011
001a
001d
0008
0019
fff1
0005
ffe4
001c
0000
002b
0035
000e
ffe6
fff3
0003
fff7
ffe7
0004
ffff
ffeb
0008
0002
0013
fff5
fffe
fff8
0014
0024
003d
fff2
fff1
000c
001d
ffeb
000f
fff0
0001
0015
ffef
0008
fff1
000c
001d
0018
fffa
0011
0001
0000
ffef
ffe7
0003
fff8
fffa
ffee
0005
fffc
fff1
000e
fff7
000e
fff2
ffe7
ffeb
0004
ffe1
ffef
0001
fff0
000d
fffd
ffdc
000e
0014
0017
0010
ffec
0011
0008
0003
0009
0004
0004
000f
0028
0012
0014
000a
0000
fff6
ffe9
ffe8
0018
fff1
0000
ffe6
ffef
ffe5
ffff
0016
0008
ffe4
fff4
fffa
001a
fff5
0010
fff5
ffee
ffec
001a
fff2
0011
fffb
0026
fff8
0016
000f
ffdd
0011
ffd6
ffef
0004
ffe2
ffdd
fffe
0005
ffec
0018
0007
ffe8
0008
0015
001a
fff3
fffe
ffde
000b
000c
ffee
0002
0009
fff7
fffe
0023
fff3
fffa
fffc
fff5
0016
ffed
000e
0007
ffff
fff5
0017
fff9
001a
fff4
0009
001c
0004
fffd
fffc
ffe2
fff9
fff8
001d
fff7
000b
ffe7
0023
0028
001a
0001
fff6
ffee
0006
fff6
fff8
0006
0013
0024
000e
fffa
0008
0005
ffe1
ffe8
000a
0008
fffb
000b
fffb
fff5
fff5
000c
0014
0012
fff2
fff1
000b
0004
fff3
ffea
fffd
fffe
ffeb
0007
000c
fff1
0000
fff8
ffef
ffe0
ffee
fffd
fff2
001a
0007
001c
001d
fff6
fff1
fff8
ffe8
0005
000e
fff9
fff2
ffeb
0000
0004
0008
000b
fff1
0003
0000
0001
fff6
fffe
fffa
fff0
0001
0005
0007
fff7
fffa
ffe9
0001
0007
fffd
fffa
fff0
0001
fff7
000c
fff6
0001
0006
0009
fff4
0017
0001
ffe9
fff0
0002
000b
ffe9
ffee
0007
0003
0000
000d
ffe7
ffee
fff2
ffff
fff6
001a
ffee
fff9
0002
0004
ffea
000d
001c
0008
fffc
fff6
0004
ffef
0006
fff5
0002
000c
0003
fffc
fffd
fff3
0007
000c
fff9
0010
0000
ffea
fffc
ffef
ffff
000b
0001
fff6
0005
0009
fff5
ffec
fff4
0004
0002
fffe
0000
fff1
ffe9
000f
0005
fffe
fff6
0000
fffa
0018
000c
0009
0008
0000
fff8
0017
fffa
0005
0007
0013
0007
fffa
0002
0002
ffee
fff6
fffa
fffe
fff5
0009
0005
0009
0010
000e
0001
0002
fffe
fffe
0010
fffd
0004
0010
fff7
0003
fff5
fffd
0011
ffeb
0005
fffe
0001
0019
000d
000e
0002
000e
001a
fffb
000a
0001
0004
fffb
000f
0005
fff7
0007
fffc
0006
fffa
0010
fff5
ffff
fff2
ffee
fff1
001f
fff7
0016
000a
fff6
0008
000b
fffa
0007
0006
fffe
0000
0007
fff2
ffe9
ffef
ffe4
000a
000a
ffdb
0003
fff3
ffef
0002
0003
fff8
fffc
0006
fff7
fff5
0000
ffee
000c
ffeb
fff9
0011
0002
fff9
0002
0001
ffec
000a
0002
0009
ffe2
ffff
001d
fffb
000d
000d
0000
0004
000d
fff9
0006
fff9
0009
000f
000a
fff2
fffd
0008
ffff
fff5
0006
0004
0015
0017
fffd
0018
fffb
fff7
0008
0001
000c
0008
fffe
fff6
0008
0003
ffff
fffe
ffff
ffee
fff8
0001
0001
0004
ffff
0015
0014
0009
0016
001f
fff1
0012
0006
0008
000a
fff7
0005
0014
0009
0007
fff5
0004
0009
0003
0015
000e
0009
0009
000a
000f
ffff
fff9
000c
ffef
0008
0002
fffa
ffe3
fff2
ffe2
0009
fff5
0005
fff1
0012
ffff
ffeb
0003
ffeb
0007
0007
fff6
fffc
0001
fffd
fffc
0000
0009
fff8
fffd
0008
fffb
0012
0009
0004
0013
0016
000e
0006
fffa
0022
0005
fffd
0009
0019
0005
0004
000a
0005
fff7
0009
fffc
fff6
0006
fffb
ffeb
0000
fff8
ffeb
fff8
000a
000f
fffd
fff0
fff0
0003
0014
ffff
ffec
0011
fff3
0009
fffc
fff2
0013
001d
fff9
000a
fffb
fff0
fff8
fff1
0000
fff8
fff9
000b
fff3
ffef
0008
fff1
0001
ffed
fff1
fff2
0005
0003
ffff
fff5
0006
ffef
0000
fff5
fff7
0017
fffe
fffb
fffd
fffa
0004
0015
000c
000c
ffec
fff2
fffe
fff8
000e
fffb
fff2
fffc
fff3
fffe
0017
0004
fffb
0008
000e
ffdf
fff1
fffc
fffc
fffa
0005
ffd7
fff4
fff0
0009
000d
0008
fff7
000f
fff2
ffec
fff6
ffe4
000d
ffef
0013
000b
0000
0012
0006
fff2
000b
fff9
0003
0017
0014
0017
000e
000f
0014
fff9
fffd
0010
0007
0015
fff6
fff7
0002
fffe
000a
fff8
fff2
fff1
fff5
fff7
0014
0002
000e
000f
fff0
0000
0004
ffff
0008
fffc
0009
fff0
fff8
0010
0007
ffef
0006
ffff
0007
000e
fff3
ffff
fff1
0009
ffe8
000f
fff9
0007
fff4
0002
ffe9
0005
0017
0006
000c
0007
fffd
000b
0001
fff7
0004
fff0
fffa
0009
ffe8
000b
0016
0000
0008
fff1
000c
fff5
0010
000f
000e
fffd
fff3
000d
0008
0004
0007
fffc
0009
000a
fff2
0009
fffc
ffe7
0018
fff3
ffdb
0005
0009
ffea
0006
001e
000a
fff3
fffd
0004
0003
0003
ffef
ffe9
fff4
fffb
0004
0007
fff1
fff4
0012
ffe8
ffee
fffd
0001
0010
fffa
000a
0004
0002
fffe
fffa
fffc
0015
fffe
fffb
0003
fffc
0002
000e
0000
0005
0024
0001
0010
000b
fffa
fff8
000a
000b
000f
ffed
ffef
ffea
ffea
ffee
fffd
fff7
0004
ffef
ffff
0005
0003
fff4
fffc
0010
fff2
0006
001e
fffc
fff3
fff3
fff7
0003
0005
000f
0002
0008
ffe8
fffa
ffe7
ffe5
fff4
ffef
ffeb
ffeb
fff5
0006
ffff
0001
000c
0008
0001
ffec
ffff
fff8
ffff
ffee
0004
fff6
fff4
ffeb
0011
fff8
000a
0007
0002
0008
000a
000a
fff4
0002
001c
000d
000c
ffec
fff4
fff8
ffed
ffff
0004
fff6
fffc
fffe
0007
000c
ffff
0004
0006
000f
fffb
000f
ffff
ffff
000b
fff6
000d
fff2
000d
000b
fffd
0003
fff8
fff5
0004
000d
fffc
0014
0005
fffc
fff6
fff1
ffed
0000
fffd
0009
fffc
0012
0008
fff3
ffff
0002
0005
fffa
fff6
fff8
fff5
fff3
0008
fff3
fffd
0003
ffff
000d
fff6
fff7
0005
0008
fffc
fff9
000d
fffe
fffc
fff5
ffff
0011
fff4
0005
0000
0004
0010
ffe8
fffb
fff7
0002
ffff
0016
fffa
fffe
000b
0004
fff8
0016
fffb
fff5
fffd
0001
0008
000a
0009
fff1
fff2
fffe
0012
0002
fffa
000b
000c
000b
fffe
fff8
0001
0003
ffef
fffe
fffc
fff7
fffa
0002
fffa
fffd
fffa
fff2
fff2
fffb
ffdf
ffee
0001
0008
ffeb
fffe
000e
ffef
fff7
fffd
fffb
fff1
fffd
fff8
fff2
ffea
fffe
ffeb
ffef
fff6
fff5
fffa
0006
fff8
fffe
0005
ffff
fff7
0009
0007
fff7
ffff
ffef
000c
ffeb
0000
0004
ffec
fff5
000f
0004
fff5
fffb
ffeb
0012
000a
fffe
001c
0000
001b
fffc
0004
fffc
0004
0011
fff6
fffe
fff4
ffff
fff0
fff2
fffc
fffe
fffb
fffb
001a
fffb
0018
fffc
0002
ffff
fff0
fff5
fff1
000a
fff7
fff0
000f
ffe7
fffa
002f
0005
fff7
0007
000e
fffa
000a
fff9
000b
000f
000b
fffd
fffe
0003
fffe
0000
0004
0013
fff3
0006
fffe
0001
fffd
fff6
fff2
0009
fffc
ffea
ffec
fff7
0001
fff7
fff9
fffc
0007
000c
fff1
fff2
0004
0001
fff5
fffa
ffec
fffe
0000
fffd
000a
0001
0001
fff3
fff0
fffd
0001
0004
0002
000f
0000
ffec
fffe
fff5
0009
0019
0010
fff8
0012
fff6
fffd
000a
0011
fff3
fffa
fff6
0004
fff7
fff5
ffff
0001
0011
0009
0009
fff1
fffb
0001
fff1
0003
0009
fff3
fffe
fffc
fffe
0007
fff8
0004
0005
fff3
fffc
0005
fff8
fffa
000f
fff1
fff2
0006
fff7
0000
fff5
fff9
fffd
0001
0016
000f
fffd
ffff
0000
fff8
fffa
fffe
fff5
0004
ffef
fffc
fff9
0004
0008
fffb
000f
fff2
000a
fffe
ffff
fffd
0009
fff0
fff7
000c
fff5
fffe
fffd
fff2
0006
0003
fff6
fff5
0006
0005
ffee
000e
0020
fffd
fff6
0016
0008
0010
000b
fff9
0010
0002
000b
fffe
000a
0019
fff6
0007
fff2
0005
0009
000e
000d
0007
000b
000c
fffb
fff9
0001
0012
fff7
fff4
fffd
fff0
fff9
ffe7
0001
fff3
fff6
fffd
fffa
000f
0004
fffa
000d
fff4
ffec
0007
fffc
fff4
fffc
ffee
0007
fff3
fffa
000e
0007
0009
fffe
fffa
fff7
ffff
fff0
fffd
fff9
0002
0006
fffa
0003
fffb
000b
000c
000a
000a
000f
0002
fff9
0002
fff4
000c
ffff
0005
fff6
fff4
fff5
0002
fff3
fff5
0001
fff4
fffc
fff5
0006
0006
ffee
0002
0006
0009
0006
0008
0001
fff9
fff1
fffb
fffd
fff6
fff6
fff6
0004
fff8
0007
fff1
0006
fffb
0014
000b
fff3
ffff
0006
0004
ffff
0006
0016
000d
fff8
fff7
ffde
fff5
ffee
0000
0009
0013
0012
0005
0000
fff8
001b
000f
fff4
0008
0000
0010
0005
ffe7
ffe0
ffe8
000f
fffa
fff4
001a
fffa
0000
ffea
fffa
0017
0003
000f
ffe7
fff1
ffe8
ffce
fffb
ffec
fff5
0004
0001
0025
ffed
000d
000b
fff5
0008
0023
fff5
0025
0016
0011
0020
ffe1
fff7
ffef
ffef
fff4
ffed
ffef
0028
001d
ffec
000c
fff6
ffe9
ffff
0000
0007
0019
0001
0037
000d
0023
fffe
fff6
001a
0002
ffff
ffdb
ffe4
000f
ffdf
0006
000c
000b
0007
001e
ffe4
fffd
0012
ffeb
ffff
fff7
fff9
0013
fff7
fff2
000b
ffff
ffe6
000c
fffa
ffff
ffeb
0001
0012
0004
ffd4
fffe
fff8
0008
0016
ffff
0002
0017
0011
ffea
ffef
0014
0000
0009
fff5
000b
fff9
ffed
fffd
fff3
000b
fff8
0004
ffec
0021
000b
0017
ffec
fff0
0002
0001
0017
0003
0003
ffed
ffe9
fff0
fff9
fffa
fffa
fff6
0001
ffed
ffe4
fffb
fffa
000b
000c
0025
001f
0015
0007
001d
fffa
fff2
fff9
fffc
0003
fff8
ffec
0018
0009
0028
fff6
ffec
ffe2
ffec
000b
ffee
fff6
fffb
0004
fff2
0005
ffeb
000f
ffee
fffd
000f
001a
0032
fff7
fff7
0010
0009
ffe0
ffde
ffed
0008
fffb
001a
fffe
0016
ffe3
0017
fff4
0005
000b
0009
fff0
0007
000d
fff4
ffed
0004
fffe
fff2
fff1
000f
0028
0009
0002
fffc
fff1
ffff
fff5
0029
ffe1
0027
0024
0005
0005
fff6
fffc
000b
ffe5
0006
000d
0014
001d
000f
0002
0020
001e
000d
ffe8
0015
001b
0015
ffeb
000b
0007
001f
0002
fffe
fffe
0003
ffe6
ffe5
fff4
ffe6
0005
fffe
0001
ffe7
fff3
000e
fff6
fffc
001d
ffef
000a
001a
fff6
000e
000c
0019
fffa
0024
fff9
ffee
fffe
000a
000c
ffed
fff0
fff9
ffe4
fffb
000a
ffec
0015
0010
ffeb
ffe7
ffff
ffe6
fff1
001d
ffdf
ffdc
0019
0000
fff5
ffe3
ffff
fffd
fffa
ffdc
ffd7
ffe3
fff9
ffee
0009
fff4
fff7
0004
0001
fff8
ffed
fffd
ffe6
0013
0012
0007
0004
0011
ffe2
fff5
ffea
0018
000b
0017
fffd
ffea
0002
0023
0011
0020
0017
0026
ffe3
0007
000a
0010
0016
ffe8
fff7
000d
001a
fff9
0020
fff7
ffe1
0012
fffe
ffec
0008
0021
fffd
002c
fffe
fffb
0013
001a
fff7
0013
0010
ffff
fff7
fffd
0015
0016
001d
fffb
000a
ffe6
fffe
ffe0
0020
000b
ffee
000f
0006
ffe5
fff7
fff9
000f
0019
000b
fff4
ffe6
fff9
0018
0014
001f
0013
ffec
000b
fff2
fffb
fffb
0002
0003
0004
ffef
fffc
fff9
001c
001a
001b
fffd
0002
fffe
0005
fff6
fffe
0007
0011
0009
fffc
001d
fff0
fff6
0018
001d
0013
fff8
0014
0017
fffe
ffec
0015
0005
fff4
0006
fffe
0019
001b
ffec
0016
0005
0006
001f
fff2
fffe
ffe2
0016
ffe8
ffd8
0005
0017
000a
fffe
fffc
0003
0001
000b
fff8
fff5
ffe7
fff8
fff6
0013
000b
fff2
0011
0000
ffe6
0004
0001
000e
fff7
fffe
ffe5
ffe4
fff7
0003
ffea
0000
000a
0013
0021
001b
0002
fff5
fff8
0013
fff8
fff2
0008
0019
0007
000c
fff5
fff1
000e
fff9
0013
fff5
0023
0004
fff9
fffe
0005
0014
0015
fff9
0010
fff9
0005
0011
0005
0013
000f
0002
0003
ffd6
ffdc
ffda
ffeb
0000
ffe6
0015
000a
0003
0008
fff3
fff0
0000
ffed
000e
fff4
ffee
fff3
001b
ffff
0007
ffe5
0002
0017
ffed
0006
000e
000a
fff1
ffde
ffdc
fff4
ffee
fffa
fff8
000b
fff7
fff3
0013
ffed
ffdd
fff8
fff6
fffe
0011
000d
fffd
ffe1
0008
0001
0005
0022
fffc
ffe6
0014
fff1
fff5
ffd7
0008
000b
0004
fff1
fff9
0002
fffe
fff8
0004
ffed
fff3
fffd
0020
fff8
000a
fff1
001b
0021
fffe
000b
fffa
0003
fff5
000d
ffff
ffff
0001
0006
fff3
0008
000e
000e
0006
fffd
001e
001b
fffc
fff9
0008
ffff
000d
fffa
0006
0000
fff4
0001
001a
fffd
0001
fffa
000d
000b
ffee
fffb
0009
0012
fff2
ffef
fffe
0001
ffff
0002
fff4
ffed
000c
fff3
000b
ffe5
fff1
000a
001f
0015
0008
0015
0001
fff3
0015
0009
ffea
ffe5
ffe6
000b
0006
fff0
0001
fff3
fffd
0003
0000
000e
0001
000c
fffb
0014
ffee
ffeb
000b
fffb
ffeb
0016
0009
000b
000f
0009
0002
0019
fffd
ffe0
000b
001d
000e
0007
ffeb
ffe1
0010
0005
fffa
0000
0004
0007
fff9
0009
fff8
0014
fff4
fffc
0000
fff3
0007
fff9
ffe3
fffc
fff9
fff0
0002
fff6
ffe9
ffef
000b
0002
ffeb
ffff
ffff
fff8
0005
fffc
ffed
0015
001c
000c
fffb
fff8
0008
0010
0011
fffa
ffef
0002
ffe4
0017
0008
fffa
ffe4
0014
fffe
fffb
0015
0018
0018
0002
0013
fffa
001c
000b
fff8
fff3
fffc
ffff
fffd
fff6
fffd
ffe7
0005
ffe6
ffe5
fffc
0004
000c
001b
0003
0003
0007
fff8
ffe7
fffe
0012
fff6
0007
0002
0012
0006
0000
0010
0011
fff7
ffea
0003
fff7
0000
0006
ffed
ffff
0017
ffeb
000c
ffff
0019
fffc
fff4
000b
0004
fff6
0007
000e
0008
fffd
fffb
0001
fff3
000f
ffe5
0002
fff5
000c
001a
000f
0002
fff3
fff3
fffb
0002
fff2
ffea
000a
000a
fff9
0014
000d
000b
fffb
ffe6
ffe5
fffc
fff4
ffe9
000f
ffea
0004
fffb
ffea
0001
0001
0012
0014
ffeb
0000
0002
0018
0001
0010
fff6
0011
0009
000d
0010
fff1
fffc
fffb
fff8
fff8
0007
000d
fff9
0002
0009
0008
001b
0018
ffee
ffef
fffe
ffec
fffd
ffff
0014
001b
0011
fff4
0002
0001
fffb
001f
000d
ffe8
ffe6
ffe9
fff9
fff1
ffec
0009
0017
0016
001c
fff9
fff6
ffff
0018
0005
fff8
fff8
0007
fff9
000a
0016
001e
0003
0007
0018
0013
000e
0009
0003
ffda
0018
fff9
fff1
000f
ffee
ffe7
0006
fff9
0005
0001
fff7
000a
ffef
000e
0007
0006
fffe
ffe9
ffff
000d
fff3
001b
0000
001a
fffb
0007
fff2
ffea
0009
0005
ffeb
ffe8
fffa
fff0
0002
fffd
000b
fff5
0007
fffb
fffc
0017
000a
ffdf
ffde
fff7
ffee
ffe9
ffe9
fff7
0003
fff5
0001
fff1
fff5
000e
0008
fff9
ffef
ffee
fff6
0003
fff8
fff3
fffc
fff0
fff6
fffc
fffc
001a
000a
0005
ffe2
0003
000d
0001
000d
001a
001a
0002
fff8
0014
0007
ffea
fffe
fff9
0006
ffe6
000f
0002
fffe
ffee
0003
0004
fff9
fff1
0009
fff5
fff5
fff8
0017
0007
fff8
fff7
ffeb
ffe9
0013
000e
fff3
0016
000d
ffe8
fff0
000e
0013
001b
0007
0004
ffdb
0002
ffff
fff5
ffed
0001
0012
ffe3
fffb
000c
ffe6
fffe
0013
ffec
000e
ffed
ffe1
fffb
0011
ffee
0020
0003
000a
fffd
0014
0010
000b
fff9
fff9
0018
001f
0006
fff9
fffd
000d
000f
0017
000d
0008
fff1
fffd
ffff
0011
0015
000d
fff0
001c
fff5
0013
fffb
0010
0018
fffb
0002
0015
000b
fff4
0010
0013
ffec
ffec
ffe5
001a
0006
0001
0012
0009
000f
ffe3
ffe9
ffe7
fffd
ffeb
ffec
fff4
fff6
0008
0012
ffec
0005
fff8
0013
0006
0012
0002
fff8
fff5
fffd
ffff
fff8
fff3
000f
000a
0008
ffed
fff1
fffa
0001
0009
0009
fff9
000b
fff7
0008
ffeb
ffec
0002
000c
fffc
fff6
fffa
ffff
0008
000e
0017
0005
0008
0006
ffe5
ffe7
ffe9
ffe8
fffd
000d
000a
fffa
ffec
000a
0007
0005
0003
fff6
fff5
0008
ffeb
ffec
fff6
ffdd
ffe3
fff9
000a
fff0
ffef
fffa
fffc
0007
001c
000a
fff0
0002
fff8
ffee
fff9
0005
ffdd
0006
0004
fff8
000f
0002
000d
fff7
0009
fff3
0008
0004
0017
ffef
0004
0003
0008
0011
ffe9
0000
fffb
0006
0002
fff9
000a
000f
ffe5
ffee
fffe
fffa
0003
fffa
000b
000c
ffec
ffef
ffeb
fff5
000d
000d
001c
0014
0004
fff2
fff1
ffee
ffee
fffa
fff3
0010
fff6
fff4
0008
0008
0000
fffb
000a
0001
000b
fffc
ffee
0002
fff6
0004
000c
0010
ffff
ffeb
fff8
fffa
0004
fff7
fffd
0005
001d
001d
000a
0005
000d
ffe4
ffea
ffe4
0002
ffe5
fffc
000e
0007
0004
ffff
ffff
000a
0014
fffc
000d
fffc
fffb
0006
0010
fff9
fffe
fffe
0014
0003
fff9
ffeb
fffd
0003
ffed
0000
ffee
ffe1
fff4
fff9
ffe7
fffb
fff0
0001
0009
fff2
fff5
0000
0009
0002
fff3
000a
0005
0005
fff8
0006
000a
000d
0008
fffd
fff9
0012
fff1
0017
000c
0007
0010
fff9
0006
ffe7
ffe4
fffc
fff7
ffff
0003
fff3
0001
fffb
ffee
000a
fffc
fff2
fffe
0003
fff8
ffee
ffef
0000
fffd
0004
0014
000a
0000
fff7
fff2
0007
fff2
000f
000e
000d
0011
000f
0003
000f
fffa
0004
000f
000d
fff8
fff2
fffd
fffb
ffff
fff6
000a
fff0
ffff
000a
0004
ffeb
fff4
0010
fff3
fffb
0009
ffff
0001
000b
fff6
fff9
ffeb
ffed
000f
0016
0000
0006
000d
fff9
ffff
0006
0005
fff2
000e
000b
0008
fff5
fffb
fff9
fffd
fff5
fff9
fff9
0012
0003
fff9
fffc
ffeb
fff0
ffe8
000d
ffff
fff6
ffed
000b
fffb
fffc
fff2
fff7
ffe3
0001
ffef
0009
001b
000a
0024
0020
0016
0002
0004
fff3
0006
fffd
000b
ffe1
ffe6
ffed
0011
fff3
fffa
0014
0002
0001
fffb
fffd
0011
ffdc
ffff
0005
0007
0001
fffc
0016
000f
0015
0013
0004
fffe
fff6
fff6
ffdf
0026
0013
0010
0006
fffb
0006
0023
0001
0008
0001
000a
ffef
0015
0012
fff1
fffc
0008
0000
fffe
fff1
fff7
0002
0005
0000
ffef
ffea
fffd
0003
000e
fff8
0015
000f
0001
fff6
fff1
fff9
000d
0003
ffea
ffed
0003
ffff
0004
ffe7
ffe4
0008
fff6
fffd
ffe5
ffee
0007
ffe3
fff7
ffe7
fffb
fffb
000f
fff8
0002
fff8
fff8
fffb
fff5
0006
0007
ffee
000f
000d
0011
0001
0010
fffd
ffee
fff2
fff9
0011
0004
0005
0015
001a
fff5
fffd
0009
000b
0009
fffd
fff8
0004
fffb
fffc
0011
0014
000b
ffeb
ffe4
ffef
0000
0008
0007
fff7
0001
0005
0003
fffc
0013
0009
0013
0010
000e
fffb
0003
fffc
0015
fffc
000c
000f
fffa
001a
fffd
0012
0009
0004
fffb
fff8
fff1
fffc
0007
0008
0008
fffa
ffe9
ffe2
0003
0000
fff5
0005
fff1
0012
0010
0011
000f
fffc
0015
0000
000e
ffe6
ffef
0007
fff6
fffb
000e
fff7
0001
001a
000b
000a
fff5
ffea
0009
0006
000e
0012
fff3
000a
0016
000a
fff3
fff8
fff7
fff4
fff4
ffe9
fffb
fff1
0008
fffc
ffef
0003
fff4
fff2
0010
0018
000f
000c
fff8
0001
fff3
fffd
0010
ffec
ffec
fff8
0007
fff5
fff3
0006
000b
0006
ffee
fff4
fff4
fff3
fffa
ffe7
fff3
ffff
0001
0015
001b
001d
fffb
fffc
ffee
000e
fff4
ffef
0007
0005
ffea
0001
fff9
000a
ffef
fff7
fff2
ffff
fffd
0011
000b
ffed
fff0
fff7
0005
fffb
0018
fff6
fff5
fff3
0002
ffff
fffb
000e
fff6
0000
fff4
ffe8
0010
fffc
0003
ffff
fff3
fff5
0003
0012
0019
fff6
0006
fffd
000a
000d
0008
ffe3
000d
0009
0007
0003
ffea
000e
fff7
fff0
ffec
0002
fff7
fff1
fff7
0005
000f
0013
0024
0010
001a
0006
0006
fff9
0001
000f
0016
fff8
000e
0013
0011
0006
0005
000c
fff3
000f
000c
ffe9
ffea
fff4
000d
fff4
0007
ffff
fffa
0000
ffe4
0007
fff8
fff0
000e
0009
fffc
0003
fff4
0003
0012
fffa
ffdf
0006
ffe2
fff0
0005
ffef
fffb
0004
fff6
fff3
fffc
ffef
fff6
fff6
fff3
0013
fff1
0013
0012
0011
ffe4
0014
fff7
ffee
000d
0000
fff5
ffe2
fff2
0016
fff4
0015
0010
0003
ffea
0021
0016
000c
000a
fffa
fffe
fff5
fff1
000e
000a
0007
0004
fffc
0001
ffe7
ffed
fff7
fff3
ffe3
fffa
0003
ffea
fff7
000a
ffea
0019
0000
fff9
fff9
0000
fff6
ffff
ffef
fff0
fff1
fff0
fff9
000b
0000
fff9
001b
0019
001a
fffc
000e
ffff
ffe6
ffe4
ffff
000a
ffff
001c
0005
fff7
0009
000f
0001
001b
000f
fffe
0014
ffe8
fff8
ffee
0009
fffb
fffc
ffec
ffed
000e
0020
0021
0015
ffef
ffee
ffd4
0007
0006
001c
0022
000e
0002
fff5
fffc
0015
fff1
000e
000a
0014
0005
fff8
ffe7
0014
0002
0001
0005
fff2
ffe9
ffec
ffff
000a
ffe7
ffe4
ffeb
ffdd
ffed
fff6
fffa
fffc
002a
0009
fffd
0002
fffe
0005
fffe
ffe4
fff5
fff0
fff7
ffee
001a
ffee
000e
fff9
0004
ffe9
001c
000d
001d
001a
000e
fffa
fffc
0010
fff0
0001
0016
001b
ffe4
0006
0006
0023
001c
0019
0013
fff3
0010
0007
ffeb
0007
0001
000c
fffd
0006
fffa
0001
0011
0007
001d
0024
000d
fffd
fff6
0002
001c
ffe8
0008
fffc
fff0
0002
fff9
fff9
fff8
fff1
fff5
ffe9
000b
fff6
0008
fffc
fff9
000c
fffc
0000
ffe7
fff9
0008
fff5
fffa
fff8
fff8
ffe9
ffe4
0015
fff9
001e
fffd
000c
ffda
ffff
0001
fff1
fff9
ffe9
0009
0004
0003
fffc
ffff
ffef
fff8
ffee
ffdc
fffc
ffdd
ffe9
ffee
0003
fff8
0015
ffe9
000e
0001
0014
0000
0003
001c
fffb
000c
fffa
fff3
0008
ffff
fff8
000c
000a
0000
fff8
fff7
fff9
0003
0006
fff7
0008
ffe2
fff4
001b
0011
0000
ffe6
000a
0012
fffc
000c
000c
000b
0016
000e
fffb
0010
000b
ffec
fff6
fffd
ffe0
fffc
0008
fff7
000e
000f
ffee
000a
ffee
ffd2
ffe6
0000
0005
fff7
000c
fffe
0018
0011
0001
000c
0001
ffdb
ffe5
ffe8
001a
001a
0011
fffd
000e
fff5
fff2
fff9
ffee
000a
0002
ffef
ffff
0003
0004
0000
000e
fffc
fffd
0008
fff0
000c
0007
0006
0011
fff3
fff2
fffa
ffff
000f
fffc
0018
fff9
fff1
fff3
0011
fff8
0018
fff9
ffe9
ffe0
fffc
fff8
fffc
ffed
0006
fff5
000c
ffe9
0002
ffe6
fffe
0009
000f
0013
0010
0000
fffd
ffe5
fff8
0012
fff2
000e
000f
000d
0002
0007
fffd
ffea
0016
fff8
fff0
0008
ffed
0028
fff9
fff6
0003
000a
fffe
0021
fff9
fff0
fff3
0016
0017
0002
0008
fffd
0003
fffb
ffe8
000e
0010
000f
0014
001c
fff6
0001
0006
ffe2
0001
0018
001b
fff0
fffd
ffe8
ffeb
fffc
fff7
fff8
ffe0
ffdf
ffe7
fffa
ffe4
0016
fff9
0008
ffed
ffff
ffeb
0017
fffd
0000
fff1
ffff
0015
fffc
000c
fffa
000a
ffe8
ffec
0017
0007
ffec
0004
001a
000c
0025
ffeb
ffea
ffee
fffa
ffe1
fff1
ffeb
000c
0004
0010
0018
0016
0010
000b
fffd
fff7
0001
fff7
fff8
fffe
000d
fffd
000c
000e
ffff
fff5
fffc
fffe
000b
fffd
0001
0000
fff4
fff8
fff3
0001
0010
0012
fff2
0013
fffb
fff8
fff3
0008
0012
ffdc
0006
fff9
0000
0018
fff5
fff5
0001
fff7
001b
fffe
0000
0005
0004
0004
fff3
0012
001d
0013
fff4
0011
0002
001c
0013
0000
0018
0013
0010
0023
0004
000e
ffee
001b
ffea
ffee
fff1
0012
000f
ffd9
000f
0008
ffff
0033
0025
001b
fff9
0000
fffe
ffeb
ffdc
ffeb
fffe
0001
fff0
0002
fff1
0007
0001
0008
ffef
fffb
fff7
0024
0013
0019
0010
0008
0007
0011
fffc
0009
ffe8
0012
ffec
ffe8
0025
fffb
fffc
0024
fff9
001d
ffe6
0000
0008
0001
fff5
0000
0006
0008
ffe7
fffb
001a
0000
ffd4
0002
ffea
ffff
000c
0009
000b
0011
0014
0002
ffe6
ffe4
fffe
fffe
fff3
ffff
ffdf
ffe7
0003
0002
ffdc
fff2
fff5
0008
fff7
fff2
fff4
0022
000e
001b
0021
000e
000d
fffb
ffe5
fff2
0016
000b
0008
ffea
ffed
fff5
fff1
ffeb
0007
000a
ffef
ffe9
ffd8
0007
000b
fff3
ffec
ffe4
0001
0004
fff8
0003
001c
0003
0012
001c
000a
ffe9
000f
fffb
ffe7
ffed
0005
0024
0022
000c
fff4
ffe9
ffee
fff7
fff7
0020
ffea
ffe5
0005
000e
ffee
000a
0004
fff2
fffb
001f
ffec
fff8
fff7
ffe1
0004
0006
000b
0023
0007
fff6
000d
fff5
fff2
fffe
000a
fffc
fff5
000f
ffdd
0003
ffe1
fff1
000d
000f
000f
0001
000a
0000
ffe9
ffdf
fff4
ffec
0017
0022
0019
fff4
fff0
0009
fff1
0017
0010
fff3
0000
fff4
000c
000d
0015
ffe2
0012
0008
000a
001a
0004
0004
ffe0
ffe0
fff0
0004
0010
fff6
fffa
000e
fffe
0006
000b
0006
ffe8
ffe5
fffa
ffeb
fffb
fffb
0001
ffe9
001c
fffa
0004
0016
ffe7
0004
fff4
ffeb
fff7
0011
0002
000c
ffeb
ffe5
ffea
0016
ffee
000f
ffe5
fff5
fffd
fffa
fffc
ffea
001f
0004
ffe5
ffe9
ffe2
fff2
ffef
fff8
fff3
ffdf
fff6
0000
0001
fff0
0014
0004
002f
ffed
ffec
ffda
fff2
fffd
0014
0005
ffff
0004
fff8
fff6
fffc
0004
fff0
000a
0025
ffed
ffec
0006
ffff
000b
fffc
0002
0016
fffc
fff6
0019
000f
000f
001a
0021
0019
000a
000d
0008
001a
ffe9
0001
ffe6
ffd0
fff2
ffdc
fffa
ffff
ffe1
ffe6
fffc
fff8
0009
ffe8
ffe2
ffeb
ffef
000e
fff2
0008
0012
000b
0010
0011
fffc
fff2
fffd
ffe9
ffee
000f
fffc
001e
fffb
000c
001c
ffe9
0016
fffa
001c
ffec
ffe6
fff2
0002
fffd
002c
0011
ffff
0028
0013
ffea
0004
ffef
ffec
ffec
ffee
0006
0016
0010
0009
0015
001b
000c
0000
000a
001d
fff5
0012
fffc
0002
ffec
fffd
fff9
0006
ffd9
fff9
001e
000b
000a
ffe7
000a
0007
0009
fff6
fff6
fffe
fffe
ffef
ffe8
ffef
fffa
000c
0008
fff8
fff0
ffff
0003
fff6
fffd
000a
0002
001a
0005
ffee
0012
0009
fff9
0007
fff2
fff3
0001
0010
fff7
0009
0010
ffe4
fff5
0004
0004
fffb
0007
0007
001c
001f
0001
000f
fff8
fff3
fffa
0025
fffb
ffed
fff0
000f
0003
ffe6
ffee
0010
fff2
000b
0005
0005
fff8
fff8
0006
0001
0019
fffd
fffd
0005
ffef
fffc
ffff
001a
fff9
000f
0006
000b
ffdf
0003
000a
000d
fffe
fffc
000a
000a
0008
001b
ffff
0008
fff7
fff0
fff1
fff9
0020
0013
fff0
000b
ffe2
0010
fff0
0011
000c
fff2
fffc
0013
fff4
ffe9
0014
fff9
fff2
001c
0009
fff6
001a
0009
002c
0013
001a
0004
0006
000d
0000
000c
ffe3
fff7
0006
ffe1
ffee
000e
fff9
000e
ffe5
fff8
0003
0025
0012
0019
0013
0003
0005
001c
fff8
000f
0010
0012
ffff
ffd9
ffda
ffd4
ffe2
ffe1
fff2
fffa
fffe
0003
0004
fff8
0002
ffe5
0006
0003
ffe8
000d
0004
000f
0007
000a
fff9
ffff
001b
0004
fff1
fffb
fff6
fff8
ffea
ffe9
fffe
000f
fff4
ffeb
fff1
ffe0
0010
0014
fff8
0004
fffa
0010
0001
000e
0016
0010
0001
ffeb
000b
fffb
0003
0009
fff9
0003
ffe6
fff4
0017
000a
001a
0009
0008
fff7
0002
ffe6
ffec
fff1
ffed
000d
0003
fff2
ffec
0013
0009
000d
0000
0001
0012
0008
0015
0007
ffde
0001
000b
ffd8
ffef
000c
fffd
fff9
0001
0012
0009
ffee
fff4
000e
0010
fff8
000c
fff9
0004
0014
0025
fffd
0015
0008
001e
fffd
000c
0020
fffd
fff6
fffe
ffff
ffe6
fff4
0001
ffec
fffc
0007
fffe
ffed
ffec
0002
ffe6
000f
0006
0016
0004
001d
0017
fff8
fff4
fffa
fff1
000b
ffee
0003
0017
fff3
0011
000b
0001
0017
fff0
0005
ffee
001e
000e
0005
0001
0004
ffed
0003
000d
000b
0019
000d
fff9
0016
fffa
ffe5
0001
0005
ffed
fff2
0015
0020
0022
fff8
fff8
ffeb
fffe
0004
0005
0000
0011
fffc
ffec
ffea
ffe1
fff0
000c
fff5
fff7
0006
0008
fff4
0009
000b
0012
0015
0024
0026
0008
0005
fffd
0007
001e
0003
0008
fff4
0007
0018
0005
ffe9
fff8
0004
ffe4
001a
0003
fff6
0009
fff5
ffee
ffe6
000f
ffef
ffff
ffef
0012
0011
0022
ffe5
ffe2
fff3
0004
000d
000a
fff4
0003
fffe
0013
ffed
0001
ffd9
ffea
ffd4
0007
0015
0016
000d
0018
0009
fff5
0014
fffb
0014
fff0
ffe4
fffd
fff8
0006
fff8
ffeb
ffe1
0011
0005
fffa
fffe
0000
0014
ffe6
0002
fffd
0001
ffea
fff8
000c
000c
0009
ffec
0015
0001
0027
000c
0017
ffff
fff7
0001
000e
001c
fff8
0009
0012
0004
fff7
fff3
0008
0003
0011
0004
0013
0000
0012
fffd
fff7
0010
0014
0012
0023
ffff
0014
ffff
ffeb
fffb
fffd
0005
001b
001b
ffea
fffb
0003
0013
ffff
0000
000e
0014
ffea
ffdd
fff0
0009
000c
0014
fffb
0005
ffe7
ffdd
ffe9
fff2
fffb
fffa
0000
fffb
fffe
fff5
fff0
002c
0038
0019
fffb
fff9
0003
ffed
fff3
0006
0004
fff5
001b
0000
000a
0000
000c
fff2
000b
ffed
ffe2
ffe7
ffde
fff1
ffdf
000b
fffb
0018
0006
0008
ffe5
fffb
ffec
0013
ffeb
fffd
fff7
0008
fffe
fff2
000c
ffed
000a
0011
ffe8
fffc
0013
000c
ffea
0015
0000
000b
0014
000d
000e
001a
ffe3
ffea
000c
ffff
000a
000d
fff0
0004
fff3
ffe7
000a
000e
0004
0014
000e
fff9
ffe7
fff3
fffb
fff5
ffe9
ffe0
ffeb
fff7
0007
fff2
0008
0004
0002
fff0
fff1
ffde
0007
0018
001a
0003
ffe7
fff8
fff5
0016
001a
0017
0026
fffd
0001
ffee
0003
fff4
fffb
fffa
0004
000b
0000
0023
0009
0001
fffb
fffb
fff8
ffff
fff0
fff4
fff6
0016
fffb
fff0
ffe8
000e
0007
fff6
0000
ffec
000f
fff0
fff4
000c
fff6
fff8
ffec
0011
fffb
0008
0016
ffeb
0008
fff2
0022
000e
0004
0000
fff4
ffd9
ffe9
0001
0016
fff9
ffeb
ffe6
0005
ffff
000a
0006
000a
ffe2
0001
0004
fffd
0010
000b
0004
0002
0019
000c
ffef
000d
0000
0000
001f
fff9
0003
0005
ffe8
fff4
ffed
0009
fff7
fff3
ffe8
ffd9
fff5
ffdc
0008
001e
000a
0018
fffa
fff9
ffeb
0002
ffe2
0001
ffee
ffe7
ffe5
ffe6
ffe9
fffb
fff2
fffe
0015
fffe
000c
0007
fff7
000b
0014
000c
000b
ffed
fff1
0009
000f
0013
0001
0010
0006
0021
ffe3
ffe4
0019
0015
0025
ffff
0017
0020
000e
0007
fff2
000a
0005
000d
000a
0023
001d
0021
ffd2
ffe3
ffd2
0002
fff5
0017
001b
0012
fff6
ffeb
fff2
fff6
0009
000a
0005
fff9
0023
fffc
fff9
ffeb
0007
001c
0003
ffff
0012
0018
0007
000b
fff2
ffee
ffd6
0000
0016
001a
000c
0036
fffb
fff1
0004
ffe8
001e
0001
fff9
fffa
0003
ffdd
0002
0001
ffda
ffe7
0008
fff1
ffed
0017
0000
ffeb
fffe
ffe6
ffe3
0008
ffde
000f
fffa
001d
001a
fffd
0015
ffe1
fffa
001f
0004
ffff
000c
ffe1
fff5
0016
0006
fff8
fff9
000a
ffd9
fff7
ffe3
ffef
0007
ffe9
ffeb
001b
fff9
0007
fffd
0020
000d
0004
fffa
0007
000d
fff4
fff9
001a
ffe9
002a
fffe
0020
0019
000b
0007
0014
0004
001d
ffee
ffee
ffdb
fffd
001f
fff0
0014
0004
fffc
002d
0007
0013
ffe8
ffea
ffe7
ffd5
ffff
000e
0015
fff4
000c
ffe9
0020
0020
0018
fffa
ffe3
ffff
fff9
fffd
ffe2
000d
0015
ffe3
0019
0019
0017
ffee
0016
0016
000a
fff7
0009
ffee
fffa
fff8
ffd7
fff7
fff0
0012
0007
0012
0008
0015
0016
0040
0032
000f
fff1
0010
0006
ffd8
ffda
001b
0017
fff6
ffe0
fffc
0012
001e
ffde
fff6
000c
000a
001c
ffe9
000d
ffe9
fff0
ffed
ffee
0017
fffc
0008
000b
001d
ffea
0016
fff3
0014
0005
fff3
ffe8
fff3
fffc
001e
000e
0015
0024
ffec
001a
0018
0006
ffdd
ffff
0012
0008
fff9
0021
0013
0026
0006
fff2
ffe7
0000
fff4
ffe5
000a
ffdd
fff3
0018
000e
ffef
0012
0018
0000
0016
ffec
fff8
0000
ffed
0023
ffef
ffd7
fffd
ffee
fff8
0025
fff7
ffff
0009
ffec
0000
0017
ffeb
0042
0035
0003
000c
ffe6
ffea
0018
fff8
0007
0012
0013
ffff
ffe2
fffe
fffa
ffe2
ffe4
000d
000e
0006
fffb
000e
000b
fff8
fffa
ffee
0009
0026
0024
0017
000c
0006
0001
000a
001e
ffd7
0002
0016
0020
0019
fff8
fffb
0009
ffe4
ffe9
fffe
002a
0009
fffb
fffa
fff5
fffc
fff0
fffc
ffe5
0012
0012
0006
0008
0004
0002
fffa
0011
fffc
000f
0008
ffd9
ffe8
fffe
0019
0011
0031
001c
ffed
001f
001a
fff5
ffde
0003
000c
fffd
0010
ffd2
ffdf
0012
ffec
000a
fffa
ffd7
0008
0017
0011
0027
001c
fffc
0001
fff0
fff5
ffee
ffe8
000b
0008
0001
ffe4
fff1
0002
0002
0014
fffc
fff4
fff6
fff3
ffe6
0017
ffcc
fffa
000d
0005
0008
fffd
ffef
0010
fff8
000a
ffee
0006
0018
0021
000a
0009
0028
0006
ffef
fff1
000b
0017
ffe0
ffe1
0014
fffd
0001
fff1
ffe8
0011
fff0
fff3
ffde
002b
0013
000a
ffe8
ffdf
ffe7
fff6
0002
0005
0010
000a
fffe
000b
fff2
000d
ffea
fff1
000f
000b
ffe8
0025
fffd
fff7
0017
fff8
fffd
0011
ffec
0011
0004
0019
ffef
0009
002c
0012
fff0
ffe9
0005
ffea
0014
0010
0012
0011
0002
0006
ffcc
0004
0008
ffd4
fffd
fffd
ffed
fff6
0017
ffed
ffef
fffd
ffe5
fff7
0012
0003
fff9
001c
fff7
fffa
ffe7
ffef
ffef
0013
0023
fff8
ffd4
0007
ffef
0018
001f
fffe
0001
0008
fff2
0000
ffee
ffdd
0005
fffc
001a
001c
ffe1
fffd
0007
fff6
0007
fffb
0023
ffed
0016
fffb
0012
000c
fff4
fffd
000d
fffd
ffee
fff1
ffcb
0014
000e
fffb
000b
0022
0002
fff9
fff4
0029
0011
000d
fff3
0006
ffe5
ffef
fffd
002b
0008
0006
0015
fff4
0013
ffee
001a
0001
0015
0013
001f
0000
ffde
0004
ffec
000e
0018
fffa
0000
0008
0013
000c
0000
fff7
0003
001b
ffec
000e
000b
ffdf
0003
ffe7
ffff
fffb
fff8
0017
fff4
ffe0
0014
fffd
ffe3
ffe8
000f
ffef
0007
fffb
fffd
0016
001e
0005
ffff
ffee
0004
0005
0002
fff0
000e
000e
ffe0
ffe6
ffe8
ffe8
ffe4
001b
ffe5
0019
0003
0009
fff0
ffe5
fff1
fff0
0021
fffd
fffe
0016
0011
fffe
0006
ffe7
0024
0015
0002
0020
000f
0009
fffc
0002
000f
0006
0002
fff0
ffe2
fff9
0001
fff1
ffe1
ffed
0018
000d
fff4
fff4
0016
000e
ffed
ffe0
ffdd
000c
0008
0006
0006
0003
0009
0010
0001
fff5
0004
0003
0002
ffe7
0010
0008
ffea
000f
000d
fffc
fffb
0000
0013
0011
fffb
0020
000e
0002
fffc
fffb
ffe4
ffee
fffb
ffee
0007
0009
fffc
0002
0013
0024
0015
001c
000a
0010
0013
ffe2
ffee
001c
fffc
002d
001a
000b
001a
ffef
000e
0019
fffc
0017
0006
0001
0000
000f
0016
000c
0006
0004
fff7
0009
001a
fff5
ffec
fff6
fff8
0004
0013
0007
0010
ffea
0002
ffde
ffd4
ffdf
ffef
0007
fffa
ffff
ffee
0013
fff7
ffee
fff0
0000
ffe9
000d
0013
ffe1
ffe0
ffeb
fff6
fff9
0005
0010
000a
0013
fff4
fffa
000c
0005
ffed
0013
fffa
ffed
fff6
ffea
fff2
0002
fff9
0023
fff7
0021
0008
0000
0014
0006
000f
fffa
0002
0001
ffe5
ffe4
fff0
fffa
0000
fffe
0025
fffa
000c
001b
0015
001e
0014
000d
ffef
ffeb
ffeb
fff4
ffe9
0020
0008
ffe1
ffff
fff8
000d
ffe6
ffef
0013
fffe
ffed
0004
0005
0009
0004
0009
0007
fff9
0018
0026
ffd6
fff9
ffff
fff7
fff0
ffe8
0004
0000
fffa
fff0
001b
fff1
fff0
0009
fffb
ffd9
fffd
fffd
ffec
fffb
fff9
001f
0004
0018
fff6
0014
001e
0008
fffd
000e
fffb
0009
fff8
0005
fff4
001f
0007
000a
0002
000c
fff3
0007
0013
0002
0018
0000
000b
0008
0002
fff8
fffd
000d
0007
0002
ffff
ffff
0001
0014
fff5
001e
000a
0009
fffa
ffe6
fffd
0002
0001
ffec
0000
ffeb
fff7
fff3
ffe8
fff3
ffed
fff9
0013
001c
0010
0007
0000
fff9
0004
ffec
ffef
fff7
ffe7
0014
fff1
001c
fffb
ffdb
fff7
fff0
0009
000a
0005
ffe3
000e
0014
ffed
0020
fffa
000e
0001
0006
fffa
ffff
ffe0
fffb
0017
000d
ffee
0017
001f
fff9
fff9
0019
fff3
fffc
fff6
0009
fffd
0018
ffde
fff8
0017
0000
0008
0007
fffc
fff9
0000
ffee
0006
fff2
ffed
0001
0000
ffff
ffef
fffe
0011
ffff
fff9
0000
fff3
fffb
fffd
000b
fff0
ffed
0002
fff7
0015
0025
fffa
000f
0015
fffe
0028
0006
fffa
0005
000e
0003
0018
0005
0001
fffe
ffdb
0007
000b
fff7
fff3
fffb
fff4
fff7
fff3
0006
fffc
fff2
fffc
fff2
fffe
fffd
ffec
fff0
0012
0004
fff6
ffed
fff7
ffde
ffdd
000a
000e
ffe6
fff9
fff5
ffe9
fff9
001d
000f
000c
0020
000e
000f
fff1
ffeb
000e
fff2
000b
ffef
fff8
fffc
fff2
0001
fff3
0008
fff7
fffd
0004
fff9
ffff
0002
0016
fff6
000e
0016
ffe9
0004
0014
fff0
000a
0006
fff8
0005
ffef
0006
fff9
0009
fffc
fff0
fffd
0009
0024
0008
0009
fff6
ffe5
ffeb
fffe
ffeb
ffe8
fff2
0007
0002
0007
0008
001b
0015
fffe
fffa
0008
ffee
fff5
0008
ffed
fffa
0002
0010
0008
fffd
fff7
0009
0002
0008
0000
fff6
0001
0011
000a
fff8
0005
fffe
0005
fffb
fffc
001f
001c
ffef
000b
0015
fffd
0013
0007
000c
000a
0013
0001
0007
000d
fff6
0015
fffe
0002
0011
0009
0012
000e
000f
fff3
0011
fffc
0002
fffd
0009
0014
000d
0008
0003
0007
0004
0007
ffe7
fff8
fff7
0010
fffa
ffd6
000b
0016
fffd
fffd
fff8
ffee
fff1
fff0
ffeb
ffed
fff1
ffe8
ffed
0001
ffff
0002
fff8
000d
000e
000b
ffec
0019
ffea
000c
fff7
fffa
ffff
000f
000b
0017
001c
000e
0011
000a
0013
fff0
0016
0006
ffec
000d
0015
fff0
ffef
fff5
0013
0008
001a
0002
ffef
fffe
fff1
ffd6
fff6
fff6
fff7
fffd
fffd
0009
0000
0003
0009
fffa
fff9
0003
fff6
fffd
fff8
ffff
000a
0001
0002
fffa
fffd
fffd
fffa
fff5
fffb
0003
000b
000b
0002
000a
0003
fffd
0007
0008
fffd
0001
0004
fffc
ffff
0002
0004
0003
0006
fffa
fffa
0002
ffff
0008
0006
fffa
fffc
0005
fff8
fffe
fff5
0008
0004
fffd
0004
0005
0008
fffe
0002
fffe
fff9
ffff
fffd
fffc
fffa
fff7
ffff
fffc
ffff
fff3
fff7
0002
fff0
fffc
fff7
fffe
fff9
fffa
000a
ffff
fffb
fffb
0005
0001
fff8
0004
fffc
fffc
fff7
0002
fff6
ffff
ffee
fffe
fff7
fff5
0008
0002
000b
000a
0005
0005
0009
000b
0002
fff6
fff8
fff9
0007
0002
fffe
fffc
0007
0009
000e
0008
fffe
000e
000d
ffff
0005
000e
000d
fff7
fffe
ffff
fffc
0003
ffff
0008
fffd
fffb
0006
0000
0005
fffb
0008
fff9
0007
fffa
ffff
fffd
fff3
fff9
fff6
fffa
fffd
0001
fff7
fffc
fffe
fff9
0006
fffc
ffff
0002
fff6
0001
fff8
ffef
0001
fffa
fffa
fff4
fff9
0003
0006
fffe
000f
000f
0005
000b
0009
0001
ffff
0000
000d
0006
0005
fffa
0006
0009
ffff
0004
0004
0003
0005
0002
0004
0000
0008
000a
0002
000c
0004
fffb
0000
0009
fff8
0003
0000
fff6
0000
fff6
fff9
0000
0001
0005
fff9
0004
0000
fff7
fffc
0000
000a
fffd
0007
0006
ffff
0005
0000
0004
0007
ffff
0002
0003
fffb
fffd
0009
fffb
0002
0004
ffff
0001
0002
fff9
ffff
0003
fffa
fff8
fff6
fffa
fffa
0000
0000
fffc
0006
000a
0001
0008
0004
0000
ffff
0001
0002
0009
0001
fffb
0002
ffff
0000
fffa
fffe
0001
0003
0003
0007
fffa
0000
fffa
fff1
0002
fffe
000d
ffff
000b
ffff
0005
0000
fffb
fffb
fffd
0006
0006
0005
ffff
fff5
fffd
fff7
fff7
fffa
fffa
fffb
0006
0008
fffe
fffc
000f
0002
000d
0004
0001
0002
fff6
fff8
0002
000b
0004
0009
0010
0001
0007
fff9
fff6
fffd
fff6
fffb
fff3
fffe
fff8
fff3
ffff
fffe
fffa
fff8
fffa
0000
ffff
fffb
fff9
fff3
ffff
fffb
fff8
fffb
fffb
0006
0002
fffe
ffff
fff9
0006
0002
fffc
0002
0000
0007
0002
ffff
fffb
fff3
fff9
fffe
0002
0003
0009
0001
0004
fff6
fff7
0000
0004
fffb
fffd
0003
0006
0002
fffe
fffc
fffe
0006
0005
0001
fffb
0008
fff5
0004
fff3
fff9
0005
fff9
fff9
0003
0005
fffa
0004
fffc
fff7
0003
fffb
fff9
fffa
0000
fffe
0002
fff8
fffc
0005
ffff
0006
ffff
0005
fffe
fffb
ffff
ffff
fff9
0001
0001
fffa
ffff
fffa
fff6
fffd
fffe
fff9
fffb
fffc
fff7
fffb
0005
0000
0005
0007
fff8
0007
000c
fffb
0000
fffa
fffe
0006
fffb
fffa
0003
fffb
0008
0012
0002
fffe
0006
fff7
fffd
0006
fff6
fff7
0004
0003
fffb
fffb
fffe
0004
0003
fff4
0000
fffc
0000
0004
fff8
000d
0005
0001
000b
000c
fffe
fffc
fffc
fffc
fffa
0006
0001
fffc
0005
0009
0004
0001
0006
000d
000a
000b
0002
000d
0004
ffff
fffa
0009
0004
fffd
000e
0001
fffd
0009
fffb
0004
0003
0002
0007
0002
0006
fff9
0004
ffff
fffb
fff9
0002
0006
0006
0002
0006
000d
ffff
fffd
fff6
000b
0001
0006
0009
0000
0002
0004
0002
fff5
fffb
fff9
0007
0008
0004
000a
0003
fffd
fffc
0005
0007
0002
0002
000b
000a
0003
000b
0005
fffe
fffc
fffd
0008
0000
ffff
0005
fff9
fff8
fff9
0000
0002
000a
fff8
0006
fffe
0004
000e
fffa
fff9
0008
0000
0003
0001
0007
fffd
000e
ffff
000a
0003
fffb
fffc
0001
fff3
0003
fff9
0000
000e
fffc
ffef
0005
fff4
fff2
ffe6
ffeb
ffef
ffdd
fffa
0019
000d
000b
0019
000a
ffff
0005
0011
fff9
001d
0016
0000
ffdb
ffe6
fff6
fff4
ffec
fffc
fff4
fff5
0003
fff3
fffc
000b
0008
000a
ffff
0011
0005
001f
ffee
ffff
000d
ffe9
0000
ffe9
ffe5
fff1
0002
fff9
000f
fffc
fffe
0008
0009
0015
ffee
0015
0018
0003
000f
000c
fffa
0007
0002
ffff
ffe7
0009
0000
fffb
000a
0000
0010
fff0
fffb
fff7
ffea
0003
ffec
000f
000b
0003
000d
0015
fff4
0013
000f
fff7
fffc
ffec
ffdf
fffc
0011
fffc
fffc
0009
000b
0015
fffd
000a
0013
0000
0018
fff7
ffed
fffc
000f
fffb
fff5
ffef
fff2
fffa
000f
fff7
0001
000b
0009
0011
0009
000c
fff9
fff4
fff9
0010
000d
0006
000b
ffe7
0001
fff4
fff8
fff9
ffec
0018
001b
000f
0026
fff8
0013
000e
0008
ffff
ffff
0000
fff7
fffd
0010
0012
fffe
0006
fffe
0005
0000
fffe
fff0
fffa
000e
ffee
000c
0010
ffe4
0002
fffa
fff2
fffd
000e
0023
001c
0003
ffe0
ffeb
fffa
0008
0006
0007
fffb
0016
0010
0007
0013
0001
0004
fff6
ffee
fff7
fffa
0005
0007
ffef
000d
0013
fff1
0008
ffe4
fff1
0000
fff5
ffed
fffa
0007
fff0
0009
fff6
ffef
0002
fff6
0000
ffef
000f
0006
ffef
0000
000d
0007
000f
fff7
0018
0016
fffd
0010
fffe
0005
0000
0021
0019
0007
000f
fff8
001b
0006
0018
fffc
fff7
fffa
000f
fffd
0013
0005
0005
0005
0000
fffc
0009
fffb
001a
fffc
0009
ffed
0004
0005
0003
ffef
fffb
0002
001c
0004
0007
fff0
0012
fff0
0002
ffef
000f
000b
fffb
0017
0009
fffe
fff0
fff0
fffa
0005
ffe4
fff6
0009
000b
fffb
0012
ffeb
fffa
0009
fff2
fffb
fff8
fffe
0002
ffff
fffb
fff2
0005
ffea
ffe5
000c
ffe6
fff0
ffea
ffd9
fff4
ffe6
fff2
fff2
ffff
fff0
fff1
0008
000e
0007
001e
fffe
000c
fff6
ffec
0009
0000
ffdf
fff9
fff1
ffe6
0001
0012
fffa
000f
0000
fffa
0004
0008
0006
fff9
fffd
000e
fff4
000a
fff7
0008
fff3
fffb
fff1
0001
fff2
0013
0012
fff0
0003
fffb
0002
fff4
fffa
fffe
0010
fff4
fff6
fff4
fff8
fffd
ffff
0010
0002
001a
0013
0007
fff8
fff1
fff5
0002
fff5
000a
0012
0004
ffef
000a
0013
0008
fff4
ffe7
fff3
fff5
000a
ffff
0006
0003
0012
000d
fffc
fffe
fff2
ffef
fffd
0014
fffb
ffe2
ffe8
ffff
0001
fff6
0009
000d
fffe
0009
fffd
fff7
fffb
0001
fff0
ffeb
fff0
ffe8
fff4
0001
fff4
fffc
fff9
0000
0002
ffe8
0010
000a
000d
0009
000e
0010
0013
fffa
000b
0000
001a
ffff
fffa
0003
001e
0001
fff2
fff4
0009
fff9
0000
fff5
0001
0003
0004
0016
fffb
0016
fff0
fffb
0002
fff8
fff9
ffee
fffb
0001
ffe9
ffe6
0006
fff8
fff7
000b
0012
fffa
fff9
0005
fff0
0010
0000
fff0
0001
fff1
fff1
fff4
001c
0005
000e
000c
0007
ffeb
0007
fff7
fff7
ffe5
0001
fffc
fff1
000d
fffa
0004
fff8
0010
000b
0002
0012
fffe
000e
fff4
fff9
000b
0004
0008
001c
0009
0020
ffee
000b
0009
fff3
fffe
ffea
fff5
fff3
fff0
fffa
0008
fff2
0007
ffed
0007
fff4
0003
ffff
000c
000d
000f
fff7
0013
0017
0010
ffe9
000b
000a
0009
ffff
ffe3
fff1
fff2
fff8
0000
fff2
0013
0017
001d
fffd
fffb
000b
fffe
fff7
0001
fff5
000b
000e
001d
0004
0004
fffd
0006
0019
0011
0009
0022
0019
000a
000e
0005
000b
fff0
ffef
0001
001a
fffc
fff5
0017
0010
fffc
0002
0017
001f
0008
fff5
000c
0011
fff4
0004
ffe5
0004
0008
fff4
fff0
0004
fff6
0006
ffe1
fff7
fff1
ffef
fffd
0011
fff4
0010
fff4
0002
ffe4
fff6
fff3
fff1
0015
fff0
0004
000d
0005
ffff
fffd
0006
0010
fffd
0004
0012
000e
000c
0006
ffe9
fff3
fff0
ffdf
fff0
ffe2
ffff
000a
fff9
fffe
000f
0008
fffe
0000
000c
fffd
000e
fff3
ffe9
fffc
fffa
000a
fff7
fff2
0003
0001
fff2
fff7
fff3
fff4
ffdd
ffe2
ffe8
0007
fff2
0003
0014
000f
0016
000b
fff2
ffed
0005
0003
0003
fffe
fff3
ffef
0002
fff2
fff4
fffb
001c
000b
fff0
0012
fff6
fff6
001a
fff8
000e
0013
ffff
fffa
0001
0018
ffe9
fff7
0006
0008
0002
0000
fffe
fffb
0005
0017
0005
000d
fff3
fff9
fffa
0005
0007
000d
000b
0011
0009
ffe6
0006
fff6
fffe
fff3
0000
fffd
fffd
000e
fffe
fff0
fffa
ffe6
ffe0
fff6
fffe
ffeb
fff8
fff2
fffa
0012
0009
0014
000e
fff2
000b
fffb
fff6
fff9
ffe8
0017
000e
0004
000d
0004
001b
ffeb
ffe4
fff1
000d
0001
fffe
0008
0007
fffb
fffa
ffe6
fffa
ffff
ffec
0002
0002
ffff
0006
0002
0003
fff5
fffe
ffe7
ffee
0007
fffd
000b
ffef
fff5
fff7
fff1
000c
fff5
0000
fffc
0012
0000
ffff
0000
fffe
fff6
ffe7
ffee
0009
ffe9
ffef
fffd
ffef
ffff
fffd
0005
ffe0
fffb
fffc
0004
ffee
ffeb
ffe5
ffeb
ffeb
fff2
ffed
fff2
0015
ffff
fff5
fffe
0008
0002
0004
fff0
ffee
fff1
0002
fff3
000f
fffe
fff8
fff5
000e
000f
fff0
fff5
0012
0003
fffc
0002
fff5
ffff
ffeb
0002
0003
fffd
fff6
fffb
0005
0001
001e
000a
0005
000e
0011
ffe1
ffee
0006
0002
fffb
0010
fffd
fff4
0003
0004
0005
fffc
0006
fff8
000f
ffec
0007
0000
0001
0001
fffb
fffb
fffd
ffff
0008
0006
0016
fffc
ffef
000a
ffec
fff9
fffd
0004
0007
fff8
0006
0012
ffeb
0019
ffff
0002
fff1
ffec
ffe9
fffd
000c
0013
0000
0006
fffd
0009
000e
fff6
fffe
0006
0013
0001
fff9
fff4
fff6
fffc
0003
001f
ffff
fffa
fff3
fff2
fffb
0007
0005
fff8
fffe
0003
fffa
fff5
000a
0006
0006
0014
fff5
ffed
fff2
fff4
ffef
0004
ffe7
0014
000a
0008
ffdf
ffee
ffec
fff2
fff0
ffdc
0006
0003
fff9
000e
000e
fffe
0003
0006
0006
0001
fffa
000a
fff2
fff3
ffec
fff4
ffec
0006
0022
0007
000a
fffe
000d
fffa
fff6
0017
000b
fffc
fffb
fff7
0005
0001
0006
000b
fff2
fffb
000c
fffd
0015
fff4
ffe8
ffe7
fff4
0006
0008
0002
fffe
fffc
0001
fff4
ffec
000c
000b
fff4
000b
ffff
ffe8
000e
000c
000b
0000
0015
ffef
0004
ffea
0001
0017
0009
fffa
000f
ffff
fffd
0009
000a
000f
fff1
fff6
ffd8
fff3
0010
fff3
0018
0004
0016
fffd
fff8
fff0
000c
000e
0001
fff9
fff4
000e
ffed
000b
0014
ffe9
0010
ffee
0013
0016
001a
0012
0003
0006
0007
0002
0014
0010
ffee
0006
000c
000e
000f
fff1
ffef
000d
fff8
fff7
000d
000c
000a
fffa
fff6
fff6
ffe8
000a
000a
000a
fff2
0005
ffea
0018
000c
fff3
fff7
0002
0005
ffed
0009
fff3
fff7
0000
0006
0001
0007
ffef
fff8
ffec
0004
001e
0006
ffff
0022
ffff
0015
0006
0002
fffd
fffe
fffd
fff3
000d
fffb
000e
000d
fff2
fff9
fff2
0012
fff4
fffe
0014
0001
ffef
fff9
ffdf
fff6
0002
0007
fff6
000c
ffea
000a
000f
fff4
fffa
0013
fff4
ffea
ffed
000c
ffee
ffe4
fffe
fffa
000b
0019
fff8
0003
0012
0004
0019
001e
000a
fff5
0020
fffe
fff1
0007
ffef
fffc
001f
fffc
fff8
0010
ffe4
fffa
0008
fffe
fffe
fff2
0001
ffee
fff0
fffa
ffd9
fff4
001c
0000
0001
0000
0008
0003
0016
0003
fff8
fffc
0005
0006
0017
ffed
ffe1
ffe6
fff2
0011
fff7
fffa
fffb
fffd
0014
fff4
0007
000b
fffe
0004
fffc
fffa
0010
000d
fff7
0020
fffd
0009
ffde
0011
0007
fffd
0018
ffe8
ffef
0016
0016
fff1
000c
000d
0000
ffe8
fff9
fff3
ffe6
0005
0002
ffe3
ffdf
000a
0009
0006
0018
000f
0006
ffef
ffe5
000a
0002
ffff
000d
ffee
ffe9
ffff
000e
0005
0012
ffe3
000c
0015
0000
ffe8
ffef
fffa
fff5
ffec
ffe5
0005
fff9
0011
ffef
000c
0004
ffe0
fff0
0008
000c
fff1
fff2
fff0
000e
fff0
0003
fff0
ffef
ffec
0007
000c
ffee
0004
fff4
0019
ffff
0003
0014
0012
0007
0006
0017
0011
0013
0006
fff3
ffe0
0017
0006
fffe
0015
0001
000d
fff3
0021
0005
fff3
ffff
0008
0002
0011
fff4
fff8
0011
fff6
0010
0011
0003
ffe9
ffef
0005
ffee
ffff
0001
ffef
0029
fffd
0002
fff5
fff5
0002
001f
0007
fff9
0008
fffd
0006
fffc
0006
001a
000e
000e
ffee
fff9
ffdb
fff2
001e
0011
fffb
0008
fff8
fff8
ffea
0017
0007
000e
fff5
001c
0008
0006
fff3
fff8
ffee
0007
0015
fffc
fffd
fff7
ffe8
0003
0017
fff2
000e
0005
fff9
fffd
0011
fff6
ffef
000b
0016
0000
0029
0018
000d
ffff
0000
ffff
000f
000f
ffed
0009
0008
fff7
fff1
fff3
fff3
0006
0003
fff6
0001
fff3
fff9
000c
0018
000f
0001
0015
fffc
ffe7
fffc
fff0
000f
0009
fff1
ffe7
ffe6
ffe6
001f
000a
0013
fff7
0016
fffa
ffe1
0006
fff4
ffea
ffe5
0012
000e
0005
001d
ffed
0001
fffe
fff4
0008
fff1
ffe8
0000
fff2
000c
0016
0015
fffc
000e
ffff
0002
000a
ffef
fffe
0017
0016
fffb
ffef
ffe1
0008
fff3
ffef
0014
0004
ffef
0006
0016
0006
fff3
0009
ffe9
0018
0032
001b
ffeb
0001
0004
ffe8
0004
fff7
001b
ffe9
fff0
0019
0001
0013
fffa
001c
ffef
fffc
fffd
fff2
fff3
0010
fffb
0010
0002
fff7
fff2
ffe5
0004
fff6
fff5
0016
fffa
0012
0001
fffc
0019
0000
0003
fffb
000f
fff8
0008
0009
001b
0004
0018
0013
0012
fffc
fff9
ffd6
ffff
0015
0013
0002
0001
001b
fff8
fff5
000a
fff0
0010
0000
0000
fff5
ffe2
000b
0001
fff8
0009
0007
fff6
0005
fff0
0005
000e
fffa
0002
0008
ffe7
fffa
fff0
0011
fff7
ffed
000b
ffed
fff0
ffee
000d
fff9
0010
000b
fff8
fff2
ffec
ffff
fffa
0003
fffe
0006
0009
