fff2
ffec
000f
001a
fffc
0000
ffee
000f
000f
fffb
0000
0007
fff5
fff5
0002
fffe
fff6
fffc
fff8
fff9
fffd
ffff
0000
fffd
0002
0002
0001
000b
000c
0001
000b
000c
fff7
ffec
fffe
fff7
0002
0006
0003
0006
0003
0008
fffa
0005
000a
fff9
fff5
fffb
0018
fff6
fffc
fff3
fffb
000e
fff9
ffe4
0001
0016
0011
0004
000e
0001
0001
ffe9
fffc
0014
0010
0006
0008
001e
0005
ffff
fffc
0007
0001
fffd
ffdd
0016
0008
fff4
fff2
ffe7
ffde
0009
0008
0005
0003
fff3
0000
0008
0003
0011
0001
fff8
fff8
fff3
0014
fffc
0013
ffef
0000
000b
001e
0006
fffd
000c
ffe6
0014
ffff
fff5
0001
0000
fffe
ffe2
ffee
0005
ffeb
fff4
fffd
fff9
fff1
0009
fffc
0003
0006
0004
fff1
0005
001c
0007
fffd
000f
fff9
000a
0001
fff6
fffb
0002
0005
0005
fffd
0009
0012
000f
ffff
0006
fff6
0008
0005
fff7
0005
0019
ffe8
ffeb
0014
ffe6
fffc
ffe3
0013
fffe
fffb
ffd6
ffe8
fff7
0017
ffec
000b
ffd2
fff4
ffee
001b
fff5
fff4
001e
0009
ffe8
fff1
000c
ffea
fff8
0004
0003
ffde
fffe
001d
0017
0023
ffec
0001
ffed
0015
fff5
ffe7
fff8
0010
fff5
001f
fff8
000c
0009
0014
000f
fffe
000c
fff4
ffdd
0023
ffdf
000d
ffea
002b
ffd8
0005
ffea
fffb
fffe
0010
0025
fff8
fff8
0002
0014
0003
0000
fff4
ffe6
ffe5
000d
0008
0020
ffef
ffd6
0033
fff8
001c
fff4
000e
0009
0011
ffdc
fff5
fffb
fff6
0003
0008
0011
ffef
ffe2
001e
fff6
0013
fff2
0025
001c
fffc
ffef
001b
0010
000f
001f
001b
fff3
0022
0007
fff2
0022
000f
ffdb
fff5
001c
0023
ffe1
fff5
ffe5
000d
0008
fff8
0017
ffe3
ffdf
0009
0032
0015
0013
fff1
0015
fffd
ffc8
fffc
fff9
0002
0006
fffe
0000
0007
fffa
0002
000f
0001
0014
0004
0021
fff5
fff9
001d
000f
0004
fff7
0004
0002
ffef
0004
fffe
0001
0003
fffb
fff3
ffed
fff3
ffff
0008
fff3
fff8
0006
fffb
fff4
fff5
fff7
0008
000e
ffec
fff3
0007
000a
0009
0014
fffb
fff9
0004
fff9
0014
0000
0000
001a
fff7
fff8
fff2
000b
ffe8
000f
0011
fff6
fffd
ffff
0000
0008
fffa
fffa
0026
fff3
0004
ffff
fff2
0003
fff3
fff9
000d
fff6
fffa
000a
ffeb
000f
0000
fff8
000f
fff3
0002
0009
fff7
0013
ffea
fff3
fff9
000d
ffec
0006
000b
0000
0013
0011
000b
0011
fffd
0004
0000
000a
fffd
ffea
0009
000f
000e
fffb
fffb
fff9
0011
fff8
fffc
fffb
0013
fff2
fffd
fff0
fff8
fff9
fffe
0004
0004
fffc
ffe7
fff9
fffb
000d
fff6
fffa
fffe
fffa
ffef
0000
fff1
0017
0001
0010
fffc
0005
0011
fff9
fffc
fff9
0007
0008
0002
0002
fff6
fffe
fffe
fffa
0011
0005
fff4
0002
fff2
0000
ffef
0003
0002
0008
fff3
0002
fffb
0002
fff5
fff4
000c
fff3
fffd
0008
fff1
0006
fff6
0006
0001
fffe
0007
fffe
0000
000f
0002
fff8
0000
0003
fffe
0005
fff1
000f
fffc
0004
0000
fffb
ffff
fffd
000b
fffc
0002
0009
fff8
fff8
0003
fff3
fff8
0003
0000
ffee
fffe
fffc
0011
ffff
000d
000a
0002
fffa
fff8
fff6
0008
fff5
fff9
fffc
0003
0002
000f
fff7
fffa
0000
0002
0007
fff4
ffff
0002
0000
ffff
fff7
0001
fffd
fffe
fff9
fff6
fff7
fffc
fffd
fffb
fff9
fffd
fffb
0004
0000
fff1
0006
ffff
0004
fff7
0000
0003
0003
fffc
0003
0008
0002
0009
0005
ffee
fff9
0005
ffef
0006
fffb
000c
0008
0005
0009
0004
0000
fff3
000a
fffa
fff8
ffff
fff5
fffd
0004
fff8
0003
fffe
0006
fffd
0003
0004
000b
000a
000a
fffc
ffff
fffd
fffa
fff7
fff8
0002
fffc
0000
0000
0004
0002
0003
000d
0000
fff8
fff6
fffa
fffb
0005
000c
fffc
0003
fff5
fffb
0000
fffb
0004
0003
0001
ffff
fff6
0004
0008
000f
0002
0000
0003
0002
fff6
fffd
fff6
0003
fffc
0001
fffc
fff9
fff8
fffc
ffff
fffc
0002
fffc
0003
fff9
0007
0007
fffd
fffc
fffb
0001
fffc
fffc
ffff
fffe
fffc
000b
0005
0002
0001
fffa
0006
0005
0001
fffb
fffa
0000
fffa
0002
fff7
0007
0004
0007
fffb
fff7
fff9
0002
0002
fffc
fffb
fff6
0006
0007
0003
0002
0004
0002
0002
fffc
0002
0004
000a
fffe
fffd
fffd
0000
0006
fffd
0000
fffc
fff3
0004
0000
0006
fff8
fff4
0001
fff9
0003
fff9
0001
0004
fffc
fff7
fffd
0005
0000
fffd
0006
fff8
0007
000c
fff1
fff7
ffef
fffd
0009
fffa
0005
fff8
0002
0008
ffff
0004
0000
0006
fffd
fff9
0004
fffd
fff8
0001
000c
fff8
fff6
000e
0003
fff7
fffe
fffc
ffee
fff6
0002
0006
000c
fffe
fffe
000a
0009
0009
0015
fffb
fff9
fffe
fff9
0003
0002
fffc
fff8
fff0
fffd
ffed
0000
0004
fffe
fffa
0003
000f
fffa
0002
0005
ffff
0008
000c
fffa
0006
fffd
fffd
0009
0002
0004
fffc
fff3
fffe
fff6
0011
0004
fffb
0000
0000
000d
0009
fff5
fffb
0004
000c
0001
0002
0005
0010
000d
000b
0005
0006
000e
0003
fff9
0003
0015
fffe
0009
0003
fffa
0004
fffe
0006
fffb
0007
0002
ffff
0001
fff7
0004
0016
000d
fffd
fff5
0004
fff6
fffb
0006
fffa
fffd
0007
0009
0002
0006
000d
000a
fffc
fff4
fffc
fffa
fff7
0005
fff9
0005
fffe
fff6
0008
000a
fffa
fffa
fff7
fffe
0001
0010
0001
fff1
ffe7
ffe8
fff6
fff7
fffb
000b
0002
0014
0009
fff7
ffe4
0003
ffed
fff8
fff3
0012
001d
000f
fffe
ffec
000b
fff4
0010
000b
fff1
ffe5
0005
0007
0015
001a
ffe6
0005
0014
fff2
fff9
0001
0005
fffc
fff9
001d
0017
0005
0000
000e
001a
001e
0011
0008
ffeb
0015
fffa
ffee
0018
0008
0002
0006
0005
fffa
0007
0000
0007
0005
001c
0005
fff6
fff4
0012
fffd
0003
0010
ffff
fff3
fff9
0006
ffe1
0000
0015
fff7
0014
0001
fff5
fff6
fff0
0006
ffe3
0012
ffe8
000a
000e
fff8
0004
fff4
ffd8
fff6
0010
0011
000d
0004
0002
0005
0008
fffb
000c
000f
000c
fff3
000b
ffef
fffc
0017
fff2
ffe2
fffd
000a
0010
000d
0002
fffd
fff0
0006
0007
0005
000a
000c
001a
0006
0003
0012
000f
ffe4
fffd
fff7
fffe
0011
000f
000e
0022
0005
0020
000b
0009
000b
0007
0010
0000
000d
fffd
0001
fff9
0002
0006
000b
0008
fff5
fff7
0000
fff9
0007
0002
0004
fffa
fff5
fffe
fffb
0001
fff9
fff3
0003
0005
0002
fffa
fffe
0003
0006
0002
0003
fffc
0006
000e
0005
fffa
fff6
0006
000a
0004
fff1
fff3
0003
0001
fff7
fffc
0000
0002
0010
0009
0004
fff7
0006
fff2
fffa
fff1
fffd
000b
0001
fffb
0005
000a
0002
0004
fffc
0007
0008
000a
0002
0008
fffe
fff0
0006
000e
000b
fffc
0003
fff9
fff6
0006
fffd
fffc
000a
fffe
0003
fff6
0008
0002
0004
0002
fff9
0012
0001
0002
fffe
fff4
0006
0006
0002
fffc
ffef
fffb
ffff
000a
0002
ffff
fff5
000b
fff9
000e
000b
0003
0003
0002
000a
fffa
fffd
000d
fff4
fff2
0000
0008
0007
fffe
0004
ffff
0005
fff7
0001
000c
0006
fffc
fff6
0001
ffff
fff7
fffa
fffd
fff4
fffa
fffa
0031
fffe
0021
fff6
000a
fff4
0009
ffe9
fff0
0018
fff7
fff0
fffb
0000
000e
000c
fff9
ffed
0005
0002
fff7
0008
ffeb
0004
0006
fffc
ffeb
0013
000b
ffe5
fff2
ffe3
fffb
0006
fffc
fff8
0002
ffee
0008
fff7
ffe8
000d
0004
000f
0000
0000
ffec
fff3
0007
0008
fff6
fffe
ffed
fffd
0016
fff7
ffee
0014
0007
fff7
000f
0013
0014
0012
ffef
0002
ffdc
fff2
000b
ffff
fffd
ffe0
fffb
fff9
fffe
0014
000b
fff1
0017
ffee
fff2
fff2
fff4
0002
fff6
0004
001b
0031
0006
0004
0016
ffe3
0011
fff1
0004
fff6
0011
fffe
fffb
ffef
0008
fff4
fff4
fff4
000a
fff9
0019
fff0
fff2
fff0
0015
001e
ffda
0012
fff2
ffe6
ffe8
000d
fff1
0003
fff3
0004
000a
0006
fffa
0021
000e
001c
ffd2
ffeb
fffa
fff2
0027
fff6
fff5
001a
0011
ffe3
fff2
0003
001d
ffe3
fff8
0004
fff5
ffff
000d
ffed
fffc
000d
fffe
0008
fff4
0015
fffd
fffb
fff1
fffb
0003
fffe
ffff
fffa
fffd
001a
000e
0005
0002
fffd
ffee
0005
0003
0011
fff9
0009
0011
fff8
0012
0004
0009
0014
0004
0008
000a
0006
0016
0003
ffea
fffc
ffef
001f
0020
fffd
000a
0008
ffeb
0000
0009
fffc
ffef
fffc
0006
000c
fffc
0017
0008
fff1
000c
001b
0015
fff4
0007
fff4
0009
0006
ffff
0008
fffc
fff7
ffd9
fff5
0019
ffdd
0013
0011
fff9
fff4
fffe
ffea
fffa
fff6
ffe8
000f
0021
fff4
fffa
fff2
ffe9
fffe
ffff
0005
0010
fff9
fffd
fffd
fffe
0011
ffe6
000b
fff5
fff5
0015
ffed
fff4
fffa
000e
ffeb
ffe8
000d
000f
ffff
0006
fff9
0001
001c
fff6
000d
0007
000c
000f
0001
0001
fff5
ffe2
fff8
ffea
0009
fff7
0017
fffe
ffec
fff2
000e
ffec
0000
ffe6
ffdf
fff7
0009
fff5
0009
0005
fff4
000e
fff0
000d
0011
0009
001e
0014
ffff
0011
000a
0010
0038
ffea
0011
ffdd
fff4
0009
000f
0017
fff7
0014
fff7
001b
0002
fffd
ffeb
fffb
ffec
ffde
000b
0002
001d
0011
001a
000a
000e
001a
fff7
001f
0010
0012
002a
0011
ffff
ffdf
ffec
fff3
fff1
0012
0013
000a
0001
0003
0004
ffdf
ffdc
000f
fff5
0004
ffed
0012
ffe3
fffd
fffb
ffe3
0006
000e
0016
fff3
0002
0008
0004
ffe6
0012
ffdb
fffa
0001
0009
0001
fff2
001c
fffa
fffd
001a
0005
0003
fffc
0000
fffa
fff8
0005
fff9
000b
fff7
0004
ffe8
ffee
ffee
fff4
ffce
fff5
fff8
fff1
fff1
0010
0005
ffed
ffef
002c
0001
fffb
0024
001d
002b
0015
ffe8
0014
0013
fffb
fffb
000d
fffc
000d
0006
fff3
000e
ffef
0013
0008
0000
0005
0011
fff6
000b
fffe
ffe6
0000
ffee
0005
ffed
0008
ffff
000e
0006
0009
0001
0006
0013
0013
ffe6
0014
0016
0005
000b
fffd
0016
fffa
fffd
ffe5
fffb
0005
000e
000d
001a
fffa
0007
000f
0004
ffd9
fffe
000f
000a
000e
0016
0010
001e
ffed
0010
ffef
0006
0000
fff5
fff9
0003
ffea
ffe1
000d
ffe3
ffe9
000b
ffee
0003
fffd
ffe8
0010
0002
0014
0027
fffc
fff4
0009
ffe3
ffed
000b
001f
0013
0007
0008
ffff
ffde
0012
0010
0003
0005
0019
ffc8
0023
ffff
fffd
ffde
ffec
ffd0
0013
001b
0006
0006
0013
0008
0006
ffff
0020
0006
fff8
0020
0008
fff2
ffee
0004
fffb
ffeb
fff1
fff9
fffd
ffee
fff3
0007
0002
fff5
000b
0003
0010
fff8
0008
0010
0010
ffe8
0005
fff8
0006
fff1
0011
0003
fff0
0018
ffff
ffd4
fff1
0004
0007
0009
fffb
fff0
fffb
0008
0000
001a
ffdf
0016
fff5
000a
ffeb
0005
ffed
0008
0000
000f
fff1
fff1
0010
000f
fff3
0007
ffed
0013
0005
0001
0027
fff0
fffa
0028
000d
0016
000b
001a
0004
ffff
000f
0005
0012
000a
fff7
fffd
fffd
ffe6
ffef
fffd
000d
fffa
fffa
fff1
fff3
fff3
fff8
0016
0010
0002
0009
0022
0007
0008
0007
0003
0000
ffeb
000b
fffc
fffc
000a
000e
ffef
0019
fffb
ffe3
0011
0005
0005
0005
ffff
fffc
001c
fff2
0011
ffd7
0005
ffee
0026
0007
fff4
0011
000a
0008
ffeb
ffdf
fff0
000f
ffed
001d
000d
0005
0002
000e
0008
fff4
001d
002f
0008
fff9
0007
0023
fff7
fff5
fff1
000c
ffeb
fffb
ffe4
fffb
0009
0002
ffff
0006
fff2
000e
0000
fffd
0000
0021
fffa
0009
000c
0004
fffb
000e
fffd
0004
ffff
000f
0006
ffee
fffe
fff5
fff9
ffeb
ffef
0009
0015
0015
000b
0015
0010
fffd
000a
001d
000f
ffff
000b
fffb
0000
0015
fff4
001a
ffd8
000a
0002
0011
001f
0009
fffc
000c
0012
ffe9
0004
0014
fff8
ffff
fff9
fff6
fffa
fff9
ffed
0001
0010
fff5
ffde
fff3
fff4
001d
0014
0005
0006
0013
000e
fff3
fffe
0017
fff7
0001
000d
0017
000b
ffe7
0003
ffff
0010
fff4
fffa
000d
0000
0007
0016
0004
0015
0000
ffe1
0016
000e
fffd
fffa
0000
0006
0004
fff3
0000
001f
fff1
fffc
0002
0000
0001
fff2
0015
001f
0003
0005
000d
0012
0001
001d
fffb
ffdf
fffc
0018
ffe8
000e
0003
0020
000d
fff8
ffe6
ffff
fffb
000a
0016
000f
0018
ffef
0004
fff4
ffde
0006
fff0
0008
ffe5
000c
ffee
0020
0018
fff4
0019
ffe7
fffd
0009
fffe
ffef
0012
0004
fffe
0007
0004
0022
fffa
fff9
fffe
0007
ffef
0000
fffa
ffe4
0011
ffe7
fffd
fff7
fff5
0011
0005
0006
fff0
fff7
0009
fff7
0011
0016
fffb
ffe6
0000
fff3
fff6
000c
0005
000e
fff6
0009
fff9
ffeb
0017
001c
0007
0008
0001
0026
fffe
fffd
0001
0007
fffa
0002
000a
0000
001c
fffa
000e
fff2
fffa
fff9
fff5
0013
0006
fffe
0010
fff9
000c
fffa
0009
ffe3
0000
0008
ffff
fffc
0002
000f
fff1
fff1
fff2
0011
0002
001a
000e
fff1
fffc
000c
ffea
fffc
fffc
000c
0014
0009
fff7
ffef
0006
000c
ffd7
0011
0001
0007
0017
fff3
000b
0003
0004
0014
0011
fff1
ffe5
0000
ffe8
0010
0019
000f
0005
0000
ffe1
fff5
fffe
ffec
fff4
fff9
fff2
fff6
ffe8
0012
001b
ffde
ffe4
fff9
fff8
fff9
0004
0007
ffe7
000e
0019
000a
ffe9
fffb
0008
fffa
ffe3
fffb
fffb
001a
0018
0013
0007
0007
0000
ffea
fff4
000e
0005
0014
0008
fff4
0006
000e
0002
000b
001f
fff5
fff7
fffb
0003
0010
0010
ffe0
0007
fff1
0002
fff0
ffeb
fffc
0011
fffe
fff2
0011
0001
fff9
fff6
000a
0007
fff5
fff7
fffe
fff3
ffef
0009
0010
0000
0009
ffea
fff7
0009
fff5
fff9
fff9
fffc
ffe6
0005
0003
ffff
0009
0004
0003
000f
000c
000f
ffee
0008
0011
0001
0004
ffff
0008
fff9
fff6
fffc
fffa
fff2
0010
0005
fff4
0006
0009
0005
ffee
fffb
fff7
ffed
ffee
fffb
0000
fff2
fff1
0017
ffff
0000
0008
0003
ffe5
fffb
0000
000e
fffc
0008
001b
0018
0002
fffe
0006
000d
000e
fff8
fff1
fffd
000e
ffef
0002
001e
0005
fff8
fff0
0000
fff8
ffff
0008
fff6
ffed
ffee
fffe
fffd
0015
001b
000a
fffe
0003
0011
fffa
0006
fffd
0002
fffc
fff1
fff3
fff9
fff1
ffe5
0003
0003
ffe0
0007
0004
fff1
0006
0004
fff9
0002
000b
ffeb
fff2
ffe8
fffb
fffb
fffc
ffea
fff1
000a
001f
fff8
fff8
ffff
fff1
0001
fff7
fff1
fffb
0013
fffc
000f
0003
001d
0019
0000
0014
0000
0011
000c
000b
000c
0002
fffc
ffff
000f
0000
0009
0010
fffa
fff9
0002
fff8
fff7
0004
ffef
fff4
0001
0008
ffeb
ffff
0017
fff5
0005
ffff
0010
fff6
0002
0004
0016
0005
0005
fffe
ffea
fff2
ffff
0004
0003
fff7
0010
0011
000a
000f
0008
000c
000c
fffa
fff2
fff2
0019
001a
001e
0009
ffec
0002
0001
001c
000f
0003
000a
fff1
fff0
ffee
ffff
fff0
fffe
ffff
001d
fffa
0002
fff6
0002
0005
fffd
ffe7
ffff
fffb
fffe
0014
0008
0008
000b
0012
fff6
fffc
0003
0006
000f
ffe2
fffd
ffff
fffe
000c
000f
0012
fff6
ffef
0003
fffa
fffc
fffd
fffb
0002
fff0
0005
fffe
0002
fffc
0012
0002
000e
0003
0005
fff9
ffe5
000a
0005
0004
000e
ffed
fff2
fffd
000c
000f
fff5
001d
0008
0000
fff7
0000
0001
000d
0007
fff9
fffc
fff6
ffff
0001
fff2
fffb
ffff
fffd
ffed
fff9
0004
ffff
000d
ffff
fff5
fff1
0006
000a
0000
ffef
0004
fffd
0002
fff9
0004
0001
fffd
fff5
fffa
0000
000f
0015
0005
0009
000a
fff6
fffa
000c
fff7
fffa
fffe
000c
0008
0014
fff9
0009
fff9
fff3
0004
ffff
fff6
fff8
0005
ffff
000a
000b
0006
0008
0000
0001
0000
0005
fffc
0008
fffb
000d
0002
fff9
0004
000c
000c
fffd
0005
fffa
000a
fffc
fffb
fffa
fff8
fffd
fff6
fffe
000a
0011
fff6
fff1
0004
fffa
fff4
fffd
fff0
fffa
0008
0001
0005
fff7
0009
fff6
0006
0008
fff5
0006
ffff
000a
0003
fffd
fffb
fff6
fffb
0000
0008
0000
000b
fffd
0011
0002
fff6
fff8
fffb
ffff
0005
0000
0002
0006
0004
fff6
fffc
0000
fff0
ffff
0002
000a
fff3
fff4
0006
0010
000e
fff0
0000
0005
fffd
fff0
fffc
fff4
0002
0013
fffc
fffb
fffc
0004
fffb
0004
0008
0001
0006
fff5
0004
fffe
fffc
0009
fff1
0007
fff4
0000
fff9
0008
0000
fff5
0005
fffb
0007
0000
0005
0009
0010
000f
fffc
fff6
ffeb
fffe
fffc
fffd
0004
000f
fff9
0004
fffc
0002
0008
000b
fff9
fffe
0009
ffff
0003
0002
0009
fff4
fff4
0000
0001
fffa
fff9
fff6
fffb
0000
0008
0005
ffff
0005
fff6
fff9
000e
0004
fff3
0000
fffc
fff4
ffed
000a
0005
fffd
fffe
0002
000a
0004
0002
0005
fffc
fff6
0001
fff3
fff3
fff2
fff7
fffa
fffa
fffa
fff5
0005
fffb
0004
fffd
0000
fff8
ffff
fff5
fff5
fffe
fffb
fffe
000f
0004
0001
000a
0000
ffea
0009
0015
fffd
0013
0008
0004
0006
fff1
0001
0004
0009
ffee
fffe
fffd
fffb
fff9
ffee
0003
0003
0009
fff0
0002
0005
fffe
0006
fff7
0001
001a
001d
ffef
001c
ffe8
fffb
fff3
fff5
fffb
0017
0018
000c
000c
0011
fffd
ffe9
fffa
0000
000d
0001
0016
fff1
000c
0008
000b
0012
0016
ffde
000d
fff9
0011
ffed
fffc
0003
ffe4
0017
0017
0002
fff7
000b
fffb
0014
fff6
fffb
ffee
fff8
0009
fff1
0001
0007
fffc
fff9
fff1
ffff
0014
0014
0011
fff0
ffe8
0000
ffeb
fff8
000a
0012
fffd
000e
0001
fff3
ffe6
0029
0022
001b
fffd
000f
0002
ffff
ffe9
0005
fff4
ffe9
ffe1
0006
0004
0004
fffe
001a
000c
001a
ffdf
0007
000a
0002
fff1
ffff
0026
fffd
ffff
000c
0024
ffff
0009
0005
fffb
fff6
0007
ffe9
0007
fff2
ffff
fffe
fffb
fffd
0021
ffec
ffe9
ffe7
fff1
ffe7
ffe6
0010
0013
fff0
000a
fffc
fffe
fff2
ffed
0008
fff5
fffc
000d
0004
0007
000a
0019
0008
000e
fff2
000c
0023
0015
fffc
001e
000d
ffe9
0003
0009
0005
ffed
0015
0034
001e
fff8
fff8
fff2
ffd4
ffc8
000a
fffc
0001
0013
fffe
fff4
fff1
0011
fff7
ffe9
ffed
000d
ffcc
fffe
0014
fffb
fff7
0007
ffee
0006
0030
002c
ffec
001b
0005
001c
ffe5
fffc
0011
fff4
0006
ffd8
ffec
0001
0026
ffeb
0009
0022
fff4
0002
0011
ffd8
0009
ffe6
ffe9
fffe
0001
0012
0008
0003
fff9
fff5
ffee
0003
ffe5
0013
fffb
fffc
ffdf
0004
0012
fff7
ffd9
0024
001d
0002
0016
0005
0014
fffd
001c
0000
fff6
0005
0019
ffea
fff3
0015
ffe1
0017
fffe
0014
001e
001d
0005
002b
fff3
0004
0002
fff8
fff2
ffeb
0015
000c
0011
ffe7
ffee
000e
ffe7
ffef
fffd
0017
0008
0004
0014
ffe9
0000
ffff
fff4
0010
001a
0026
ffdd
0004
0005
ffe8
fff3
000c
fff7
fffa
ffed
fff5
fff4
fffd
fff8
ffe7
0001
fff6
0024
0005
0008
fff5
0012
0004
fffe
fff1
ffe0
001a
fff6
0005
ffeb
000b
0001
fff0
fff7
0007
0001
0001
0017
0002
0007
ffe7
fff6
0002
001c
0004
0002
fffd
fff9
fffc
0001
fff5
0002
ffe9
fff6
000c
fff8
0007
0002
fffa
0005
0001
0010
fff7
0011
0001
0002
000a
000f
fffc
fff5
fff1
000a
fffa
0000
ffef
ffdb
0002
0006
ffee
0011
0001
0009
fffb
0004
fff9
fff2
fff5
0017
fff7
0008
0003
ffee
0004
0009
0012
fff7
0007
0003
0009
fff9
0002
ffe2
fff1
0003
fff6
fffc
fffd
0009
000e
0005
0005
fff7
0006
fff8
000f
0003
0011
fff2
000a
fff1
000b
fff1
fff2
fff5
fff5
fffb
0015
fff2
fffb
fffe
0008
fffc
ffd7
000d
fff2
000d
0000
000b
0014
0014
0007
0002
fff2
0014
fff0
0008
fff8
0006
fff3
ffe8
fff4
0017
fffd
0004
ffe8
0008
0010
fff3
0007
fff2
0018
0009
000a
0003
fff4
fff1
ffee
fffa
fffe
fffe
0002
0024
fffa
000f
ffea
0004
0003
fff2
fff3
0005
ffe8
fff4
fff5
000c
ffff
0004
0011
0002
fff4
000c
ffed
fffc
ffff
fffb
000b
000d
fff8
fffc
fff6
fffd
0008
0005
fff5
fffd
fff6
fffc
fffc
fff4
0010
0002
fffe
0016
0001
fff1
0002
000b
0003
fff7
fffd
fffb
0008
ffef
fff1
ffea
fff6
fff8
fff7
ffff
0000
000f
ffeb
001c
0004
fff6
fff0
fffb
0018
fff0
fff7
fffa
0007
fff9
fffd
0000
0006
fff6
ffea
fff7
000c
0001
fffe
0001
fffd
000f
fff5
fff8
000a
fff6
ffff
0009
fff1
fffe
fff8
fffc
000f
fff7
fffd
fffd
fffa
ffef
0008
000a
0009
fff5
0006
0006
0020
0008
0010
000a
fff2
000d
fffb
fff7
fff9
fff6
0004
ffec
fffc
fffa
fffe
fff0
0006
000b
000f
fff4
fff6
fff3
fffc
ffee
0006
fff1
fff6
0007
0014
0006
0016
ffde
0009
0000
fff4
0005
000f
fffa
0017
fff1
ffec
0025
fff5
0025
ffe1
fff4
001d
ffe9
0019
0023
0002
000f
000b
fffd
fff7
fff2
000c
0001
fffe
ffff
ffea
0009
ffed
fff8
000b
0002
0003
fff9
0001
fffa
001f
fffa
0003
0009
ffe2
fff6
0005
fffd
fff7
ffe0
fffb
ffe3
000b
000d
fffe
0028
fff1
ffe1
0005
ffe5
001d
001e
001b
0007
fffe
fff4
0001
fff6
000a
000c
fff9
000c
ffe4
0015
ffff
ffdf
fff5
fffa
fff9
fff7
ffed
0012
ffe2
000b
0002
0017
000a
fff7
0020
fffe
fffd
0013
0010
0015
000a
0020
0006
000f
ffe6
001f
fff2
0003
fff9
fffd
fff6
0009
fff6
fff8
ffec
0006
ffec
001f
0016
0017
0003
fff5
0013
0000
000e
ffe4
0000
001b
0013
0019
fff1
fff5
fffe
fff9
0011
0002
ffda
0015
fff3
000e
001b
0002
000e
ffdc
fff8
0013
fff6
fffd
0005
0014
0008
fff9
0004
0020
001b
fffa
ffff
fff3
0006
fffc
000d
fff4
0001
ffee
fff2
ffff
000c
fff1
0008
0015
ffe6
0001
0000
fffb
000b
0009
0002
000b
ffeb
fffa
fff9
fff4
0007
fff9
ffe9
ffeb
0005
001c
0008
ffef
0008
fffe
0018
001c
fffc
fffd
ffe5
001b
fff8
fff6
0006
fff7
0000
0017
0019
0004
0008
fff3
fff5
0002
0002
000a
000b
fffc
ffea
0001
ffeb
0001
0009
fffc
0007
0009
ffee
fffd
0011
fffb
ffe6
ffec
001c
0018
0007
001e
0013
ffda
000f
fff9
000a
0006
000d
001a
ffea
ffe8
fffd
fffb
ffdf
ffe9
fff5
000e
ffee
fff3
fffc
0005
0001
0002
ffea
ffe6
ffee
fff1
fff8
fff7
000e
ffe8
001b
0002
0001
000c
ffec
fffb
0003
0010
0018
fffd
000d
ffff
fff0
fffb
0002
0010
ffe5
0012
ffe9
ffec
0012
0013
fff8
fff8
0008
0001
000b
ffec
fff6
000e
0006
ffe8
fffa
0005
0008
ffdd
fff0
0007
0002
0005
fff8
fff7
0004
0003
0000
fff9
ffee
fffa
ffef
000d
fff2
fffa
fff4
fffb
fffc
0004
ffeb
fff7
001d
ffe4
ffe5
0004
0014
fffb
fffe
fff9
ffed
fff4
fff0
fff5
fff3
fff8
0008
fff1
0010
ffe4
0003
ffee
fffe
ffef
0014
fff2
000e
0003
000f
fffd
000a
0004
fff3
0001
ffeb
0000
ffff
000e
fffb
fff9
fff9
ffe8
ffed
fff2
ffef
0024
0004
000b
0011
0002
0011
0007
000f
fffe
0026
fffb
0008
0015
0008
fff7
ffef
000e
0001
000d
0003
ffe4
ffe5
fff7
000f
fff8
0007
0011
ffee
0004
fff5
0009
fffb
000b
0000
0001
0013
000e
0015
fffa
0009
fff1
0008
0003
fff1
000f
000e
fff6
0001
fff5
000e
0016
fff7
fffb
ffef
0010
fff8
0010
0007
000b
fff4
fff3
001b
ffee
0007
fff9
fff2
000b
0005
fff5
fffb
fff4
0003
0003
0006
0008
0007
fff7
fff7
000f
001a
0001
000e
0005
000c
000d
fffa
fff8
fffc
0012
ffe2
fffb
fffc
fff3
0012
fff7
fff5
fff4
ffea
000a
fff1
0004
ffed
fffa
000a
fff9
ffff
fff0
fff9
fffc
ffe4
001c
000f
fffe
ffee
ffec
0021
ffd4
0022
fffc
000a
ffe7
0005
ffff
ffeb
fffa
fffd
fffe
fff7
000e
001c
000e
fff0
ffe4
001c
0010
0001
fffa
001d
fff6
0008
fff9
fff5
0008
fffc
0008
fff8
fff9
ffda
fff9
0003
fff8
ffdd
fff8
0001
001c
fff3
000c
fff7
fff7
001b
000a
000c
fffb
fff6
0008
ffee
ffe6
000c
0001
ffe5
0011
fff2
0002
0004
fffd
0007
fff2
fffc
fff3
fff9
fff8
fff5
ffe6
0013
ffe5
000e
0007
fff8
0028
000a
fff0
0002
fffb
000f
0001
0018
ffe8
fff8
fffa
0008
0017
ffff
fffa
0017
001a
ffea
fff1
0010
000b
fff7
fffd
fff5
fffd
fff8
0012
fff8
ffdc
0018
fff7
0005
0012
0011
0000
0023
001b
0012
0008
001b
ffeb
0001
0007
fffb
0019
0011
0012
fffb
001d
0001
0008
0000
ffff
0011
ffe4
ffff
0002
0008
0022
000e
fff2
ffea
ffeb
ffe9
fff3
0004
0003
ffe9
ffed
000c
fff7
ffe5
000a
001f
ffe1
0023
fff5
fffc
0003
000f
0000
ffec
fff4
0017
fff4
ffe2
001a
ffe0
fff6
0006
ffe5
fffb
fffa
0004
0011
ffe5
000f
fffa
0004
fff2
ffdf
fff0
ffed
fffd
0004
0004
ffed
000b
fffc
000f
000a
ffe9
fff2
ffe1
0009
ffef
0012
fffc
ffee
fffb
0016
ffe6
002c
0013
ffec
0016
001b
001d
0002
0006
000b
0007
fffe
ffef
fff8
fff6
001a
0009
fff3
0009
0004
0007
000f
0025
000f
0010
0005
0001
0005
001a
000b
000d
000a
0008
fff9
000b
0011
0013
fff9
fff6
0013
000d
fff7
000e
fff8
0019
001c
0012
ffd4
fffa
fff8
0003
000f
ffff
fffb
ffe9
ffeb
0014
0010
0010
fffb
0003
000a
fff7
fff1
fff2
000d
0008
0001
000c
0012
000e
fff9
fffd
fffd
fff6
fff4
0007
0002
0016
fff8
000b
fff3
0017
001e
0004
000b
0016
0005
0020
ffeb
0000
ffea
fff5
fff4
0015
0005
0003
0018
0004
fff6
ffe6
ffef
ffe5
000d
fffe
ffd9
0015
0009
0014
fff8
ffe1
fffe
0002
fff8
ffec
000c
0001
0009
fff3
0004
fffd
0012
ffff
0005
fffb
0000
ffdd
0014
ffdd
fffa
fff5
0019
ffed
fff5
0000
ffed
fff1
0018
fffb
fffd
fff2
0011
000c
000b
001a
ffff
0004
000e
fff9
fff5
fff7
0004
ffde
0003
0016
fffd
fff4
000b
0001
ffff
0016
000e
ffec
000c
0011
ffeb
000e
ffd9
fff9
ffff
ffe2
0010
0019
0000
0003
ffed
ffe8
0008
fffa
ffe2
ffe5
fff2
000c
0014
fff1
0001
ffe3
0025
000e
0005
001d
ffd2
001b
fff2
0005
fff9
0003
0007
ffd6
000c
0004
fff9
0002
0008
0000
ffe3
fffa
0015
0004
fff5
fff9
ffe3
ffeb
fffd
fffa
fff9
fffe
0007
ffee
001f
fffc
ffe8
ffff
000c
0018
fff9
0015
0017
000a
fffa
fff0
0008
0032
0006
0017
0012
000c
000d
ffee
000b
fff3
ffe8
000e
001a
ffff
0021
fff2
ffe5
0018
0018
fff8
ffef
fff8
0009
ffeb
000c
fff8
ffff
ffe2
0006
fff8
0026
0006
ffd7
0019
ffe4
0009
fffc
0012
0004
fffc
ffe8
0031
001a
000c
ffdf
fffa
0011
0001
ffe8
ffe4
0014
fff3
fffa
fffd
000a
0021
0006
0017
fffd
0011
002b
ffdf
0005
000b
fff1
0025
fff8
0011
0009
ffe9
0010
0006
ffd4
fff6
fffd
0003
fffa
0013
0007
fffe
0000
fffc
fffd
fffb
fffb
fffd
fff1
fffb
fff9
000d
ffef
0006
ffee
0013
0004
fffa
000c
001b
ffdf
fffb
ffe0
ffe8
fffb
0005
0005
000e
ffe8
0019
ffe5
fffd
fffe
0015
0009
0006
fff9
ffed
fff4
ffe0
0006
0010
0003
0008
fffc
0011
0002
ffee
0009
0024
0010
001c
000b
0019
0001
000c
0009
fff6
0007
ffde
0007
0013
0000
ffe1
fff9
0013
0005
ffed
0002
0021
0006
0001
fffa
fffa
001e
ffeb
0020
fff8
0013
0005
0007
ffd6
fff0
fffa
fff0
fffd
fff9
fff6
fffd
fff8
0007
fff3
0018
0002
0007
0001
000a
fffd
0000
ffe8
0013
0000
ffef
fff1
fff7
0005
ffed
0001
ffe0
ffee
fff9
fff6
ffde
0008
0000
ffed
ffef
fff9
fffd
0002
fffa
0028
000e
0001
000b
fff4
fffc
fffe
0012
fff7
000e
ffe9
000c
fff1
000b
fff2
fff7
ffff
000e
0014
fff8
fff9
fffd
0009
fffe
0007
001b
0008
ffed
0008
0002
0001
0005
fffc
000b
0007
0001
0015
0009
fff3
fffd
0008
0007
0010
0016
ffee
ffed
0001
000d
0019
fffa
0017
000a
0006
fff0
0008
fffe
fff6
0009
fffa
fffd
0001
fffd
0003
000a
0008
fffc
0003
0002
fffa
fffe
fffd
fffe
ffff
fff7
fff3
fffc
fffa
fffb
0004
0002
fffe
0002
0005
fff6
0002
0009
000e
000e
ffff
0008
0000
fff9
fffd
fffa
fffc
fffc
0001
fffa
0003
000f
0001
0006
0009
0003
0000
000c
0009
fff6
0000
0004
0000
0006
0004
0003
fffb
0001
0003
fffa
fffc
0008
0001
fffb
fffa
0003
fffa
000d
0005
fffd
ffff
fff7
0006
000f
0001
0002
0010
fff6
fff3
ffff
fffa
fff9
fff8
0002
0006
0000
fffb
0002
0004
0004
0006
fffe
fffb
fff3
fff9
0004
fffb
fffe
0005
0005
ffff
fffa
fffd
fffc
0000
0007
fffa
fffa
0012
fff7
fff7
fffb
fff4
0004
0001
fffc
0006
0009
000d
000d
0009
0001
0004
0002
ffff
0006
000d
000b
0000
fff5
0008
fffd
0002
0003
fffc
ffff
fff9
fff8
000e
0000
fffd
0003
fff3
000e
fff4
ffef
000d
ffff
001d
ffe6
fffc
fff3
000a
001f
ffe9
fff1
fffc
0015
0003
0007
0009
0000
fff7
000f
0015
fff7
fffc
0009
000a
fff7
fffb
fffa
000b
000c
0010
ffe7
fff9
000f
000e
0000
0012
0005
fffa
0010
fff2
001c
fffa
fffb
0013
ffee
0007
fff1
0000
0007
ffef
ffef
0000
fff7
0010
0021
fff8
fffc
fffd
0005
fffb
ffed
ffef
0004
fff0
000b
fffe
0005
000b
fffa
fff8
fffb
ffe5
ffea
fff2
fff1
001e
ffec
fff9
0012
fffa
fff9
000a
fffb
0013
fffb
fffe
fff4
0010
0007
0002
0004
0008
fff5
0003
fffe
0014
ffff
000d
fff7
ffeb
0001
0000
000a
0010
0000
0003
fff4
fff5
0016
fffb
ffee
ffe6
000b
0005
fff0
fff4
000c
fff7
fffc
0004
0002
fff4
0008
ffee
fffe
fff0
0007
0003
000f
0010
0009
fff2
0013
fffb
0001
001d
0006
0022
0005
0001
0017
0017
000c
ffe5
fff0
ffe1
fffd
fff4
fff3
0004
fffd
0004
0006
ffdf
000a
0008
fffd
fffc
fff2
fff7
ffe2
0003
000b
0003
ffef
fffb
0012
fff8
fffa
fff7
0000
0017
fff9
000d
ffe6
fff3
000e
ffe6
ffeb
0012
fff2
fff9
0004
ffeb
0001
fffb
ffff
ffff
fff5
0007
fff5
fff5
0000
fff6
ffe9
ffff
fffb
ffeb
fff2
ffff
0002
fff1
fffe
000f
0003
ffff
fffd
0001
000e
0006
fffd
0005
000f
0001
fffd
0016
ffec
0007
ffeb
fff1
000c
fffd
fffe
fff9
0003
fff3
0005
fffa
0006
fff2
ffe7
ffdf
fff0
fff9
0003
fffa
ffec
0022
000d
000b
0005
fff2
0015
fff4
fffe
ffec
000b
000c
ffef
0017
ffff
000f
fff3
0004
fff0
fff9
000b
ffee
0012
0002
0006
fff1
fff7
fffa
000a
0005
fff3
ffed
0000
ffef
001e
ffff
fffd
000d
fff2
fff4
ffef
0002
ffea
fffa
ffed
fffe
fff8
0019
0020
ffef
fff8
0008
0001
ffd9
0001
0016
0005
ffe1
fff7
0014
fffe
0010
fffd
0007
ffef
000c
fff9
0002
0009
0006
0002
ffe9
0012
0000
fff5
fff9
0004
000c
000e
ffef
ffee
ffff
0007
0013
0017
0001
0005
0002
0011
0003
ffee
0029
fff5
fff9
fffc
000e
fff2
0008
0017
001c
fff8
fffc
0003
0005
fff6
0000
ffff
000f
fff7
0006
fff3
000f
ffe7
0009
ffe6
fff7
0006
0012
ffed
0008
fff2
fffc
000a
0016
0008
0004
0006
0018
0001
fff7
0019
001c
fff2
0010
ffe5
0016
fffc
fffb
0009
0013
ffd6
0002
fff5
0000
000b
0007
0005
0008
0011
ffed
fff9
fff2
0003
fffc
fff5
0005
ffed
000d
fff4
0009
ffff
fff2
000b
0009
0010
0006
0008
fff5
0006
ffef
fff1
0011
ffe9
0014
fff1
fffd
fffc
0004
0007
0011
0020
fff8
000f
fff2
0013
000b
0013
fff2
0021
0017
0001
0006
ffeb
ffea
fff5
0010
0012
0007
0008
0009
0006
0001
0007
ffef
fffa
fffd
0003
ffff
fff2
001e
000a
0009
0007
001a
fffb
0007
fff0
fff0
000e
fff0
fff6
0009
0012
fff0
fff0
0004
fff5
000b
ffec
ffe9
ffee
fffc
000f
0010
000c
fffc
0004
000a
0008
fff4
fffb
ffec
0008
0000
fff4
fffb
000a
ffe5
0009
0003
0009
000b
0003
fffe
000b
fff1
fff7
fffc
fffa
0010
0011
0016
0018
ffee
0004
000d
0010
ffed
0005
000c
0008
fff0
0007
0008
000a
fff4
0003
000b
0003
ffea
000a
fffe
fff2
0007
fffd
fff3
0007
fff3
ffda
ffef
fffd
0007
0003
0006
0015
0009
ffe7
0004
fffb
fff9
000d
000d
fff5
ffff
fffe
fffb
fff9
0000
fffb
fff9
0016
fffd
0015
ffe8
000e
fffe
0002
0007
0001
fff7
0004
0003
fffb
0012
fffa
ffff
fffd
0006
0006
fff7
0004
fffc
000e
001c
0004
fffb
0004
fffb
fff4
000c
001f
0001
000e
ffe8
0007
ffea
000c
0005
0003
0001
0004
ffe6
0012
fff5
000b
ffef
0022
0018
0018
0002
fffd
fffc
fff4
0008
000f
0012
ffff
fffd
0005
fffe
0003
ffff
fff3
0004
fffb
ffe9
fff9
ffff
fff1
fff1
000b
ffef
fff4
0006
0010
0003
0009
fff5
ffe3
fffc
fff3
ffe7
0009
fffb
0014
fffb
ffe8
0005
0005
fffa
fff9
fffd
0016
fffd
fff4
0002
0016
ffe1
0006
000b
0021
000b
0001
fff9
0011
fff4
fffc
000d
fffb
ffe2
0002
fff4
0008
fff6
0000
fffa
fffb
fff8
0017
fff4
0005
000d
fffe
0018
000a
0010
fff2
fffe
fffb
fff6
fff9
0009
fffd
fffd
0003
fff5
0007
000d
0018
0004
ffd9
0007
fffc
0004
0018
fff8
ffff
0010
000a
fffa
fff6
0005
0019
ffe6
fff3
0014
0022
ffd2
000c
0000
0001
000e
0008
fff3
fff1
0004
ffef
0019
0005
0003
001f
001f
ffed
000d
fff8
fff1
0012
0009
ffd9
0006
ffe5
0019
fff8
fff8
000b
000b
ffe6
000d
ffef
fffe
000b
000d
fffc
0003
0011
0015
001a
fff7
000d
fff1
ffee
ffff
0007
fff1
fffc
ffe4
0002
0016
0005
ffe5
ffea
fffa
ffff
fff7
0011
ffff
0013
0002
fffb
fff9
fff0
0003
0001
fffc
0016
001e
0000
0000
fff8
ffef
ffff
0014
0008
0003
000a
fffb
000e
ffdf
0010
000f
ffe3
000e
ffeb
0004
0000
000b
ffe9
fffb
ffed
fffd
ffde
ffe1
0003
fffc
001f
000f
000e
fff8
000f
0013
fff9
ffe9
ffff
fff9
0000
000d
0010
ffe9
000d
ffed
0027
ffdf
fff2
fffb
ffde
000b
ffff
0001
0016
fff4
0009
0001
ffde
ffd1
0009
fff6
fff3
ffeb
fff3
fff6
fffd
ffe4
ffee
fff0
0002
0019
fff8
fffe
fffa
0016
0015
000f
fff6
001f
fffd
ffde
0011
000d
ffee
fff6
0000
0010
fff3
fff6
fff8
fff4
fffb
ffda
fff2
0017
0001
fff8
0012
fff3
fffd
fff7
ffd4
ffeb
ffec
0014
fff0
fff6
0003
ffd0
fffc
0024
0018
fff6
fff3
fffa
fff4
0002
ffe6
fff4
fffa
ffe1
fffa
ffe4
0014
0005
000d
0015
fffe
fffb
fff6
0000
fff2
fff7
fff3
0009
fff7
ffff
ffd1
0000
fff9
001f
ffff
fffc
ffe6
0008
0004
0003
ffee
ffef
fffd
fff4
ffe1
0017
000a
0004
ffe5
ffff
ffd9
000d
fffb
0013
0010
ffea
000e
fff1
ffed
ffe7
fff6
0011
ffdd
0001
fff6
0014
fff5
0012
0015
fff6
0000
0015
000f
0029
0002
ffe5
0001
000c
0013
0006
0007
fffd
fff8
ffed
fff3
fff6
ffe1
0018
fff3
0019
0002
fffa
000d
ffdd
0010
fffa
ffe6
001d
0002
fffb
ffe5
000c
0009
fff0
ffee
001a
ffec
ffec
fff5
0017
0010
0016
000a
0010
ffea
000b
ffff
0006
fff3
fff4
0022
0005
ffff
fffd
ffff
ffeb
fffa
0002
0010
000e
0013
0007
0000
000a
0003
000b
0004
fffa
fff9
fffe
fff5
000c
0001
fff9
ffed
000a
fff3
fffc
000c
0011
fff8
ffe8
0018
0027
0009
000d
fffc
fff5
fff9
001a
fffc
fff7
000c
0006
ffe8
0001
0021
0013
0008
fff0
fff4
fff1
000d
fff9
0014
000f
fff1
0006
fff4
fffc
0003
0004
fffa
0008
0007
0006
0002
fff6
0000
000a
0008
0007
fffd
fff8
ffeb
000d
fffa
fffc
fff3
000d
fff4
fff0
0017
0012
fffc
0009
fffa
fff7
fffb
0002
0004
fff2
fff6
fff2
ffe9
ffff
ffe6
000d
0007
fff7
0012
0014
fffc
0010
fffa
fffc
0000
fffa
0016
0005
fff3
fff0
0003
fff8
000c
fffd
fff7
000c
ffec
fffc
000b
0008
0000
0011
0009
0009
000e
fffc
0001
0002
0013
fff1
fff4
ffec
fff8
fffb
000b
fff9
0000
ffff
000a
0001
0009
fff3
fff0
0009
000b
fff8
000a
0012
000a
0020
fffc
ffeb
fff9
0009
fff0
fffd
ffe5
0001
ffe6
0010
0000
ffe4
001a
fff0
000b
000a
ffe5
002b
fff9
fff9
0006
fff9
001c
fffe
0012
ffe1
002e
0004
fff9
fff2
ffe1
fffd
0010
000c
000f
0006
0004
fff4
0009
ffe7
000b
ffe7
0000
0005
0016
fff5
ffff
0000
ffef
0010
fff9
000a
0003
001c
0010
000f
0005
ffe9
ffe0
000a
000e
fff1
ffe7
0003
0007
fffc
000a
001c
ffd8
0029
0002
0023
0010
fff6
fff7
ffe9
fffb
fff3
ffe7
0009
0010
0002
000b
0014
0015
ffe5
0008
000b
fffc
0017
0010
0001
ffee
fff2
0005
ffea
fff2
fff1
0026
fff8
fff7
000c
0013
fff5
0002
000f
fffd
0009
0013
0017
000a
ffed
000d
ffef
fffc
001a
ffde
ffed
fff5
0014
0007
0008
fffb
fff5
000d
fffb
0015
ffed
ffef
ffd7
0008
0015
0007
ffe9
001c
0003
fff8
0013
fff9
fffc
0001
fff3
000d
0002
fffb
fff1
fff3
0002
fffe
fff8
ffe8
fffb
fff9
ffef
0000
0001
fff4
ffec
fff5
ffd8
0004
ffff
fff4
fff1
fff3
fffb
ffee
0001
fffb
0004
fffa
000b
fffd
0008
fffd
0000
fffc
000f
0006
fff3
fffe
fff5
000d
000e
fff6
0006
0003
0013
fff7
0008
0011
0002
0007
0007
0003
fffd
fff2
fff7
fffe
ffef
fffa
000d
fffe
0009
0014
0000
fffd
ffff
ffef
ffef
0004
fff0
0012
000c
0000
ffec
0009
0009
0005
0005
0013
ffee
0008
fff7
000b
0008
ffff
ffee
0000
000f
0001
0015
ffee
fffa
0001
fff6
fffc
fffd
fff4
0005
0002
0004
0000
0004
0013
0005
000b
000f
0003
0001
fff5
fff1
ffee
000b
0008
0002
0007
ffff
000f
000b
0005
0009
0004
fff5
0002
0005
000e
0000
fff4
fff4
0001
fff3
0006
001b
000f
fff8
ffff
fffd
0008
fffe
fff4
0009
0006
0000
0008
fff1
0004
fff4
0001
0012
001f
0012
fff7
0015
fff8
0011
ffe3
ffe1
fff3
fffb
000f
fffc
0004
fff5
ffff
fffc
ffff
0004
0004
fff1
fff4
ffed
fff5
000f
fff3
0003
0004
ffef
0005
fffc
0007
000f
ffff
fff5
fff8
0010
0011
fff9
0006
0011
0017
0005
0009
fffd
fffb
0006
0003
fff7
0006
fff2
0009
0008
fffe
0005
fff1
0001
000b
0009
0003
0003
fffd
fffe
000a
0006
000a
0004
ffec
ffe9
fffd
ffff
fff3
fff4
ffe9
ffe7
0016
000c
fffd
ffff
0011
fff9
fff7
001f
0009
000e
0009
000c
fff3
fff3
0003
ffed
0007
0010
fff1
0000
ffff
0007
000f
000c
0011
fff6
fffd
0000
0012
0000
0010
000d
0005
fff8
0003
0004
0006
fff4
0004
fff7
000f
fffd
fff3
fff2
0012
fff5
fffe
fff5
000c
fff3
000c
0016
fff0
001c
0005
000e
fff7
001a
0002
0002
0005
000f
000e
0009
ffff
ffe8
fff9
0001
fff0
ffde
fff3
0020
ffdf
ffec
ffe3
000a
ffeb
ffff
fff9
0006
fff0
0006
ffff
fff6
ffef
0007
fffc
0012
000c
0006
0013
ffda
0007
000d
0003
0001
000a
0003
ffee
001a
0013
fff5
0007
0005
fff2
ffeb
0009
0006
0001
0007
0005
ffed
ffdf
001c
fff8
fff1
001a
fff9
0014
0007
001e
0004
0004
fff6
fff5
0001
fff6
fff8
ffea
0012
0006
0005
0005
ffe2
ffe3
0019
0003
0016
fff6
ffe0
001a
fff2
0015
0018
ffed
fff2
fff7
fff5
fffc
0009
ffed
0013
000a
0006
0007
ffed
ffe2
000e
fff2
001d
ffe8
ffed
ffea
ffea
ffee
000e
0012
0010
fffa
0006
ffe6
0028
000a
0003
fff0
0007
0016
ffd4
0003
001b
ffe4
fff9
001b
001c
0008
0001
fffe
0021
ffe8
0001
0004
ffee
fff7
001a
ffdc
ffdc
ffe7
0016
0010
fff7
ffe9
0009
fff8
ffe1
001f
0008
fffd
0009
000d
fff5
0001
0002
0000
0015
000d
0003
000e
fffd
0005
0007
ffea
fffb
0002
0001
0000
fff8
0000
ffef
ffff
0002
fff8
fff8
fffd
0010
0001
ffef
fffa
fff0
fffc
0019
fff7
000a
0002
fff9
0015
fffb
000d
ffff
fff8
000e
000e
000e
0011
0000
0010
0016
0012
0004
fffe
fffd
fff3
fffa
fff3
ffec
000b
ffff
ffef
fff8
fffd
000c
fff2
fff2
0015
ffff
fffc
0003
000e
fffa
0020
fffd
fffd
0002
0005
ffea
fff4
ffe8
0011
ffe3
fff5
0005
0008
ffe3
fff7
ffe8
0005
000d
0015
0005
0008
0001
0017
0016
0010
0016
fffa
fff4
000a
000f
fffe
fffb
fffe
0006
0009
000a
000a
fff2
fff7
fffd
ffea
000a
ffef
fff2
0007
000f
0002
0004
0003
fffa
000c
ffff
fff4
0007
0000
000e
fffa
ffef
ffe7
fff8
0004
0007
001c
ffe6
fffd
fff3
001a
fffb
0017
0009
ffe7
0019
000c
0003
0007
000e
000c
ffdb
0008
fff8
0003
fffb
ffe5
ffee
0010
001d
0011
ffff
000f
fff9
fff1
ffee
0023
fffe
fff5
0005
fffc
0012
fff5
0023
ffe0
0002
fff1
0003
fffc
000a
0012
0007
ffea
ffff
000c
0004
0009
fff9
0006
000a
ffe8
0006
0021
fffc
fff2
fff6
fffc
fffe
fff4
fff4
fffe
000c
0008
001a
fff5
fffd
ffe6
ffe2
fffa
0007
fffe
0006
ffed
0006
0019
002a
fff1
fff4
0001
fff7
fffc
0002
fffd
ffe0
0012
0016
0005
fff2
0017
ffef
fff3
ffe8
fff1
ffe5
fffd
fff8
0007
0008
ffef
0010
0017
0007
0006
fff6
ffed
001d
0003
fff9
0020
0012
0016
001a
ffea
0028
ffe5
fff2
ffff
0004
fffa
0025
000f
fff3
001b
ffee
0004
0000
0018
0019
0022
0009
ffed
0003
ffea
0003
ffed
ffef
0013
001a
fff0
fff5
0012
fffa
ffea
fff9
fffc
0006
000d
ffe1
fff9
ffe3
000a
ffff
001c
ffe9
ffd8
fff4
fff1
0011
0018
0015
0013
0003
fffb
0000
0014
0003
fffb
fff9
ffff
ffff
fffe
0015
0004
0001
0007
000b
0007
fffd
0009
fff6
0006
ffed
000d
0004
0001
fff9
0006
fff5
0013
0001
0010
000b
0012
ffff
fff7
ffff
0010
fff2
fffe
ffff
fff4
000a
0006
000c
fff4
0003
fffd
0014
fff6
000a
0008
fffa
fff3
fffd
ffff
0008
fff6
fffa
fffb
fff7
ffee
ffef
0010
0002
ffff
fff7
001c
fffa
fffc
0010
fff6
001a
000c
ffff
fffc
0003
000a
0006
0002
0008
0013
000b
fff7
000e
0001
0016
000d
0005
000b
fff8
000f
ffed
0000
ffff
0005
fff6
fff4
fff7
fff9
000d
fff7
fffb
fff4
fffe
000f
fff0
fffe
ffed
0000
fff3
ffed
0006
0014
0005
000f
0001
fffa
000b
0003
000d
fff9
fffc
000b
ffed
ffea
0010
0005
fffc
0007
ffed
0010
fffa
fff8
0009
fff8
fff8
fffd
fff8
0000
0008
fff6
0004
000a
0006
fff0
0006
0018
fff3
0022
0022
0014
fff3
fffd
0009
0006
0016
ffea
0023
000d
0004
0008
0011
0002
fffd
fff1
0006
fff6
001c
ffe7
0001
ffe6
fffc
0015
0002
fff2
000f
fffe
0011
000a
0003
0002
fff3
0019
0007
0007
fffd
ffe8
000c
ffe1
fff2
0006
ffe5
000e
000a
000f
fff0
000a
0012
ffeb
0011
0014
fff4
fffc
0008
fff8
ffee
fff4
0015
ffd7
ffff
ffef
0023
0006
fffd
0000
ffe6
000c
001f
0006
ffe5
ffe3
0009
fff6
0009
0021
ffde
0019
000d
fff5
0007
002d
000d
000f
fff2
fff9
0004
fffb
000b
0003
fff3
ffde
fff0
0000
fff4
fff3
0005
ffec
fffd
0006
fff6
fffa
ffd1
fffc
fff3
ffe3
0002
ffef
0011
0006
fff7
001e
fffd
000e
0018
fff9
0004
fff2
000a
fffa
fffb
0014
0012
000a
fffd
0033
0000
ffee
0013
fff2
0009
fff9
fff4
fff2
fff9
fff4
0017
0006
0001
fff1
ffe9
fff6
000c
fff2
fff6
fffe
0012
ffef
ffea
fffb
0009
fff6
fff4
0011
0008
ffe8
0006
0009
0006
ffec
ffff
fffc
0005
0002
ffed
0000
fffd
0007
ffeb
0017
000a
0017
0010
000d
000d
fff9
0010
0025
ffe4
fff3
ffe0
ffef
000a
fff2
0007
fff9
0003
fffe
ffec
fff9
0007
fffa
000f
0017
fffd
fff6
fffa
0005
0006
fff5
fff8
ffea
fff8
fff7
ffe7
000b
0005
0012
fffd
fff6
0010
0008
0029
000b
ffff
fff0
0000
0002
000b
ffed
0005
0005
ffff
fffb
000a
0002
0004
0018
000b
0002
fffa
000b
0004
ffe9
0003
ffff
000e
ffef
0016
000d
fffa
000f
0006
000e
fff0
ffe5
0008
ffef
fffe
fffc
0003
000e
0000
0011
ffed
fffe
fff7
fff1
0014
fff2
fff0
fff6
0001
ffec
0008
ffe9
fffa
0019
fff9
fffb
fff9
fffd
ffec
fffa
fffc
fff7
0009
ffeb
0012
0015
fff1
0021
001c
0006
000d
fff1
0003
000d
0001
0001
ffe3
ffec
0018
000f
ffff
0012
fff7
fffb
0017
fff5
fff1
fff0
000a
0000
0001
ffe5
fff4
ffec
0015
0006
fff1
0017
fffb
0012
001e
0007
fff6
fff6
0007
0014
0010
ffec
fffe
fffc
fff5
0008
0013
0009
fff2
fff0
ffe4
0004
ffff
ffda
0005
0008
ffff
0016
0018
0001
ffe5
ffec
0022
0015
ffff
ffed
0003
0018
0009
0013
fff0
001d
0024
fff3
fffe
0001
0006
ffe0
0006
ffe4
0009
0002
fffb
000d
000e
fffd
0008
ffea
0019
000f
fffc
fffb
ffe7
0004
0005
fff5
fff8
fff2
fff7
0011
0002
0003
0024
fff8
0005
0008
fff3
0018
fff7
fff1
000e
001c
0002
001f
fff3
fff3
0001
000c
000f
0009
fffd
0003
ffef
fffe
ffee
fff0
ffe4
ffed
ffeb
ffe7
0011
fffb
ffef
ffd6
0000
0023
fff1
0000
0010
fff8
001a
ffee
fff9
0003
fffb
0006
fff8
ffeb
ffff
ffed
001a
ffdc
0006
fff3
fff7
0013
fff4
0010
ffde
ffe8
001e
ffea
0001
fffc
0011
ffe2
fff4
fffb
000f
fff9
0011
ffec
000a
000a
000b
ffea
fff0
0021
ffec
0014
fffc
0008
ffec
fff9
fff7
000e
fffa
ffdf
fff5
001a
001b
ffea
fffe
fff9
001e
ffef
000a
000e
fffa
000c
fff9
fffe
fffb
fffe
0014
ffde
fffa
0003
0010
ffea
ffeb
0005
0000
0014
0018
000a
000c
0008
0003
000c
fffc
ffe0
ffff
001c
0016
0002
ffdc
ffef
0010
0004
0004
0010
fff7
fff7
fff3
0001
0021
fffb
fff2
ffe9
0003
000f
0008
0012
000c
000c
fff9
fff5
fffb
ffe7
0004
0011
001c
0008
001d
0018
0017
0014
000d
ffe8
fffb
fff4
fff7
ffee
0015
0006
fff1
ffe7
ffee
fff1
000e
0001
000a
0025
0007
fffd
ffee
ffea
0001
fff2
000d
0001
ffff
0003
fffb
fffd
ffe9
0020
000b
0015
0008
0001
fffd
002c
ffe6
0018
ffed
0002
fff1
0001
ffdc
0006
0008
fff1
fff3
fff2
0010
0003
000c
ffed
fffb
fff1
fff8
fff9
002c
fff7
0000
fffc
0008
000c
ffef
0027
fffe
fffd
fff0
fff8
0004
ffec
000b
000d
fff7
0001
ffe5
0029
ffe8
001a
fff4
fffb
ffec
ffef
001b
ffe1
fffd
0013
0001
fff3
ffed
0013
fffc
ffd6
0008
0003
0011
000d
0006
0003
0011
000e
ffde
000a
fffa
0016
ffeb
000e
0010
0017
fff4
000e
ffd9
fffd
0007
0011
fff0
fff9
001b
000f
0016
ffe5
ffe7
ffe6
0014
0015
fff3
0031
0003
0002
0004
000a
0006
fffd
0009
fff0
ffee
fff0
000e
0009
ffec
fffa
ffed
ffda
0024
0006
fffd
ffe8
0011
0004
fff5
0002
fffb
ffe2
fffb
0016
000e
ffdd
fff8
0008
fff9
ffe0
fff9
0024
fff4
ffe0
ffed
fffa
000b
0011
fff8
ffe2
001b
ffe4
0000
000b
0016
fffe
0034
ffe5
ffe9
ffe7
0011
0008
fff5
ffee
0011
fffd
ffed
fffe
ffe9
0018
fffe
ffe5
fff8
ffe6
002c
fff6
ffed
0004
001a
fffa
fff0
0010
0003
0001
fff0
000a
ffea
ffe9
0014
fff4
ffea
0007
ffed
000e
0010
fff0
000e
ffdf
ffe9
0018
fff9
fff7
0012
001c
0016
000e
001d
ffeb
ffd0
fff3
000a
0001
0018
001a
fff0
0010
0000
fffb
ffda
0004
000d
ffe6
fffc
0009
ffe6
fff6
fffa
0029
0014
ffed
0018
fff8
0006
0014
ffef
ffd7
000d
ffeb
fff4
0009
0011
000a
fff7
fff4
0019
0005
ffd1
ffff
fffc
ffe6
000a
0004
0010
0008
0015
ffeb
0012
fffb
fff5
ffed
ffec
0018
0007
0001
0001
fff2
fff4
fff3
fffd
000d
fffb
001c
0026
ffeb
0002
0017
fff3
000f
000b
fffb
0005
001e
ffff
fff0
0010
001c
0014
ffee
ffe9
001c
0013
fff7
ffe1
0012
fffa
fff5
ffea
fff2
ffe6
fffb
fff5
fffd
0002
000e
0004
fff4
ffff
ffe9
0003
0007
0007
fffa
0000
ffee
ffe7
fff4
000b
0003
000e
fff0
ffeb
fff7
0013
fffe
0010
ffe4
0000
0010
ffea
000e
0002
000d
ffff
0011
fffc
0017
0005
000e
000f
fffa
0005
0006
fff1
ffee
fff4
000b
0001
fff0
0015
0011
0000
000c
001b
0015
0006
fffc
0000
fff3
0017
0013
0013
fff9
0000
fff2
0008
fffd
0007
0003
fff4
0007
0009
fff1
0003
0010
000e
fff5
ffef
0007
0007
fff9
000f
0009
ffea
0005
0003
0006
fffa
fffc
0007
0005
0006
0017
fffb
ffea
fff9
fffb
0010
fff0
fffa
0011
0015
fff3
000f
000c
ffeb
000c
fffc
ffec
0000
0004
0000
000b
fff1
ffe2
fffa
000e
ffef
0003
0010
ffff
fffa
0009
fffb
ffee
fffa
0005
0007
fffb
0005
fffb
000d
fff6
ffea
0004
0000
0010
0010
0005
fff8
000a
0018
fff7
fff4
000d
0005
ffec
ffe4
001c
fff8
0003
ffcd
ffeb
000e
0001
fff0
0008
ffdd
000c
000f
fff5
000e
fff4
ffe0
ffec
0014
0035
001e
ffdc
fffe
ffe6
ffe8
ffff
0018
000a
fff3
0008
ffe6
0011
fff1
0006
fff6
fffc
0015
fffd
fffd
fffc
fff6
0013
ffff
fffe
fff2
001d
001b
000b
0007
fffe
0034
fff6
0006
ffe2
fff7
ffe8
000a
0000
fffd
0000
0009
fff2
0005
001b
fffa
fffc
0008
fff1
0010
ffed
0016
000e
ffe3
0004
0019
fffd
0008
0005
ffe6
000f
0012
fff6
000f
ffe3
ffe0
0017
001c
0003
001a
ffe6
0019
fffb
fff4
000f
0015
0007
000a
0021
000b
ffed
0005
fffe
000c
ffe9
0009
ffff
0025
fff3
000b
0005
ffec
ffe7
fff0
0022
ffef
ffea
0005
ffef
fff1
ffdc
ffea
ffea
fffa
fff0
001e
0024
0006
0008
0001
ffee
0015
fffe
0011
0001
fffa
001e
001e
fff8
fff2
0016
0014
fff5
fffe
fff7
0017
0006
ffff
fffc
fff7
fffe
ffeb
0014
0013
ffe7
fff3
ffef
fff3
0011
000f
0004
0009
fff2
000d
fffa
fff7
0007
0008
0009
0001
000d
fff0
0017
0002
ffec
fffb
0002
ffff
ffe5
fff9
0018
000b
0010
0002
fff1
0006
fff9
0004
0001
fffd
fffb
0001
fff6
ffeb
fff1
0007
000b
0002
fffd
fffe
ffff
ffff
0003
0008
fff7
fff7
0001
fffa
fff8
000d
0013
000e
0024
0001
ffe7
fff4
fff9
fffd
ffff
000f
fffd
ffee
0008
000c
000a
fff8
fffb
ffeb
0015
fff6
0016
fff0
0004
ffef
fffb
fff4
0002
0004
ffed
000c
0016
fffe
0008
fff7
000c
fff9
fffe
0011
fff4
0007
fffa
ffff
000c
000b
0008
0014
fffc
fff3
0008
fff5
ffe4
fff0
000b
ffff
0010
ffec
ffe8
fff7
0011
ffe0
fffb
0007
0012
0016
fffd
001e
fff6
fff7
ffe9
000f
fff3
fff3
0006
fffe
0002
ffff
ffff
fffd
0000
fff9
ffff
fffb
fffa
fffb
fffb
0009
000c
fffe
fff6
0001
fffa
fffb
fffc
fffe
0005
fff9
fffb
0001
fffe
0005
fffc
ffff
ffff
0004
ffff
0007
fff8
0003
0004
0001
fffd
fffd
fffe
fffb
fff4
fffa
ffff
0007
0005
0007
0001
fffc
ffff
fffb
0006
fffc
0007
fff9
0003
0002
fffe
fffd
0002
fff8
0000
0002
0001
0003
fff8
fff9
ffff
0004
0002
fffd
0001
fff7
0004
fffc
0000
0005
fffd
0000
fffc
fffd
0000
fff9
0000
fff6
fff6
0004
0000
fffd
fffc
0008
0008
0001
fffc
fffb
fffc
0000
fffb
fff6
fff2
fffc
ffff
0002
0009
0000
0008
0009
0004
fffb
0003
fffe
0007
fffe
fff6
0001
fffe
fff7
fff8
0000
fffd
ffff
0006
ffff
fffd
fffa
fffd
fffa
fff7
0002
0006
fff8
0006
ffff
fffc
0008
fffe
0006
0009
0001
0006
000a
0007
0006
0006
fffa
0009
001b
000e
ffdb
ffff
fffa
0003
000b
ffeb
ffff
fffe
fff9
0001
0015
fff2
fff6
fffe
000f
ffea
fff9
0018
0001
ffeb
fff4
0019
000c
001b
ffff
ffe1
0004
0009
0007
ffff
0003
0001
0024
0006
0006
0013
000c
fffc
ffee
0008
000d
0004
0005
fffd
fff8
fff8
0001
0009
0019
000a
000b
fff1
ffea
0004
000e
fff3
0001
0017
fff6
0008
0016
0000
0007
fff9
fff4
0014
fffb
001c
fff7
000c
fff4
fff7
ffd3
000c
ffdd
000f
0005
ffe3
ffde
0014
fff5
0027
fff0
fffd
0022
0008
fff0
fff8
fff2
0000
0005
fffc
fff3
0004
001b
0006
0013
0026
ffed
000c
0008
000d
0000
fff5
fff4
ffe4
fff7
fff8
0016
0005
fff8
0010
ffeb
fff3
ffef
0013
0018
ffde
000c
ffe2
0005
fffa
fffd
0001
001e
0014
fffa
000d
fff2
001d
ffee
0017
0012
0006
0006
fff0
0009
0009
0000
0024
ffe4
001a
ffe5
0013
fffa
ffd4
ffeb
fff6
000c
ffe3
fffc
0025
ffd2
fffe
ffd9
0015
0024
fffc
ffe1
fffe
0017
ffe9
fff6
0009
ffd3
ffe5
000f
ffee
fffa
0018
ffe6
ffea
fff7
000d
000c
fff6
0019
0010
fffa
0016
0017
fff7
0012
ffde
ffef
fff0
0018
ffe1
0028
fff1
ffd5
000d
0029
000e
0016
fffd
ffee
002d
001a
0001
ffd6
ffdd
001f
000e
0012
0000
000c
ffe4
fff3
fff6
ffd8
fff9
fff7
ffeb
0020
ffe8
0001
0001
0020
0013
ffe9
0009
ffe0
fff4
0009
ffe9
ffda
fff1
fff4
001e
0007
0000
0007
ffec
0009
000a
002b
0005
0020
fffc
fff2
ffff
fff2
fff7
ffd4
fff8
001d
0010
001f
ffd9
ffee
0003
fff2
ffdd
ffeb
000e
001b
0007
ffea
001a
000c
fff7
fff6
ffe5
fff5
ffe8
0007
0015
ffee
0001
ffed
fffd
000c
0012
fffa
fff4
ffdb
0002
0011
fff0
0001
001a
ffe7
fff3
000d
fffb
fff0
fff8
0017
001a
000f
ffe6
fff2
fff1
fffe
0012
000d
ffe9
fffa
0010
000b
ffe9
fff5
fff8
ffff
ffff
0008
fffe
0011
000d
0000
000d
0015
fffa
000f
fffe
ffe6
fff5
000e
fff6
0009
fff3
000e
0005
000b
fff0
fff2
001d
ffe8
001d
0007
000a
0004
0007
fff2
fff3
ffe7
0007
fffa
0006
000f
0004
fff8
ffed
ffed
0011
000b
fffb
fff7
0014
ffdf
000b
000f
ffed
ffee
0004
fff9
0000
fff3
fffc
ffed
fff3
0008
fffa
ffff
0003
ffef
fff3
fffa
0007
fff8
fff9
ffed
0004
0017
fff2
0001
fffc
ffef
0003
fff7
fff4
ffe8
0005
000a
ffee
0000
fff7
fffa
fffb
000d
001c
fff7
000a
0010
0003
0008
ffe0
000a
fff4
ffe0
000a
0021
000b
0008
0014
ffee
ffef
000c
0003
ffe3
ffee
0019
fff5
ffe1
ffda
0004
0005
000d
0018
ffff
fff2
0003
0011
0014
ffef
ffff
fff7
000e
0007
0021
001d
001a
0008
0001
0007
fffe
fffc
0002
ffff
fffc
000c
fff5
fff7
0010
0003
fffe
fff7
0008
fffc
000d
000c
fffb
ffe2
ffe7
0015
0008
fff2
fffd
fffa
0007
fffe
fffb
fff9
ffec
0014
0007
fff8
0002
0008
fff7
000c
0000
001b
fffe
fff8
0001
ffda
0002
001c
000c
fffd
000c
fff4
ffed
0007
000c
fffd
fffd
0005
0016
ffe3
ffef
ffe5
ffed
fff8
0002
fff7
fff3
0008
0002
0005
000b
0005
fffa
0014
fff4
ffed
0000
ffef
0001
000f
0020
001b
ffed
fffe
0016
0006
000f
0016
0016
0004
000e
0003
fff4
0013
ffff
0009
0009
fff0
fffa
fff6
fff6
0001
ffea
ffef
fff9
fff6
000f
fff8
fff7
fff1
0001
fff7
fffb
fffe
ffff
fff6
fffa
000d
0003
ffff
0011
fff1
0013
0003
0015
fff6
ffea
ffeb
000a
0004
0015
0010
0008
0004
ffea
0001
0004
fffa
fff4
0009
0007
fffb
fff5
fff8
fff1
fff5
0003
ffff
fffc
0009
0004
000f
0006
0003
0001
0008
000a
0005
fffa
fffd
ffea
fff7
0006
fff0
0001
0007
000c
0000
fffe
fff3
000e
000b
0006
0006
000a
0002
fffa
000b
fffc
fff8
0001
000c
0009
fffb
000d
0007
fff9
fff2
fff8
0006
fff9
0005
0001
0009
ffff
0001
0006
0001
0006
0007
000d
fffe
fffc
0003
fff6
0004
0002
fff5
fff1
000a
000d
0001
0009
0007
fff8
000b
0009
0012
0008
fffb
fffd
fffa
fff8
0001
0008
fff3
0009
0008
fffe
ffe7
0009
0000
fffe
fffa
0000
ffea
000c
000e
0006
0008
fffa
000a
fffd
fff4
0001
000a
fff2
000d
0004
0006
fff9
000d
0013
fff6
fff4
0001
fff0
fff9
fffe
fffd
000d
000d
ffee
0000
fff3
ffff
0005
0005
0000
0011
0000
fffa
0004
fff8
fff3
0006
0009
0008
0006
0008
0008
0005
0007
fffe
0008
0014
0004
fff6
0006
0009
fff9
fffc
0000
0007
0015
0008
fff9
0006
fffb
000d
ffff
0010
fff6
000d
0000
000b
0002
000b
000c
fffe
ffff
fffa
0003
0005
0009
fffc
fff7
ffff
0000
0001
0003
0001
0006
000e
fff8
0001
0002
ffff
0003
fff1
fffd
000d
0000
0001
fffd
0003
fffe
fffa
000f
fffe
fff7
fff7
fff9
000a
0003
ffff
ffff
000b
fff3
fffc
0009
0004
0005
000e
fffb
000b
fff7
fff5
0013
ffed
fff5
0004
fffc
0005
0015
fffa
fff7
fff9
fffd
0005
0001
0000
0002
ffee
0001
0007
000a
ffff
0005
000c
000d
0009
ffff
fffa
000c
000f
fffc
fffc
0002
fffc
fffd
0007
0001
0009
0008
0000
0009
fffc
fffa
fff5
fff6
0006
0006
0011
0006
000c
fff9
fff6
0003
fffa
0009
fffb
fff6
fffd
fffa
fff4
fffd
fffd
fffb
0006
fff4
fff3
0002
000f
fffc
0006
000a
ffff
ffeb
fffd
0001
fff5
ffe4
0008
ffec
0006
fffe
ffeb
000c
000b
0011
ffda
fff1
0005
fff5
ffed
0004
fff8
000b
0002
0017
ffe7
0013
0000
fff5
0012
fff4
0001
fff7
fff3
ffec
0005
0020
0026
fffd
0004
fff3
ffe4
0007
fffb
000e
fffc
0017
fff5
0021
0000
0007
fff8
fff0
ffe4
0009
0021
ffff
ffe9
0012
ffe3
0003
fff6
fff9
0011
0022
fff8
fffa
fffe
001b
ffde
0012
fffa
ffff
fff4
0017
fffb
0002
0006
0006
ffe9
0010
0014
fffa
ffef
000e
0004
fffe
000e
000e
000d
ffed
0026
ffed
fff7
ffed
0004
0006
fff5
fff4
0006
0008
0002
fff7
ffe6
fff9
000e
001e
0002
0028
fffa
0028
fff7
ffea
0017
0020
0004
000b
0017
ffe9
0009
0013
fff9
0000
fff6
0007
0018
fff1
0011
000e
0004
fffe
0004
ffef
fff2
ffe5
0008
ffec
0012
000d
fff4
ffe9
001f
000a
ffea
ffef
000b
001b
ffec
0000
0024
ffd1
0010
fff0
fffe
ffff
001a
0013
0000
ffe7
0010
ffed
000d
0009
fff1
0029
0005
000e
fffb
000c
0005
ffeb
0028
fff8
0000
0008
fff5
ffed
ffd5
0006
fff1
0005
000d
0017
0010
fffe
0011
0018
0012
0014
001c
001f
000c
fff8
fff2
ffe6
fffc
ffee
ffef
ffee
fff2
0004
0017
fff3
000c
fff7
ffe2
ffe5
fff7
0002
0001
ffff
ffff
fff2
ffe3
001c
fff1
ffff
0015
0016
ffef
fff2
0010
000c
fffc
ffeb
0013
ffe8
000e
ffd9
fffe
fff6
0004
0001
0009
0015
ffea
fff5
002a
0005
fff0
fff5
0014
ffe2
0001
ffde
fff8
fffb
fffb
000e
fff4
ffeb
0000
fff5
fff8
ffeb
0001
fff0
fffe
ffe5
001d
ffee
fff9
000a
0011
0018
000e
ffe8
0007
fffb
0012
000f
fff4
fffb
0013
0000
0006
fff3
0003
0007
000d
ffed
fff8
000a
ffea
0006
0002
fffb
fff9
000d
fff4
001c
0007
0005
000b
000e
fffa
000b
001a
fff4
fff6
ffdc
000b
ffef
0009
fffa
000a
0007
000a
ffd6
0012
0003
fffe
fff7
fff7
fff1
ffe4
0008
fff0
ffed
000c
ffed
ffef
fff0
0011
fffb
fff1
0023
ffe9
ffd9
fff0
ffef
000a
fff7
ffe2
0007
000c
0002
fff4
fff9
0006
fff4
fff4
ffd9
0003
fff0
fff0
ffeb
0009
001b
ffea
0017
000a
fffd
fff5
fffe
fff9
fffb
000c
0003
fff6
fff3
0005
0005
fff6
fff0
0000
000d
fff2
ffe9
ffce
0006
fff0
ffe6
000a
0004
001d
fff3
ffec
001c
001a
000b
fffd
fff4
fffe
0013
ffff
0000
0022
001a
fffd
0006
002a
fffc
ffe2
fff7
0000
0012
fff9
0019
0018
0007
ffeb
000a
0015
ffff
0025
fffa
0009
fff7
ffea
ffe7
fff1
fff4
ffe1
ffe6
ffeb
fff7
000c
0009
fffa
fff7
0011
ffe3
ffff
0009
fff6
000e
0009
000b
ffe6
0003
0005
ffe7
0001
fff7
001f
0007
ffeb
fffc
0011
000f
fffa
fff9
fffe
000d
000b
fffd
0009
0002
fff1
0005
fffd
ffdf
ffed
0001
0002
0022
fff3
fff0
ffee
fff8
000d
fffe
fffd
ffe5
0001
0001
fffe
000c
0024
fff7
0018
ffeb
0004
000c
000a
0018
fffc
0002
0000
fff5
ffff
0030
000a
ffe2
fffc
000c
0009
fff8
0005
0000
0016
001d
002a
0000
0002
fffa
fff5
fff0
fff9
000b
000f
000b
0002
ffeb
0004
001d
0000
fff8
ffea
ffea
ffe7
0023
0001
0004
ffe6
ffe8
fffe
0004
0004
000c
fffd
002f
0032
0024
000b
fff5
0010
000b
000b
000a
001b
000c
000a
fff1
0011
0016
ffdc
000d
ffea
fffa
ffee
0013
ffe8
000d
fff1
0017
fff2
fff8
fff2
fff8
fffd
fff4
fff2
ffe2
ffd8
0019
fffe
ffec
0018
fff3
000a
001d
ffec
ffcf
ffd8
ffef
ffee
0001
0012
ffe0
fff9
000b
fffd
0020
ffcc
ffe5
0034
fffb
fff2
001a
fffb
0006
ffeb
0006
001b
fff6
0028
ffee
fff4
fff9
fff2
000b
0004
ffe8
0008
0004
000e
fff6
ffef
fff8
fffa
fff5
ffea
0002
0006
ffec
fffc
0005
ffeb
0006
0002
001a
fff6
0009
0016
fff3
ffea
0013
ffe9
0001
001b
fff6
fffd
fff2
0003
ffe3
0016
000a
0003
fff2
fffb
fff6
0012
0003
fff9
0017
0019
0008
0001
0000
000c
000b
0003
ffe6
000e
fffc
0001
fffe
fff0
0007
0015
fff9
fff8
0019
0014
0009
ffec
0001
0005
fff6
ffef
0001
0007
fffe
0010
ffe2
fffe
fffc
0010
0009
fff5
fffe
000f
fff9
000d
000b
fffd
ffeb
0016
fff8
000e
0027
fff8
fff4
0011
0013
ffeb
fffa
fffc
ffed
0003
ffe2
fff8
ffe7
0006
0005
ffec
0011
fff3
0013
001a
ffee
0008
0001
fff2
ffed
fff8
fff1
fffa
fff0
0025
0015
ffec
0000
fffe
ffef
fff5
ffe7
0009
fff0
ffd8
0000
fff2
0012
fffd
fff5
fff9
0003
0009
fff5
0010
fff6
fff8
fff5
ffff
0007
0002
0004
000a
0009
fff7
0005
fff7
0008
000b
fffc
0009
fff6
fffe
0011
fffb
0011
fffe
0002
000b
0006
0012
ffeb
0004
0012
fff3
ffdf
fffc
ffed
0005
0006
fff2
ffee
000b
000e
fffe
fff6
fff7
0009
fff7
fff5
fffd
fff7
0012
0014
0002
fff6
fff6
0009
fff4
0012
000f
0010
fff4
fffb
001d
0000
0016
fffa
fff7
001c
0023
fff0
fffe
0003
fffd
0012
ffed
fff5
ffe7
fff2
0006
000d
0008
ffff
000d
0007
0008
fffd
000b
0016
0000
0006
0006
ffec
fffe
fffa
fffa
fff9
0003
fff2
0005
000d
fffb
000f
fff3
0002
fffe
0021
fff8
0019
ffff
ffe8
0008
0008
fffb
fff1
0011
ffec
fff0
fff8
ffed
000b
0006
ffe7
fffd
0009
000f
fffc
0006
0006
000a
0017
fff5
000e
fffb
0002
000b
fffc
000b
000c
0009
fffb
fffd
000a
0018
000b
0003
fff6
fffc
0008
0009
0005
0011
ffff
fff2
001f
fffd
000f
fff2
000e
fff4
000b
fffd
0001
000d
ffde
000f
0014
0010
fff2
fff0
fff9
000f
fffe
000b
0016
0019
fff0
0009
000c
0002
000f
0022
0006
0017
000c
000b
fff1
fff9
000a
0012
fffe
ffff
fff3
000e
0014
000c
fffd
0008
fffd
0003
ffe9
fff9
fff2
000a
ffe6
0004
0006
fffc
0004
000e
000c
fff7
ffec
000e
000d
ffef
fff4
0006
ffd9
fffe
fff0
fff1
000d
0015
0016
0000
0002
fffe
0001
0014
0003
000d
fff6
0016
0008
0011
0001
000e
ffdd
ffe8
0013
fff0
ffee
0010
0003
ffff
0007
0007
fff3
fff8
ffea
ffff
000b
0009
fffb
002f
000d
0010
fff5
000d
0017
fff5
fff2
0007
000c
0013
fffe
0000
fff5
000a
fffa
0011
ffdd
001b
0011
000e
0015
000d
0005
fff9
fff9
fffa
0004
000a
0016
0007
fff9
fffb
ffe8
fffb
0008
ffea
0018
ffec
ffe9
000e
000f
0002
fff2
0000
ffe6
fffb
ffeb
ffe6
ffe9
0006
0008
001e
0029
fff2
ffe0
fffb
ffe5
0012
0002
0019
fff5
0000
ffe9
0008
ffeb
0012
0008
0001
0009
fffc
ffe8
000a
0011
0009
ffff
001d
ffe1
0016
0013
ffea
ffea
0011
000b
fff1
fff7
001a
0013
0016
000e
fffc
000f
0008
ffdf
0005
0013
ffeb
0003
0009
000d
0009
000c
0005
002b
ffe8
0023
0007
0029
000d
fffd
ffeb
0016
000c
0006
fff5
0013
ffdb
fffa
0007
0020
000c
fff5
ffec
ffea
0010
ffe8
fffd
0014
000c
0000
001e
fff1
ffe3
0002
0016
fff6
0022
0013
0012
ffe6
0012
ffff
000c
fff5
0015
000a
0006
ffea
ffe7
ffeb
fffa
fffa
fff3
0005
000e
0009
fffd
000b
ffea
001a
ffe9
ffea
fff9
fff4
000f
000b
fff6
ffea
ffec
0014
000c
fff8
fffe
fff3
fffa
0007
000b
0009
fffe
fff5
ffee
0007
000a
fff5
000e
0000
fff0
0003
000c
fffd
fffd
001c
0011
0003
fff0
fff0
fffa
0016
fffe
fff6
fff1
fff6
0010
ffff
000e
0007
0008
0012
ffec
fffb
001d
fffd
0009
fff0
0012
fffe
ffe5
0018
0007
000d
000a
ffec
ffe6
0001
fff8
000a
0009
fffa
000e
001c
000c
fff3
0001
ffff
fffc
0006
fff9
0000
0003
0009
fffd
fff8
fff9
0018
ffed
0008
ffe2
ffed
0007
fff3
0005
0012
000c
fffa
0013
ffef
fff0
0001
fffa
ffef
ffee
0010
fff5
ffeb
fffd
fffa
0017
000a
0010
0001
0003
ffeb
000a
0000
000d
0015
0008
fffb
0012
0014
fffb
fff7
000c
fffc
000f
0003
0003
fff0
000d
0005
0001
fff5
fff5
000e
fff8
0019
0006
fff2
fff6
fff7
fff4
fffa
fff2
0005
ffe9
0010
0008
fff3
0006
ffec
0019
fff7
0005
0005
fffb
fff6
0015
0020
000a
ffe7
0016
0015
0015
0024
fff5
ffcc
001b
000e
0013
ffe8
0008
fffa
ffef
ffed
0008
fffc
001e
0001
fff4
fff2
0016
001e
0001
0004
fff5
fffd
0008
0011
0014
0008
fff8
001c
ffe9
fffd
0021
000d
fffd
0014
fffe
0023
000d
ffff
ffff
0002
000a
fff7
ffe1
0010
0010
fff0
fff4
000e
0017
ffe8
000a
ffed
0012
fff1
ffef
000a
0000
0004
fff6
0005
000b
0006
fffc
fff4
0003
0009
001e
0009
fffe
ffe4
0002
fffa
000b
fff3
0011
ffe4
fff1
0003
fff6
fffa
ffe6
0003
0000
ffdf
0017
fff6
fff2
0005
fffe
0023
fff5
000d
0000
000a
fff9
fff9
0008
fffe
001f
0000
ffec
ffe9
ffff
001b
ffe4
ffeb
ffef
ffff
ffef
0014
0015
ffe7
ffe7
fffa
0004
fff8
ffeb
fffd
ffea
0017
0001
ffdc
000b
fff7
0001
fff9
0004
001b
ffea
fff7
0001
ffe3
0004
0010
fff8
0001
0016
fff8
0006
0007
fff9
0008
ffeb
0007
ffff
0017
0008
fffd
fffc
fffb
fff1
0001
fffd
0007
ffff
0001
fffa
0003
0009
0014
fffa
fffc
fff6
000d
fff4
fff9
fffd
0000
0007
0004
fffd
fff7
fffe
0017
ffff
0001
fff2
fff7
fffd
fff6
0001
fff5
0007
0016
0008
fff6
fffe
0007
0005
000c
0008
0001
000a
fffa
000c
fffd
000a
000d
0005
0007
fffc
0006
0017
fff1
ffff
0005
0009
0004
0006
000d
fff1
fff7
ffe7
0013
0001
000c
0005
ffff
0008
ffee
fff8
0009
fff7
0004
fffb
ffe9
fff7
0004
fffc
ffff
0001
000b
0007
0003
fff4
000e
0004
ffef
fff0
fff7
0003
0003
000f
fff6
0003
fffd
0007
0010
fff0
000b
0000
fffa
fff4
fff8
0009
fff7
000c
fff6
0005
0006
fffa
fffa
fff8
fff4
fffa
fffe
0000
0007
fffe
0006
0009
fff9
000f
0007
0012
fffa
0004
000f
fff6
ffe4
001e
ffed
0009
ffe4
fffc
fff0
0015
0003
fffb
ffee
000b
000b
0009
fff4
0006
ffe9
ffe9
ffef
ffdb
0011
0002
0015
fff2
0014
0028
0022
fff8
ffff
ffe3
ffef
000b
0011
0008
000a
fff3
0008
ffe8
0005
0001
fffc
0019
0001
ffeb
001f
0014
ffff
0017
000b
0006
fff2
0001
fff2
ffe6
0008
000b
ffff
ffeb
0023
0002
fff7
000c
ffe5
0000
fff1
0006
0016
fff1
ffed
0004
0001
0017
0000
001d
0019
0028
fff9
0016
000e
0017
0003
fff2
ffe7
000b
000e
0002
ffe9
fff3
fff3
000f
ffce
fffa
fffd
fff1
000e
0007
0022
ffec
ffff
0004
0008
0008
0007
000a
0003
0003
000a
0014
000e
fffe
000c
0009
0009
0015
0016
0009
ffe3
fff6
ffff
ffef
ffff
fff8
fffb
000c
0001
fff6
ffea
fff2
000a
000d
0005
0005
fffa
fff2
001b
0005
fffa
0002
fff9
ffed
fffa
0025
0010
0010
0010
fff3
fffc
fffe
fff6
ffe3
fffa
0012
fff1
ffe2
fff9
000c
000c
0008
fff2
0005
0009
ffe4
fffc
fff6
0006
fffc
0005
fffa
0003
0012
fff2
fff6
fffd
000a
fff7
ffed
fff8
fffa
0008
ffff
000e
fff3
0008
fff9
0003
0005
ffed
fff4
0008
000a
fffc
0003
0009
ffec
fff9
fff7
fffe
0000
ffe6
0010
000a
0005
000e
0016
fff7
fffe
0016
fffe
000d
ffff
ffff
fff4
0003
000e
0007
0002
ffe8
0005
0002
0011
fffa
0007
ffef
0000
fffd
0006
0007
fffa
ffeb
fff3
fffd
000e
000a
0000
ffef
0002
0004
0006
0000
0002
fffc
000e
0001
000b
0007
0004
ffee
fffe
000c
0006
fff7
000d
ffed
0000
ffee
fff7
000d
fff6
fffb
fff5
fffa
fff5
fff8
fff8
000b
000e
ffef
0005
0000
fff5
0000
0000
0005
000c
0005
000c
0006
0000
fffe
001d
000a
fff5
fffb
000a
0001
0005
fffe
0004
fff8
000a
0002
001c
fffa
0009
fff1
0014
000f
fff7
fffd
fffd
0013
ffe3
000c
fffa
001e
000f
0008
ffeb
0012
000c
0011
fff8
ffe9
0004
fff1
0010
0003
ffe5
0012
0008
fff6
ffe3
000d
fffc
ffff
ffe5
fff9
ffef
fff9
ffe9
0006
0019
000c
fff9
ffe3
0004
ffed
0013
ffdd
ffd8
ffe8
0000
fff8
0008
ffe9
fff2
0012
ffdd
000d
fff8
ffec
fffb
0008
0007
000a
ffea
0000
fffd
000b
0012
0011
fffd
ffe1
0008
ffe6
001b
ffde
fff7
ffed
000c
ffe2
0000
000c
000a
fff9
ffec
0017
0017
fffa
001b
ffe9
001c
0004
fff1
fff1
fffb
ffe8
fffd
0000
0011
fffa
000d
fff8
0019
ffea
000e
ffe8
fffa
0018
0003
fffa
0013
fffd
ffe8
0004
0020
000e
0016
0012
fff7
fff7
0009
000c
0010
0011
000e
001e
0008
fff3
001a
0012
000a
0009
001c
fff7
0000
0006
ffe2
0007
ffff
0009
ffe7
ffe6
000a
fff4
0015
000a
0005
fffd
0013
ffe4
0004
fffe
0014
0001
fff1
0008
0009
0008
fff5
0005
0009
0006
fff1
001a
fff8
0008
0007
ffff
fff3
fff9
000b
ffef
fff9
fff6
0000
0014
fff4
ffe2
fff2
fffe
0011
fffa
000a
ffe8
000a
000f
0000
0005
fff1
0006
ffed
000d
ffef
fffe
fffa
ffef
fffd
ffea
fff3
001c
ffe5
000f
0012
0003
fff2
0017
000f
0004
fffa
000d
0007
fffb
0006
001a
000d
ffde
0009
0002
000c
fffe
0009
ffe9
fff1
ffe1
0012
0004
0016
fff5
000f
ffec
0003
fff0
000f
ffe1
fffa
fff4
000a
fff6
fff6
fff1
0010
0019
0004
ffec
fffa
fff9
0019
fff2
000c
0000
0008
0000
fffc
0006
fffe
0005
fff5
fffc
ffff
fff0
fff0
ffe8
fffd
fff4
fff7
000d
fffd
fff4
0004
0016
000c
0007
0002
fff5
0018
0010
fffe
0000
ffe8
0005
ffec
0015
fff6
001a
fff0
001d
000c
fff9
001c
0021
000b
000f
0018
0019
0012
fffb
000d
0003
ffe2
ffdc
fff4
0006
fffd
fff5
fff1
0000
fff6
fff5
ffe9
000d
ffe5
ffda
fff0
fff3
0011
0003
fffc
ffe8
fff7
0014
001a
0028
000e
0002
fffb
000b
ffeb
0009
fff8
0028
0012
fff0
ffec
0005
0001
0003
001d
fff7
fffb
ffee
0001
0011
ffff
0000
fff1
fffe
000b
0019
fffd
fffb
ffe7
ffef
ffee
0001
fff8
ffed
fffc
0004
000b
0005
fffd
ffed
fff9
0004
000d
0005
fff8
ffe9
0006
000d
000d
ffff
ffff
fffb
0004
001a
ffe8
0004
fffe
ffd6
fffa
fff8
ffea
fff7
0013
fffe
fffe
fff2
ffde
0036
0011
0010
ffec
000a
0005
fff2
ffff
0000
fffa
fffd
0005
ffe9
fff7
000a
000e
ffe5
fff5
000a
ffef
ffe8
0017
fff4
ffeb
0010
0019
0006
ffcc
0000
001b
0000
fff3
0017
fff4
ffe2
0011
ffe5
0011
0005
fff4
0001
0004
fff2
fffe
fffb
0002
fffa
fff7
fff4
000b
000d
0009
fff5
0000
0002
0006
fffd
fffd
fffb
fff7
0002
fffb
fffb
0005
fff7
fffd
fffb
0002
0003
fff7
fff8
ffed
0004
0010
0009
0001
001b
000d
0005
fff9
fffe
fff5
fffc
fffc
0006
0008
0004
fffa
fff5
fff5
000d
0000
ffff
fff9
fff5
0009
000d
000b
ffff
fff5
0009
fffe
ffff
fff3
0000
fff4
0012
ffff
000e
fff8
fffe
fffc
fffe
fffd
fffe
fffe
fff7
0008
0003
fff8
0001
fff9
fffb
fff8
0014
0009
fff2
fff3
fffd
0006
000c
000e
fff7
0002
0000
0013
0008
0005
000a
fffe
fff7
fffa
0001
0006
fffe
fffc
fffe
fffe
0008
fffd
0005
000d
fffa
fffc
fff7
0005
0003
0006
ffea
fff1
fffa
0006
fffc
fff9
0008
fffd
0000
fff5
fffc
fff5
fff6
fff1
fff2
000d
fffd
fff8
fffe
0002
0001
0004
000b
0006
fff4
fff7
0002
0009
0006
fff5
fff3
000d
fffc
fff2
000a
0000
000b
fffb
ffec
0009
0007
fff4
fffd
0002
0006
fff1
fff7
0001
fff7
0004
0008
0002
fff6
0009
fffa
fffb
0000
0011
0004
fffa
0000
fff3
fff9
0006
0006
0007
fff7
fffb
fffb
0004
fffe
0000
fff7
fffc
0003
ffff
0008
fff6
0007
fffa
fff8
000f
0002
0002
fff6
0003
fff4
0006
ffec
000c
0002
fff9
0009
fffb
fffc
0005
0009
0000
0000
ffed
fff6
fff8
fff4
ffee
fff2
0006
0003
fff6
000b
0000
fff4
0001
000e
fffd
0009
fff3
0006
000d
0001
0009
0002
0008
fff9
0006
fffe
0002
fff7
0009
0005
ffff
0006
000d
0001
000e
fff9
fff6
0006
fff2
fffa
fffc
000a
fff8
fff0
ffe8
fff6
fffe
0010
fffb
ffff
fffb
fff8
0010
fff4
fffc
fffd
fff9
fffb
fff6
0009
0002
0005
fffa
000a
fff9
fffe
0003
0013
ffea
0000
0007
fff4
0005
fff6
0025
fff9
0005
ffd4
ffe5
fff9
ffff
fff1
0000
0001
000c
ffe0
ffda
0000
0002
000e
0006
ffec
ffd8
0012
0003
000b
ffea
0010
fff3
fff8
000f
0012
0016
fff4
0010
ffe0
fffa
fff8
000f
ffed
ffff
0012
fff0
fff6
000f
ffeb
ffe1
fff7
001b
0002
0006
fff6
fffc
ffff
0004
0011
0017
000c
ffee
fffd
0017
000e
0007
ffe5
ffd3
000d
0002
ffec
ffff
0004
fff2
ffe6
fffc
fff7
0004
ffe8
000c
0009
ffe9
001a
0011
ffec
000e
000c
ffdf
ffed
fffe
001b
fffa
fff1
fffd
fff7
0000
0018
001a
ffde
0012
0006
fff6
0005
0011
000a
001a
0011
ffef
000c
fffc
fff6
ffeb
ffeb
000a
0005
ffee
001a
ffe4
ffe1
ffea
ffee
0002
0006
fffd
fff5
0012
0006
001d
fff6
0007
0019
0019
ffe8
ffee
fffe
ffe3
001b
fffa
000f
0003
000a
000e
001f
0000
ffe5
fffe
0000
fff5
ffef
0014
0008
0007
fff2
0006
ffed
0016
ffee
fff8
ffdf
fffe
0000
ffec
fff7
001f
fffc
0013
fffe
fffc
0020
000f
fff6
fff3
001f
fff8
fff6
ffea
000f
0004
0005
0009
0011
ffee
000b
ffee
0001
fffc
ffea
ffeb
000d
000f
fff4
ffeb
000a
0006
fffc
0007
0000
000f
ffe9
ffe8
fff1
0000
ffeb
000c
0005
000b
fffe
ffe5
ffeb
0016
fff6
fff4
0011
0006
0001
fffa
0005
fff1
ffe4
0019
ffe2
000c
ffe8
ffe7
0001
fffc
0003
ffed
fffc
0002
ffec
0012
fffd
0012
000b
000f
000d
0016
fff3
fffa
000c
0000
0006
ffff
000e
fffb
ffeb
fff9
fffc
0022
0016
0000
0011
0005
fff7
001b
fff6
ffea
0016
fffd
0002
ffeb
0004
0001
ffeb
ffec
ffeb
000d
000d
0000
000a
0006
000f
0015
0001
000e
fffc
001a
ffec
fff5
ffee
fff7
fff3
0006
0006
fffc
0001
ffea
0003
000a
0003
0011
000e
0013
0017
ffdb
fff0
0012
ffdc
001c
fff9
0029
ffe8
0022
0024
fffb
001a
000f
fff6
ffef
fff7
0009
fff2
0013
000b
fffb
0016
0007
0003
fff5
fffa
ffef
fff3
0011
000c
0003
0010
fff2
002f
fff8
0009
000f
0011
ffec
fffe
0011
fff8
fffc
fffd
ffec
ffe4
fff5
ffe5
0003
0024
0010
fff6
ffe4
fffa
001a
000f
0005
0008
ffeb
fff3
001c
000c
0016
0006
0011
ffe1
0016
fff4
fffd
fff6
000a
ffed
fffd
ffd7
fff8
ffe8
0002
0007
ffe1
ffe2
0009
fff3
fff9
fff6
0004
fffe
0018
000d
ffff
0009
0000
ffee
ffed
0010
0020
fffb
ffeb
0005
000b
fff1
0014
fff8
0006
0006
0018
0009
fff1
fffe
ffe3
0019
000a
ffff
fff5
fff7
0013
0014
002a
ffec
fff9
fff7
0013
001f
0003
ffea
ffec
001f
0006
000d
001a
fffe
fff2
0006
ffed
fff6
ffe2
0009
ffec
0016
000d
001d
000b
fff8
fff7
0014
fffa
001e
000e
0002
0009
fff8
fffd
ffed
ffee
fff3
ffd9
0011
fff8
001a
ffea
fff2
0011
fff5
000f
fffe
ffe3
001a
0012
0004
0007
0003
0000
fff9
ffe3
0009
fff6
001c
001b
000b
ffec
ffe3
fffd
ffe3
fffb
0004
0020
0011
ffec
fff0
ffee
000b
fffb
0004
0004
fff5
fff3
000e
0009
0005
fff6
fff1
0003
0004
0013
0012
fffb
0016
0001
ffe7
0004
0025
ffe0
fff1
fff8
000d
0007
0003
fff4
fff4
fff9
001e
002c
ffef
0015
0010
fffb
0001
0005
000f
000a
ffe1
fff1
0012
001a
ffff
000a
0009
ffef
0013
fff7
0028
001c
ffe3
ffee
fff9
fff6
0000
ffe4
0010
000a
001b
ffff
000c
fff2
ffe5
fff2
000b
0013
000e
0016
0007
fffa
0005
ffe3
0009
0014
fff0
0005
fff8
fff3
0015
ffe4
fff2
000a
ffeb
0004
0014
fff7
0002
ffef
ffe9
fff9
0012
ffef
0010
0004
0000
fff4
fff8
0001
fffe
fffa
000e
000e
fff9
0000
0003
0008
ffff
fffa
0006
fff1
000d
0004
0004
0009
000b
000a
fff6
fffa
fff3
fffa
fffd
ffef
fffd
fffc
0000
fff4
0007
fffb
fffe
0012
0009
fffd
fffb
000b
fffd
000d
0001
fffd
ffff
0003
0005
fffb
0005
0002
fffe
0008
fff9
0006
0003
fff1
ffed
0006
0000
0010
fff4
0007
0001
fff6
0002
fffb
fff3
0001
000d
ffee
0004
fffd
0000
0000
0008
000c
ffff
0018
0002
fffd
0008
0008
0004
fff6
0005
0007
fff0
fff6
fffd
ffff
fff4
fff3
0003
ffff
fffe
000b
0009
000d
fffe
fff8
000d
0008
fffa
0005
0015
fffc
fffb
0003
fff8
0004
fff6
0005
fffc
fffb
0006
fffe
0004
0001
fffd
fffb
fffb
fffd
0009
0006
fff3
0001
000b
0002
fff4
fffb
0006
0004
0009
0008
000a
0001
fffa
ffff
fff8
0002
fffd
ffff
fffe
fffa
0008
0007
0014
ffec
fffa
0016
ffec
fffe
ffee
000c
0007
fff0
0004
ffef
000a
fff6
000b
fff4
0004
fffe
000b
000a
fffa
fffd
0005
fffa
fffc
000a
0007
0002
0002
fffe
fff6
fff7
fff6
ffff
fffb
0004
fff5
fff9
0003
fff2
0018
0004
000f
fff4
fff4
0004
fffe
000b
fffa
ffef
fff7
fff7
ffee
fffe
ffee
fff4
0006
0007
0007
fffa
fffb
fffe
0006
fff1
ffed
fffb
0000
0001
0001
0007
fff3
fff9
fffc
fff8
0005
0012
fff1
fff4
0005
ffff
0002
0000
0004
fff6
fffc
fff6
fff6
0006
ffff
0002
fffc
0012
0007
0005
000c
0009
fffd
ffee
fff2
0009
fffb
0007
fff6
0010
fffa
fff2
0002
0000
fff8
000e
0008
000a
0001
0012
0014
fff9
0006
fffc
fff9
fff1
0008
0001
fff3
ffec
fff4
fffc
0000
000a
fffe
fff1
ffff
fff9
0001
000b
0002
fffa
0001
ffff
0010
fffb
fffb
000d
ffe2
0021
0003
ffe7
000c
0004
000d
fff8
0001
0004
0009
001b
ffdf
fffd
ffff
ffe9
ffe8
ffe3
000a
0000
000b
0003
0007
fff9
ffe3
ffe2
ffe4
0004
0009
0007
ffec
fff8
0018
ffea
ffe2
001c
000f
0013
fff0
fff8
fff3
ffe1
0016
fffe
000b
ffee
000e
ffe0
fff4
0013
0009
ffec
0002
ffe5
fff7
fff7
0009
0023
0025
ffe9
fffa
ffe7
fffb
fff8
000c
ffe8
fff5
0001
000f
0014
0002
0014
ffdc
0005
fffc
001f
ffeb
fff7
ffed
fffb
0008
0001
000e
0016
fff1
0002
ffe7
fffd
0001
ffef
0017
ffdd
0010
fff9
ffe4
0025
000b
fffe
ffec
0014
0004
fff0
0018
fff6
001c
0017
000d
fff5
0010
ffee
ffe8
0004
ffff
0002
fffc
0000
0017
fff4
0003
ffed
000e
fff8
0011
0009
ffe8
fffb
fffc
0004
ffee
fff3
fff7
0002
ffe4
0004
000b
fffd
0007
000a
000c
0017
fff8
0002
0008
0015
000b
000f
000f
0017
ffed
fff1
fff6
fff9
0020
fff8
ffe7
fff2
fff9
ffed
0015
ffe6
fff8
ffff
0005
0009
000a
0002
0008
fffd
0000
0004
0012
fff0
0004
000b
fff0
0006
fffb
ffee
fff8
fff2
0006
000a
0007
fff2
000e
0017
000d
fffe
0010
0005
0000
fffd
ffff
0008
000c
000a
fff3
0009
ffed
ffff
fff7
0008
0014
ffef
fffc
000a
0007
0008
fffa
0021
ffff
fff8
0005
0012
fff5
0008
000c
0013
0002
000c
ffee
0001
fff1
fffa
0012
fff6
ffe8
fffa
ffff
000a
0014
ffea
0006
0025
0011
000c
0000
ffe9
000e
fff7
fff9
0009
fffe
0007
fff1
0011
fff2
0001
0000
0008
fff0
001c
0007
0009
ffff
fffa
000c
0024
0004
000d
ffee
ffee
0011
fff2
fff7
fff3
0012
ffef
fff4
0001
fffd
fff3
0004
fffd
000b
0000
ffe4
fff4
0003
fffb
0006
0016
fffb
0006
0010
0005
fff7
ffef
ffee
ffe3
0003
0010
fff2
0000
fff0
0003
fff9
ffe7
000c
0012
0006
000a
fff3
fff4
000d
fffe
0000
0006
fff8
000e
0007
fffb
ffeb
ffe5
0009
ffff
002b
0005
0008
000d
fff2
000a
0011
fffe
fff9
0000
ffff
0004
fffe
0012
0001
fff4
0013
000d
fffd
ffed
0006
ffec
0000
fff3
fffd
000c
ffff
0007
ffdd
0007
0019
fff9
0005
0009
fff7
fffd
000d
0009
fff3
0000
0017
0004
fff9
0012
fffb
fff3
ffd7
ffee
ffec
001f
fff7
0022
fff8
fff5
ffea
fff2
fff1
0009
fff7
fff0
fff2
0013
ffff
000e
0004
0009
0014
0010
ffed
ffe1
0004
ffe8
000a
000d
000b
fffe
0005
ffff
0003
0013
0012
001f
000c
fff1
ffeb
0009
0007
fff6
ffea
fff2
0003
0017
0008
000b
ffe8
0016
000b
fff5
0015
001a
0002
001b
0009
fffa
0005
fffb
0013
0020
0006
fff2
ffef
0002
0010
ffe1
fffd
ffe0
fff4
0013
fff8
ffef
ffff
fffd
fffd
0013
000c
0011
000d
fffc
fff3
0005
fffd
ffed
fffd
ffec
fffe
0001
fff4
fffc
000a
0003
fff0
fff0
fffd
0002
000b
0015
0010
0009
fff9
fff3
000d
0012
0006
0008
0008
0004
fff9
fff6
fffa
0006
fff8
0000
fff6
fffb
fff5
fff2
000d
fff7
fff9
0015
000c
0011
fff7
fffa
fff1
000d
fff2
ffed
fffe
fffb
0001
0003
0018
0005
fff2
fff5
fffe
ffef
ffff
fff5
0003
ffe3
fff1
0006
fff7
0019
fffb
fffc
ffed
0001
fffb
0018
fff0
fff8
0014
0014
fff5
001b
fffe
fff3
ffff
000a
0007
ffff
000f
fff4
0009
000d
0001
0002
ffeb
0007
0003
0006
0009
0003
000f
000d
fffe
fff8
ffef
0002
000c
fffe
0006
fffb
0015
ffe9
000d
0016
000a
ffe7
0005
fffb
0024
0008
0009
0001
ffeb
0002
001a
001c
fff1
ffe7
000f
fff8
000c
ffea
fff1
0002
fff8
fff1
0010
0005
fff1
000f
ffed
ffe1
0002
fffb
fffb
ffeb
ffed
000b
0011
0001
000a
000a
0019
ffd6
000b
0030
fff2
fffc
fff1
0014
0001
0007
fff2
0009
fff1
ffee
fff3
ffeb
000a
ffe8
0009
fff5
000e
001a
fffc
fffb
fff2
002c
000a
0007
ffdf
0001
0018
ffe2
ffe2
fff4
001f
0014
0005
fffa
0016
fffe
0000
ffe3
fff1
001c
fff3
ffd3
0014
0000
000f
fffb
000b
000e
ffe0
0010
0009
fffd
ffe4
0006
000a
0014
fff5
fff6
fffb
fffe
0009
fff7
ffed
000d
fff3
0005
0007
000b
ffe5
001e
ffed
0022
0003
0016
ffee
0004
ffea
001f
0006
0009
ffe8
0010
ffec
ffe7
fff2
0002
ffde
000c
0011
0015
0010
002e
0025
000e
000a
fff3
fff4
0008
ffe1
ffe6
ffec
fff7
0010
fffa
fffb
0005
0009
fff4
0005
001e
0012
0033
ffea
0018
ffea
ffeb
0014
fff9
0021
0016
fffd
fffa
0001
0000
ffff
fff8
000e
fff2
fffd
fffb
0007
000e
ffff
0014
000a
fffe
000b
fffb
0011
fffa
fffd
fff8
fff3
fff8
fff9
ffe7
fffb
0010
fff5
000b
fff9
000d
000b
0013
fffd
fffe
0009
fff5
000a
0009
0008
0002
0008
0000
fff9
fff6
fff9
fffe
ffff
0001
000f
000c
000a
0007
000b
0008
0007
fff1
0011
0004
fff7
0008
000d
000a
fff9
0003
0005
000f
0001
ffe7
fff1
fff3
fffb
ffea
0009
fff3
0004
fffc
0016
000b
fffc
fff4
fffc
ffff
fff0
0006
fffa
fffb
000d
fff8
0002
0008
fff8
0002
fffe
fff8
ffff
0000
fffc
0004
fff7
fff7
ffee
fff3
0000
fffd
0013
0001
0004
000b
000b
fffe
0000
fff9
fff9
fffb
000a
0013
000c
0007
0013
0008
fff8
0008
fffb
fff4
ffff
0000
0000
000e
0007
000c
fffe
fff5
ffff
0004
0002
fff7
0007
000a
0011
000b
000a
fff8
fff2
ffe5
000c
000b
0001
ffec
0005
fff5
000a
ffe5
fffe
0001
000b
000b
0003
000e
000d
0002
000a
fff5
000d
fff7
fff6
fff6
0008
fffa
fff5
000d
0016
fffb
fffa
0009
fff4
fff4
000c
ffeb
fffd
000b
ffee
0002
fffc
000a
fff9
000a
0010
0002
fff8
fff6
ffe8
fff5
fffc
0005
0007
0004
fff2
fffe
fffb
fff6
000b
fff6
0012
fff7
fff4
fff7
0009
ffec
0001
fffa
0004
fff6
0006
fffb
ffe8
fff3
fff0
fff6
fff4
fff9
0009
0003
000c
fff3
fffc
fff8
000a
0001
0014
0003
fff7
fffa
fffa
000b
0002
fffe
0015
0009
0004
fff7
fff9
0000
fffe
fffe
0004
0016
0004
fff8
0002
0016
0008
0008
fff3
fffb
0003
0002
ffed
000d
fff5
fffc
ffea
0005
ffee
0010
000e
000b
fff2
0000
000a
000a
fff1
0010
000e
0003
0010
ffff
fffb
000c
fffc
0015
ffef
ffec
000b
fff2
ffff
fffa
0007
ffe8
ffef
000d
0025
0007
0000
ffed
fff8
fffb
fff0
0005
fff2
fff2
0010
fffb
0019
fff3
0002
000c
ffff
000a
0015
fffb
000c
fffa
0017
fff2
ffe5
ffe7
000d
0008
fff4
000f
0010
0006
0000
0001
001c
fffa
0019
fff1
0024
ffe7
ffe8
fffd
0013
fffd
fff8
fffa
ffc9
ffff
000d
ffd8
000b
fff9
ffe7
fff2
0000
0017
000f
0016
0009
0012
ffee
fffc
ffef
fff2
0010
0003
ffec
0006
fff6
fffe
0008
0000
0011
ffee
ffca
001a
ffe4
0017
000f
0001
ffe2
0014
0007
0015
ffef
ffe3
000b
fffd
fffa
ffee
0017
ffeb
ffe7
fffe
fff6
ffee
0016
fff3
0014
0015
0014
fffa
0018
000f
fff2
fffd
000b
ffdb
0010
000e
fff8
0000
ffe0
fff2
ffef
ffea
0001
0005
001b
0001
0017
0005
000c
0015
ffe6
fff1
0006
000e
0014
0004
ffe5
0001
0024
002c
0000
fffa
fff3
ffff
0008
000e
fff9
000f
fff1
001d
fffa
ffff
0025
ffe8
0006
0008
ffe4
0016
000e
000c
ffe8
fff9
fffb
ffeb
ffe3
0002
fff7
0010
fff8
0006
fff0
0006
0001
fff0
0009
fff8
fff1
ffeb
0001
fff9
ffe4
fff8
000d
fffc
001d
fff5
ffe6
fff6
000a
fff7
0004
0021
ffe1
001a
fffe
fff3
0000
0026
fff6
000d
fff7
0014
0002
0005
0009
0000
000d
000e
0006
0002
ffec
0000
0022
fff4
0009
fff7
0018
0004
002b
0009
ffef
000d
fffc
000d
0019
ffdd
001f
fffa
fff7
fffa
0003
0004
ffee
0003
ffe6
fffc
000f
ffee
001e
0028
000f
0012
0007
fff0
fffe
0000
000d
001a
fffb
0000
fff8
fff5
fffd
0019
0006
000d
000d
0003
0000
0002
ffec
0003
001e
001f
000e
0009
fff3
ffef
0001
000f
ffef
001d
001b
0015
fffa
ffef
fffd
ffd6
0014
0000
0006
fff4
fffa
fff5
ffed
fff6
fff7
0004
000a
fff1
ffe6
fffc
fffe
0013
0006
0000
001b
fff6
0000
0003
0020
000e
ffe4
001a
ffef
0004
ffff
000f
000e
0013
fff6
0012
0017
0004
0004
000e
0014
0007
fff7
0012
fffb
0005
0002
000e
ffee
000a
0004
ffe8
ffed
001b
000d
fff2
fffc
ffec
000c
fffd
002c
fff8
000e
fff9
0003
fff1
0003
000e
fffb
fffb
0014
ffea
0000
fffc
0017
fff8
0000
000b
fffc
fffc
001b
fffa
0008
000b
fff9
fff5
fffd
001d
fff2
fffb
0016
ffe9
0008
0005
0019
0012
ffeb
ffef
ffd9
0014
ffff
ffe4
fff8
0007
0017
ffeb
fff9
0002
fff4
0001
0013
0012
fff4
0012
ffec
0014
0006
ffea
fffb
ffe6
0017
000c
000e
ffe7
ffef
0015
fff2
0024
000a
fff8
000f
fff4
ffef
0008
0020
ffe8
fff5
ffdf
000e
ffe8
0004
001d
0016
ffff
0001
ffe9
ffe0
ffea
fff9
0001
fffe
ffe1
fff0
0002
fff2
ffdd
0019
ffe8
fff5
001f
001c
ffe1
fffa
001b
ffec
000c
fffd
fff4
fffe
0004
0013
ffe4
0021
0015
fff7
fff0
ffed
0012
000e
fffa
ffe8
fff8
000b
0016
ffef
fff2
fff5
ffef
fffc
000a
001a
fff8
0005
0006
ffe0
0011
0004
ffff
fff8
ffeb
fff6
ffe1
0008
0014
0004
fff1
ffe9
ffeb
0019
fff4
0011
0017
fff0
0010
0002
fff6
fff6
ffef
0016
0012
0008
fff4
0003
fff3
ffeb
ffe1
0006
ffea
0003
0002
fff6
000e
fff7
000c
0026
001d
0010
000f
0005
0015
001b
ffe7
000e
ffe6
fff1
ffef
fff8
ffea
ffec
0016
0008
ffdc
001b
0010
ffef
001a
0005
0008
001b
0003
0004
fff2
0008
fff7
0001
0017
fffa
ffe9
0024
0000
ffec
ffe9
0012
001b
fffd
fff9
ffe7
0018
000c
0018
0019
fff0
0002
0006
0018
ffee
0017
ffed
fff8
0013
000f
fff1
fffb
fff1
0012
0000
ffef
ffea
0005
0019
fffe
000c
fffa
fff9
ffea
0015
000d
0008
002c
0011
fff9
000f
ffe0
ffe4
0016
0004
fffd
fffc
0017
000e
0010
ffed
ffe7
0019
001a
001f
fffb
fff0
0009
0005
001f
ffec
fff4
0006
ffeb
0010
ffe6
000b
0021
0003
ffe4
0027
0002
0005
fffb
ffed
ffee
0018
fff1
000e
0017
ffd3
0013
0024
0015
fffc
0021
fff5
ffe7
0016
001a
fffb
fff1
000f
ffe6
fffb
fffc
000a
001b
fff9
fff6
fff1
002d
ffe7
000f
0027
fff4
fff3
000e
fff0
0001
ffec
000f
0005
fff4
ffdb
fffb
001e
ffea
fff1
ffe0
0016
fffa
000f
0011
fff7
ffdd
0020
0020
fff7
0008
ffed
0018
fff9
ffe7
fff3
ffde
0007
0029
000c
0006
ffe0
001d
000c
ffe0
ffec
0014
ffd5
ffef
0005
fff3
fff7
0025
fff8
fff0
0011
ffff
fff3
001b
fffc
001d
000b
ffe7
ffef
000a
fff0
ffe9
fff4
0016
ffed
ffd6
fffc
ffe9
ffe0
0014
fffc
fff3
ffea
0010
0014
0015
ffef
fff8
fffb
0005
001c
ffe2
fff2
fff3
000f
0018
fff6
ffe9
000f
fffb
0008
fff4
0009
000d
0002
0008
000c
0000
fffb
0007
fff1
ffec
0004
ffea
fffb
fff8
fff8
fffe
fff0
fffb
fffb
0011
000f
0001
fff0
fffd
0009
fffd
fffc
fff2
0002
fff9
fffc
0001
0009
0005
fff7
fff8
fffa
fffb
0008
0010
0000
fff3
ffe5
0008
0012
fffc
0000
0003
0005
000a
0001
000a
fff7
fff2
fff1
0012
0008
fff2
0005
ffff
fff0
000b
0006
0001
ffe7
0008
000c
0010
ffed
fffa
fffb
ffff
000c
0002
ffec
fff7
fff0
ffec
ffff
fffb
fff2
0003
fffa
000f
0002
fff4
0013
fffa
000f
0013
000d
ffea
ffe6
ffef
fff9
0002
000f
0019
fff9
fff5
fff3
fff0
fff8
fff4
fff7
000f
0018
0009
fff8
fff4
fff8
fff9
0011
ffff
ffe8
fff0
0012
fff5
0007
000b
ffe9
001a
0008
fff8
0003
ffed
fffa
000b
ffe8
fffe
0004
ffee
fffc
ffe5
0016
000d
0013
0003
000a
fffc
fff4
fff9
fffa
0024
000a
ffff
fff9
fffd
000c
0007
0002
ffff
ffff
000d
000f
0004
0006
0000
fffd
0008
fff8
ffee
0006
000e
fff3
0007
ffee
fff7
0005
0015
fff3
fff1
fff9
0009
0016
0015
fff1
0001
fffd
000b
001d
ffed
ffdc
ffe7
0016
ffe5
0007
0012
0007
0006
000c
fff5
fffa
0003
ffee
fff1
fff6
ffff
0003
0006
0011
0012
fff1
0001
0003
000e
0005
0011
0005
fffb
0002
fffe
fff1
0005
fff4
ffff
0006
0007
0010
000b
ffec
fff0
fffe
0001
fff4
ffe5
fffa
fffb
fffc
0010
fff7
0001
000a
0006
fffe
0010
0003
fff9
fff6
fffc
fffe
000b
0014
fff7
ffea
0014
fff7
0003
0008
fff0
fff1
000f
000d
0002
0003
fff8
000d
0011
0003
fff1
fffe
000c
ffef
0009
fffc
0004
fffb
fffc
000d
0002
0008
0014
fffa
0008
001b
fff1
0027
000f
ffff
000a
000d
fff4
ffe0
ffeb
0019
0013
0012
ffff
0011
ffff
fff1
fff7
0003
ffec
0012
0014
ffed
0006
0016
fffd
fff3
0003
0013
0014
0013
fffd
001d
0001
001e
fff4
0002
fff1
0010
0001
fff9
ffec
000d
fff9
ffe8
ffe2
fff5
fff3
0018
ffe3
0002
0018
0009
fff8
fffd
ffec
ffff
fff8
fff3
001f
0001
fffb
fff4
000d
0000
fffc
0023
000f
0003
0015
fffb
0003
fff1
0004
0006
fffa
fff6
0006
0015
ffec
fffe
fff2
fffe
0016
ffff
fffa
ffeb
0002
fffa
0016
fff6
fff3
fff7
0001
fff7
ffe0
0016
fff7
fff0
fff4
fff4
0016
0019
001d
fff1
0005
0023
001a
ffe3
0011
ffeb
fffb
0004
ffeb
0007
000a
ffda
0000
fff8
ffec
000c
0016
fff2
ffe7
ffed
fff0
0017
fff4
000d
ffe4
0005
001c
fff9
fffd
0018
0002
fff6
fff0
fff9
001d
0009
0005
0006
ffd9
000c
ffe5
fff0
0006
fff5
fffa
ffff
0002
002c
0003
0005
0012
ffe9
0020
ffeb
fff4
fff8
ffe5
0011
0003
002f
0020
0001
0003
fff0
ffed
ffdd
000b
fffd
fff4
ffe3
0008
fff0
0019
fff0
fff3
0006
001b
0016
fff6
000f
fffe
ffe7
0020
0002
fff1
0016
fff9
0007
0010
0026
0018
fff6
0013
fffd
000a
000e
ffee
0013
001d
fff8
001a
0011
ffec
ffef
fffd
0018
fff4
0015
000e
0026
ffed
ffe2
001b
0002
0001
ffdd
ffe8
0030
0007
fffa
0002
0028
0002
000a
0016
0008
0012
ffe8
fff8
0027
ffe3
0004
0018
ffec
fffd
ffe3
001e
ffe5
000e
0014
0025
ffd8
000f
ffe4
fffb
0017
ffe5
001f
000b
fff7
0013
fffd
0008
0011
ffec
0027
fffe
fffe
fff5
000f
ffdb
fff9
fff2
ffff
fff6
0010
0011
0024
ffea
fff2
001a
0017
ffea
ffe8
ffd7
002b
fff6
000f
000e
ffe6
0002
0017
0025
0016
fffc
0000
0016
fff6
0012
ffec
ffdd
ffdf
0013
0001
fff5
fff2
ffeb
0015
0009
0016
0004
ffff
0002
0025
0006
fffd
fff9
0005
0019
fffe
0001
0003
000b
fff2
ffdf
fff5
0003
fff8
0020
0000
000b
000b
fffc
fff0
fff5
fff3
0000
fffe
001f
fff0
0006
000c
fffe
0000
0010
fff5
0022
000b
0001
fffa
fffc
0008
001a
001c
fffa
ffef
0013
fff0
ffe8
fff9
fff4
0000
fff3
000c
fff7
ffec
0012
fff3
ffe5
0001
fffc
fff1
0001
0015
fff5
ffee
0005
fff8
0020
fffa
0019
000b
000d
fff4
0000
fffc
0012
ffe5
ffe9
fff4
0007
fff6
ffee
0011
0005
fffa
ffff
fffe
fff1
ffee
ffec
ffe9
fff3
ffea
ffff
001e
0011
0003
fff7
002c
0011
fff1
ffef
0018
0000
0005
fff7
0006
fff9
0005
0006
fff4
0012
fff7
ffe6
001e
fffe
ffeb
000e
0000
0008
fff2
fffb
0005
fff9
0006
ffff
0008
fffd
fff7
0009
0011
0002
0006
fff7
0006
000e
fff0
0006
0003
0005
fffb
fff7
0000
fff9
0007
ffea
fffb
fff4
000f
fffd
fff3
0009
000d
0008
fff5
0003
0001
0000
fffc
fff1
0000
fffe
fff7
fffe
000d
fffb
0006
fff8
0001
fffd
000d
fff0
fffb
0004
0004
fffb
0003
0009
fff5
fffa
fffc
0003
0004
fffe
ffff
fff9
fffa
fff9
0006
fff4
0008
0006
fffd
fff5
ffff
fff7
fffb
0005
0005
0009
fffe
fffa
fffe
fff9
fffa
0009
0001
fffb
fff5
ffec
0006
fff5
fffe
fffe
000b
fffe
fffa
000a
fff4
fff4
0005
0008
0003
000b
0006
fffd
0010
fffa
fff9
000c
fffc
0004
fffd
fff1
0019
0007
0007
0007
0004
000c
0001
fffd
0003
fffe
000b
0003
0008
000f
000a
0001
fffb
ffef
fff7
0005
000b
fff7
0007
fff5
fff7
0005
fff6
000b
fff7
fffd
ffff
000a
0016
0002
fff1
ffef
0005
fffd
fffc
0002
0009
fffe
ffd4
0014
ffeb
001d
0011
ffe6
fffb
fffb
fffa
0003
0001
ffef
ffe4
fff2
0010
000f
fff7
ffdf
0001
000c
000d
000a
0015
000f
0009
0001
0001
fff0
0009
ffde
0005
0008
0010
0011
fff4
0002
fffe
0000
0009
ffd6
0004
fffe
001c
fff5
fffc
000f
fffa
fffa
fff9
ffea
ffff
fffe
0002
ffed
0003
0018
fffd
ffe6
0004
fff8
fff3
fffd
0001
000f
000d
fffd
fff0
0005
0007
fff5
0002
ffec
000a
fffb
0005
0018
000d
000c
ffd6
fff9
fffe
000c
fff5
fff6
fff1
fff5
0000
ffea
0002
fffc
0002
fffe
0011
0006
fff1
fff9
0008
fffb
0015
000e
ffe8
ffed
ffed
0007
fff2
000d
0000
000d
000a
0001
000c
000e
0005
0002
0011
0005
fffd
fff9
000e
0004
ffde
fffb
fff6
000b
0007
ffff
fff7
ffef
0005
0005
0007
fff9
fffd
000d
0005
000a
fff8
ffff
fffb
fffb
fff9
ffff
0000
0009
fff5
ffe9
fffa
0000
0000
0007
fffc
0001
fffe
0003
000f
0000
fff2
fffc
0002
0002
0008
fff5
fffc
fff8
fff8
0006
000c
fff7
0005
0005
0006
0008
fffa
0008
fff3
fff0
0002
0007
fff9
fffd
0003
fff8
fff0
0004
fff4
fff9
0006
fffa
0002
fff4
ffee
fff2
fffd
000c
fffa
fff8
0009
0007
fffc
fffe
0000
0004
ffff
0006
0001
ffff
fff4
0007
fff2
fff5
fff3
fff4
0003
0002
fff2
0005
fff9
ffee
fff5
0009
fffc
fffd
fffa
000e
0007
fff3
0003
fffb
fffc
0008
0005
ffff
fff6
0004
fffb
0001
0008
0000
0005
fff6
fff8
fffa
ffe8
fffc
0000
000d
0006
fffd
fffa
fffc
0007
fff9
0004
fffe
fffe
fff8
0006
0003
fff2
fffd
0003
ffff
0004
fffc
0001
000b
fffb
fffc
0010
fffd
fffa
ffff
0005
fffb
fffa
0005
0003
fff8
0014
ffeb
0003
0005
000f
ffee
fff1
fff6
000e
fff5
001e
0014
fff2
0003
000f
0030
ffff
000c
0006
fff2
001c
0006
fff7
0009
fff0
0007
0012
0007
0004
ffe3
fffd
ffe9
fff8
0014
000b
fffd
0023
0003
fffe
fff5
0003
000a
ffe3
fffd
0019
0025
ffe3
ffff
001c
0001
000f
000c
0000
ffdf
ffe1
ffe9
0014
000d
fff5
fff0
ffdc
0018
0029
0009
fff5
fff1
fff0
ffeb
ffed
ffea
0017
fffb
0001
0017
ffe1
0004
0001
ffee
0010
ffe5
0002
fff0
fff7
0012
fff1
0002
0004
fffa
002f
0002
fff7
fff1
fffe
0002
ffd0
0020
001c
fff8
001a
0011
0006
ffef
0006
001d
000f
0027
0016
002b
fff3
0009
0015
ffec
0002
ffe9
001e
0005
ffe3
fffe
ffd9
000c
ffd3
ffec
fff0
001b
fff9
0005
001c
0017
0030
0014
ffde
ffdc
fffc
fff0
fffa
fffb
fff5
fff3
fff9
0012
fffc
ffd9
fffa
ffef
fff4
fff4
0020
0009
ffe7
0009
ffee
ffe2
0002
0004
ffec
0005
0002
ffee
fff4
ffe8
000d
fff8
ffff
0005
0016
000d
0003
fffc
fffb
0000
0003
fffc
ffed
000b
ffe5
fff7
fffc
fff3
0009
0010
000a
0013
fff5
fff4
0003
fffc
0010
fffb
0001
fff3
0010
fff2
0020
fff3
000d
ffef
fff4
fffd
0015
fff5
000a
fff3
0012
fff0
0001
0009
fff3
000a
fff4
fff5
fff5
fffa
0017
ffe9
0005
ffde
ffee
0003
000a
0007
0003
fffe
0004
ffe7
fff4
0002
fff6
0007
fff7
fff7
fff1
fffd
000f
ffef
0001
0008
0015
fff5
0007
fff8
fffe
ffff
fffe
fff6
0002
0011
0015
fff4
fff2
fff2
fff0
ffe9
fff3
ffea
0002
fff0
ffed
ffff
0007
ffee
0009
fffb
0014
0003
000e
ffed
001a
0010
ffef
0019
fffd
fff8
0009
ffe8
ffed
000b
0006
0003
0012
0001
fffe
ffff
fff8
ffdf
0019
0002
ffdd
0021
fffb
0008
fffe
fffa
ffeb
0023
0017
fffd
fffd
0001
0019
ffeb
fff7
fffa
0003
0013
0000
ffeb
0005
0017
ffef
0005
fff0
ffff
ffee
fff0
ffe7
001d
0009
0000
fff5
fff8
0008
ffe0
000f
0012
000f
fff5
fffe
0022
ffec
0014
fff7
fff8
fff5
0005
0006
0000
001a
ffe2
fff2
fffd
fff6
0010
000c
ffdc
ffe1
001d
fff6
000d
0001
000b
fff9
fffa
000e
fffe
0005
fffc
000b
fffd
0018
fff6
0012
0012
ffe8
ffe7
0001
0005
0011
fffe
fff8
fff4
ffe3
0016
ffed
ffec
fffe
fff4
0011
fff4
ffe5
fffd
0008
fff7
0016
0009
fff8
000d
000e
ffec
0001
000b
fff7
0000
ffe7
0000
fff4
0004
000f
000d
ffe5
fff1
ffe3
000f
0011
0006
ffee
000f
000d
0019
000a
fffe
ffed
0013
000d
0008
0000
ffe1
fff9
ffe7
ffed
fff6
000f
0011
0004
000b
0006
fffb
000d
fff2
ffe2
ffff
fffd
000e
0017
0012
0009
000d
0008
fff8
000a
ffeb
000f
000b
fff8
fff2
ffd4
fffd
000e
fff1
fff6
001c
fff7
fff3
ffff
0001
ffec
0004
ffe5
0019
ffe1
0002
000a
0003
ffec
fffe
ffff
0008
0010
ffe0
001b
ffdc
fff9
0010
0009
0011
ffe6
0020
fffd
fff1
fff2
0012
000b
ffdf
0004
001f
fff5
ffeb
ffef
000f
ffe7
0001
0027
0000
ffe9
0024
001f
fff9
ffec
0000
ffe6
001b
ffcb
ffeb
000c
0010
fffc
0021
ffdf
fff9
000e
fffe
001a
fff4
ffe6
fffb
ffe6
000d
0019
fff2
fff4
000e
fff8
ffe8
fffc
fff1
000e
0000
ffee
0006
0021
fffc
0010
0015
ffee
0001
ffed
000f
0027
fffc
000a
0005
fff9
fffd
ffef
0016
001b
fffa
0010
0017
ffe2
fff7
fff8
fff1
fff4
0009
ffef
0003
fffa
fffe
fffe
fff8
ffe8
fff0
0007
0003
0019
0011
fff2
0016
fff9
fff7
ffee
000c
fff3
000b
002d
fff6
000a
000c
0005
ffff
ffec
fff9
0006
000b
ffea
ffed
0004
000b
000d
0010
0006
000b
0005
fff2
fff9
fff9
0007
0012
fff6
fffc
ffef
fffb
fff4
000b
fff8
0001
0011
0005
fffa
fffc
000b
0016
fff8
000e
000b
fffb
fffe
fffa
ffeb
0013
0003
fffc
0002
0006
fffa
0006
fff1
0003
000d
000d
0004
000c
0002
0003
0001
ffff
fff6
ffff
0005
fff2
fff2
ffff
fff4
0003
ffee
0005
fffa
0008
fffc
fff8
fff6
fff9
0012
ffea
ffff
fffd
fff6
0000
000d
fff4
0003
ffed
000e
fffe
fffa
000d
ffed
0000
fff7
fff2
0009
000d
ffff
0003
fff6
ffef
ffee
0007
000a
0005
fff4
0018
0013
fffa
0006
fff9
fff2
fff4
fffc
0009
ffff
000a
0004
000d
fffa
0008
fffb
0014
fffd
fff3
fffc
fffb
0011
0011
0008
fff5
fff4
000b
fff7
0010
000b
000d
fffd
ffec
fffd
0013
0002
fffd
fffe
0011
0001
0002
fffa
0009
0010
ffe4
fff1
fff3
0012
fff9
000a
000b
0007
0013
ffff
0009
ffff
0012
0009
fffc
fffb
ffff
ffec
fffd
fff7
0015
0005
0001
000f
0006
0008
0004
fffc
000c
fff2
0018
0008
ffee
fff2
fffd
fffe
fff4
0009
fffb
ffe1
ffee
0005
fff0
0009
0013
ffeb
fffb
000d
fff8
fff6
ffe1
ffe9
fff4
fff8
000b
0003
fff9
0001
ffff
000c
000c
0006
000f
000a
ffeb
0011
0000
fffa
0017
0000
0005
0012
0004
ffea
fff9
fff9
0006
0003
fff9
fff9
fff5
ffe9
fffb
0006
0003
000e
000b
0003
fff8
0006
0015
fff4
0010
ffef
0003
0013
0004
0003
0013
0004
ffed
000f
0009
0012
fff9
0013
0005
0004
0012
000f
fff3
fff5
0002
fffa
fffc
ffec
fffb
001e
fffa
fff8
000a
000d
fff1
0003
fffb
ffe7
fffe
0001
000c
0008
0008
fff6
fff2
000c
fffc
0015
0003
ffeb
fffc
0003
fffb
fff7
0005
fff0
000d
000a
fffd
0012
0004
000a
0003
fff2
ffeb
0003
0001
fffd
0012
fff2
0010
0008
fffe
fffa
fffc
0000
0010
fff5
ffeb
0008
0010
000e
0018
fff6
0000
0010
ffef
fff6
000b
000c
0006
0009
fffa
000a
000b
0003
fffc
000b
fff5
0015
fffc
fff3
0001
0003
fff9
ffe4
0002
0001
0001
0009
ffff
0002
0000
0003
fff9
0008
0010
0001
000a
fff9
0001
0001
fffc
fff1
001f
000d
0009
0007
0002
0012
fffb
0010
fffe
fff4
0005
0003
0017
0003
ffef
fffb
ffe4
fffa
000d
0012
0021
ffed
0018
ffff
fff7
0001
0003
0004
0001
0001
fff9
0004
0017
fff7
0017
fffd
0003
fffc
001a
0004
0011
0008
0007
000a
0008
fff6
0015
0005
ffec
fff8
0005
ffee
fff5
fffa
fff8
0005
0012
0017
0010
ffef
fff5
0006
ffff
ffff
fff1
ffef
0001
ffff
0001
0009
ffea
fff3
ffec
fff3
fff4
ffea
001e
0006
001b
ffeb
fffe
002a
fff3
0003
fff5
0008
fffa
002b
fffc
000c
fff2
ffea
ffff
0004
0013
fff0
ffeb
0010
ffef
fff2
fff6
0018
fff0
0001
ffff
0008
fffe
fffe
0021
fff5
0018
0011
000a
000a
001d
001e
ffdf
ffeb
0015
fff2
fffa
ffe5
0001
fffb
fff8
000b
0000
ffe6
fffa
000d
0016
0010
0013
fffd
fffc
0000
0005
000d
fff9
000e
0006
0009
fffe
fff2
fff1
fff9
0019
000b
0011
0000
fffe
0002
ffe4
ffeb
0000
fff1
ffe5
ffe1
000f
0016
fffd
0028
ffe5
0002
fff5
0004
0026
fff7
0009
fff4
000c
0009
0007
0012
ffee
0012
fffe
fff4
0001
0002
0000
ffeb
000c
fff1
fff0
0010
fffc
fff6
fff5
fff9
0003
ffef
0005
0009
ffe8
0010
fff9
ffed
001f
ffdb
0007
001a
000f
0015
ffff
001b
0007
ffde
ffeb
0002
000c
0000
fffd
ffff
0010
000e
0004
fff9
0001
000a
fff5
ffe3
fff5
fff3
0012
fffc
0002
0012
000d
fff8
0003
0006
0006
fffb
0013
0000
fff4
000e
fff5
0013
fff8
0014
fff6
0006
ffef
fffb
fff8
0008
ffff
000b
ffff
fffc
fff4
fff8
0006
fffc
0008
fff5
0000
0001
0001
fffd
0001
0002
0003
fffe
fff0
0007
fff9
000d
0003
fffa
0009
0003
0009
0016
0011
fffb
000f
0003
0000
000c
fffa
fffa
0007
fff5
0019
000d
fff4
ffff
fffe
fff4
fff4
0006
fffb
fff6
000a
000f
fffe
fff6
fffc
fffa
0002
0007
fff1
0009
0000
fff8
fff9
ffff
fffb
ffed
0007
0015
fff4
0009
0006
fff6
0005
000d
fffe
fffa
0000
0003
000b
fffa
fff2
000c
fff7
000f
fff7
ffff
fffd
fff4
ffff
0004
fff6
0009
0003
fffa
0004
fffe
fff5
0000
fff4
0006
fff8
0007
fff0
0008
0009
fff1
ffec
0002
0017
0005
fff9
0017
fffd
0012
000b
0005
ffec
ffeb
fffc
0007
0000
0004
fff8
fff5
fffa
000c
ffe4
000b
fffb
fff8
fff5
fffd
0003
ffeb
0013
0011
ffec
000b
ffee
ffe1
0009
0018
ffe0
000a
ffea
0011
0006
0010
0018
0008
000d
0008
fff6
ffea
001c
0007
fffd
ffec
ffec
fff8
ffee
ffeb
fff4
fff6
fffa
000e
fff5
000f
0001
ffe1
0013
ffe7
0004
0008
ffe9
fff1
ffe9
000d
0005
fffc
0003
fffb
fff8
fffa
ffde
0004
fff7
0023
fffe
ffe6
000c
001b
0000
fffb
fff5
ffe0
0007
000a
fff8
0004
0004
0003
fffd
fff9
0014
ffff
fffa
fffa
0015
fff5
fff2
fff0
0003
0002
0018
0013
0007
000b
000e
000f
000c
0002
fffa
ffe3
fff2
fff1
0007
000f
0002
fff0
000b
0001
000d
000d
fff0
0003
000c
0004
0005
0002
fff6
0012
ffea
fff1
fffb
fffd
fff9
fff9
fff6
fff8
fffa
fffd
000e
0014
0006
ffdd
fff6
0012
0004
0003
fff6
0006
0002
fff1
ffff
0001
fff9
0014
fff0
0003
000c
0008
fff8
fff2
ffed
0014
0008
0008
0012
fff4
000f
ffee
0008
0003
001e
fffa
ffe9
0003
0005
ffef
fff8
fff7
000e
0003
000f
000d
000b
0008
ffff
0007
0009
0002
fff4
0004
0006
000e
0004
fffd
fff9
ffeb
0016
000e
0003
0018
0013
fff7
0006
0009
fffd
0006
000f
fff1
0006
0002
0006
fff7
fffa
000a
fffb
0006
fff3
ffea
fffe
000e
0004
fff6
ffea
fffb
0004
0006
fff0
ffeb
fff0
0002
0009
fff3
000a
0012
ffe2
fff1
ffff
0024
0006
000c
0000
fff4
fff0
fff9
000b
fff0
fffe
ffec
ffff
0004
0004
fff9
fff8
001b
fff1
0009
0010
0005
ffff
fffe
0009
fff8
ffde
0000
fffb
0020
0019
0014
0012
0010
0010
fff6
ffe2
0004
ffe2
fff7
fff4
0006
fff7
fffb
fff2
fff1
0014
fff6
fff2
0010
fff1
000a
0013
ffed
0004
fffd
0008
0016
0009
fffe
000f
000d
fffb
fffa
0010
fff0
0011
0003
ffe2
fff4
001d
0003
0007
ffef
0005
fffe
0006
ffe4
0007
0005
ffe6
0011
fff4
0011
001f
ffff
0003
fffe
ffe4
001c
0004
0010
000f
0008
0015
0010
0008
fffc
000e
000f
000e
ffea
0009
ffff
0005
fff9
fff1
fff0
0006
0012
0007
fffe
fffa
0000
0004
0003
0006
fff0
0000
0014
0005
ffff
fff2
0002
000c
0011
0008
0008
0009
0002
0018
0001
fff5
ffff
0011
0007
ffed
000b
0017
0006
001a
0002
fff6
0001
0004
fff9
0007
000b
0004
0008
000e
fffd
fff9
fff8
000b
fffb
ffee
0004
ffe5
0008
0007
0013
0010
fff5
0012
0007
0002
fffd
fff5
0013
fffc
ffef
fffa
0001
0008
0003
0002
ffeb
0009
0000
fffa
fffa
0010
fffd
0016
0004
fff8
0006
0005
0001
0019
fff5
ffeb
fffc
fff3
0017
fffb
0017
fffc
fffa
0001
fffa
000a
fffa
ffe1
0012
fff3
0020
fff4
fff6
ffe7
fff5
0005
ffef
0014
fffd
0019
000a
000e
ffed
ffec
000f
0000
fff2
fff1
fff7
fff5
fff6
0011
fff0
0010
0001
0023
0009
000a
0017
0011
fff7
0011
0001
ffe1
fff8
0005
fff3
fffb
ffed
0002
fffd
ffe9
0006
0001
0013
0012
ffee
ffec
0018
fff5
fff8
fff4
fffb
000c
ffff
0004
001a
0019
ffff
fff7
ffef
ffff
0006
ffeb
0010
fff5
0001
0001
fffe
fff7
0014
0003
000c
fff8
ffef
fffc
fffc
000a
0021
ffe1
fff6
0014
0002
000d
ffe8
0000
fffb
0005
fff5
0016
fffb
fff8
fffc
000f
000f
0009
fff9
ffec
0015
0018
0003
fff9
001a
fffa
0009
fffb
0004
0006
ffeb
0005
fffd
ffec
000c
fff3
fff0
0025
0010
0001
fffd
ffe3
0017
0002
fff8
fff3
ffef
fff5
ffe8
000a
ffeb
ffef
0007
ffde
001f
fff7
0007
0001
001c
0000
0012
0003
fffa
ffdb
0005
ffe8
0000
000c
fff8
000c
0022
ffed
ffec
0019
ffe9
ffcc
fff5
000b
0013
0010
000f
0002
001f
0007
0013
0007
0006
001d
0013
ffe7
0002
fff8
0003
0009
0002
0020
fff4
ffe6
fff5
fff8
000b
0012
ffe3
fffb
ffe3
0000
ffdf
0015
0004
000d
0002
000a
0010
fffc
fff8
0002
ffde
0020
ffff
001b
0010
fffe
0025
ffef
0006
fff8
fff4
0001
0015
fff4
0028
ffe9
0018
0007
ffdb
fffc
fff2
fffa
001c
0002
ffe7
fff3
0015
0010
000b
000a
fff0
0000
ffe8
0006
ffed
0018
0003
0000
0000
fffd
0007
ffed
0007
ffed
fff0
000b
fff8
0015
fff1
0005
fff8
000b
0006
ffe4
001a
001b
fff7
ffef
0013
0011
0001
fff9
0012
ffd9
ffea
0023
0014
fff4
001c
0006
0007
ffe3
001a
ffef
fffb
fff5
ffe3
ffeb
ffee
fff0
0008
0006
0009
ffed
fff6
fff8
ffec
0005
0005
ffff
fff3
fffa
fff9
fff8
ffe9
fff5
0004
0007
0007
fff6
fff8
fff9
0011
fff6
001b
0000
0018
ffec
fffc
fffe
fffa
fffc
0000
ffee
0011
ffff
0011
fffe
0005
fff7
0003
0012
fffa
0006
fff1
000a
0010
ffff
fff7
0010
fffc
fff7
0013
0018
ffea
0007
fffe
ffeb
0008
fffa
fffc
fffe
ffee
ffff
000b
000e
fffa
0008
000c
0010
0000
fffa
fff8
ffef
000f
0008
0008
0016
000a
fffe
0006
000a
fffe
ffea
0006
0004
0004
ffff
0009
0003
fff6
0005
0009
fff3
fff1
fff9
0003
0003
fffa
ffe3
ffff
0013
0000
fffe
ffee
0010
fff7
000f
0009
ffed
000f
fffc
0010
ffea
0010
ffe9
fffc
fff3
fff6
fffc
fffe
fff3
fff2
0004
fffa
fffc
0004
fffe
fff7
000d
fffb
000f
0014
ffef
fff3
fffe
fffb
fff1
0005
0001
fffe
000a
ffe6
fffc
0001
0001
ffff
ffee
fffd
ffe5
0007
fff9
ffff
0000
0016
0003
fff9
fff4
fffe
000c
ffff
ffec
fff3
0004
0008
fffe
fff6
fffc
ffef
0006
0007
fffd
000f
0007
0007
0011
fffc
fff7
0002
fff3
fffb
fffc
fffb
fff2
0004
fffd
ffee
0009
fffc
fff9
fff6
fff8
fff0
0000
000c
000e
ffef
0006
0009
0011
0006
ffee
fffa
fffe
0001
fffd
0000
0016
0005
fff6
fff9
000f
fff5
fff5
0008
fffe
0008
fff5
0005
000e
ffff
fffe
0007
0001
fff5
0005
000f
0010
000d
0004
0002
000b
0002
0000
0007
fff9
ffe3
0010
0008
ffea
ffff
fff8
fff3
fffe
0001
fffc
fff9
000c
fff2
0012
0002
000f
0003
001b
fffc
fff9
000d
000e
000a
0005
0003
0000
fff4
fff9
fff2
0018
0002
fffe
fff4
fff3
0009
fff7
0009
fff7
fff9
fff5
0010
0007
fff8
fffb
fff8
0009
0015
000e
000f
0001
fffe
ffed
fff5
0013
0006
000a
000b
0008
fffc
fff0
fffa
ffe3
0025
ffff
0010
ffed
ffe5
0024
0004
0006
fff6
fff4
0008
0027
0022
ffeb
000e
0010
ffee
ffe0
0009
000d
fffe
0004
0012
000e
0000
000a
0003
ffdb
ffec
000e
0006
0018
fff9
000c
fff7
ffd5
000b
fff7
000b
0006
000b
0003
fffe
0002
fffa
0000
ffff
fff7
fffb
0008
0002
0000
0017
ffee
fffa
000e
fffc
ffff
0016
fff5
ffed
fff7
fffe
fffe
0012
fff7
fff4
ffed
0013
ffef
0002
0009
0008
001f
fffd
0016
0004
fff7
0012
ffe1
000f
0000
0005
ffe4
fffc
000a
ffef
ffe1
0003
fffc
0016
0017
000a
ffe4
fffa
000d
0007
0001
0004
0012
ffea
001c
ffed
0017
ffed
0006
0007
0005
0008
fff5
0008
000e
ffee
ffef
000d
0018
fff7
0000
000f
fff9
fff0
fff3
fffc
fff3
000d
fffd
0008
0009
ffef
fff9
000c
001b
ffe1
0009
002a
001d
0009
fffe
ffef
fff0
fff9
ffd3
000b
0007
ffe6
fffd
000e
fff7
0024
0023
0000
001e
0006
0002
fffd
fff6
fffa
fff6
fffc
0000
0008
0014
fff8
0029
fff3
ffdc
000d
fffb
000e
000d
0008
0018
0001
0008
0005
fff9
0011
001e
fffb
0011
001c
0019
0005
ffed
fff2
ffd9
0014
0013
ffec
0018
0024
0010
fff7
0002
0007
ffef
000f
ffeb
fff5
0002
000a
001c
ffef
0018
ffd5
0001
0018
fff8
ffe7
fff9
0011
fffb
0007
0000
fffc
ffee
fffb
fff2
fff8
fff4
0011
001c
000a
0013
fffe
fff2
0006
fffc
0004
000a
0011
fff0
0002
fffb
000b
0011
fffd
ffff
000b
ffed
fff0
fffa
0003
ffff
0002
0007
ffe5
fff3
0017
ffff
fff0
0011
ffed
fff9
0000
fff9
001f
ffee
fffc
0004
000b
0027
0008
0010
ffe8
0014
fffe
0003
fff9
ffe9
0014
ffe9
0007
fff5
0008
fff2
fff6
fff6
ffef
ffff
000a
001f
000d
0029
000f
ffe0
fff8
0006
000a
0002
fff8
0003
0010
ffd7
0002
0005
ffef
fff3
fffc
ffde
ffe6
ffe4
fff7
ffe1
001e
0005
0003
0011
000b
0009
fff5
0006
ffef
fff5
001a
0021
0000
0005
0000
ffe5
ffdb
ffed
fff8
ffda
ffe0
ffd3
0029
000e
0024
ffec
ffe7
0005
0004
0002
0000
fffa
fff4
fff8
fff5
fffe
fffd
0002
ffef
fff4
ffff
0006
0005
0016
fff3
ffee
001b
ffe9
000f
0017
0020
001f
fff7
001b
000d
0009
000e
ffe9
ffc9
fff3
fff7
000a
fff2
fff8
000c
ffe5
fff1
fffc
ffde
0008
000b
fff0
0021
002c
000d
ffe8
ffe7
0003
fff0
ffec
ffef
0000
fff4
ffee
fffc
ffe8
ffe6
ffff
ffee
0011
0016
0015
ffe8
0011
0011
000a
fff1
fff7
001a
0010
0008
0012
0003
ffdf
001b
fff4
0008
0008
ffed
0018
0015
ffea
ffee
fffb
000c
ffd3
000c
0012
ffed
ffd4
fffb
ffff
002f
0006
ffde
ffea
001d
001e
0000
fff1
fffe
0023
fff2
fff9
0016
fffc
0004
0018
fff7
000c
ffee
0014
000f
fffc
ffe9
ffee
ffd9
0020
fff6
000c
ffe4
ffe7
fff6
000c
000f
ffec
0002
fffb
fff7
000b
0019
ffef
ffe3
0008
0015
001f
0010
0010
001b
0015
fffb
000a
fff1
001c
ffe9
0014
0002
ffe5
0008
0013
ffe8
fff7
0027
0026
fffe
fffe
ffe4
fffb
fff5
ffef
fff2
fffd
0011
0018
0003
0010
000c
0004
ffdf
ffef
000c
ffe4
ffff
0005
ffef
0006
0019
000e
0010
0006
0010
0010
ffe7
ffe7
000e
ffec
001e
ffe9
fff0
0006
ffe7
fff5
ffec
0007
000c
001a
fff8
fffa
fff1
0011
000a
0028
fffd
fff1
0026
0005
0002
fffb
fffb
0014
ffed
fffe
fff4
ffd3
0021
fff1
ffdf
fff9
fffe
fffa
000d
000d
fff0
ffe2
ffe6
0008
001d
ffe8
0005
ffe0
ffee
0008
ffd1
ffef
0000
ffee
000a
0023
000e
000a
0002
ffe5
0006
0017
0015
ffd8
ffe7
fff7
fff9
fff4
fffd
000b
fffc
fff3
001a
001c
0010
000a
fff1
fff3
000d
0011
ffff
0002
fff5
ffee
ffec
0008
0019
001d
0013
0013
0017
fff8
000a
0006
0022
fff9
fff6
fff1
0019
0006
0017
fff8
fff7
fffd
fff2
fff7
0012
0001
fff6
0014
0017
fff0
0014
000f
fffd
ffe1
000d
ffe5
000c
0017
fff8
0005
0002
0008
ffe1
0016
fff8
fff0
ffff
001a
0000
fff3
000e
fff9
000f
fffc
0006
fffe
0001
fffd
0003
fff6
000d
fff0
0004
0029
001c
0002
000e
0009
000a
000c
0014
fff0
fff4
fffa
0001
fff3
0007
fff6
0009
ffef
0002
ffee
0005
000b
ffff
0012
000f
ffed
0005
ffe4
fff6
fffd
0014
000e
ffff
fffe
fff8
0009
ffe0
ffe2
fff4
fff8
fff3
0012
fff9
fffb
ffe7
fff9
fffc
0008
ffe5
0015
000f
