0006
fffe
fffa
fff5
ffe9
fff2
0007
fff6
0005
000a
0009
0003
0003
0002
ffdc
fffc
0018
0013
0009
0010
fffa
0003
fff0
0009
fffd
000d
0003
0006
0004
0009
001f
ffed
ffe2
0011
fffb
fffe
0014
000d
0012
fff6
000a
fff7
001e
0008
fff8
0000
ffec
0019
0005
fff7
0002
fff8
fffe
0010
ffeb
0007
fff5
0008
0010
0019
000d
000c
0003
0005
0009
fffb
fff7
fff9
0000
0000
0021
fff8
fff3
0009
0013
ffdf
001f
fff7
fff8
fff9
ffe9
fff2
0004
0002
0017
fffb
fffa
ffff
0005
0006
0006
0003
fffb
fffb
000f
fff3
000c
000d
000b
fff7
fff9
ffee
001a
0010
0006
ffec
fff3
0004
0015
ffec
000f
000a
fffc
0010
fff3
fffa
0007
fff3
000f
0003
fff3
0019
0006
fff5
fff1
0002
ffff
000c
ffeb
0005
000e
0016
0009
0015
0006
fffb
fff4
ffff
fff0
000f
000d
fffd
0005
0007
fff8
fff0
ffe4
fff7
fff0
002c
000f
ffe4
0005
000d
fff3
0002
ffff
ffee
0015
fffe
ffde
ffdf
ffd6
fff5
ffe3
000c
0009
0008
ffed
0000
0029
0004
ffe9
0032
ffeb
001d
fff9
001f
0018
0022
0006
ffe5
ffeb
0031
ffff
000d
ffe6
000e
fffa
0032
fffb
0005
fff0
fff8
ffee
ffdc
fff7
0023
fff1
0008
ffed
001b
ffed
0001
ffef
0001
fffa
002d
ffee
0025
ffd5
001f
0002
0003
0004
ffeb
0008
002d
fffb
ffc2
0029
000d
ffcd
ffeb
0020
ffee
ffe4
000b
0007
0001
ffca
0017
0002
0008
ffcd
0021
fff5
ffe2
0011
0022
000e
ffff
ffe2
ffdd
0018
0017
000a
fffb
ffe7
fff2
0015
ffe1
0003
ffdf
0004
0020
fffb
0012
002a
fff8
0005
fff7
ffea
ffd7
fff4
fff6
0007
ffe1
0011
fffb
fff7
ffea
001a
fff3
ffee
0019
0001
000a
fffa
fff2
0024
fffb
ffe9
0011
fff9
000a
ffeb
0046
fffe
fff3
fff0
0003
0012
0008
fff4
fff6
0001
ffea
000c
0008
001a
0005
0001
0012
0001
fff3
000e
fffc
ffea
0001
000f
0002
fff6
fff1
ffe7
fffe
0001
0009
fffb
fffa
fffe
0007
0006
ffeb
000e
fff3
fff6
000e
0000
fffa
0001
fff8
fff8
0008
fff8
0004
fff8
fff0
000f
fffe
000f
0006
0012
000f
000d
0009
0005
ffff
0016
0001
0007
000a
ffe8
0002
0002
fffe
001d
0015
fffa
001a
0007
ffe6
fff8
0013
0018
fff1
0007
fffe
0003
0010
000a
fff3
0000
000b
fffc
fffa
0002
fffa
0009
0008
fff5
fff0
0006
001a
0012
000c
0001
fff8
fffa
0003
0006
0003
000f
fffe
0005
fff5
fff9
0011
0002
000a
fff1
fff5
fff1
fffc
0017
0001
ffea
0007
fffb
ffee
fff6
fff8
fff5
0005
0011
fffa
fff2
fff3
ffe7
ffe1
fff7
0002
0000
fff8
0004
fff7
fff8
fffc
fffd
fff4
fff2
0005
0000
0001
fff2
0001
fffe
0012
0007
fff9
fff8
fff5
fffc
0001
fffd
fffd
fffb
fff2
fffb
fffa
0003
fffc
0000
000d
fff6
0009
0002
0006
0002
fffb
fffc
0003
fff9
fff2
0006
fff8
fffb
0000
ffff
0006
0004
fffc
fffd
fffe
0009
fffe
0004
fffe
0003
0005
ffee
fffa
fffa
0001
0003
fff1
0000
fff7
0008
ffff
fff4
fff6
0004
0004
fff8
0005
fff4
fff7
000d
0009
0000
fff9
ffff
fffa
fff7
000a
0009
000c
fff4
ffff
fff1
fff3
0003
fff8
0000
0009
0006
fff7
0000
ffff
0000
fffb
0000
0002
0002
0004
0008
0002
fff8
fff5
fff9
fff8
fffb
fff9
fff5
fff3
fffb
fffb
0000
fff4
fff6
000d
fffd
fffb
fff6
0002
fff6
fff9
0003
fff0
fff8
ffff
fff1
0015
ffff
000a
0008
fffd
fffb
fffd
0002
fff9
fffe
0007
0003
0002
fff6
0009
0001
0001
fff0
fff2
0008
fffd
fffa
fffd
fffe
fff9
0001
0001
000b
fffc
0005
0004
ffff
000b
000b
fffc
0003
fff8
fffe
fff7
fff5
0002
fff9
fffb
0002
0001
0000
fffc
000c
0009
0003
fffb
0000
0004
fffb
fffb
0008
0009
fffb
0006
0006
0005
fffc
fffd
fff7
fffb
0001
fffe
0007
0008
0004
0002
0000
fffe
fff8
0003
fff7
fffc
fffe
0002
fff4
0005
fffb
fff8
0004
ffff
0006
0005
fffb
fffc
fffb
0002
0002
fffa
0001
fffb
0000
0001
0002
fff7
fffa
fffa
0002
0004
fffd
fffd
fffa
0005
0005
fffa
fff7
fff8
fffd
0005
fff7
fff9
0006
000a
fff8
fff6
0000
fffd
fff9
fff9
ffff
0001
fff6
0002
0003
fffb
0004
fffa
0003
fffe
0005
fffb
0003
0002
0005
fff6
ffff
000b
0001
0002
fffd
fffb
0000
0003
0004
fffd
fff6
fffb
fff8
0002
000c
fffd
fffe
0003
fff7
0003
0007
0002
fff9
ffff
0001
0008
0006
ffff
fff8
fff0
0004
fffa
fffc
fffe
0005
ffff
000a
ffff
0007
fff4
fffc
0003
000b
0006
0007
0004
0003
0005
fff5
fff9
0006
000d
0005
fff4
fff3
fff5
fff5
0012
0002
0005
fffe
0001
0006
fffb
ffff
000a
fff5
fff3
000c
fffb
0000
0006
fffc
fffe
fff9
0003
fffa
fffb
0008
0005
0006
fff9
fff9
0002
000e
0007
0004
000c
fffd
0000
0008
0009
fffa
000d
000a
000e
0005
fffa
0000
fffa
ffff
ffff
fffb
fffd
000a
000b
0002
0002
000b
000a
000d
fffe
0010
ffff
0007
0003
fffd
000d
000a
0004
000c
fff7
000e
0009
fffc
0002
0002
fffa
0005
0009
fff6
0004
0001
fff9
0008
000b
fff3
0009
0014
000b
0000
fffc
ffff
ffff
fffb
fff8
0001
000b
fffa
fff7
0007
0008
0005
fffa
ffff
fff9
fff1
0007
fffb
0005
0008
fffd
fff0
0003
0004
fffa
fffa
ffff
fff8
0002
0001
fff2
0013
ffda
0023
fffc
0010
0005
ffc7
fffb
0008
0009
ffff
0013
ffe4
0002
fff4
fff1
fffe
ffe3
0003
0013
0003
0001
fff4
fff0
0018
ffeb
000b
fff2
fffa
ffef
0007
0007
001e
ffe8
0014
0001
fff3
ffeb
000f
fff3
0001
fff9
fff0
0001
0009
0014
fffb
fffd
0010
fffe
fffd
000a
0017
fff7
000b
0011
000c
fff6
fff8
000c
fffc
0003
0009
0006
ffef
0004
fffc
fff5
fff5
ffec
fffa
0006
0008
fff9
fff7
0002
ffff
fff1
0016
ffef
fffd
000a
ffee
0014
ffec
ffff
0015
0003
000a
0008
fffa
fffe
0008
ffec
fff5
0002
fff8
0000
0006
fffe
ffef
0001
0002
fffb
ffe8
000c
0016
fffd
fff4
ffe4
0008
0009
0009
0010
000a
fffa
fffc
ffef
fff8
fffb
0003
0010
fffa
000d
0009
000f
0015
fffb
fffa
0010
0013
ffe8
0006
fff7
0000
000c
fffb
001b
0018
fff6
fff2
0001
0001
0025
0012
0002
fffc
0002
0012
fffb
fff6
0009
0000
0000
0000
fffe
fffa
0005
000a
fffe
0006
0003
fffb
fffd
fff6
fff4
ffff
0007
fff1
fffd
0000
fff7
fff5
fffa
fffd
0006
fffc
fff9
0012
000b
fff7
fff7
0005
fff3
fffd
fffa
000c
fffb
fff9
0000
fff5
0002
fff9
0008
fff4
0003
fffe
0007
fff9
0004
fff4
fff6
fffc
fff7
0001
0004
fffc
ffff
fff9
ffff
0006
fffe
0009
0004
ffff
0004
fff6
0008
ffe8
0002
000f
0005
fffc
0008
0008
fffe
fff8
ffef
fffa
0007
fffa
0004
0002
fffc
0002
000a
0002
0003
000b
0007
0002
0004
0005
fff6
0000
fffd
fffb
fff1
fffe
000c
fff8
0008
fffc
fff6
ffff
fffc
000a
fffc
0008
0004
fffd
0004
0002
fff9
0000
fffa
fffb
ffff
fff6
fffb
0008
fff9
fffb
fffd
fff9
0005
fffd
fffa
fff7
fffc
0001
fffd
0008
0000
0003
fff5
fffa
0001
0012
001a
0016
ffee
000b
ffe4
0011
ffee
0009
0001
0010
0028
0006
ffea
fffa
0023
fff6
fff2
000e
fff7
fff0
0010
ffee
000d
000b
ffff
ffdd
0014
fffa
0011
fffb
ffd7
000e
ffff
fffb
ffdc
0000
0005
fff8
fff3
fff3
0004
fff2
fff0
fff1
0006
0024
000a
ffed
fff1
000a
0012
ffff
0006
ffff
ffeb
001a
fff2
000a
fff5
ffe6
0008
ffff
000e
000d
000c
ffe6
000a
fff7
fff7
000b
0007
0001
0021
fff3
0003
ffec
0022
0019
ffea
0003
fffe
0004
fffa
ffe8
000f
0011
001b
fff6
fffb
fff3
fff5
ffef
0006
0002
fff0
0009
0001
ffd9
000d
0004
ffe0
ffec
fff6
0002
fff3
0014
000a
fff6
ffe9
0004
fff5
ffff
ffee
ffeb
0009
ffff
001d
0001
ffe2
fffb
0014
0004
fff7
0002
fff7
ffee
fff9
000a
fff8
0008
ffe7
001a
000e
0003
0002
ffea
ffe8
000e
0020
0008
fff6
000c
000b
000e
fffe
ffeb
0001
0005
fff7
0002
0004
0004
0010
ffff
fff5
ffe1
fff6
ffe7
0001
ffff
000a
fff9
fff9
ffdc
ffff
0003
fff0
fffa
0005
0022
0009
0002
0003
0001
0000
ffff
0007
fffd
ffff
fff7
ffff
fff4
fffe
0009
001b
ffe4
000d
fff9
000e
001f
fff0
fffc
fff9
fff9
000e
fffa
0003
fff5
0008
fffb
0003
000d
0005
fff3
ffe7
fff9
fffe
fffb
0002
0006
fff7
fffd
ffed
0011
fff5
0004
fff1
001e
0001
0018
fff7
fffc
0015
0001
fffc
000e
0008
fff8
fffd
fffa
fffb
0010
fff4
fff8
ffe7
000d
fff3
000b
fffe
fffd
0008
ffe6
0008
ffdf
0001
fff8
0006
fff1
0004
0002
0000
fff7
fff4
ffea
fff4
fffe
fff4
0002
ffec
0004
0004
ffe9
0008
0009
000a
0019
ffeb
0003
ffee
0005
ffec
001a
ffdd
fffc
0005
ffec
0004
000b
fffb
fff3
000d
0015
0000
ffff
fff7
fffb
0004
ffe7
ffeb
0006
ffe8
000d
0013
0009
001c
fff0
0012
0024
fff7
fffb
0001
0006
fffb
0002
fffc
fffd
fffa
fff3
ffee
001c
0001
0014
ffe9
0007
000c
fffe
fffb
ffe5
fff1
0002
fff8
fffb
fff8
000e
fffb
0002
001e
fff8
0003
0001
000e
0006
0013
0001
000b
ffeb
fff8
0010
fffe
fffc
fff7
001c
fffb
ffe9
0006
0010
fff8
0006
ffe9
fff0
ffd7
0006
ffe8
000d
fff6
000d
001d
ffed
fff9
0002
fff8
fff4
000f
0006
ffff
ffee
fffe
fffb
0000
0006
ffed
0015
ffe8
fffd
0008
0015
0000
001b
fffc
0002
fffa
0008
fffa
ffff
0014
000b
ffdf
fff7
0004
ffff
ffe6
ffc2
fff6
ffe5
0016
001a
fffd
000c
0007
0020
fffe
ffe7
0011
fff4
000b
0004
ffdd
0019
0018
001d
ffed
ffe9
ffeb
000d
0010
001c
ffe4
fffc
0003
000d
fffc
0006
fffa
ffec
000e
fff9
fff2
000a
0017
ffce
000b
fff6
0001
fff1
000d
fff1
0013
0027
0005
fff1
ffe5
000c
fffa
0000
001c
fff1
0008
000f
fffa
fffa
0011
ffe9
0002
fff3
fff0
fff6
0012
0006
0004
fff5
fffe
001d
ffed
0003
ffee
0016
0003
001b
0019
fff5
0007
fffd
fff1
0012
fff7
fffe
0001
ffea
002d
ffed
fff5
0003
ffef
fff2
000b
ffff
ffec
fff2
ffff
fff8
fffc
fff0
fff5
0014
0000
0007
fff5
0016
ffef
ffe5
0006
0010
ffe8
0020
0011
001b
ffd6
0033
fffb
0017
0009
fff3
ffe1
0006
ffe5
001c
ffe3
0009
0001
0011
0008
0008
fff6
fff6
fff2
000c
0011
fffe
000a
0030
000d
ffec
000d
0001
0013
ffff
fff8
0002
000d
fff9
0005
fff9
fffd
0028
0006
fff3
fffb
002b
ffef
fff0
fff9
0005
0007
0012
fff3
fff2
000a
fff4
0023
0014
fffc
fffe
000e
001b
fff2
0020
0008
ffd6
001b
ffe8
fffd
000e
0014
fff0
fffe
ffff
fffc
fff9
fff5
ffef
0019
ffed
ffe2
fff7
0027
001c
ffe9
fff9
000b
fffb
000b
ffee
ffde
ffeb
fff5
ffd6
001c
fff7
fff7
fffa
fff8
0006
ffdb
000a
0000
ffec
fffe
0004
000d
fffa
0008
fff4
0007
ffe3
0003
fff3
0005
0007
fff5
000b
ffe4
ffed
0007
fffd
fff5
ffec
ffef
000b
0012
0001
0010
0013
fff1
0002
0007
fffc
001f
fffd
ffe2
fff5
0011
0010
0015
ffea
0017
ffed
0009
fffe
0002
0009
001f
0007
fff8
ffe3
ffe6
000c
001a
ffef
0015
0004
fffc
000c
0013
fffc
ffe4
000f
000e
000a
000b
0000
0008
0009
000b
fff7
fffc
0004
0006
0001
fff3
fffd
ffe8
0012
fff3
001a
fffa
fff8
ffe9
fff1
fff1
ffec
0012
ffef
fff6
fff8
000d
ffef
000f
000c
ffe8
0002
000e
fff7
0001
fff6
fff7
fff6
0000
fffb
ffe8
ffe5
0002
fff1
ffe8
0012
fffa
fffd
001d
fffb
0003
0004
0012
0011
fff8
fffd
fffe
0011
ffff
0005
fff6
000d
0014
ffe5
fff5
0001
0003
0001
ffeb
fffc
000c
0000
ffe9
ffec
fffc
0003
fffe
0007
000d
001e
0010
0014
fff5
ffff
fff7
ffff
0000
0014
000d
fff5
0008
0012
fffd
fff8
0004
000b
0005
fffe
fffa
fff6
0005
ffea
0001
fff4
ffd5
ffd4
0000
0013
ffee
fff0
0003
0004
0001
fff0
0012
ffdb
000f
fffa
fffe
000c
fffa
0009
0007
ffff
0012
fff6
fff7
0016
0006
0002
fffd
ffe9
0002
fffd
000f
0009
000f
ffeb
001b
0008
ffe9
ffd7
0015
fff3
000d
fffb
0001
fffa
ffef
fff4
0005
fffc
fff5
0004
fffe
000b
0013
fffc
fffe
fffa
fff4
0003
fff7
000d
fff7
0000
fffc
0006
fff1
fff8
fffe
0008
001b
ffee
0002
0014
000c
0011
fffe
0003
fff1
0016
0006
000f
ffee
0009
0006
0012
000c
fff7
fff7
ffff
fffa
0006
ffff
fffc
000a
fffb
ffed
0016
0000
0018
fffd
fff3
001a
ffff
fff6
0002
0002
fffb
001d
0019
ffdc
0009
fff0
0003
0009
ffee
000a
000e
000a
ffda
0011
fffa
fff7
fff2
0001
fff1
fffb
ffff
0006
fff8
0000
fff6
0003
001d
0017
0016
000d
fff3
000c
0006
fff3
0009
000c
0014
000d
fff9
0001
000a
fffe
0001
0006
fff4
000b
0007
fff2
000d
fffe
fffe
fff7
0018
000a
fff8
fffe
0007
fff7
ffec
fffd
0003
0001
fff1
ffec
0005
fff0
0004
fff4
ffe4
0003
0011
fffa
0005
0005
fffc
ffe7
0007
0014
0001
0004
0010
fffe
fffe
000b
fff2
ffd5
ffdf
0037
000b
0005
fffd
fff4
fff6
0005
0001
0004
ffe6
ffef
0007
0010
ffef
0003
fffa
0026
fff1
ffdd
0014
000c
0015
ffe8
ffef
ffeb
0014
0003
ffe1
0016
ffdd
fffc
0015
ffe4
001f
001c
fffc
ffec
ffec
fff3
0012
ffec
fffc
fffd
fff8
0001
ffe5
fffc
0001
0002
fff3
ffff
0007
0009
000e
0002
000f
fff7
fff6
fff2
ffea
0007
ffef
000f
0009
ffed
000b
0003
fff6
fff7
fff5
fff7
fffe
fff4
000d
0013
0002
000a
fff7
fff2
0000
0003
0014
fffb
0003
fffa
0007
0003
ffe6
000e
000d
0016
0000
000a
0009
fffe
fff8
0009
0008
fffb
fff7
fff5
0004
000b
fff7
fffb
0012
fff0
fffb
fff5
fffe
ffe5
fffa
000b
0000
0011
fffb
fff7
fffb
0018
001e
ffff
000f
ffff
fff8
ffee
0009
fff6
0013
0004
fff6
fffe
0009
fff7
000e
001f
fffa
fff2
0016
fff4
000c
fff2
fff1
fff2
fff9
000a
fffb
0014
001a
0008
000c
0009
0008
000c
fffd
fff9
001c
ffff
fff0
fff1
fff6
0001
fff9
fffe
000a
fff6
0005
fff8
fff9
fff8
fff3
fff9
fff9
0016
000d
fffc
fff5
fff8
0004
fffc
fff7
fff4
0007
0005
0011
0001
0000
000f
0007
000e
ffea
ffe9
fffa
0008
fffd
0005
0003
0009
0004
ffec
0016
fff9
fffa
0007
0004
ffe5
fffb
0007
ffef
001f
0008
0002
fffe
0001
000f
fffd
fff1
000c
fff5
fff9
ffef
0001
fff3
000a
fff9
000b
0003
ffff
ffeb
fff5
ffef
ffec
fff5
0014
0002
000e
ffdb
fff2
fffe
fffd
fff8
0004
ffec
fffd
0003
000c
0003
0007
fffd
fff5
fff3
fffc
0008
0011
001a
000f
fffb
000c
fffc
ffea
0018
fffc
000b
0006
fff1
fffa
0006
fff0
ffe6
fffe
0008
ffec
0002
ffec
fff9
fff0
ffe6
fffe
fff5
000b
fffc
0004
000a
0015
ffee
0005
0020
000f
ffff
0006
0010
ffef
0000
fff2
ffee
0016
fffd
0006
0013
fff5
0004
0000
ffef
0005
000f
fff2
0000
ffff
0008
0009
0008
fffb
000d
0015
fffa
0011
0014
0003
fffa
0002
fffb
000d
fff9
fff8
0003
0004
0004
0000
0019
000c
0001
0004
0012
fff2
fffd
0017
000c
0003
fff6
0007
0009
0004
0000
0000
0006
fffb
000a
ffff
fffe
0006
000a
0001
0001
fffc
0004
fffa
0003
fff2
ffec
ffff
fffa
0002
0009
fff3
0004
fff9
fff7
fffa
0004
0004
fffb
ffff
0002
fffe
000f
fffd
000b
fff1
0012
fff8
000f
000e
000d
0010
0009
0000
fffa
fffc
0003
fff7
0013
fff9
0004
000a
fff8
fff5
000d
fff1
0002
fffa
000d
000c
0011
0006
0008
ffff
fff6
000d
fff9
0006
0006
fff1
fffe
fff9
fff9
0000
0012
fff3
fff8
ffff
0012
0000
000b
0007
0004
fffa
fff4
0007
fffd
0001
0005
fffd
ffff
fffc
fff7
fff4
000d
0000
0003
fffd
fff7
0001
fff9
ffed
0000
fffc
0001
fffb
fffc
000d
0011
fff8
0008
ffef
fffb
0004
000d
0000
ffff
fff8
0004
fff2
0008
fffd
0001
fff7
0003
0002
0003
fff1
000b
fff7
0008
0003
fffa
fffa
0002
0007
0011
fffe
0005
0008
fffc
000b
000f
0000
fff2
fffe
fffb
0002
0003
0001
fffc
fff6
000b
fff9
0011
fffc
fffe
fff7
0011
0001
fff3
fff3
0004
0001
fffe
fffe
0003
0004
fffe
0006
0006
fff0
0004
0000
fffd
fff5
0005
0001
0006
fffa
0002
0004
fffd
0009
0001
fff6
0004
fff2
fffb
ffff
001a
0004
fffb
fffe
000a
0010
0000
fff7
fff6
000e
0004
fff8
0001
0007
0005
0006
0000
0003
0004
ffed
fff5
000a
0001
fffc
000d
0004
fffa
0008
0002
000a
0009
0000
fffb
0008
fff4
0001
0009
0001
fff8
0007
fffb
fff3
ffeb
fff9
0000
0007
fff6
0002
fffd
000e
0001
0001
fffd
fffc
ffff
fff4
000c
000d
000e
000c
0005
fffd
fffd
0003
000c
0009
0011
000a
0007
0003
000a
fffa
ffed
0000
0002
0004
fffb
0004
0004
fff9
fff2
fff9
0000
fff9
0006
fffe
0009
0002
fff3
0004
fff8
ffea
fffc
000e
000b
000e
fffa
ffff
0009
fff5
0015
0004
0003
ffe9
000f
0006
fff7
0009
fff2
0018
0006
ffea
001f
fff9
0018
0012
fffb
fffe
0013
ffeb
ffff
ffff
0024
fffb
ffff
0001
0005
ffd5
0019
fff8
fffe
0000
0013
0019
fff3
0028
ffe3
ffea
0006
fff2
0018
0000
fff0
000c
fff6
0001
0008
0004
fff9
001f
fff8
fff8
0008
0013
0015
ffea
0015
fffc
fff7
fffc
001e
0027
fff8
0002
001f
000d
0009
fffb
ffdb
fff1
0006
fff9
0011
000b
ffe1
fff0
000c
000a
0006
0008
0005
fff4
0007
0013
000a
000f
0025
ffee
0007
fff4
fffe
fff9
0005
ffff
ffee
0017
0004
fffb
fff9
001b
000d
0017
0008
0008
0013
0001
0006
0009
0017
ffe8
0007
0006
0005
0010
ffef
0013
0027
fff8
fff4
0009
000c
000c
001c
0001
ffe4
0008
fff6
fffb
0013
0017
fff0
0003
ffe8
000c
000a
001b
0001
fff0
fffe
001f
001e
fff7
ffe7
fffe
ffdb
fffc
ffe3
ffd7
fffd
0003
0009
ffe8
ffe5
000a
0012
0002
0002
fff4
0001
0005
0010
0009
0004
0007
fff3
ffec
000b
ffe3
ffec
fff7
fff4
ffed
000f
ffff
0001
ffe9
0016
fff7
ffee
0003
ffe7
000a
ffde
001c
fff6
ffd1
0004
ffe6
0015
ffe3
0006
ffe3
0001
fff7
0018
fffc
000f
0000
fff9
001e
0001
ffe7
0029
0003
fff7
0027
fff9
0008
fff7
ffe5
fff5
fff2
000d
ffe5
000a
0024
0025
ffdf
ffef
0007
0021
ffe3
0013
0004
0007
0018
002a
0005
fffd
001a
fff1
0000
ffe6
ffe7
0008
fffe
003d
001d
0001
fff1
fffa
ffef
fffa
fff1
fff2
ffe1
000d
0014
0011
0004
0012
fff6
fff1
ffe5
ffe4
fff5
ffec
fffb
000f
ffef
fffe
0007
001a
000b
0009
fff3
0016
ffff
001a
0004
fff9
000b
001a
0006
0013
0008
000a
fffb
0014
000b
fffd
000c
ffef
fff2
001d
ffe8
fff2
0008
0000
fffa
0007
0001
fff0
fff6
fff4
fff0
ffee
000d
ffff
fff9
000d
fff6
fff5
fffc
000c
ffea
000b
0009
0004
fff1
fffe
0018
0000
0005
fffa
fff6
0009
000e
fffe
0010
fffd
fffe
000e
fffb
fffb
0007
0010
ffee
0016
000b
fffe
ffe9
000a
ffef
fffc
0000
fff9
0002
0002
001d
0000
0006
000a
ffff
0015
fffb
000c
0008
ffff
0001
0014
fff1
000a
0009
0009
0009
ffff
0008
fff2
0005
ffeb
0007
fffd
fff8
0012
0016
0022
0019
0005
fff6
0000
000a
fff0
ffec
fffc
fff9
fff8
fff9
0008
fff1
ffff
0000
fffe
0004
ffec
000e
fff3
fffb
fff1
0005
0009
000f
ffe4
000b
fff2
0017
000f
0010
fff7
fff8
fff7
000f
ffff
fff0
ffef
000e
0009
0007
0005
0007
fff7
0009
0000
fff5
fffd
0004
000a
ffe7
0005
001e
0004
ffe9
0007
ffe8
0010
0002
0015
fffc
0005
000b
000b
ffea
fff7
0005
0010
fffc
0003
0008
ffe5
ffeb
0001
ffec
ffee
ffeb
0007
000a
000d
fff8
fff6
000c
000f
ffff
fff2
0003
000d
fffc
0000
0012
0002
fff8
fff3
000d
0008
fffe
0011
0004
fff7
fffa
fff8
fffd
0009
0012
000c
0001
fffc
fffa
fff2
0001
000e
fffb
fff2
ffef
0006
ffff
fff7
ffeb
fff5
fffb
fffe
fffc
0011
ffff
fffe
fffb
ffff
000a
ffe7
fff7
000a
000b
fffe
fff3
fffd
fffc
0001
0007
0004
ffec
000a
fff0
0002
fffe
0010
fffd
fffa
fff5
0009
0001
fff3
0007
fff3
fffa
0006
fff9
000f
fff8
0004
0004
fff2
fffd
000c
fff2
fff5
000e
0016
fff9
fffe
0007
000e
000c
0012
fff0
fff3
000f
fff4
fff4
fff3
0009
ffff
0002
fffb
000a
0002
0005
0002
fff4
0006
0009
fff9
fff6
fff8
fffb
ffff
0006
fff7
0000
0005
000f
0010
ffe8
001a
fffa
ffe7
fffb
0001
000b
fff5
0020
ffef
0028
fff6
0007
000d
001a
ffe4
000c
ffe4
ffff
fff7
ffe6
ffeb
ffd4
0016
0011
0000
fff9
000b
0021
fff0
0003
fff0
fff6
fffb
0025
001d
fffc
0018
ffec
ffee
fff2
ffee
0032
0009
0008
0016
0005
0007
0004
000f
fffc
0029
0005
000b
0014
0020
0015
000b
fffe
ffe5
fffe
000e
ffef
000e
0024
000a
fff9
ffec
ffe7
001d
0000
fffd
ffe3
fff4
fff8
0013
0011
0018
ffea
0020
0007
ffe8
fff9
0012
0021
fffb
0013
fffd
fffb
ffe0
000f
fff9
fff4
0014
000b
0002
fffc
001b
0005
0011
fff0
0013
fffe
fff4
001b
0006
ffe2
0005
fffc
fff8
fff6
0011
0001
ffe5
ffea
0021
fff8
0008
fff5
0013
fff9
0015
0005
000f
ffdc
ffe6
0008
ffed
fff3
ffe5
0006
ffde
fffa
fff3
fff8
000d
0001
ffe6
ffd7
fff1
fff8
fffd
fff1
000b
000d
0006
000e
001b
ffff
0000
fffd
000b
0012
0001
ffed
ffe5
0015
fff3
ffe5
fff0
0003
000c
ffeb
0016
0009
ffe0
0007
0005
0007
0014
fff3
fffc
fff6
0002
fff8
0015
fff8
fffa
0017
0014
0018
fffa
fff3
fff6
ffe6
000c
0007
0012
0012
0011
fff7
ffff
ffff
000b
000e
0001
0002
000f
fffb
000a
000d
ffe5
000f
ffea
0014
0018
0011
fff1
fff8
0002
0018
ffec
001b
0001
ffe8
fff1
0016
ffff
fff8
0016
0018
0003
fff1
0006
fff7
0007
ffff
0000
fff2
ffeb
0002
0007
000a
ffee
0003
fff5
ffef
fff8
fff6
000a
000d
001a
0007
0006
fffe
fff9
fff5
fff8
0013
000d
0013
ffdb
ffed
fffb
0013
ffe1
0020
0014
fff9
fff9
0017
fffd
000d
0013
fffb
fff4
ffec
0001
ffe3
ffeb
0008
fff8
0002
ffff
000a
fffa
fff9
ffeb
fffc
0008
0008
ffe9
000a
0007
fff5
fff6
000a
fffc
fff0
fff9
0004
000d
0008
0004
ffe9
0002
ffe5
0003
ffec
000d
0004
ffee
fff6
0000
000b
fff6
ffff
0004
001d
000d
0002
0007
000a
fffc
fff9
0003
0003
ffe1
fffb
fff2
0002
0005
000d
0012
0007
ffe7
ffff
fffb
fff2
ffee
0004
fff7
000f
000f
0004
fff2
fff6
000a
0010
ffff
fff9
0016
fff9
fff2
fff5
fff5
0003
fff0
fff6
fffc
0001
000a
0002
fffd
ffed
0014
fffd
0005
0016
0004
ffdf
0006
0001
ffef
fffc
fff1
0000
0003
000f
fff9
ffed
ffe7
fffd
ffe3
fffb
fff8
0006
000d
fffd
0011
001a
000b
0004
0014
ffef
fff7
fffc
0010
fffc
000f
0012
fff8
0008
ffe2
0005
0011
0000
0007
fff7
000a
0006
000a
fff8
ffe9
fffc
fff2
000c
fffd
fff8
0006
fff4
ffe7
0015
fffc
ffef
0001
fff7
0011
fff7
fff6
ffff
0000
fffc
fff5
fff6
000d
0009
000e
0002
0005
0010
fff9
fff8
0006
000f
fff4
ffff
0007
0009
0003
0006
ffef
fff3
fff6
0013
0014
0000
0016
0003
000c
fff5
0007
ffe7
ffe3
fff7
0000
fff6
fff1
0000
001a
ffe6
ffff
0009
000f
fff8
fffc
0020
ffee
001c
fff5
000e
fff8
0001
ffec
ffe4
fff6
0009
0005
fff0
ffee
ffe9
001a
0010
001b
0023
fff3
0007
0006
0007
fffd
ffe8
0002
fff1
fff6
000c
fff9
fff8
0015
000c
fff1
0004
ffef
fffc
0003
000e
0003
fffa
fff8
fff8
0006
fff4
ffe6
000c
000e
ffec
fffc
000f
ffd2
fff7
0011
ffdb
001a
fff5
000a
0003
fffc
000c
fff3
000f
fff1
0018
fffc
0006
0002
000f
fffd
fff2
0002
0016
ffed
0003
fff9
0017
0003
0010
fff6
0001
fffd
fff7
ffe7
fff9
ffeb
fff1
000c
ffec
0004
ffeb
ffe1
0004
0010
0001
000d
ffff
000b
fff4
0010
fffb
0012
0000
0001
0000
fff3
fff4
0013
0010
ffee
fff1
000f
0025
fffe
fffe
fff1
ffef
0013
0007
ffe8
0025
fff9
0008
0006
001a
ffea
000b
ffe6
fff3
0003
fff5
fff4
0021
ffe5
0008
fff1
ffef
000b
0001
001c
000a
ffe7
0022
ffee
ffea
ffee
fffb
fff7
000b
000d
000a
ffdd
000d
000a
fff4
0019
fff1
0000
0015
000a
ffe0
0010
fffe
ffe8
fffb
001c
ffe7
fff7
ffeb
ffee
fffd
001f
ffe2
fff3
0001
002f
fff2
ffff
fffc
0025
ffff
0016
000f
0019
001a
ffd0
ffff
fff8
ffeb
0008
0011
ffe9
001e
ffe9
ffec
fffd
0028
ffef
0006
0015
000a
fffc
fff9
001e
000a
fff6
ffe8
0008
0003
0002
0012
fff2
fff7
fff5
0007
0001
fffa
fff0
ffee
0005
0006
fffd
ffff
0006
000a
000a
ffff
fff1
fff0
fff0
fffc
0014
0009
002c
0006
ffe3
ffee
ffe5
0012
0005
0010
ffda
fff2
0004
0006
0004
fff9
fff1
ffea
fff4
0010
fffa
0016
000b
fff9
0017
0008
ffec
0003
0009
0012
ffde
ffef
0001
fff4
000c
0025
001e
fffd
ffe6
fffc
ffec
0006
0017
fff1
0017
0001
ffee
0001
000d
fff9
0001
0015
fff8
0005
ffec
000c
0008
0012
0008
001e
0007
fff8
0003
ffee
ffff
0022
0004
0003
0001
0007
0018
fffb
fffd
ffeb
fffa
ffe6
ffea
0009
0027
fff7
fff8
fff7
0011
0012
0014
0014
fffd
ffea
ffff
ffea
000c
ffe7
fffb
fffe
0038
0003
0004
000a
000b
ffde
fffb
ffe5
ffeb
fffe
000a
0013
0000
000e
000c
fff0
000a
000e
fffb
ffeb
0008
fff1
001a
fff5
0026
0003
0004
0009
fff8
fff6
ffe8
0000
fff4
ffec
0016
0022
fff4
0016
0005
000a
fffd
0002
000d
fff9
fff4
fff3
ffdc
0018
0002
ffe7
fffb
fffe
000b
ffed
0013
0021
0015
0020
000a
0023
ffe3
0017
ffeb
000a
fffc
001c
0018
ffee
001a
fff1
0001
ffdd
ffe7
0017
ffe6
000f
fffd
001f
ffe1
fff8
fff7
ffe9
0007
0004
fff4
002a
000b
001d
fffd
0004
0013
ffd5
fff4
0020
ffff
000d
0019
0016
ffee
fff7
0012
0040
0010
001b
fffc
fff6
ffe9
ffed
0008
0016
fff3
001e
ffec
ffdd
fff9
0006
fff4
fff3
0012
ffec
0023
ffee
ffff
0017
0003
0018
0013
fffa
000e
000b
0009
000c
001e
0020
0009
002a
fff5
ffe5
0008
0011
ffd9
0011
001f
0003
ffd2
000a
0017
fffc
ffee
0001
0002
fff6
ffcc
0008
fff8
0018
0028
000b
0014
ffe8
ffde
ffe8
0002
fffe
ffea
ffe8
0017
ffec
ffef
fff0
0014
0002
0008
ffed
ffef
0012
fff7
ffef
ffd4
001f
fff2
0005
ffe1
0007
0016
fff4
ffee
000e
0002
0011
ffe5
0008
0013
0015
ffde
0018
0013
0003
000b
ffff
fff4
ffe3
0007
001e
0004
000e
ffe8
ffe5
fff0
0021
0011
0024
000f
000f
ffe2
ffe1
fff4
ffed
0008
0009
0004
0010
000d
0013
000e
ffe4
0007
0013
000a
ffee
001a
000e
0006
0016
fff7
ffec
0013
0002
ffef
ffee
fff0
0013
fff6
000a
000c
fffa
fff2
fff7
0014
0002
fff0
0025
0015
ffef
ffe9
ffff
ffef
0004
0009
0026
fff7
0000
fff1
ffd9
fffb
0018
0008
0009
001f
000c
0002
0008
000d
ffff
001e
ffe6
ffec
fff3
fff9
0007
ffec
0014
ffdb
000a
0014
000e
ffff
000d
fff9
fffc
0018
0000
fff9
fff2
ffff
ffff
fffb
ffed
0025
fffe
0005
0005
0007
fffb
0006
fff2
fff0
ffed
000a
fff5
000f
000f
fff2
fffc
0008
fff9
fff6
0004
0006
0006
fff0
0008
ffeb
fff2
0008
fffa
0008
0010
0009
fff6
fff8
fffb
ffef
0013
0013
fff6
0011
000f
0002
000d
0004
fff7
000b
fff8
ffeb
ffed
fff8
ffec
fff7
000b
0011
0016
0015
0013
ffef
fff6
fffd
0009
fff6
000a
fffd
fffb
0002
0007
0004
0004
fffa
0006
fff8
0004
0008
fff9
fffa
ffff
fff0
fff9
fffb
fff8
fff7
ffee
0008
0005
0002
0007
0007
fffe
0005
fffe
ffff
0006
0008
ffff
fff6
fff7
0006
fff6
0001
fff9
000f
0009
000d
0006
0004
0004
0002
0000
0000
fff9
fff9
fffc
0007
0000
0002
0009
ffff
ffff
fff6
0000
0001
ffff
0001
0000
0003
0000
fffe
ffff
fffb
0005
fff7
fffb
fffc
0004
fff8
0009
fff9
fffb
fff3
fff8
fffb
fffb
0006
fff9
0002
ffff
fffe
0001
0000
0003
fffc
0001
0004
fff9
fffa
0003
0000
fffc
ffff
ffff
0001
fff6
fffb
0005
fff8
0000
fffb
0008
0006
fff6
fffb
0003
0000
0005
fffe
fffa
0005
0006
0002
fffa
000e
fffb
0007
0004
0002
0006
fff6
0009
0002
0007
0003
0007
000a
fffe
0000
fff8
000a
0004
0008
0007
000a
0001
0000
0005
ffeb
0019
000a
fff9
ffdb
ffec
0003
0008
0005
000d
ffe5
000f
0009
0018
fffa
ffe7
000a
fffb
ffec
000d
000f
ffdf
fffc
fffd
0018
000f
fff2
0001
0009
fff9
000b
fff8
001b
0013
ffff
0010
fffe
fff0
000c
fffa
0023
ffeb
0007
0007
fff6
0005
0013
fff1
fffa
fff6
0000
ffef
000f
fffd
0000
000f
0018
000f
0005
0009
0009
0003
001c
0012
000f
0009
fffa
0009
ffeb
fffb
ffff
ffea
fff0
ffe6
fff0
0007
fff6
ffdf
0001
0000
0006
fff4
fff3
fff2
0003
fffa
fff6
ffff
0013
fff5
0012
0013
fff3
0006
fffc
fffd
ffe8
0009
fffd
fff0
fff4
fff9
0010
000e
000b
fffa
fff2
0000
0004
fff0
fff9
ffe9
fff7
fff9
0000
fff1
000e
0007
0001
fffa
000b
000e
0004
0020
fff3
fff3
fff2
fff4
000d
0017
000a
fff1
fff2
fffd
fff7
000e
fffd
0009
000e
ffef
fff5
0002
fff5
0004
fff4
0006
ffef
0010
fff6
fff0
ffff
fffd
000c
fff0
ffff
000f
000c
ffe9
fff7
fff2
ffdd
fff2
0016
0005
fff3
fff4
fff0
001a
ffff
ffe9
0002
0005
fff3
0007
0009
fffe
fffd
fffa
fffe
fffa
000e
fff6
000e
001b
000d
0007
fffa
0002
0003
ffee
ffef
000c
0012
fffe
0009
ffef
ffe0
ffee
ffeb
0015
0008
ffee
000f
000e
0012
fff5
0003
0005
0005
ffee
0010
0004
fff8
0000
fffb
0006
000a
0004
0012
0002
fffd
0006
fff6
0001
fffc
fffa
0007
0003
0006
ffed
0004
0008
fff2
0003
fffe
0001
fff3
0006
fffe
0017
fff7
000b
fffd
ffe7
0002
fff4
fff4
000e
0015
0001
000f
000a
ffd8
0018
fff8
0001
ffed
0010
001a
0007
ffee
000f
fff8
000a
ffe8
fff2
000c
0005
fff7
0007
0004
0022
0002
fff3
000d
0012
0001
fff6
000c
fff4
ffea
ffe4
0019
0004
fff5
0007
fffc
fffa
fff2
fffa
0000
0003
fffc
ffed
0011
fffd
000b
fffa
0020
0011
ffe8
fff1
ffe8
0005
000a
000f
000a
ffee
0005
0015
fffa
0005
000c
0008
fff0
fff0
000c
0019
0012
0011
ffe0
0015
0021
0008
fff8
0011
0005
ffef
fff5
0007
0006
000e
ffdb
fffb
ffea
fff5
fff3
0015
ffe8
000e
0011
0016
000d
000f
0008
fff3
0001
0018
fffc
000f
ffe6
0013
ffe1
ffe5
001d
fff4
0000
0015
0002
0017
ffe1
0014
0016
ffe9
ffeb
0004
fff0
fffa
fffd
fffb
fff2
fff5
0001
0003
0008
0018
fff9
0013
fff8
0010
ffe2
0009
fff0
0002
fff0
000b
000d
fff8
fffa
0009
000d
0005
0002
0005
0006
0010
fff3
ffe7
ffe9
0009
0006
fff5
0003
fffa
fff5
0007
000d
0012
fff9
fffb
0000
ffff
001b
0004
0000
0013
0015
0000
fff8
fff2
fffc
fffd
0005
0001
fff4
0008
fffd
0005
ffeb
fff2
fff3
ffec
fff2
0001
000a
fff7
fffb
ffe8
fff4
fff7
fffe
0005
0011
fff1
fff7
0009
001b
0000
0017
0026
000c
fff1
ffef
0013
0007
ffed
0004
fff7
000b
000d
000e
ffff
ffec
fff4
fffa
fffe
fffc
0004
0005
0010
0007
fff9
0023
fffe
0005
0002
fff0
0004
0007
ffff
fffb
fff8
0006
ffef
0014
0009
fff2
0013
ffec
fffe
0014
fff8
0008
fffb
0003
0000
fffc
000a
0000
0000
fffe
fff6
fff9
fff2
0009
fffc
0019
0007
000d
0003
000c
0003
0000
fffd
000b
fffb
0011
000b
0007
0008
0004
fff3
000f
000d
fffe
ffdd
fff8
ffe2
0007
fff9
0004
fffa
fffa
fffc
fff8
0006
000d
0000
fff6
000c
0008
fff1
000f
0009
0006
fff5
0001
0011
0012
000b
ffef
fff2
fff3
fff9
fff9
000c
fffb
0013
fff7
fff3
fffb
0008
000f
fffc
ffe9
0011
0000
000e
0007
000f
0021
0014
fff9
fff2
fff7
ffff
0004
0009
0015
fff8
0012
ffff
fffb
000d
0004
fffc
ffe7
fff8
fff4
ffff
fff6
0027
0011
0023
fffe
fff3
ffe6
001d
ffe9
fffd
000a
0001
0010
000e
0011
fff8
fffd
000d
fffe
fffb
fff8
fffa
fffa
fff4
fff6
0002
000f
ffdf
000b
fff0
fff7
0013
0016
0003
fff5
ffe9
0010
fffd
000a
fff6
fff1
0006
000f
000a
fffb
0001
0000
0000
001a
0000
fffa
000a
0007
fffe
0013
fffe
0017
fff4
fff0
0006
0008
0010
0007
0000
ffe4
fff1
fff3
ffef
fffd
001c
0010
0001
fffb
0010
0005
0003
fffb
ffec
0005
0008
fffb
ffef
0002
ffe7
0001
fff2
0019
0019
fff5
ffea
fffe
0012
ffe7
0008
fff8
000b
ffef
0008
fffe
0012
fff8
0000
0017
0003
fffc
fffb
0004
0009
000c
0008
000c
001f
fff6
fff6
0010
0013
fffa
fff2
0005
fffc
fffc
0015
ffe9
002a
0007
fffd
0016
0003
0004
0009
0006
ffe8
ffec
000a
fff8
fffa
fff4
001d
000c
fffa
fffc
ffe7
fff1
001d
0009
0000
fff1
000e
0002
0001
fffd
ffe3
fffc
0012
ffea
ffe3
ffd6
001e
fffa
000d
ffeb
0010
fff2
0012
001e
fffd
0002
0008
001a
0008
fffc
fffc
ffec
fff7
fff1
001c
ffee
fff4
fff8
ffe2
0022
000b
0016
0009
0024
ffed
fff6
fff6
0005
fffe
fffa
ffee
fff6
fffd
0019
000c
fff3
003b
ffde
0013
0001
ffe3
0008
0001
ffee
fff7
ffdc
fff5
0025
fff9
000f
ffea
0014
ffdd
0004
0012
fff4
fff3
0003
fff2
ffff
0013
fff6
0000
001b
fff5
000c
0006
fff3
002b
fff1
0003
ffeb
000e
fff5
0009
0008
fff7
ffed
ffda
fff5
000e
0012
fff9
000a
fffa
fffe
ffe2
fffb
fffa
0006
fffc
0015
0008
fff5
001e
ffec
ffe3
fff5
0014
000f
fffd
ffe4
ffe9
fff9
fffe
0017
ffdd
0016
0025
000a
000c
001a
fff9
fffa
000a
fff4
fff0
000e
001c
000c
0005
ffe5
001d
0012
fff0
0006
ffff
ffff
fff0
ffe2
ffe5
fff2
fffe
0017
ffec
0006
fffe
0017
fffc
000f
001c
000d
fffb
000a
0018
0008
ffec
0004
fff3
fff4
0024
fffc
ffee
fff1
0011
0001
fff6
ffed
0011
ffdc
fffb
ffec
0019
fff8
fffc
ffde
0009
0013
fffd
fffa
fffe
fffb
ffee
0016
fffa
ffec
001a
ffe1
001a
fffe
001e
ffee
fff0
0021
001a
fff4
0000
fff4
fffd
fff5
0000
0002
fff5
fff6
ffea
0006
0000
000a
0002
fffe
fff1
fff3
fff2
fff4
fff9
fff5
fff7
0007
0003
ffe6
0021
000a
ffe9
fff5
fff6
0000
fff9
0000
0007
0001
fffa
000f
fffb
0009
fff8
0013
fffe
fffa
0007
000f
fff0
fff5
0014
001f
000d
0019
0013
0009
0012
0006
0011
ffe1
ffe5
0002
0000
000c
0008
0016
000e
000d
0021
fff2
fff6
0025
ffdc
0003
fffa
0000
0012
0015
000b
0001
000f
fff4
ffff
0004
000b
fffd
fff9
000b
0009
fff9
fff8
0000
0005
0008
0007
000c
0003
fffe
0017
002c
000a
fff3
0011
fff9
ffff
0006
0003
0009
fff9
fff3
fff7
000d
0007
fff0
0007
0005
ffe9
0008
0002
0015
0016
0000
000e
fffe
0007
0002
0007
fffc
0007
fff1
fff8
fff2
fff8
0006
0002
0008
0002
0001
fff6
fff4
fff4
fff5
0006
0002
0008
001b
fff7
0001
0007
000c
ffed
0006
0008
fffb
ffe7
000b
0000
fffc
ffec
000b
fffb
ffef
fff6
0004
001a
000b
fff8
fff0
fffa
000e
fff9
0003
fff2
fff2
0005
0000
0000
0002
fff0
fff9
fffd
0000
fff1
ffff
000c
ffed
000f
0012
0001
fff8
0022
0015
fff5
0006
fffe
0015
fffe
fffd
ffeb
fff0
fff9
fff2
0013
0002
000e
fff2
fffb
0003
fff2
0000
fff9
000f
fff7
fff1
0004
0004
0006
fff7
fff7
0019
0008
fff9
0000
ffeb
0000
fff6
0020
0007
000f
0002
0030
fff7
0011
000e
fff4
fffe
ffee
fff9
fffe
000b
0017
fff5
ffef
0002
fffb
fff2
0002
ffef
ffe5
ffee
0012
0007
ffef
fffd
ffeb
fff2
0009
fff9
0010
0005
fffc
000b
0005
fff1
001a
ffdc
0002
0001
0001
fff9
000c
0015
0005
001a
ffde
fff0
fffc
fff2
0003
001d
0004
ffe5
fff7
0009
0002
0014
fffe
0011
000d
fff8
ffe6
0019
ffee
ffee
0008
ffee
ffe4
ffe4
000e
0007
fff1
000d
000a
0002
fffb
0000
0017
000a
fff6
fffd
ffe8
fff2
000b
fff5
000e
0002
ffe1
0007
0007
ffec
ffec
fffa
ffe7
fff6
0000
001e
0005
0005
fffb
fffa
000a
000d
0009
ffff
fffa
fff0
ffde
0019
000e
001d
0005
0008
0003
fff1
0014
0003
ffe4
0006
0007
0005
ffdd
fff8
ffff
fff1
0003
fffe
fff9
ffed
000b
ffe3
000a
fffb
0002
0003
0007
fff6
ffff
0006
0008
fffe
fff4
0008
0001
0003
ffef
fffd
fff3
000b
0009
fff4
fffa
0010
0004
fff9
fff4
000e
0011
fff9
fff0
000a
0006
fff7
fffc
0005
fffc
ffff
fff7
fff9
000b
fffc
fffc
000e
0006
fff5
000a
0005
000d
fff5
fff2
000a
0010
fff3
0009
fffe
fffe
ffff
000d
0017
000d
000a
fff2
0010
fff9
0005
fffb
fff9
000c
fffe
fffa
fffb
fff1
fffe
fff6
fff9
000a
0007
fffb
0005
fff5
000c
0001
fff3
fffe
fffb
0008
fffa
fffa
fff8
0007
fffc
fffb
ffe7
fff6
000b
fffe
fff2
fffe
fffb
0003
000b
000d
0010
fffd
000b
001d
000b
0008
fff6
0002
fffc
000f
0006
0007
0003
fff1
fff9
ffff
fffe
ffee
fff4
0007
fff7
fffc
0001
fff4
0006
0003
0005
000d
fff9
000b
0011
0005
0013
fffa
0009
0008
fff1
0009
000d
fff0
0007
fffd
fffa
ffff
0009
fff1
0000
001f
0009
fffa
fff7
fffc
0002
000a
0006
fff9
0011
0023
ffde
fffb
0021
ffea
0002
0004
fff2
fff8
fff5
0000
fff3
0003
fffc
fffe
0002
ffea
fff8
0005
fff2
0000
0007
0018
fffe
0012
0002
fffc
0000
0017
0012
0001
0002
0017
fff6
fffc
ffe6
fff2
0008
ffff
0002
0012
ffe4
fffb
0002
fff6
0002
0006
fffe
0005
0016
fff0
000d
fff9
000f
fff2
0012
fff8
ffea
fffa
0012
0001
000e
fff9
001b
fff5
fffb
fff3
ffe4
fff9
fffc
0007
000c
fffb
fff8
001a
0017
0005
ffff
0002
0006
0000
000e
0009
fff5
0014
0017
0015
fff3
fff4
0018
fff8
0016
000d
ffff
fff2
fff6
0005
fff8
000d
000a
fff0
0009
0007
0015
fffb
fff7
fff8
001b
fff9
000e
fff2
ffe9
000f
fff1
002a
0001
fff5
001a
ffe6
000d
0018
0005
0002
fffe
fffb
0005
fff4
000f
fff4
0000
000d
ffdb
fff3
fffa
0015
ffec
ffe7
ffdb
0007
0009
0007
ffef
0017
fff0
0011
0004
fffd
fffe
0005
0000
fffb
001d
ffe0
fff9
0005
fff5
0011
0011
ffeb
fff8
0015
fff5
0012
0016
ffe9
ffe9
0025
0000
fff6
0013
fff8
fff5
ffed
000d
000c
000f
0000
ffec
ffed
fff7
0012
ffe9
0011
ffff
0025
fff3
fffa
0008
0005
ffe7
ffe8
0006
fff2
0019
ffee
fffd
000e
ffec
000d
0019
fff7
fffa
001e
0014
001d
ffd8
fffa
ffed
0020
fff3
0000
fff7
ffe8
ffd0
0006
0005
0002
0007
0004
ffe5
001c
0018
fffa
fff5
ffe3
fff5
ffeb
000c
000f
0002
fff8
0013
0005
fff2
000d
ffe3
0018
0011
ffe4
000f
fff6
0010
fff8
0005
000b
ffeb
0017
fff9
fffc
fff3
fff4
000c
fffc
0013
fff9
0006
0010
ffeb
ffe2
000a
0010
0018
fffe
fff3
fff8
0002
fff5
000a
0006
0001
000b
fff0
fff2
fff8
ffee
0008
0009
000b
0009
0006
0017
fff9
0006
ffef
fff4
fffd
fffa
000d
000c
ffff
fff3
ffe3
fff7
fff5
0010
ffea
fffe
0000
0009
0009
0000
0007
000e
fff7
fff8
0018
fff9
0008
fffc
000b
000c
0016
0011
fff9
0014
000d
000a
001a
0006
0002
0009
fffc
0016
0000
0001
0000
ffe5
0008
fff4
000a
ffe9
0008
ffff
fff7
0010
0016
fff3
fffe
fffe
0007
000a
000a
000e
fffb
ffee
000e
fff0
000a
fffa
0011
fff3
000b
fff7
fff0
fff5
ffed
ffeb
0007
ffe3
0002
fffa
fff7
fff7
fff9
0011
fffb
0011
ffec
0007
fff8
000c
fff9
0003
0006
fff9
0002
0003
fffb
0010
0010
0009
fffa
000e
fff7
ffe4
ffee
ffe6
fff6
0006
ffed
fffe
000c
0004
fff3
fff4
0007
fffc
001b
0001
0005
0008
000b
0000
fff5
fffe
ffe3
fff5
0001
0004
0010
fff7
fff5
ffff
fff9
fff5
0007
0004
ffed
fff5
000c
0005
fffa
fff3
ffea
0004
fffc
0020
fffe
fff6
ffea
0017
0007
ffeb
0007
ffea
0016
0008
fffe
ffe5
fff1
0003
ffe9
ffee
ffee
ffde
001b
fff6
0017
0017
0002
ffe0
fff8
001b
000c
0016
fff8
0002
fff6
0003
0026
0022
000c
ffef
fff9
ffef
001d
ffe2
ffdf
0015
ffd4
fff1
0015
0008
ffe3
ffe3
fff1
0002
fff0
ffed
0012
ffee
fff3
001e
001b
0031
fffd
0026
0009
fff6
000e
001a
0006
0012
fffd
000d
ffee
0007
ffe3
0006
0003
ffdc
000e
ffe6
fff2
0015
ffe9
001a
0010
ffdf
fff2
0003
0016
0015
0014
fffd
fffd
000a
ffed
0016
ffea
fff9
000f
0026
0021
ffee
0017
ffea
fffa
fff8
0000
0013
ffe7
fffe
ffeb
fff5
fffe
0008
ffea
001e
ffff
000a
ffea
ffeb
0011
fff0
fff7
0005
0016
ffee
0002
0006
0021
fff1
0009
000d
0004
fff5
fff8
0007
0008
000b
fff2
000f
ffff
000e
fffc
fffc
0010
0013
0000
ffee
fff4
fff9
0002
0010
0007
0003
fffc
0006
0011
000e
fffb
fff2
0005
0010
0009
0007
fff6
fffd
fffa
fffb
fff4
fff6
fffb
fffd
0009
0005
0006
0005
fff3
0005
0001
fffa
0002
000a
0003
fff5
0016
fff2
000b
fff5
0009
fffb
fff8
0005
fff1
fff4
fffa
0008
fff7
0001
0001
0009
0008
fff0
fff7
0007
fff9
0007
fff8
0009
0004
fff0
0000
ffff
000a
0008
ffe7
fffe
000e
0000
0003
fff4
ffee
0008
0010
fff1
0017
000a
0002
0005
000b
fff2
000b
000a
ffef
0013
0013
fffc
fff8
0005
fff6
0000
fff8
000c
fff4
fff8
0013
0009
fff4
000c
fff7
0005
0009
fff7
fffa
0007
fff0
fffe
0008
fffe
fffd
fffe
fff4
0002
fffc
0008
0005
fff3
0002
fffd
fff7
ffff
fffc
fff8
0016
fff0
fff8
000a
fffe
fffd
0000
0018
ffef
fff1
fffb
fff3
0007
000a
0013
fff4
fffe
000c
fff4
001b
0005
0005
0018
0005
fff7
0029
000a
0015
0006
fff3
0007
fff3
ffea
0010
ffff
ffe7
0003
0003
fffd
ffd6
0001
0024
0002
fffa
ffe7
ffff
0009
0010
0008
fff9
ffef
0007
fff7
000f
0011
0008
ffe4
001a
fff7
0002
fffa
ffee
001a
fff2
0001
0013
fffd
fffe
0021
fff1
0006
fff9
0008
fff3
0011
fff6
0025
0006
0012
0004
ffec
0021
fffc
0008
fff3
ffee
ffe6
fffb
001e
0005
0009
fff7
000b
0006
ffee
fff3
001c
ffee
ffea
000e
ffeb
0000
0013
0008
ffff
fff1
0007
0019
ffff
fff7
0000
fffe
000f
0006
fff0
ffea
fff3
0003
ffe8
0003
000b
fff4
fff5
fff8
0001
ffee
0007
fffa
0001
000a
fffc
fffe
0020
ffeb
0014
0014
fff6
000d
fff2
001c
000f
fff4
fffc
0013
0012
ffe7
0010
001c
ffe6
fffe
ffee
0004
fff7
0016
fff9
000e
fff9
0011
ffe5
0004
000d
0003
0012
fffb
000b
fffc
0004
000b
fffc
ffeb
000e
fffd
ffe8
fffc
fff1
fffd
fff7
fff7
0020
ffff
fff8
ffe6
0002
0003
fffc
fff6
fff1
fff7
000a
fffa
fff6
000c
001c
ffed
fffb
0004
fffd
0019
0011
0006
fff2
0003
ffeb
fffa
fffb
fff0
ffee
0007
fff5
fff8
fff6
fffc
0004
fff7
fff7
0006
ffed
0010
0003
fff3
fff6
fff3
fffe
000d
000e
000e
0001
0016
fffd
000e
fff9
0004
fff9
000e
fff1
0001
fff8
fffc
fffe
0003
fff2
fff8
fff2
0009
fff9
0009
fff3
fffb
0010
0009
0004
ffe8
0006
000a
002d
0003
fffe
fff6
fff6
001e
fffe
fff8
0001
0009
fff1
0002
0019
000d
fffa
0000
0003
0003
0011
fffc
000d
fff3
0012
ffe8
fffc
fff0
fff7
fffe
fff2
0008
ffff
000f
fffa
0010
0010
0003
ffeb
fffb
ffde
fffa
ffdd
0007
ffdd
001b
0000
ffe9
0011
fffa
fff0
ffff
fff2
0006
ffeb
000a
fff6
fffa
0002
0008
0004
000c
fff5
0013
0017
000d
0007
0007
ffe3
0011
ffed
0005
0017
000d
000a
0008
0011
fffe
0012
ffe0
ffe8
000a
fffa
ffee
fff7
000a
ffff
fffb
0000
0003
ffdd
fff1
0002
0008
0011
fffb
0000
fffd
0006
0012
fffe
fffa
ffd3
0007
0006
0002
ffea
0017
fffe
0006
fffd
0028
fffe
0003
ffe8
000a
0005
0012
000f
0001
0006
0001
fff3
ffe0
0018
000d
fff7
fff6
0008
ffea
fff7
000e
0001
0015
fff0
000e
fff8
fffb
fff2
0002
fff1
0018
0003
0004
ffff
0005
fffa
fff6
fff1
ffed
ffef
0019
0000
ffff
fffb
fffe
000d
fff7
ffec
0010
0012
0004
0014
0014
fff0
001d
0002
ffff
ffed
000c
0002
000d
0010
fffb
fffb
ffd6
fffe
ffd7
000f
ffd9
fff5
fffa
0001
ffeb
0011
fffa
fff9
0024
fffe
0010
fff7
0004
fff2
0012
ffec
001a
fff6
0012
0010
0000
0001
fff1
fff0
0001
fff6
fff4
fff7
fff2
0005
ffec
fff2
ffee
0018
0015
fff7
fff4
fff7
0008
fff2
000b
001c
fff8
fff2
0011
0001
0005
001b
fff3
fff8
0007
0002
fffa
0003
0004
fffb
0006
000e
ffe8
0008
0000
fff6
fff9
fffe
fffe
0014
ffd1
ffe2
ffe4
ffe8
ffeb
ffe7
fff0
0001
0004
ffe4
fff1
000e
ffe7
0005
ffee
fff6
ffed
ffef
0010
ffec
fff9
fffc
0001
000a
0004
ffeb
000d
ffde
0002
ffe8
0023
001d
ffff
000e
ffdd
0018
ffff
000c
001e
fffe
000c
0000
0002
ffe1
000e
fff6
0007
fff4
fff7
0012
001e
fffc
fff5
fff1
0015
fffc
000c
fffb
0010
0001
0013
fff3
0003
0010
001b
000b
fff1
0010
fff1
ffe9
0009
fff3
0008
0007
002c
002c
0017
0000
ffed
0010
fff7
0016
0001
0000
ffe8
ffef
ffe2
000f
fff5
0001
000e
001d
0004
ffe3
0016
0001
fff1
0008
fffe
fffe
000e
0007
ffe3
fffd
0000
0003
fffc
fffd
0009
0016
ffd7
ffdf
ffdf
fff5
0013
0008
001d
fffe
fff8
0024
ffe0
0010
0004
ffff
fff7
0008
ffff
fff9
000c
ffeb
0015
0016
fffa
0003
0023
fff6
fff6
fff6
000c
0020
0018
ffd5
000d
fff4
0000
fff7
ffea
0025
0004
ffe6
000e
0005
ffec
fffe
001a
000c
0004
ffff
fff5
0005
0001
0022
ffef
ffec
0017
ffe2
000a
0001
fff6
000c
0001
ffd8
fff8
0018
ffed
fff1
0011
0011
0016
ffe6
ffe2
ffc6
000a
0011
0002
fffa
0009
002f
0020
fff7
0015
fff3
ffe7
0006
0012
ffe7
fff1
0013
fff8
fff3
fffd
0019
fff8
ffe5
000d
fffe
0003
fffe
000d
fffc
ffe2
0001
fffa
ffe1
0001
0008
000d
0006
ffef
0013
fffc
0006
fffd
001b
ffea
fff6
fff4
fff5
000a
ffde
001e
fffa
000c
0007
0007
ffed
0012
ffd1
0037
0007
ffe8
fff2
fff5
002a
fffb
ffe7
0006
0028
ffff
0020
ffeb
0001
000f
0001
000d
fff8
000c
fffe
0005
ffe4
fff7
001c
fff9
0014
000d
ffee
0001
ffff
ffdb
0010
0005
0013
fff3
0007
fffe
fff1
fff1
0004
fffb
0022
ffd6
0009
0015
0023
ffed
0000
fff5
fff0
ffde
fffc
ffdc
fff5
fff9
0011
ffe7
ffe8
0012
0008
fffb
000f
ffff
fffa
000b
000f
fffe
fff5
fff4
ffdb
0008
0001
fff4
0013
000a
fffc
000d
0015
0007
ffda
0000
ffec
ffeb
ffd3
fffc
000c
0011
0002
001d
0015
ffe5
0016
ffe2
fffd
000c
000e
0009
0001
0016
001b
001c
0005
ffec
0012
0002
ffe7
fff3
000d
ffeb
0013
ffef
ffea
fff0
0008
fffa
ffff
000f
000a
fff6
fff8
000b
0017
001b
0006
ffe5
ffec
0003
ffdd
000c
0004
0012
fff3
ffe7
ffff
0003
0018
ffe7
0007
ffe9
ffe9
ffd6
fff4
0007
ffe8
fff4
0002
fff6
0000
0003
000c
0001
000b
0008
0013
0015
0002
0000
fff4
fff8
0001
fffe
ffed
000b
fff8
fffe
001d
ffe7
0004
0006
fff0
0011
fffd
000a
000e
fff5
0006
fff4
0008
fff2
0001
001c
000c
000f
fff9
000c
fff2
fff8
0001
0000
0010
fff0
000f
000b
fffd
0011
fffa
fff1
0004
0027
ffef
ffef
fff5
0000
fffe
0000
0005
fffa
0001
0008
0019
0012
fff5
0000
fff6
0005
0021
ffff
000e
0013
fffb
000e
0009
fffc
fff0
000a
0001
ffe6
0001
ffee
fff8
0005
0001
fff5
0016
0003
001f
fff1
fffa
0010
fff5
0002
ffec
0016
0003
ffe1
fff9
fff5
fff8
0011
fff1
ffef
0007
fff5
000a
0004
000b
fffc
0004
0010
000e
ffdb
000a
0009
0008
fff1
000f
0004
0008
fffe
fff3
fffd
000c
0019
ffe9
fff8
fff6
0005
fffb
ffef
000a
fff8
0006
fff0
fffd
0001
001c
fff6
ffe3
0010
ffed
0017
0005
001d
0005
ffff
0000
ffe5
fff6
ffe9
0009
ffcf
0019
fffd
fffc
000e
ffff
fffe
fffb
0004
001e
003e
0012
ffee
ffed
fffa
001a
0000
0012
000f
0005
ffe7
0016
001b
ffed
0001
0031
fff9
fff1
001d
001f
ffe9
0014
0008
fffb
0006
ffe7
fff9
fffc
0001
fff0
0003
ffe6
0019
fff5
fff5
fffe
000d
ffff
fffb
000a
0017
0014
ffe4
fff7
fff2
fff4
fffb
ffff
ffef
0015
fff3
001c
fff4
ffff
0003
ffe8
000d
ffde
0025
0028
001a
0017
fffc
fff7
0017
ffd2
0019
fffb
000a
fff0
0016
0023
fffb
000b
fff9
0000
ffe0
ffed
001c
0022
001a
000b
0000
fff9
fffa
fff7
000c
fffa
0006
0011
001d
001c
0017
ffff
0004
ffcd
0003
ffed
0008
0001
fffe
0004
0015
0005
0015
000b
000e
0008
001e
000b
002a
0009
fff6
ffe8
0002
0014
0004
fff9
ffef
fffd
0002
fff7
0003
fff5
000a
0004
0004
fffe
0000
0007
0005
0003
0024
0002
ffff
fff8
0007
001a
0010
0004
ffe8
fff3
001a
fff4
ffff
fff3
0008
fffc
0004
0010
fff8
ffef
0003
0007
0005
fff8
0004
0000
0003
fffe
0018
fff5
ffe6
000d
000c
fffe
000a
0007
fff9
0014
0002
0007
fff6
000f
0002
fff3
fffc
000e
0014
000e
0007
0012
0010
0018
000e
000e
fffe
0001
0002
0017
0006
001a
ffff
0015
ffef
0001
fff1
0003
0012
0008
ffe3
0002
fffa
fff3
000e
0005
fffd
fffa
001c
fffa
0006
fff8
ffe9
000a
fffd
fffe
000d
0000
000a
fff0
0009
fff2
0013
ffff
fffa
0004
ffff
0004
fff6
0002
fff3
0001
000d
ffff
0001
001c
0000
fff0
000a
ffea
fff4
0008
fff6
0010
000a
fff4
ffff
0000
ffd6
0013
0019
0015
fffe
fff0
fffe
0006
000c
000a
ffff
fffd
fff4
0006
0001
0000
fff8
fffe
fffc
fffd
fffc
0000
fffd
fffa
fffa
fffb
0007
000c
fff9
fff9
fffe
fff6
fffc
fff3
fff9
0003
0004
fff9
fffa
0001
fffc
0004
ffff
fffd
fffb
fffe
0002
fffb
ffff
0002
0006
fff8
fffe
fffa
0003
fff5
fff5
fffe
0000
0003
0004
fffd
fffe
fffa
fffb
0006
0000
fffe
fffd
0007
fff8
ffff
fffb
fffa
0004
fffb
ffff
0000
0004
fff7
0002
fff3
000c
0003
0001
fffe
0001
ffff
0002
fffa
0006
0002
ffff
fff4
0000
fff7
fffd
fff8
fff4
fff8
fffe
0005
fffa
fffc
fffc
0004
0005
0002
fff8
fff5
fffa
ffff
fffa
fff8
ffff
fffc
fffc
ffff
0000
ffff
0005
0005
000b
0004
0004
0002
0007
fff5
fffa
fffa
0001
fff8
fff4
fffa
0007
0000
ffff
0002
0004
0001
0004
fff7
0001
fff9
0001
0004
0007
0002
0002
0008
fffe
0007
fffb
0005
000e
000a
0006
0002
0002
0004
001d
0017
fff6
000f
0008
fffe
fffd
fffc
0006
000f
ffff
0001
001d
fffb
0004
0015
000a
0003
001e
fff9
fff7
ffe5
000e
001d
0016
000b
000a
ffef
fff2
001c
fffc
0016
0024
fff9
000b
0013
0006
000b
0022
fff1
fff1
0006
ffdc
0015
0001
0007
0004
ffe8
fff6
fffe
ffe2
fff9
ffeb
0013
0012
001b
001a
001b
0018
000e
000a
fff4
ffef
000a
fffb
000a
ffef
fff4
000f
0037
fffb
fffb
ffed
0029
ffec
000f
fffc
0003
000f
fff1
0004
fff8
fff7
fff7
fffd
ffee
fffc
ffee
ffee
ffed
fffd
000e
fffa
000a
fff1
fffc
fff7
fff6
0010
0014
ffff
fff1
0017
ffee
000c
0001
0004
ffff
ffd3
001d
ffed
0003
fff4
0010
fffd
fff2
fff3
0008
ffe9
fffc
0023
0003
fffe
0017
fffd
0005
0009
fff7
fff8
000c
fff7
fff7
fffc
ffe3
001d
0005
ffef
000d
ffeb
0003
ffff
fff2
0007
001d
ffe6
fffc
ffe3
fff0
0012
ffff
fffc
ffeb
fff8
ffe9
0020
000a
fffa
fff9
0019
0015
000c
0008
ffe0
ffdc
001b
0006
ffdf
000a
ffda
fff6
001a
0014
0000
0009
0003
fff4
000c
fff4
ffec
0026
0003
000f
001e
ffeb
0003
ffea
ffee
fffc
fff7
0018
0009
0007
000c
ffea
0021
0021
ffdb
0004
0016
000f
0014
ffd4
0001
ffc6
0000
0003
fff3
ffec
001d
fff2
0008
fffe
ffed
0019
fff1
fffe
000d
ffe6
fff7
fff5
0022
fff5
000e
ffde
ffec
0002
001b
ffe9
ffe7
000e
001b
ffff
ffc9
0014
0025
ffe9
0014
ffee
ffe2
0014
0008
ffee
fff4
fff5
fff4
fffb
0004
0036
ffe7
fff2
000f
0027
ffdf
0011
ffeb
fffa
0004
0018
0000
001b
ffe9
fff2
0010
ffda
001e
001a
0001
0001
000c
0001
ffe2
002a
ffe9
0006
0007
ffe0
0003
000a
fff6
001a
fff6
0003
000c
0012
ffe9
0015
0014
0016
fff7
ffe8
0018
fff7
0008
fff6
ffed
0008
ffef
0000
0006
0007
fffb
0003
0006
ffec
ffe4
fff9
ffef
fff1
0022
fff8
0003
0017
001b
fffa
000b
fffa
0013
0008
000a
fff9
0012
0014
0002
0006
ffe9
ffec
0017
ffe5
fff3
000d
ffe8
000a
fff4
fff5
0017
0014
fff6
ffe5
ffe4
fff7
fffd
0008
0008
000b
0006
fff0
0005
fffa
000e
0011
000b
0006
0003
ffe9
fff4
fff6
ffff
000d
0008
0006
fff7
0011
fff6
fff7
0006
fffe
000f
fff8
0004
0003
fff9
ffef
000f
0000
fffb
fff2
fffc
0000
fffa
fffd
0019
fffc
ffed
0006
000e
ffe2
0014
000f
0014
fff2
0004
ffef
000f
000f
000a
0003
fffa
0019
fff3
ffe7
fff8
0016
0005
0006
fff9
0013
0014
001e
fff0
0004
fff9
0014
001a
ffeb
0009
0001
fff6
fff4
fff1
0005
0010
000a
fff5
ffe6
ffea
000c
0007
0012
0001
ffed
0008
ffff
0010
0005
0017
000b
ffec
000e
ffff
fff6
fff5
fff4
fffa
0000
000b
fff9
000e
000d
0004
0016
fff1
000b
fff6
fffe
fffb
ffec
ffee
ffea
0008
000a
fff8
ffec
ffe4
fffa
fffb
000f
0009
fff8
001b
0007
ffec
ffef
fff6
ffef
000a
fffc
000b
000c
ffef
ffff
0005
0004
0004
ffff
fff0
ffeb
0001
0004
000a
0004
fff1
0016
fff7
fff3
fff6
ffef
fff5
fff3
0007
0011
fffa
ffe4
000c
fff4
fff9
fff6
fff9
fffb
fff2
fff6
ffef
ffed
0002
fff6
ffdf
001b
0005
fffb
000a
fffe
fff6
0023
0000
fff0
001a
ffeb
001d
fffb
0014
0009
0008
fff4
0010
ffef
fffa
000a
ffec
0004
fffe
fff5
fffd
fffd
fffd
fff3
0008
fff2
0006
0017
fff2
fffd
ffe6
fffc
000f
000a
0003
fff7
fff8
fffb
0005
000a
0002
0004
fffe
000d
fff3
0008
fffb
000b
000d
fff4
0012
0008
0007
fffe
ffec
fffb
fff4
fff9
fff7
ffed
ffff
0004
fff7
fffd
0001
000d
fff9
0003
fffe
0008
0008
0006
ffff
fffd
fffc
fffe
ffff
0000
0000
fffc
0007
0004
0002
0003
0001
0006
ffff
fff6
fffc
fff4
0004
fffa
0007
fff8
fffb
0000
fff9
0012
fffb
000a
ffff
0001
0002
fffe
0005
fffb
ffef
fffc
0009
fff4
0006
fff6
fff5
0009
fffd
ffff
fffc
fff5
0001
fffc
0006
000a
fff6
0004
fffd
000e
fff1
0004
0004
0000
0001
000a
0008
fff9
0003
0006
0007
0004
0005
fff4
0002
fffa
fff0
fff3
fffc
0004
ffff
fff4
0008
ffed
ffef
fff6
0006
fff3
0006
0002
0000
fff4
0007
ffff
fff9
fffa
000b
fffc
0005
0002
000e
0004
fff2
000c
fff6
0009
fffa
fff3
0008
0004
fffc
0001
fff3
fff4
0003
0008
0010
fff4
fffc
fffd
fff2
fffd
fffd
0007
fff3
0008
fff3
0004
0011
0001
fff3
0007
0006
0018
0009
0001
0003
000f
fffd
0003
fff8
fff8
0015
0006
0010
fffb
fff2
ffff
fff9
fffd
0003
0004
fff7
fff2
0001
0007
fff2
0006
000c
fffb
fffe
fffc
fff8
0002
ffff
0003
0009
0004
0008
0002
0002
ffff
fff5
0000
fff7
fff6
fff5
fffe
ffef
000a
0000
fffb
fffa
ffef
fff2
0004
fff9
0008
0007
0006
0002
0003
fff8
ffff
0005
0007
000b
fffe
0014
0007
0000
fffd
ffff
0003
fff1
ffff
0010
0000
0002
fffa
fffc
0004
0006
fff5
fff7
0002
fff9
000a
0005
fffa
fffa
0003
0002
0000
0000
fff3
0004
0002
0000
ffff
fffe
fff5
ffff
fffe
fffb
fff0
fffc
0005
0005
fffd
0001
0003
0001
fff7
000d
fffd
fffd
fffe
fff3
fffe
0009
000d
0008
0003
0008
fff6
0001
0002
fff9
fff3
fff5
fff8
fffe
000c
ffff
0004
0001
0000
fff2
fffa
fff4
0009
fffe
ffff
fffa
fffd
fffd
fffe
fffb
fffa
000e
ffff
0013
0002
0025
001e
0008
0010
001e
fff7
fffd
000b
0013
0008
ffe9
0012
fffd
0018
0000
ffe4
fff2
000a
0001
ffee
001d
fff3
001b
fff9
000b
fffb
0028
0000
000c
0009
ffe6
ffe3
fff5
ffdf
ffee
ffdf
fffc
fff5
0002
ffe6
ffef
ffee
000c
ffdb
fff4
fffe
ffee
0016
000a
0024
0019
ffe7
fff7
000a
0013
0005
0005
000a
001f
fffe
ffed
fffa
ffd1
000c
ffe9
ffea
0019
fff7
ffe0
000a
0000
fff9
000d
ffd1
fff4
fffa
fffb
fff4
ffe8
fff3
0018
ffff
ffe0
fff1
002b
0005
fff2
0009
0004
fff9
fffb
fff0
fffa
fffa
fff1
0000
0007
fffb
fff8
ffee
0005
0008
fff3
ffe5
ffef
000d
0009
0003
ffec
ffff
fffa
fffd
0009
fff5
fffe
fffa
ffff
0019
ffff
000b
000a
0011
fffa
0015
0023
0003
ffee
fff0
0007
fff6
0000
fff8
0022
0015
0000
0014
0002
000a
fff4
0013
ffe2
0013
0014
0004
000c
ffff
0010
0001
fffd
000e
0004
001a
fffb
0002
fff0
ffed
fff9
ffe7
0013
fff4
fffd
0013
0010
ffec
0002
0005
0013
fff4
000e
000f
0009
0007
0009
0007
0005
fff9
0007
0003
ffe9
000a
000b
ffec
0011
001a
002c
ffd1
000d
ffec
ffec
fff0
ffff
fff6
0004
0013
0013
0007
0001
ffe3
0000
fff7
ffea
fffe
fff4
fffc
001a
fffc
0007
fff3
fffe
fff9
fffe
ffe0
0005
001b
0005
0012
fff0
000e
fffa
fff8
0002
000b
fff2
ffed
fff5
fff2
0010
0010
0006
ffef
fff5
0003
0016
0000
0013
fff6
0005
000c
0008
0017
0002
fffb
fff7
fff0
ffe2
fff0
001b
0006
fff6
0008
fffd
ffeb
001c
fff2
fffb
0010
fff5
fff1
000a
0014
ffe9
fffa
0000
000c
0017
0006
ffee
fff4
fff9
0016
ffee
0003
fff9
ffec
0008
fffe
fffb
0008
fffe
ffe2
fff9
0003
fffe
ffde
0005
ffe0
0002
0000
ffff
ffff
ffed
0003
ffec
0015
fff8
ffef
0004
fff7
0005
ffe6
0013
ffe1
ffed
ffe0
0013
ffd9
ffff
003a
0007
fffe
ffee
0016
ffe7
fff8
0006
fff8
0020
0003
ffe3
fffb
0000
001f
fff2
0016
0005
000d
ffe4
0005
0008
ffe8
0009
fff3
ffec
ffed
0006
fffe
fffd
000d
000b
fff3
000a
fff9
ffef
fff6
001f
0002
0009
001a
fff5
0021
fff7
fffe
fffc
000f
001b
fffb
000d
0011
ffec
ffec
000f
0009
fff0
0006
0009
fff4
0004
ffeb
fff1
ffff
0003
fff5
000a
000c
fff9
0010
ffff
0014
001a
000e
001b
000e
fff9
ffeb
0010
0008
0012
fff4
ffec
0004
000b
0021
fff0
0003
fff8
0022
0001
ffe9
0017
fffe
fffc
ffe1
fff9
0004
ffe6
000e
000f
fffd
ffe5
0020
ffee
fff0
000b
0010
fffa
000d
0015
fff8
fff2
000c
001a
0008
0004
fff9
fff0
fff2
0016
fff0
0011
0009
ffdf
0005
0015
0024
ffff
0008
fff6
0011
ffff
fff7
0033
0013
0000
ffd7
0012
fff7
002b
0010
fff6
ffee
0009
000e
fff2
ffe7
ffe5
0019
0008
0004
0004
ffdf
fff1
0025
ffe8
fff3
0026
ffeb
fff1
0006
ffed
fff6
0026
000a
000f
ffe6
0001
ffe9
0003
0010
ffe9
fffc
fffa
0020
000c
0013
ffe8
fffb
0007
001a
fff1
ffe6
ffed
0003
0014
000a
0000
fffc
fffc
ffff
0004
0011
fff4
ffe5
fff0
fff8
ffe8
000b
ffdc
fff0
fff4
0004
ffe2
0009
000f
0016
ffee
000a
fff6
ffef
fff3
0006
fffe
0017
fffd
ffd0
ffec
ffec
0017
0006
ffe1
001e
fff9
0008
fff7
0014
000d
000e
0006
0000
fff0
000f
0018
ffee
fffc
fff0
000c
ffd0
0035
0035
ffec
fff0
0016
ffea
0006
0016
ffe4
ffd7
ffeb
000d
fff9
000b
001b
fff9
fffc
ffe5
000c
0003
fffa
000c
002b
0005
0007
ffe2
fff1
ffef
fffc
fffc
000d
ffef
ffef
ffe6
0001
000f
0006
000d
fffc
ffef
000b
ffe3
ffff
0017
000e
fffb
ffe2
ffee
0009
0007
fff1
fffd
fff2
0001
fff5
0000
0004
0019
fffa
000d
ffec
000a
0005
fff6
0019
0003
fff7
0010
000d
0018
000e
fff1
fff7
fff8
001b
fff8
0000
0007
ffec
000c
fffc
fff4
0003
fff4
0000
fff2
0009
fff1
0013
ffdf
ffe6
0003
000e
fff4
fff5
fff5
fffd
fffe
000a
ffef
000e
fff0
0009
fff7
ffe8
ffdb
000d
000c
fff7
fff3
ffeb
0001
0011
fff3
fff8
fffe
ffe5
fff4
0006
0001
fffc
0015
fffc
fff3
000d
0000
0004
fffe
0006
0005
fff8
0002
fffa
fff0
fff3
0000
0000
fffe
0006
fff5
fffd
ffeb
001f
0003
0022
fff4
0011
000d
fff3
0000
fffc
0003
fff7
fffb
fff4
001c
fffd
fffd
000d
0009
0011
0010
0002
ffea
000e
0017
fff3
0007
0008
0004
0006
0003
0013
000c
0004
000c
0002
0001
fffe
0003
ffff
ffee
ffee
0011
fff0
ffe3
0009
000e
ffed
0015
fffe
0002
0004
0007
0005
000d
000e
fffe
0002
fff7
fffc
0006
0018
fffc
0007
0002
ffe3
000b
0004
0011
ffff
fff7
fff9
fff8
fff7
fffa
fff0
fff8
0004
000c
0008
ffeb
fffe
ffdf
0010
0001
0004
fff2
fffc
ffed
0010
0018
0008
0001
0001
ffdd
0002
0015
fff5
0004
0026
fffb
fffc
fffd
0016
0009
ffff
ffed
ffed
ffff
ffff
000e
000d
0002
fff3
0002
001e
fffd
0016
0006
0007
fff0
0003
ffe1
fffa
0011
fff1
fffd
ffdc
0004
0008
000b
fff7
ffff
fff2
ffed
fff9
ffef
fffa
ffeb
fff4
0000
0000
0001
fff8
0009
fffe
fffe
ffee
0006
fff3
000f
0001
fff6
0008
fff8
0012
0009
fff3
fffe
0007
0018
000a
0007
fffa
0005
ffe6
0003
ffff
0001
fffc
fff8
0002
000b
fff0
000e
fff4
0005
fffb
fff7
0003
0021
0000
001e
0005
fffe
0016
000a
fff3
0000
0008
000b
fff1
000c
fffa
0006
fff5
0000
ffee
fff9
0001
fffb
fff6
fffb
fff3
0010
000b
0000
0002
0002
0013
ffe9
0006
001b
0016
fff4
0007
000b
0018
0001
fff9
0009
000d
000c
0005
0008
000f
ffee
0012
fff6
0013
ffef
0003
0005
ffdc
ffe3
fff5
ffef
fff4
ffe6
001d
fffa
fff7
ffec
ffef
0009
0006
0024
000b
000b
fff2
0018
fff6
fff2
0004
ffff
fff6
0003
0008
ffee
0003
0018
fff3
ffe6
fff8
0010
0014
fffc
fffa
fff8
ffe4
fffd
0018
0000
0011
fff0
ffdf
fffc
fff3
fff3
0003
0018
0005
fff9
ffef
fff1
0007
fff7
0012
ffff
0004
000d
0004
0012
fff4
000d
fff8
000e
fffd
0003
ffef
fffb
fffc
fff7
ffed
fff6
fff7
000d
fff4
000c
fffd
000e
001b
fff5
ffe5
0013
0021
0031
0008
ffef
0016
ffe5
0011
000d
0006
fffc
fffe
000e
fff5
0012
fffa
fffc
0006
0005
ffe1
0017
fff0
0000
0014
0005
002d
0026
001a
0005
000c
0002
0017
fffc
fffb
ffff
0022
0015
000d
000c
fff6
001a
0006
0003
0000
fff9
0001
0026
0006
0002
ffe6
0001
ffee
fff0
0002
0011
0001
ffee
fff2
fff4
fff9
0011
fff9
0017
000b
fffa
fff8
fff0
fff5
0006
001a
ffee
0011
0002
fff4
0011
0019
0017
000e
000b
0004
0003
fff8
fff0
fffc
0010
000f
000f
fffb
0019
000a
ffee
0018
000e
001b
ffff
fff8
000c
001e
ffe1
fff3
0009
ffec
0012
fffb
fff8
000b
000b
0006
0022
0014
fff6
ffe8
0000
fffe
fffc
0012
0008
000d
fff7
ffe7
ffee
0001
0013
000e
fff0
fff0
0011
fffe
fff8
ffeb
ffff
fffe
fff8
fff4
fff5
fff9
000a
001a
ffe6
000b
fff6
fffe
ffe7
0006
ffea
0011
0015
0004
000e
fff1
fff6
fff6
ffe5
0010
0006
fff7
fff4
ffea
fff2
fff8
fffe
fff6
0005
0005
ffe4
fff8
0000
000d
0004
001d
0001
0017
ffff
0001
001d
ffec
000f
fff6
ffea
0012
ffeb
ffff
fffa
000f
ffe8
fff6
0014
ffed
ffec
fffa
0002
fff8
ffe8
ffe6
0011
0004
fff6
001e
0005
0008
0010
0008
ffff
ffff
0002
fff2
fff4
000c
fff0
fff9
000c
0008
0000
001d
0018
fffe
fff6
ffe1
001e
fff1
0008
fffe
fffe
0005
fff2
000a
0004
000f
0012
fffe
0006
fffa
fff4
fff2
0013
fff5
ffed
000a
fffe
fff3
0008
fffb
0003
0002
0004
000c
0009
fffd
ffef
0012
fff1
000c
ffff
ffef
fffb
0000
fff3
fffd
0005
0005
ffeb
000b
0015
000f
fff2
002b
0012
fffc
001b
fff1
ffff
fff4
0005
000c
000b
0008
fff1
0005
000e
fff2
0006
0002
fffa
000d
ffdc
ffff
0019
0012
001c
fff7
fffe
0011
fff3
0004
0003
fffd
fffc
ffe6
fffb
ffec
fff9
ffef
ffe8
0005
ffe7
001e
fffc
0004
ffe5
0001
0014
0005
ffe1
0027
0037
0017
ffea
000e
001b
fffb
fff1
0022
fff1
fff8
fffb
0006
000e
0020
fffe
0014
0003
fffa
fffd
fff3
0007
0009
001a
0008
ffe9
0018
ffef
fffe
000f
0009
002d
fffa
fff2
001f
0022
000c
ffe1
fff5
fff4
fff8
0010
ffed
001d
0014
0026
fff4
0025
000e
000b
000e
fffb
0012
000a
fff4
0009
0003
0005
0009
fff4
000c
fffe
0002
ffe0
ffef
ffcd
0003
ffee
0015
fff4
0001
000b
fff3
001b
0027
0007
ffea
0003
fff7
0003
fff0
0002
fff0
fff7
0008
ffee
001a
ffe0
fff3
fff2
0000
001e
ffee
0006
0005
ffef
fff8
fff7
fff2
fff4
ffdb
fff3
0019
fff4
ffec
0005
fffa
0008
0005
ffe6
fff5
0004
0035
fff0
0004
001d
ffe5
0012
fff9
fffc
fffe
fff7
fffe
fff8
fff7
ffeb
ffee
0004
0007
0000
000d
000c
000e
0004
0007
0018
0000
0002
0001
fffb
fff8
fffb
0004
000f
0004
0008
fff9
fff4
000a
fffb
fff2
0005
0002
0006
0009
fffc
0014
fffb
fff1
0001
ffed
0006
0018
0000
fff8
0000
000b
ffe6
fff7
fff7
0014
0008
000f
0005
fffd
0004
ffff
fffd
0011
fffb
0013
ffff
0007
fffc
000a
0005
fff0
fff0
0003
000d
0002
0003
fffa
ffe4
fff2
fffa
0007
fff8
fffe
0008
ffff
0007
0007
0004
000a
0004
000c
fffd
0004
0006
fff6
fff4
0006
0003
0002
000a
0017
fffc
fff8
fff1
fff1
000a
fff0
0004
fffc
0016
0005
0005
fff8
fffc
fffd
fffa
ffef
0008
fffb
0015
0003
0001
fff8
0007
fffe
fffc
0001
fff6
0000
fff6
fff8
0009
0003
0006
fff9
0008
fff8
0010
fff9
000d
000b
0006
fffd
fffe
0002
000e
fff4
fffd
000c
0007
ffe4
0014
0002
fff9
001c
fff5
0009
0008
ffea
0014
0001
ffe3
ffd6
fffc
fffc
fff5
001c
fffa
0003
ffef
ffe7
001d
000b
fff3
0010
001a
0000
fffc
fff7
000d
fff1
0016
fff4
0014
0025
001a
fff2
0010
000b
fff3
ffe5
000a
fffb
fff8
0028
ffec
0002
001d
000e
0006
0013
fff6
fff7
fff1
0018
0002
0002
0007
000b
ffeb
0013
fff7
000f
fff6
fff1
0017
fff7
0019
ffff
000a
0016
001b
000f
0011
0012
001b
000f
ffd4
0007
fff8
000a
001c
fff1
fffb
fff5
fff8
fff6
ffeb
001b
ffef
0003
0017
fffe
ffde
fff9
002a
0013
fffc
ffda
001c
fff5
0013
0006
0003
fffc
fffb
ffff
001a
0019
0017
0000
ffff
fff9
fff9
000a
ffe3
0001
fffb
fff1
0004
0000
0013
0009
0004
000c
000e
fffc
ffe8
fff3
0012
0013
0002
0013
0002
0002
ffe6
ffe1
0001
fffb
fffa
0008
0007
0007
000f
000a
0010
fffd
0009
ffee
fffb
0008
0000
0014
0012
000a
fffb
0001
ffff
fff0
fff2
ffed
fffc
fffe
0001
fff2
0008
fffd
ffe7
fffe
0000
fffd
000d
fffe
0014
fffa
fffe
0003
000d
000d
0010
fffe
fff6
0017
0020
fff5
0005
fffe
fff4
0002
000f
000a
fff9
fff6
0008
0008
0008
000d
000c
001d
fff9
fff5
fffd
0010
000f
ffff
0014
0002
fffc
000e
0007
0000
ffe8
0004
0000
fffe
0002
0008
fff4
0019
fff6
000a
fffb
0001
fff4
fff1
0005
0007
fffe
ffff
0005
0002
000a
0004
0004
0008
fffa
fffd
fff2
fffc
ffe3
fffc
fff5
0006
ffff
fffe
fff4
fff4
fffd
0008
000c
0003
ffed
fff7
ffeb
001b
0007
ffff
ffec
ffea
ffeb
0001
0015
ffeb
0005
0010
0011
fffc
fff7
fff9
0009
000c
fff8
fff4
000b
ffff
ffff
0013
ffe8
0003
fffb
fffd
fffd
fff9
fff3
ffe2
fffb
fffc
fff6
0003
0003
ffef
000d
0019
fff8
fffb
fffc
ffdb
000b
fffc
0006
fffa
001e
0015
0016
000d
ffe1
0003
fff7
000d
0004
0013
fff9
0005
0001
0017
fff7
ffdf
fff0
000d
0011
ffe1
fffa
0014
fff8
0021
fffd
fff4
000e
0014
000b
000c
ffff
002b
ffef
ffe9
ffed
ffe4
ffee
0003
0025
0000
0003
0012
fff1
0014
0004
0003
0010
000e
0006
ffe3
0018
0012
0017
001b
fffe
ffe7
fffe
ffd9
fff5
0003
0003
000b
001b
ffff
ffe8
ffef
0011
ffec
ffff
ffff
000e
000c
fff7
fffa
0028
001a
fff4
0012
0001
0006
0011
fff9
0021
fffc
0008
0007
0004
0001
fffc
ffec
0008
ffe8
0013
fff5
0006
0018
fff9
000c
0000
0004
000a
0000
0000
0012
ffee
0002
0000
0008
ffe7
0005
fffc
fffc
000d
fff7
fffc
0009
0004
0023
0008
0024
fff5
0017
fff8
000f
0025
0019
fff1
0000
000d
0001
0009
0005
000a
0006
0012
0013
ffe5
000b
0024
fff9
000e
0009
fffa
0009
0004
ffff
0026
ffff
000a
000a
fffa
0005
fff2
0008
fff9
0009
0000
fff9
0011
000b
000b
ffff
0010
0001
ffe8
fffc
fffc
fff2
0015
0017
ffef
ffff
0002
fff5
fff9
0018
fffb
0009
0011
0009
0005
fff7
0012
fff7
fffc
0004
000a
000c
fff2
0015
0009
fff6
fffa
fff9
0025
ffec
0001
fff2
0006
ffde
0015
fff4
ffe5
fffe
0018
fffc
0017
0006
ffe9
0002
001b
fff1
001d
000c
fffc
fff4
fff8
fffc
0017
ffef
fffa
fffe
0004
fffc
fff0
0009
000a
fff9
fffa
0007
0003
000f
0003
000a
000d
0008
0007
000b
0020
fffc
ffee
000d
0005
ffe8
0005
fff4
fffe
fffa
fff2
0005
fff0
fffb
0014
0013
ffeb
0022
000d
fff6
fff3
0017
000b
0001
fff7
0012
ffe8
0004
ffe2
0001
0006
0023
0003
ffef
0010
fff2
ffcd
0027
fff8
ffe7
0004
0000
000c
fff7
ffe6
fff8
001c
ffd7
0012
ffef
fff7
001a
ffe5
0013
000c
ffff
0013
0006
ffef
000f
ffe8
0014
000b
fff0
0004
0009
ffe6
000b
0014
fffb
0001
ffe4
ffee
0009
fff7
0015
fff8
fffd
0024
fff8
fff9
fffc
fff9
fffe
fff6
fffd
fffa
fff4
fff2
000f
002c
0015
0014
ffd1
ffec
fffd
fff2
fff1
0004
0016
fff0
0014
0009
ffea
0016
fff8
fff7
0016
fff2
0022
fff0
fff5
fff5
0002
0009
ffdf
ffe7
fffb
ffe6
0017
ffee
fffc
0003
000b
ffc9
0002
0014
fffc
001e
fff9
fff7
0016
0006
002c
000a
fff0
ffea
001b
ffe5
0008
fffb
0005
fff5
fffe
0004
ffea
0005
fffc
ffff
fff1
000e
ffe3
ffde
001e
fffc
0009
0000
fff7
fffa
000e
0016
fff0
0013
fff3
ffef
0005
0003
ffeb
fffc
fffe
fffd
ffee
001c
0005
ffe8
fff8
ffde
0019
fffa
ffff
0006
0003
0003
fff2
0006
fff5
fff2
0012
000f
fffe
fffe
ffff
0001
fff7
fffc
fffc
fffe
fff5
0004
fffd
0007
fffd
0005
0000
fff4
fffa
fffd
fff0
fff9
000a
fffa
000b
0005
fffd
0019
000f
0005
fff6
fffc
fff1
0005
0000
fff5
fff9
0001
fffa
fff9
0005
0004
fff7
0005
fff4
0006
0001
fff6
fffe
fff7
0004
0009
fffc
0005
0002
fff0
000d
fff9
000a
fffb
0004
fff7
0000
000b
000c
fffb
000c
0009
fffd
0005
fffb
fffb
0008
0006
fffe
0005
ffe7
fffd
ffff
fffe
fffa
0009
fffb
0001
fff3
000a
000a
0007
0007
fff6
fffa
fffa
0002
000a
000a
ffff
fffc
fffa
ffff
fffa
0007
fffe
fffa
0008
fffe
fff8
0008
0002
fffb
0001
fff0
000d
000f
fff7
0004
0000
0007
0009
fffd
0001
fff6
ffed
fff4
0003
0006
fff9
fffb
0003
ffef
0004
0010
0010
0004
fff8
fffc
0003
000d
000d
fff1
fffa
0006
fffd
0005
fff6
fffe
0006
000d
fffd
fffc
0007
0005
0007
fff9
0000
fff5
001a
ffee
0004
fffe
fffb
000d
0008
fff3
fff7
0005
0009
fffd
fffe
fff7
fff6
ffff
ffff
fff9
fffe
fff8
fff8
ffed
000a
0000
ffef
fffa
0006
000c
fff3
fff7
0004
0011
ffff
fff4
0004
0008
fffb
fffb
0008
fff5
0006
fff7
fffa
0006
0001
fffd
0003
0009
ffe9
0011
0009
000e
fffa
0005
fff4
fffa
ffff
fff3
0004
000c
000e
fffc
0008
fffa
fffa
0000
0007
0006
ffff
fffa
0009
fff8
fffe
0012
0004
fffd
fffa
fff5
fffe
fffa
0003
fff5
000e
001c
0002
fff7
0012
0004
ffff
0007
fff8
fff6
fffa
0001
ffff
0006
0006
ffef
fff9
0014
0009
0008
000a
0005
fff9
000c
ffff
fff5
fffb
fff5
fff9
0005
0002
fffd
0000
ffff
0004
0009
0009
0009
0001
0001
000a
0005
0015
000f
fff4
fffa
ffea
0015
ffd2
001b
0012
fff6
fff7
0000
ffff
fffd
0014
0002
0006
0006
0005
fffd
001b
fffb
0003
fff9
fff4
0004
000d
fff8
000c
fff9
0010
ffec
ffe4
ffee
001f
0006
0004
0009
000b
ffec
0008
000a
0027
0006
0001
ffde
ffee
fff4
0000
fffb
0000
0000
0012
000d
0018
fff7
ffed
fffe
0013
0004
0006
0001
ffe8
fff9
fffe
0004
ffff
000a
fff8
fff9
fffd
fff5
001f
0003
ffe2
fffc
ffe8
fff2
0018
0014
ffe7
fff2
0005
fffa
000a
fffb
fff3
0007
001c
0020
0001
0015
0007
ffe7
0002
0009
fffd
0013
0025
000e
000f
0019
fffb
0004
ffed
0013
000e
fff1
0012
ffdf
001b
fff6
fffb
fff0
0003
000d
ffe1
0013
0025
000a
0009
fff0
000b
fffb
fff0
fff4
0012
0005
000e
fffd
0008
0006
fff2
0023
0004
000c
fffb
0018
fff0
0003
ffeb
0010
ffcb
0021
fff0
001a
ffed
0002
0013
fff5
0003
0008
ffde
0008
0006
000f
0000
0018
ffef
fffe
ffef
000f
000c
0020
ffdd
0000
fff9
0015
0016
000c
0016
fff1
ffed
0003
000c
fff9
0013
fffb
fff8
ffff
000e
000f
0016
0011
0005
0020
0007
ffe3
0004
ffff
fff2
0016
fffd
fff4
fffd
000c
0011
0002
0000
0002
fffd
0010
fff5
001c
fff4
fff3
fff3
0015
0015
0000
0027
0009
ffdf
fffd
0006
fff5
fffd
000c
ffed
ffef
0006
ffe2
0009
fffa
ffda
ffde
0008
ffea
0008
fffd
0009
000d
fffc
000e
fff2
000e
fff6
0007
ffec
fff9
000f
fff9
fffe
0018
000d
fff7
0006
000e
0008
fff8
000f
ffff
fff4
ffe8
0013
fff9
ffe6
000d
ffe7
fff2
0001
ffe5
ffe4
ffff
ffef
ffe6
0004
0002
000f
001b
ffff
0007
000b
fffd
ffff
0000
001d
0023
fffc
000f
000c
000a
0008
000a
0008
0010
0007
ffff
000a
fff0
0001
fff0
0024
fffb
0028
fff7
0015
fff0
0025
ffe6
fffb
ffd6
0019
fff3
ffec
001d
0016
0014
fffe
0013
ffeb
fffd
0021
fffd
0033
001c
ffd8
0019
0015
0017
0009
fff6
fff5
ffe4
0017
fffb
fff3
000b
0014
0018
fffc
fff2
000f
fff1
fff1
0011
0003
0018
0006
fffd
0012
fff1
ffff
ffe8
0003
0007
fffc
0018
fff2
ffdb
fff2
fffa
000f
0007
fff8
000e
ffff
000b
002b
fffe
fffe
fffe
0012
ffe5
ffee
fff1
0004
0019
ffff
0011
fff9
ffe4
fff1
fff9
ffee
0012
ffe3
000c
ffe7
000e
0000
0016
001b
fffb
0005
ffe4
001c
0018
0011
fff9
000d
0037
fff2
0026
000e
fff8
fffc
ffe1
0013
fff7
0004
ffec
ffeb
ffe3
fffd
ffec
fff3
000b
ffde
000e
fffb
fff8
fff5
0015
000b
000d
ffe6
fffb
fff4
0014
0004
0020
000c
0012
ffeb
001d
fffd
fffe
0025
ffef
0007
fff9
0018
001d
fff0
0006
000b
000b
ffdd
ffd9
000e
ffee
0016
0015
ffdc
fff2
0011
001f
0016
fffe
fff3
0004
000d
000c
001c
ffe4
fffd
0027
fff0
fff7
0003
000c
000f
0003
001a
0021
fff7
ffff
0006
fff6
0027
000c
ffe9
fffd
ffec
ffee
0001
0013
fff3
ffe6
fff0
0000
fff8
000c
ffee
fff3
0001
fff1
0002
0015
fff5
0008
fff4
0018
0021
001a
000b
000d
fffd
0005
0009
fffe
0005
0008
0001
0017
0001
000b
ffd7
000e
0016
ffe7
ffe9
0011
0023
0017
0015
001f
0006
000b
fff0
0007
0010
fff0
ffef
ffff
0003
000e
fffb
0020
ffef
0006
000a
0006
fff9
000e
ffde
0014
ffff
000d
0011
000b
000a
0006
ffe0
0015
fff5
ffef
000b
0014
fff4
fffc
0012
fff5
fffa
000d
0001
000a
fff7
000a
0002
ffdb
0010
fff0
0015
ffea
ffeb
fffe
ffe5
ffee
ffe6
0010
0001
0000
0009
0003
ffec
fff8
0006
fff0
fffe
0008
0002
0009
000b
0004
fff4
fff4
0000
fffa
0008
0003
fffb
fff6
000a
fffd
0009
fff4
0007
ffff
fffb
0000
0010
ffff
fffc
fffd
fffd
0000
0000
fffa
fffc
ffed
0004
fffc
0009
fff4
fff6
0006
0000
fffc
0000
fffc
fff8
fff7
fff9
fffa
ffff
fff8
fffd
0003
0000
fff9
0013
fff0
fffe
0007
fff8
0002
000d
0003
ffff
0006
0002
000b
0008
0000
fff9
fffd
0001
fff8
0001
0000
0015
0009
ffff
0006
fffa
fff8
fffd
0010
0006
ffff
fffc
fffd
0002
0002
fff2
0008
0000
ffff
fffb
fffe
000f
0004
0004
0012
fffa
0008
fff7
0006
0005
fffd
ffff
0002
0006
fffc
0005
fffb
ffff
000a
fffa
0002
fffc
fff6
fff3
0005
0008
fffe
ffff
0000
fff9
fff1
fffa
0005
000a
fffe
fffd
0009
fff7
0008
0002
fffd
fffe
000e
fff5
fffb
0005
fff5
ffef
ffe4
0008
0009
fffe
0004
000c
fffe
fff2
fff2
fff4
0013
0006
fff3
fffd
0009
fffc
ffe4
fff1
0010
fff9
fff2
0013
0003
0015
fffb
fffd
0000
000a
fffe
fffe
ffef
0003
fff9
0014
fff4
fff9
ffec
000e
fff5
000e
0004
0008
fffb
0006
0011
fff2
fffa
0002
ffed
fffb
0005
fffb
fffc
0003
0001
fff9
fff1
0004
fff2
fffb
0003
fff8
0010
0004
0008
fff1
0007
000e
fffb
0005
fffe
0007
0003
fffc
0002
0007
0000
0003
fffb
fff7
fff1
0009
0009
fff7
ffea
0007
fff8
fff2
fff3
0008
fff1
0000
0009
0005
0002
000b
fff9
fff5
0009
000d
fffd
fff4
fff9
0010
fffa
fff2
fffe
ffee
0001
fff8
fffe
fff9
0009
0008
000d
0010
0010
0011
fffa
ffff
000b
fff6
ffff
fff6
ffed
0000
fff7
000d
fff7
fff2
0008
fffe
0005
0009
0003
000f
0002
ffed
ffec
0001
fff8
fff7
fff7
000a
fffe
fff8
0011
001b
000f
0016
0008
ffde
000b
0024
ffe9
ffeb
0010
fffb
ffe5
0008
0001
0008
fff5
001b
0017
fff0
0001
ffff
0004
0002
001c
fff3
0016
ffeb
0006
fff6
0007
0021
ffd7
ffe9
000a
ffff
fff1
ffcc
0013
ffed
fffb
ffde
0001
001b
0004
fff3
ffed
0021
001b
fffc
ffee
ffff
fff7
fff3
ffe8
ffff
0021
0001
fff1
0021
000e
0016
fff9
fffd
ffe0
0012
000d
0000
ffe1
0007
0013
0003
fff9
ffeb
fff7
0002
000a
ffd4
fff7
0015
0013
fffe
0002
000e
fffb
ffdc
0017
ffed
fffc
ffe3
000d
000f
ffed
000d
fffd
0002
0011
0009
001c
ffff
000e
0003
0011
ffdd
fff6
000b
ffed
fffa
fff8
fff7
0018
fffa
fffc
0008
0018
fffb
0004
ffe7
0013
000f
fff4
0017
0003
fff8
0005
000d
fff9
fff7
fffb
0026
fff6
000d
fffe
0026
fffc
ffe7
0007
0015
fff4
0011
0009
0010
0019
fffa
0009
0005
fff1
0002
0007
000c
001d
fff8
000d
0010
0006
0007
0008
fff8
ffef
0002
0007
ffe9
0013
000e
0017
0005
fff8
ffe8
ffe8
000e
000d
0009
0000
fff8
fffa
fff4
0007
0007
000b
fff9
fff2
0001
000a
0000
0004
fff7
0008
0011
0001
ffdc
fff5
fffd
fff9
fff3
fffe
0017
0006
ffe4
0011
ffe9
0003
0000
ffe6
0006
0008
ffef
0002
0001
000b
fff9
fffd
001b
0003
fff9
fff8
0001
0001
0005
fffc
0013
fffb
ffec
000a
0004
ffe1
fff9
fffc
fff4
ffef
0006
fffd
0010
0000
ffff
0000
fffe
fff8
fff6
0003
ffff
fff3
fff9
fff2
fffb
000b
fffe
0001
000b
fffb
0011
000c
0010
fff8
000c
ffec
fff6
fff3
fff0
0011
ffe7
0018
fff6
fffa
fff8
0000
001d
fffe
fff9
0010
fffd
fff5
0005
fff7
001d
0019
0005
fffd
fff1
0007
001a
0016
ffeb
fff9
000e
fffa
fff6
000e
0011
0009
ffeb
0008
0012
0005
001d
0011
fffd
fff3
000b
0015
ffe6
001c
ffe5
0007
0017
ffeb
001d
000a
0003
0000
ffe5
fff1
ffea
0013
fffd
000d
0005
0008
001c
000d
fffa
000a
0014
ffe1
0004
001f
ffee
fffa
0007
000b
0002
0003
0023
fff8
0000
0014
0006
fff4
fffa
fff1
000f
0001
000c
ffe0
0009
0003
0006
fffc
000b
000a
0012
0001
0007
fff2
0002
fff8
0029
fffe
0011
fff6
0009
ffe0
fff7
0003
0021
fff1
fff9
0010
fff0
fff8
0000
ffeb
ffff
fff1
0005
0013
fff5
fff6
0010
0018
ffef
0015
000f
fff6
0008
ffee
fffe
ffe5
0008
ffef
fffe
0006
0005
fff4
0003
fffb
fff5
0007
000b
ffda
0011
000d
fff9
fff6
0007
001d
fffb
0011
000a
0003
fffc
0003
ffe7
fff4
ffea
0009
0017
0010
0006
0023
001f
000b
fff3
fff8
fff5
ffee
fff8
000e
fffa
0021
ffea
ffe9
fff8
ffff
fff9
000e
000a
0007
0011
0009
0003
fff6
ffff
fffe
0004
0000
000b
fff1
ffff
0010
fffc
fffa
0000
000c
0005
fff0
ffe3
0003
ffeb
001d
fffa
ffeb
001e
0003
fff8
000c
fff9
ffef
0007
000b
0014
fff7
ffff
fffa
fff9
fff1
0005
000d
ffea
0003
ffff
0010
000b
0003
0011
000d
0014
fff6
000a
fff3
0004
fffb
fff4
ffe6
0012
fff9
0006
0003
0000
ffea
0009
ffef
001e
ffff
fff8
fff3
0007
fff1
001f
000a
0013
000c
ffe3
fffb
000d
ffe3
0006
0015
fff9
0011
0002
0001
fff5
0012
0004
0008
000f
fff8
fff6
fff1
ffff
fffd
0005
fff2
fffe
0018
ffe3
000b
0007
0011
001f
0003
fff0
0014
000a
fff3
fff4
0004
0003
0009
ffed
0006
ffff
fffd
fffa
0011
fff7
ffef
fff9
000a
000c
ffed
fff6
000b
fff4
0017
fffc
0004
ffef
fff7
fffc
0017
0002
fff4
fffb
000a
000a
ffff
000a
0001
ffec
0022
fff0
0016
fff3
0000
0003
ffd3
fffc
0009
ffe5
ffe7
fff5
fff3
ffe8
0000
fff5
0009
ffe4
0005
000e
ffef
0023
ffed
fff4
0018
0002
ffdc
0018
0011
fffb
ffe7
ffe9
fff9
ffee
fffe
0006
0009
000b
fffe
000a
fff5
fff4
0017
ffe7
0006
0008
fff9
001a
fffb
fff1
0018
0011
001d
ffef
0006
0002
ffea
0018
ffeb
0012
ffde
fff5
0008
fff6
0015
0006
ffec
fff3
fff0
ffff
ffed
001c
0001
ffe2
ffdc
fffc
fff6
ffe0
fffc
0019
fffb
fffa
fffb
000a
fff4
0011
fff0
0009
0024
fff7
000e
001b
0022
ffe8
0002
0013
000d
000e
000b
0006
0012
0006
ffea
0012
ffe5
0011
0000
000e
fffa
0002
ffe0
0000
ffec
fffe
0000
fffe
0026
ffe7
000f
0016
0014
fff5
fff4
0016
fffe
0014
001a
0026
0013
0009
000b
0010
0001
0002
0004
0003
0014
001f
0005
0007
0000
000f
0009
000c
0002
fff7
fff9
0000
0000
ffff
fff9
fffa
0007
0004
0011
fff9
0000
0004
000b
0003
fffe
0005
ffed
0009
0012
0001
fff6
fff9
0008
000b
fffd
0010
000b
fff0
0018
fffe
000c
0005
fff8
0001
0002
0005
0006
000c
fff8
0007
000c
0002
0011
fffc
0010
0013
ffec
0007
0011
fffc
000f
fff9
000f
fffa
fffc
fff5
0007
fffe
0007
fff8
0001
fff5
fffb
fff9
000d
fff5
ffff
0001
0003
0019
000c
0009
fff4
0011
0010
fff7
0003
fff7
0003
0014
0005
fff6
0001
0009
0010
0004
fffa
fff8
ffe7
fff4
fffa
0014
ffed
fff7
0000
0003
000c
000d
000e
000a
0013
ffff
000f
ffe9
0001
000b
fffb
0007
fffb
fff7
000d
000e
0016
fffc
000d
fff5
0003
fffc
0003
ffff
0001
0009
fff3
fffd
ffef
0001
000b
0001
000c
000b
ffed
0018
000d
0001
fffa
fff4
0005
fff5
000e
ffec
0004
fffd
000f
fff6
ffe2
ffef
0003
0005
0014
000f
ffef
0002
0007
fff9
0018
0011
fff4
fffd
ffff
000c
0005
fffa
0003
fffd
fff3
0006
fff6
fffa
fff1
0009
0009
0008
ffff
0018
0001
000a
0004
fff3
000a
000a
ffeb
fff9
ffe8
ffed
fff6
0014
fffa
000c
fff9
0005
000a
0011
fff7
fffb
0019
0011
000d
ffeb
000e
0001
ffee
0008
0013
ffec
fff1
fff9
ffe9
ffec
0007
0001
0003
fff8
fffa
0005
0014
fffe
0004
fff6
0005
ffe2
ffed
0003
fff5
fff4
0000
ffee
000f
000a
0002
fffd
fff3
0001
0007
fff9
0001
0009
ffed
0002
fffe
fff0
000d
0001
0002
0018
0003
0001
000e
0006
ffee
ffec
fff6
ffef
ffef
fff4
fff3
fffb
0004
fffa
fff9
0009
fffe
0008
0000
0013
0005
0009
0001
fffd
fff6
fff4
000e
fffb
fff5
fffa
000d
ffeb
0011
000a
0008
ffdb
ffee
0018
0017
fff6
ffe4
fff9
0005
0005
0016
fffd
ffef
fff9
000c
fffe
0021
fff4
000a
ffec
0002
0005
0020
fffe
0002
ffe7
ffec
fff9
fffd
0004
0012
fff3
000b
0021
000f
0011
0004
fffc
000b
0002
fffe
0004
0017
fff9
000e
0014
fff9
0001
ffe6
fff8
001e
ffee
000c
000a
ffee
fff6
ffec
0001
fffa
fff6
ffed
0021
fff7
0014
ffee
0004
0000
0005
fffe
000f
fff1
ffed
fffb
000d
ffee
0020
0005
000a
fff7
0009
ffea
000c
0006
0005
fff9
fff9
fff8
001b
0005
0004
0000
0006
0014
ffe5
001a
ffdc
fff8
0004
fff6
ffeb
fff1
0026
001b
0024
0000
0011
001f
000b
fff1
0013
0000
fff4
fff0
0019
0008
ffec
fff9
ffe4
fffe
fffd
fffb
ffee
000c
fffa
0006
fffa
fffe
0015
ffed
ffef
002d
0001
000f
fff8
ffeb
0004
fffc
0006
001c
0019
0007
000b
0020
0007
ffe0
fff6
000d
0002
ffe5
ffdf
000a
fff3
0004
0002
0002
0010
0011
0008
ffee
000d
0025
0006
0001
fff1
0005
fff8
ffff
fff5
0014
fff2
000e
0013
fffb
0006
0000
0001
0001
fffc
0016
001a
0021
ffff
ffeb
0000
001e
000b
0018
0013
fff9
0009
ffe3
ffeb
ffff
fff8
ffe7
0005
0007
fff7
0021
fffc
0007
fffc
fff2
0009
0023
0013
0002
0004
fff3
0010
0019
0003
0001
ffed
0011
fff2
0018
000c
ffeb
0011
0000
0009
ffe7
ffcc
ffea
001d
ffed
ffea
fffd
000f
000d
ffe7
0008
fff2
ffe7
0007
ffea
0013
0011
ffe2
0007
0006
fffc
fff3
0009
ffd9
0015
ffe4
fff4
fff0
ffed
ffc5
000f
000f
0001
fffa
0000
fff2
ffe9
ffe6
000e
fff9
fffb
ffe3
000b
0007
fffa
ffe2
fff9
fff6
0011
0001
fff5
fffc
0020
ffec
fffa
ffe0
0014
fff7
fffb
fffe
fff8
ffe3
0009
0015
0022
fff4
fff4
002c
000a
0004
ffff
fff4
0022
ffed
001d
ffd8
0009
fffb
fff7
0010
0018
fff1
0002
0017
fffa
0016
fff5
001f
000a
fffe
000a
ffdf
ffe4
000d
ffff
000a
ffff
fffd
fff2
000c
fffa
ffe3
0018
fff4
0005
001e
0015
fffa
000b
fff4
ffeb
fff3
0023
fff4
0001
ffee
fffc
0012
0005
fffe
000f
0009
ffd5
0018
000c
000c
0009
fff7
ffff
ffe2
ffef
0017
fffa
0005
0008
0008
fff9
ffe6
fff4
fff4
0000
ffe4
0002
0005
0008
ffe4
ffe9
000c
000f
fff0
ffef
0008
ffd8
ffec
000e
0008
000f
fff5
fff3
fff4
fffa
ffea
fff6
fff9
fff8
0017
fff9
ffea
0004
000c
ffec
0018
0012
ffee
fffe
ffee
fff0
0004
000b
ffe8
fff3
0002
fffe
fff8
fff3
0004
fff5
000f
0016
fffb
fff3
000d
0000
fffc
0017
ffff
000b
000f
fff3
ffe8
000f
fffb
0008
ffff
000c
000c
0001
fffd
002d
fffa
fff1
0022
0000
0003
0015
fff5
fff3
001b
0001
fff4
ffe3
0008
001c
ffd7
0007
0004
fffc
fff4
fffc
ffe4
001f
0003
000b
0015
fffd
0016
0004
0001
0017
fffb
0018
000f
0010
0005
fffb
ffeb
000e
0015
ffe1
001a
fff6
0019
001a
0009
0009
0026
0010
ffe2
ffe2
0004
0001
0020
001f
fff7
000f
0002
ffd1
fff9
fffc
0025
0008
fffc
0013
0012
fffb
ffe5
000f
ffec
0001
0000
ffee
fff8
ffee
0007
001f
ffee
000e
ffea
0027
ffef
0010
0012
001d
ffe5
0008
0004
ffe2
0009
ffeb
ffe2
0005
fffe
0007
ffcf
000d
000a
fffe
fff2
ffe9
fff6
0009
0002
ffeb
0000
0010
0000
fff2
fff2
ffeb
0010
fff8
0015
0008
ffed
fff9
fff3
fff3
ffe3
fffd
ffe8
0015
fffb
001e
ffe8
fff0
fff4
0014
0013
0019
0014
ffe0
0016
fff9
fff7
fff7
001b
fff3
0004
ffff
ffff
0012
fff1
fff0
0007
002f
ffe0
ffe6
fff3
0001
ffed
000d
ffe7
0010
000e
001c
ffea
0018
000a
0014
ffde
ffdf
001f
0015
0001
0010
fff0
0004
fffc
000d
0016
fff2
fff0
fff0
0012
000f
fff1
0016
ffe9
000a
0003
0030
0004
fffe
000c
ffe5
ffff
0021
fff8
000e
ffea
0016
fffc
0007
000d
fff0
0001
0005
fffe
fff6
ffed
ffff
ffe9
fffa
000e
0028
000a
001d
fff1
fff8
0010
fff7
0005
ffff
0020
0002
0006
0009
ffed
fff5
fff5
0020
fffe
fffc
ffe0
fffe
001c
0007
ffec
ffda
fff7
0019
fff5
000c
ffe3
0020
0016
0025
0015
0019
0000
000e
000e
0014
0004
000e
ffea
fffa
0014
fffb
0004
0003
ffec
0004
ffff
fff7
0017
fff1
fff7
0026
ffd8
fffb
0010
fffb
0013
0008
000e
fffb
fffe
0021
0019
fff7
ffe7
ffff
0000
fff7
0012
fff2
fff0
fff2
fffb
fffa
0015
0002
0002
fffd
ffe2
0028
ffe2
ffe8
0020
000a
000d
0002
0007
fff4
fff0
ffe6
0012
fff0
fff3
fff7
0013
0006
000f
0004
0002
fffa
0008
0002
fffe
0012
fff3
0002
fffa
001e
ffec
fffd
000c
fff7
fff9
ffea
ffdd
fff6
000c
fff4
fffe
000e
0012
0005
0010
0009
ffef
0005
000c
000a
000a
0000
fff6
0004
0011
fffd
0007
fffe
fff3
fff0
fff3
0007
0015
0009
fffc
fff0
ffec
0006
0002
fff7
fff8
fffd
fff1
fff9
000e
fff4
ffed
000d
0008
0003
fff4
fff1
ffff
0003
fff2
0000
fffe
ffed
fff9
0019
fffd
0008
0000
ffe6
fff2
fffa
fffc
001f
ffef
0015
0001
fff5
000b
0012
0017
0015
0007
ffee
ffef
fff5
0009
000e
fff5
0009
0013
ffff
ffef
fff2
ffed
0017
fff6
0009
fff4
fffb
ffe6
001c
0005
fff8
fff2
fff3
0001
0007
0012
0016
fffb
fff0
000c
fffc
fff4
fff2
fff0
0010
000a
ffed
fffc
0017
0007
fff6
0013
0004
fffc
0006
001e
0006
000b
0002
000b
ffe1
fffd
fff8
0007
0012
fffc
0009
ffff
fffa
0003
0005
000d
0005
ffff
fff9
fff3
0002
fff0
ffff
0009
0003
0006
0004
0015
000e
fffa
0013
fffe
000d
fff5
fff5
0003
fff4
fff8
fff5
000e
0008
ffec
0017
0003
ffff
0008
fff7
0003
000e
0007
000d
000c
ffff
ffea
fff0
0016
fffb
fffc
fff8
fffb
0005
fffc
0011
fff4
fffb
fff9
0008
ffee
fffd
ffee
fffa
000f
000e
0016
ffec
0004
0006
ffe6
000a
0006
fff7
ffe9
000d
0002
0008
ffe8
0009
fffb
0005
0010
000f
ffee
000b
0008
fff7
001a
0007
ffeb
0008
000f
fff8
0008
fff0
fff8
fff5
ffe5
fff0
0015
fff3
fff9
0012
0015
0007
fffb
fffe
0004
0000
fff2
0006
fff0
fffd
000e
000d
fffb
fffc
000a
fff3
fffd
0008
0010
0012
0012
fffa
ffea
fff0
fff4
ffff
000c
ffff
fff7
fff2
000e
0005
fffd
0008
000e
0018
0002
fff3
000c
ffff
000f
fffe
fff8
ffe6
0019
fffa
000d
fff8
000f
000d
fff9
0019
ffe8
0002
0010
000a
0003
0024
000d
0015
0009
ffe7
fff1
0011
0003
0005
ffe5
fff4
0004
fff2
0000
fff5
0000
001d
0007
ffe7
ffd9
0005
ffff
000e
0009
0005
fff3
000e
000f
0007
0006
000b
0001
fff4
0011
0011
0003
0006
fffd
ffec
0003
ffff
000e
0006
0018
0015
fff9
0018
ffec
0027
ffff
fff3
001e
000b
ffc9
0016
0009
001e
fff2
ffe5
fffe
0012
fff6
ffeb
0000
000a
0001
0016
ffea
ffe2
fff8
fff8
0002
000e
fffe
fff7
0012
0016
001b
ffec
ffef
fff4
fff4
0002
fff4
fff3
0001
000a
ffe6
ffec
fff8
ffe9
ffe1
0027
ffde
fffc
0005
fff7
ffee
fff6
ffe8
ffdd
0007
0005
000c
ffed
000a
ffda
fffc
0013
fff6
fffe
ffe9
0015
fffd
fffa
0019
0026
fff0
ffdb
fff8
ffe1
ffeb
0006
ffdd
fffa
fff4
0001
002b
ffdc
000c
0044
ffe4
0006
fff8
000d
ffeb
ffe9
fff9
ffe1
0026
fff0
003f
fffe
0016
ffe7
ffe2
0023
ffe0
000c
0015
0000
fffe
000c
0017
ffda
000f
ffe8
ffdf
0017
fff1
0017
fff2
000f
fff1
0018
ffe3
ffde
fff5
ffef
fff9
ffee
0029
fffe
000b
fffb
0011
0006
fff9
0011
fffa
000c
ffec
0001
0011
0001
fffb
0044
ffe6
ffec
fff3
0012
0004
000e
0000
fff8
ffe2
ffde
000f
fff9
fff4
ffe7
0015
fff8
000b
ffe6
ffee
fffb
fffb
000e
fff6
ffe0
0027
fff3
001d
ffe5
ffea
ffe0
ffef
0036
ffff
ffec
fffc
ffea
0000
000a
fff2
000c
0012
ffe6
0011
fff6
fff7
0007
001d
ffff
0013
ffd7
0020
ffe6
0004
0001
001c
fffc
fff1
ffe0
fffc
fffb
ffdf
0007
fffc
0000
001d
000f
fff9
fff3
fffb
fff5
ffe1
0000
ffe4
fff0
ffec
fffd
0003
0008
0004
fffe
fff1
fff4
0019
0017
0000
0009
0005
fffe
0007
fffd
0013
fff7
fff4
fffe
0007
000b
0002
0002
0005
0026
ffff
ffe3
ffe7
fff2
fff8
0008
fff7
fff5
0001
fff3
ffff
ffec
001a
0022
fffb
000c
000f
ffed
fff7
0015
0002
0013
fffa
000c
000b
fff7
0016
0017
0013
000c
fff6
0004
0000
0013
ffe2
000d
ffff
000f
fff7
0002
fffa
ffff
0015
0001
0007
fffd
ffec
fff1
0015
ffec
000d
0019
0012
fffb
fff2
ffe9
fff3
0005
fff3
ffef
000e
fff2
0005
0016
0034
0007
fffb
0015
ffef
fff5
0001
0020
000f
0004
0009
fff0
0012
fffd
0001
fff9
000a
fff9
0019
0004
000f
0013
ffe0
0004
000f
000a
ffff
0020
fff8
fff8
0007
0000
ffff
0000
fffa
001f
ffef
0010
fff2
fff0
ffed
ffda
0005
fff3
fffa
fff3
fff7
000b
0012
0012
fffa
ffed
ffe4
0023
fffb
fff7
0015
fffd
0009
0000
fff2
fff3
fff3
fffd
fff2
0000
0009
0014
0005
fff4
0002
000f
000c
0005
000f
fff9
0000
0004
0003
fffa
fffc
fff4
0006
0011
ffff
0005
0001
0003
fff6
fffa
000c
fffe
0011
fff4
fffb
fffa
0012
fffb
fff6
0003
0000
fff2
fff8
fffb
fff2
fffc
ffee
fff4
fffc
fff7
fffa
fffa
000b
000a
ffff
0010
fffb
fff7
ffff
0008
fff6
fff7
fffc
fffc
0003
fffe
0002
000d
fffd
ffff
fffe
0000
0004
0003
fff4
0000
0007
fff8
ffff
000c
fff4
0001
fff3
fffd
ffec
000b
0007
ffff
0001
0009
fffc
fff3
fffa
0001
0009
0002
fffb
fffe
0007
fff0
fff9
ffee
fff4
fff7
ffeb
fff8
0012
0005
ffff
0011
0004
000c
fff4
000f
fff2
0008
0000
0007
ffff
fff8
0012
fff5
fff6
fff9
0004
fff5
0010
000c
0006
0000
fffe
0012
ffef
0008
000a
0006
fff9
fff5
fff9
000f
ffe2
ffdc
fff5
ffef
fff4
001e
ffe5
0007
ffee
ffdf
000f
ffec
ffff
ffe0
fff7
0006
ffdc
0004
0015
fffa
fff9
ffea
0008
fff9
fffa
ffe5
ffe4
001a
ffef
0009
fff3
0007
fff7
0004
0000
fff8
fff6
0005
fffa
fff9
ffff
0017
fff0
0019
fff7
fffa
ffec
fffb
ffee
000b
fff0
000c
fff6
0008
fffa
fff7
fff4
fff4
ffff
fff4
fff5
0004
0007
fff6
fffb
fff3
ffe1
001d
0000
ffff
fff6
0001
fffc
ffff
0001
ffed
0001
fff4
0010
fff8
fffb
fffc
001b
001a
0003
0014
fffd
fff0
fffe
000e
0005
fff7
fff0
0001
0004
0006
fff3
0018
ffec
0002
000b
000a
0016
0012
fff3
000f
0000
0006
0007
0008
0019
ffee
fff3
0010
fff0
000e
0010
fffb
fff7
000e
0011
000f
0008
fffe
000e
000c
0000
001b
fff4
fff3
0010
ffec
fffd
0004
0006
0007
0005
001a
0003
fff9
0007
fffe
000c
fffb
fff3
0003
fff1
0005
fff6
fffb
0007
0008
ffff
0002
fff9
fff8
ffff
fffb
000b
fffb
fffb
fff7
000e
0000
fffc
ffeb
fffa
fffc
fffc
0003
fffd
fff2
fffb
0011
0006
fffc
0000
ffff
fff4
0006
0009
000b
fff7
0000
0006
0009
0000
fff0
fffd
0000
fff1
fffc
fffd
0002
0000
fffd
fffb
0006
ffff
fff8
fffb
0007
fffd
fffd
fff9
0008
0011
0001
fff1
fff0
fffa
fffc
fff7
0006
0001
0008
0002
fffd
fff5
fffa
000b
0009
fffb
fffe
fffe
0007
fff3
fff0
0007
fffe
fffd
fff6
0005
0007
fffc
000e
ffe9
fffb
0004
fff6
fffe
fff9
0007
0006
0006
fffe
fff8
fffe
fff4
0000
fff4
0000
fff4
fff5
fff2
fffd
0005
fff5
0001
0008
fff3
fffe
0003
0004
fff8
000c
000c
fffc
000a
0002
fff8
0000
fff6
0003
0002
fff7
fff1
fffe
000e
fffd
0001
fff9
000e
0000
0001
0008
001c
ffdd
0011
0016
0003
0009
0019
0015
0001
fff2
0004
0009
0001
fffa
000a
fff0
ffe4
fffa
000d
0003
0028
ffed
0021
fff7
ffd8
ffef
0003
002b
000f
0003
ffd0
0001
fffd
0013
0003
0015
fff9
fffd
ffe6
001a
ffeb
fffe
fff6
ffe2
0017
001c
ffdb
0009
fff5
0020
ffe7
ffe7
0003
ffed
000c
000a
001c
ffec
ffef
fff3
fffc
fffc
0017
001d
ffd2
0026
0009
0025
0012
fffe
0018
000d
0009
000c
ffff
0011
ffcd
fff7
ffec
ffe7
ffeb
ffed
0009
001b
0004
000b
ffe9
0013
000a
0010
fff1
0005
ffed
0008
fffb
000f
fff4
0016
ffd1
fff6
0005
ffdd
fff8
000e
fff7
0016
ffff
0013
001e
000f
ffe4
000f
fff8
000e
0014
0005
fff8
ffff
ffe4
001d
ffd8
ffe0
fff3
000e
fff0
ffed
ffe0
fffb
0008
ffef
0026
0000
fff5
ffdc
ffe3
0026
000e
0002
0017
ffed
ffff
fffa
001f
0003
fff6
0006
ffe5
0012
fffb
0004
0009
ffe8
000f
000a
0007
0000
fff2
fff3
ffe0
fffd
fff0
fff9
0001
fffc
fff7
001f
fffe
0015
fff8
ffee
ffe1
ffec
0003
ffe6
fff2
fffe
0008
000a
0006
001d
ffff
0001
fff2
ffff
0005
000e
fff2
0005
0005
fff7
000f
fffa
fffe
0015
0010
0016
fff7
0017
fff9
0009
ffed
0012
0013
ffee
000a
fff2
000d
fff6
0009
fffc
fff3
0002
000f
0004
fff8
0020
ffeb
fff5
ffff
0013
0007
0000
ffee
0004
0005
ffff
ffe7
ffff
fffe
000a
fff0
0009
001e
0024
fff0
fffe
0012
0003
000c
000d
0001
000b
0002
ffff
0000
000b
001f
0003
fff5
000d
0003
0013
0015
0004
0008
fffa
ffeb
fffe
0009
0011
fffe
0018
0005
ffe4
0006
fffe
0015
ffed
000a
fffa
fffd
ffea
0009
fff7
fffa
ffec
fffc
0005
fff9
000e
ffe8
fff5
000d
fff3
ffee
ffee
ffe9
ffed
0023
fffb
ffdf
0015
0005
0009
ffe9
fff6
fff5
fff9
0008
ffff
fff5
fff9
ffee
0009
fffa
0008
fff1
0005
fffe
fffa
0009
ffec
000e
0018
fff7
fffc
0005
ffec
0014
fff4
ffeb
000b
0021
0000
fff5
fffa
ffe1
0015
fff3
0022
ffde
0000
0002
0005
fff8
ffe8
0016
0003
ffda
0009
fffd
fff3
ffe6
ffe0
0004
000e
ffee
ffe3
0003
fffc
001b
0003
0005
000b
fff7
fff6
fff2
0003
000d
0006
ffee
0004
ffed
fff8
ffe3
0019
fff1
fffe
0010
ffea
000c
fff2
000d
0009
ffff
000d
fff2
0007
fff4
0008
0007
0008
0010
0005
0004
000b
fffb
000f
fffd
fff2
0008
0007
ffe2
0003
ffee
0007
0000
0017
0003
000e
0006
0003
0019
fffa
fff7
0012
0014
fffb
000a
ffe3
ffee
fff1
0005
000c
fff0
0006
fffd
ffe6
0001
000b
0011
0001
001b
fffd
ffe2
ffed
fffe
000a
0014
ffff
0000
fff9
0004
0004
fff8
0001
0018
fff9
fffd
fff2
0001
fff3
000b
000e
fff4
ffff
fff3
fff4
fff6
0005
001b
fff6
002a
0013
0006
ffda
0004
0018
fff7
0001
ffed
fff8
fffe
fff9
ffe6
0001
0001
0002
0015
fffe
0002
0007
0010
0003
000a
0024
0000
fffa
000f
fff2
ffef
fff7
fff4
0017
0002
ffea
0003
fff7
0001
000e
0012
0002
fff0
fff5
0011
ffee
fff2
0001
0009
0019
0015
ffee
000e
0004
fff2
001c
ffde
001c
fff9
0012
0024
0000
ffde
ffde
0002
fff2
0015
000b
000b
0011
000e
000e
0009
0006
fff3
fffd
000b
fff6
0006
0020
ffdf
001b
0004
ffe5
000e
0009
ffe6
000c
fffa
ffe6
0018
0015
ffe3
001a
0008
ffee
fff3
001a
fff6
ffe6
fff9
ffff
ffe7
0003
fff1
000f
fff0
ffdb
000f
ffee
0003
fffa
0017
000b
ffed
fffa
ffe8
fff5
0005
fffc
ffed
0011
0002
fff9
0023
fff8
ffea
fffb
0004
fff9
fffd
fff8
000d
000d
ffee
fff9
fff9
000b
0000
0003
0000
fffe
0007
0002
0008
fffb
fff0
000e
fffa
000e
fff5
fff4
001a
fffc
0001
0012
0000
fff4
ffff
ffff
fff4
0008
ffec
000c
000b
0003
0005
0018
fff1
0006
fffd
000b
fff8
fffb
0005
fff6
000a
fff0
0007
0001
fff4
fff9
fffe
000e
ffed
0001
fff5
ffff
fff6
0008
fffc
0004
ffff
fff8
fffe
000a
000b
fff1
000c
fff8
fffa
ffeb
0017
fff2
0000
fff9
000a
fff1
0008
fff1
000a
ffea
fff4
0005
fff1
fff9
ffef
ffee
0002
0009
000e
0005
0000
ffff
fffa
ffff
0000
000e
fff5
0009
000a
0001
fffd
fff6
0004
fff1
fffa
fff0
0004
000b
fff6
fff3
0002
000e
fff1
fff8
0000
fff4
0002
fffc
0001
000b
ffff
0016
0007
ffef
000d
0006
ffe4
fff7
0015
0018
000a
0007
ffe9
0011
fffa
fffb
000b
0006
0002
0003
fffa
ffef
fff4
fff5
0006
0002
fff4
0000
fffa
fff6
000a
fff3
000f
ffea
ffe8
0000
fff3
fff0
fff4
fffa
0001
fff1
fffa
000c
0006
ffef
0012
fff2
fffd
0009
ffe6
0001
fffe
0001
0004
fff4
000d
0013
ffed
fff7
000b
0013
0017
fffd
000d
fff5
fff1
fff7
000a
0005
0000
fff2
ffff
ffe2
fffa
ffee
000d
fff0
0005
0005
fffc
0011
0000
0008
fffa
0006
000c
fff9
fffe
fff1
0004
0007
fffd
fff8
ffff
000a
000c
fff2
ffff
fff0
ffea
0022
ffec
fff6
fffe
ffea
0017
fffa
0018
0019
0009
fffd
fffd
fff0
0002
0003
000f
0000
fff5
fff3
0004
fff6
000c
fff8
0013
0014
0017
0000
0007
0007
0004
ffec
000e
fff5
0009
fffd
0006
0012
fffa
0005
ffef
fff6
fff5
fff4
fffa
0009
0017
fff5
fffe
0007
000d
0010
0000
000d
fff3
0000
fffe
0002
0014
000f
ffe8
fff3
0000
fff7
0008
000e
ffea
fff7
0005
fffc
fff7
0000
0004
fff0
ffe3
fffa
ffed
fffc
0015
fff7
ffeb
000c
0015
fff7
0004
fff8
fffb
fffb
ffff
000f
000d
ffff
0004
fff8
0013
0008
0004
0008
0001
000c
0004
ffed
0002
fff7
0002
fffc
ffed
fff4
0010
fffc
fff4
fff9
ffee
fff7
0000
fff1
0003
001c
fff9
fff5
fff7
ffee
fff1
fff8
0012
000d
000b
0002
0013
fffb
fffb
fffa
000d
000a
0009
000d
0009
0024
0015
0009
000d
0000
fffe
fff8
fff8
ffef
fffd
fffb
0018
ffec
fff0
0019
fff6
001a
000f
0016
fff5
fff9
fff0
fffb
0004
0006
000b
ffe2
fff8
0008
000b
fff6
0008
0007
fff7
fffb
fff2
001b
fffc
fff6
fff5
ffed
000b
fffb
0005
000f
000f
0000
ffee
0016
fff3
0004
000c
0011
fff6
001d
0000
fffc
000d
fff5
0017
000d
fff7
0013
000c
fffc
0016
fff9
000d
001a
0005
0013
fffb
0006
0005
ffe1
ffe9
fffc
fffd
fff1
0021
ffe7
0012
0013
000a
fffe
0020
ffef
0016
0007
0019
fff3
0002
fff0
ffed
001b
ffd9
0017
ffde
000a
0023
fff9
ffda
0018
0002
0011
fffc
0006
fff9
fffb
0002
0009
ffdb
0012
0007
0008
fff1
000f
ffff
ffea
fff1
0006
ffea
000b
fff8
ffe4
0036
ffef
0008
0028
fff2
0002
fff6
fff7
0003
fff0
ffdf
fffa
0021
0003
002f
ffe9
000d
ffe8
0012
0022
fffb
0003
0012
ffff
ffeb
0003
fff8
0000
000e
ffeb
0005
000a
0014
0013
0007
fff3
0004
000e
fff1
fff7
ffed
0003
fff5
0001
fffd
ffde
0003
0002
0018
0009
fff5
000e
fffd
000c
0009
fffb
fff1
fff8
0012
fff7
0027
0005
0008
0007
fff3
000f
ffef
fff5
0018
0011
ffec
0002
000a
fffa
000a
0012
0003
fff2
fff2
fff8
fff9
ffe2
fffe
000a
0012
ffff
fff4
ffd5
fff8
fff7
0014
000f
0007
0002
ffed
ffee
0003
fffc
fffd
0005
0008
0009
fffe
000c
0003
0001
001c
0008
fff2
fff2
0001
fff6
0003
fff3
0003
fffd
0004
fffc
fffd
000b
ffef
fff3
0000
0003
fff8
fff9
000a
fffb
0008
0005
fffb
0010
0003
fff3
fffd
0011
fff2
0004
0008
000c
0005
fff3
0002
fff6
0003
fff3
0005
fffb
0017
0003
0010
fffb
fff5
fff9
0005
ffff
000a
000d
fffc
fff8
000d
0003
fffd
ffe9
fffb
0000
0005
ffef
ffff
000d
000f
0004
0007
fffc
fff6
000d
0008
fffa
fffc
fff7
fff5
fff1
0002
fff9
fff7
ffed
ffee
fff2
fff9
0001
ffff
0007
0003
0003
fff9
000a
0000
0003
fff4
ffeb
0009
0002
000f
0002
fffd
0005
0000
fff1
fffb
fff7
fff9
ffef
fffe
fffd
fffa
fff6
ffff
fffc
0003
0001
fffe
fffd
fffe
0004
fffe
fff9
fff8
000a
000f
0006
0000
ffff
fff9
0012
0002
000e
000b
fffe
fffb
fff5
0010
ffe9
ffe8
000c
fffe
0002
fffb
ffe7
fffc
000a
ffeb
ffea
fff7
0004
0005
0012
fff2
0013
fff0
ffe5
0004
0017
ffe7
0002
000a
0009
fff6
ffeb
0003
000a
0000
0006
000b
000a
ffff
ffef
000b
fff6
fff5
fff1
0021
0002
fffb
000e
fffe
ffeb
0007
fffb
fff6
0006
001b
fff6
0000
fff3
fffb
fff9
0008
0023
ffed
fff8
fff5
ffed
0009
0013
fff2
0000
fff8
0008
fffa
001c
0001
0000
fff2
0010
ffec
0003
000a
fff2
ffff
0011
fffe
fff3
0004
0013
0005
ffea
0000
0012
0011
0000
001d
fff5
fff3
001e
0014
fff9
ffec
ffef
0009
0005
fff3
fff4
ffef
fff3
fffb
0018
000d
0019
000c
fffa
000e
fffa
fffb
0003
ffee
ffe9
fff1
fff6
0004
0006
0000
fffd
000c
000b
0007
0011
000e
fffb
fff7
fff2
fff0
000c
ffe3
0008
ffd4
fff3
ffe3
0002
ffed
fffc
fffb
ffea
ffe3
ffec
ffeb
0012
000b
0016
fffd
fffa
fff6
0018
0007
0007
fffd
0007
ffee
fffc
fff7
000d
0007
ffff
000d
0019
ffed
fff2
fff7
ffea
ffee
0003
000a
000b
fff5
0005
0010
0004
0019
0007
fff3
ffed
fffd
000c
fff2
fffa
fff4
0006
fffe
0016
0015
0022
0011
0018
fff9
000b
fff8
0000
fffc
0002
fff7
0008
fff2
ffee
ffff
0000
000f
fff0
0000
001b
0008
0005
0006
0001
0007
fff3
0002
000a
ffef
fff5
fffa
fff8
fff7
fffe
000e
001c
0004
0008
0009
ffe8
000c
0004
0004
0004
0018
0000
ffec
fff9
ffe4
0014
fffa
fffb
fff6
fff1
0006
001c
fff5
fffe
fffb
0017
fffb
fffb
fff9
fff0
0005
0012
000b
ffea
fffd
000d
001b
0014
fffd
0011
fffe
0006
0002
000b
fff6
0000
fff1
000a
0007
fff2
0004
fffc
0000
0027
000f
ffec
fff5
fffa
fff9
fff8
fffb
fff7
fff8
0003
fff5
0009
fffa
0011
fff4
0000
fff3
fffa
0010
0012
fff8
fff7
ffe6
ffef
0009
000f
000d
0004
0006
0000
0006
0011
000a
fff4
fffc
fffc
ffee
0016
0000
0006
000e
fff6
0004
0007
0006
fff8
0001
0013
0004
0002
fff2
fffc
fffb
0001
fff8
000d
ffff
000e
0006
fffe
000c
0015
000e
0001
0005
fffb
0014
fffe
fffc
fffa
fffe
0004
fffe
0006
fff8
fffb
fffa
000f
0000
ffed
0004
fff7
000c
fff0
0002
0001
fffa
fffd
fff5
fff0
fff0
001a
0003
ffe4
fffa
fff5
0018
000a
fff6
fff5
0010
ffee
ffe0
000c
fff7
0002
0008
0018
fffd
000b
ffed
0002
ffed
fff3
0015
fff5
fff2
0003
0004
000b
0005
0009
fff6
000f
fff2
fff9
0009
000b
fffe
fff7
fff0
0013
fffb
fff4
ffe7
000b
000d
fffc
0015
0008
0004
fffb
ffee
000f
fff2
fffd
fff8
0013
0007
000e
ffeb
fffe
fffe
fff3
ffed
000a
0006
fff0
000e
ffff
fffc
0011
fff4
0018
ffee
0016
0007
0012
fff7
0002
fff0
0011
ffed
ffe9
fff4
fff4
fffa
fff5
fffe
fff5
0005
0012
0002
0009
0003
0020
000e
ffe7
fffb
fff9
000a
0008
fff8
fff1
ffed
000a
0010
0008
fff1
fffb
ffe9
0003
fffa
fff9
001c
fff9
ffee
fffb
fffa
0013
000a
0008
0002
fff7
000a
ffe3
fff3
0008
002a
ffd8
fff3
ffed
0017
0003
0018
fffa
0005
ffe4
fff2
fff7
0014
0014
ffff
fffa
fff3
0009
ffe9
0001
002a
fff6
fff2
0000
000e
0009
0005
0011
fff2
0006
ffde
ffea
fff7
0024
0000
fff2
fffa
fff4
ffff
fff7
0001
0017
000f
ffec
fff5
ffe6
0008
fff8
0010
000a
fff7
000b
000c
fff0
000a
ffe4
ffff
000b
ffef
fff5
0001
fff3
0020
fffd
0006
0000
ffda
fff4
0008
0010
0010
fffe
ffff
fffb
0001
0001
0003
fffe
0006
fff9
fff0
fff8
fffa
ffff
0022
fffd
ffe9
fffe
fffc
ffe8
000c
0004
ffff
fffb
fff3
ffda
ffdb
fffe
000e
fff0
0003
0012
001c
ffe5
001b
ffea
fff7
fffa
ffff
fff2
ffe5
000f
0004
ffe4
0005
0018
0005
fffd
fff7
0005
ffe8
001c
0010
ffe1
0008
0007
ffdd
0006
0007
0001
0003
0010
0004
0023
0006
ffe4
0006
000d
0000
000e
0018
ffe6
fff9
fff3
0013
ffdb
fffd
ffea
0014
fff0
0007
000a
fffd
ffff
ffff
000b
fffa
ffee
ffff
0009
ffef
fffb
ffe8
001a
ffde
fff6
fff7
0001
ffff
fff9
000f
ffee
0003
000f
fffc
ffec
000f
0001
0001
ffef
fff6
000d
0013
fffa
ffe0
0011
fffc
001b
fff2
0000
0014
0024
fffa
fffd
ffe9
fff9
ffd7
0004
0004
000d
fff3
0027
0002
0005
fff3
0021
fffd
000a
fff1
001b
ffdb
0003
000a
0010
000b
000d
0007
fff7
fff9
ffef
fffe
0003
0008
0002
0008
fffd
ffe4
fffd
ffff
fff0
fff0
fff6
0007
0003
0007
000b
ffff
fffa
000c
0001
0006
0002
000e
0002
000a
0011
fffb
0009
fff8
fff3
0006
0016
fff0
fffc
fffd
fff5
ffe8
0005
0002
fffb
ffe9
000f
0006
0014
fff9
0013
000b
fff9
0009
000e
fff4
0003
0002
fffe
0007
fff9
fffc
000c
fffe
fff0
0017
0001
0005
fff7
fff7
0006
000c
fff9
fff4
000e
fffb
0000
0001
0018
000e
0006
0001
0007
fffd
fff1
fff8
ffea
fff7
0000
0000
0008
000a
ffe8
000c
fffa
fff8
ffe7
0009
0003
fff8
fff1
ffea
000d
fffd
0007
ffde
fff5
fff4
0014
0010
fff3
ffff
0004
000e
fff9
0009
0004
0008
fff4
0001
000d
000f
fffd
0018
fff6
000e
fff8
fffd
000d
0001
ffec
fff9
0011
0008
0009
0001
fffe
0004
fff6
ffff
fff6
0003
fffa
ffec
000c
0009
0006
0006
fffb
0016
0007
fff4
000a
ffec
fffe
fffe
0007
fffd
000a
0005
fffb
000e
fff6
fffb
0012
ffff
0004
000d
ffef
fff0
0002
000f
fffe
ffec
fffd
0005
ffff
0014
0009
0004
0016
0007
0015
000c
0008
0012
000d
0003
fffb
0010
000a
ffeb
fffe
fff5
0006
0010
0010
fff9
0012
fffd
ffee
0001
0000
0013
001c
0008
0006
0004
fff8
fff8
0016
ffea
fffd
0000
ffe6
0001
fffa
0014
000a
0001
000b
fffd
0000
0000
fffc
ffea
fff0
fff8
fffb
0013
fff5
0000
fff9
0009
000b
fffa
0004
ffeb
000e
0000
ffff
fff3
0001
ffed
fff8
0001
fff5
0010
fffb
000b
fff1
0003
fffe
fff5
fffa
fffa
fff3
fff1
fffb
fff7
000c
0003
000b
0005
001a
ffeb
fffc
0002
fff8
0004
fff7
0000
fff6
0007
0001
0006
fffd
0008
fffb
0005
fff6
fffe
000a
fffd
0010
fffc
0005
fffe
fffe
fff9
0012
fffe
0006
0005
000d
fffc
ffec
000a
0001
fffd
fff7
0000
000d
fff4
0012
0015
ffef
0000
000b
001b
0018
fffd
000b
ffec
0005
000b
ffea
ffec
0021
0007
ffee
fff8
fff6
fff8
ffeb
0011
fff7
ffdf
fff5
0007
0005
fff5
0015
0015
ffd5
fff6
0004
000b
fff3
0005
001e
fff2
fff7
0012
ffea
fff5
fff3
fff0
ffe2
0006
000d
fffd
fff8
fff5
ffef
0002
0000
0007
0000
0017
ffed
fff5
0002
0009
ffe6
0005
fff6
ffd8
fff6
0002
000b
ffe1
fffe
fffc
fff3
0025
fff2
ffee
ffdd
fff2
fff9
fffc
fff5
0000
000e
0009
fff6
fff6
fff3
000c
fffe
fff5
fff8
ffec
0024
fff2
0015
000b
0015
fffd
000d
000f
0009
ffde
0018
000d
fff7
0005
0003
0015
fff0
000d
0005
fff1
fffd
fff5
fff0
ffea
001a
0028
ffec
ffea
0009
fffe
fffb
fffd
0008
000b
0000
0018
fff8
0009
fff3
fff6
0011
0009
fffa
ffe6
ffec
0002
0010
fffe
fffc
0007
0009
002b
fff7
0002
000d
fffd
0005
001f
ffe8
ffdb
fff4
000f
fff8
0010
0012
000b
000f
fff1
ffed
ffe1
0010
0003
0004
fff9
0013
fff4
ffff
0002
0007
ffee
fff5
ffef
0001
fff5
fffe
fffb
001e
fff6
0013
ffed
000a
0004
ffe9
ffee
0009
0007
fff0
fffe
000a
ffec
0012
ffef
fff2
0000
ffe3
000a
0000
fff7
fffb
ffff
0017
0000
fff1
0003
ffde
0013
000a
ffed
ffeb
ffee
fffb
0005
ffe2
000b
ffe9
000f
000b
fffa
0007
000c
fff2
0011
0005
0002
fffa
fffb
0016
0003
000b
0006
0005
000f
0018
000f
ffe8
ffec
0009
000e
0005
0011
000e
ffe5
ffe4
0001
001d
fffd
0004
0013
fff9
001e
ffdf
0003
fff9
0012
0006
ffee
0014
fff6
fffd
0023
000d
ffed
ffec
0018
0005
0001
fffc
0008
0010
0002
fffa
000d
0016
ffd2
fff4
0003
0012
ffe7
0003
ffec
fff8
0009
fff1
0006
ffec
ffd8
fffa
0006
0001
fff1
0007
ffdc
0027
fffe
0002
0011
0016
0017
ffe7
ffdc
0005
0006
0005
001e
0004
ffd9
000d
ffd6
fffa
000f
0016
ffff
ffe2
0001
ffe3
ffde
000c
fff4
0000
0012
ffe7
fff1
ffed
0005
0029
ffde
0006
0027
fffa
ffef
ffdd
0000
fff8
ffff
fff8
ffe1
ffe5
0002
0017
0009
fffc
0000
0011
0004
ffd9
0005
0031
fff8
0011
ffcc
003a
ffdc
fffc
0023
0014
ffdc
0006
ffdb
000d
ffeb
ffe9
0001
ffe5
0007
0021
ffef
002b
fff1
0003
0015
0002
fff0
fffd
ffff
000f
0008
0000
fff8
fff3
fff3
fffa
0016
fffb
0002
0007
ffec
fffe
ffdd
fff3
ffde
ffe2
fff4
000b
ffea
0019
0019
0005
000b
fffa
fffc
0013
001c
ffd7
0027
0015
0031
0004
0006
000c
fffc
fffe
fffd
0018
fff6
000b
ffff
ffec
ffdf
ffeb
000b
ffef
0008
fff8
ffdf
0002
ffee
0010
002f
fff2
000d
0012
ffe7
0014
ffef
001f
001b
000a
fffd
000c
ffee
fff1
0006
0009
fff9
ffe0
fffa
0015
000a
000d
fff5
ffee
fff8
fff3
0003
ffe6
000b
0025
fff6
0002
0010
ffed
000b
0015
fff9
0027
0017
fff1
0006
fffa
ffed
002e
0010
fff0
ffee
ffee
fffd
ffdd
0013
000a
0004
000b
000c
0006
0016
fffe
ffcc
0009
ffd3
fff4
0012
0006
fffa
ffed
0015
ffe0
fffe
0010
ffe6
001e
fffb
fff0
fff6
fffa
fff2
0001
fff7
0014
0005
ffec
fff2
ffed
ffe0
000b
ffe2
ffff
0015
fffa
ffed
fffb
0006
0010
0008
fffc
0022
fff5
fff2
0002
0016
ffea
ffdc
fffd
0002
0009
0025
000f
fffe
001b
fff9
fff5
000d
0011
000d
fffe
001e
000b
0018
0006
ffeb
ffed
000b
0007
fff5
000d
ffd6
fff8
0030
ffe7
ffe8
fffb
ffff
ffd9
ffc9
000c
ffff
0011
0000
0006
0004
ffff
0003
fff4
000c
001b
fffa
fff8
fffb
0015
ffef
001a
fff0
ffe9
fffa
ffff
ffe4
0003
0015
000b
fff8
0008
ffed
fff7
fff2
ffe5
ffeb
0018
fff5
0007
0003
0003
0015
000c
fff6
0013
ffee
000e
0002
0012
fff6
fff8
0010
ffed
0011
ffff
ffff
000e
0008
0006
0011
ffec
0006
0003
ffeb
fff0
0001
fff6
0006
0001
ffff
fff1
001a
001a
fffb
fff9
0005
fffd
000e
0011
fffa
fff4
ffe9
fff3
0009
0009
fff7
fff3
0016
000b
0020
000b
fffd
0000
0003
0013
fffc
fff2
fffa
0013
0015
0016
0015
fffa
ffed
0005
fffd
001d
ffe2
0004
000e
fff6
0009
fff9
0009
fff9
0011
fff5
0008
ffe5
0006
fff8
0013
fff7
0001
fff5
0002
fff9
0010
fff7
000d
ffec
fffc
ffe8
000f
ffdf
0009
ffeb
0014
0010
000e
ffea
ffed
001d
0003
000c
0005
fff0
0000
0004
