0000
000b
ffee
0021
000d
ffde
ffe4
0011
ffee
0007
ffd6
fff8
ffe6
001a
ffd9
0025
0016
fffb
001b
ffd3
fffc
0008
0016
fff3
002e
ffd9
0013
fff3
000d
0020
ffcf
fff4
001f
000c
ffee
fff1
002e
001d
0026
ffd5
0018
ffd7
fffb
0038
ffea
0031
ffee
0023
0023
ffe6
0009
0030
ffe8
002f
ffef
001c
ffd2
ffd2
0026
0020
0002
000a
0011
0026
001a
ffe9
ffea
fff6
ffed
001b
ffd1
fffe
ffdb
ffec
0003
001c
ffd0
fff8
fffe
fffe
0025
0024
ffe7
ffcb
ffe7
0030
ffe1
fff7
0010
fff5
fffa
ffdd
fff5
0024
ffdf
002e
fff4
fff1
0000
fff4
0034
0025
ffd9
0036
fff3
fffb
001e
fff6
000d
ffec
002f
ffe6
ffea
ffef
ffc1
002c
fff7
ffde
000c
ffe8
ffd8
001f
0006
ffd8
0008
ffe1
0015
0027
ffd4
fffa
ffe3
000f
0027
ffeb
0003
0004
0028
ffe3
fff4
002a
ffe6
ffeb
fff6
ffea
0005
ffdb
ffee
ffcf
ffdf
000e
fff4
ffec
ffe6
0000
000e
ffdd
0023
ffe3
002c
ffe8
ffdc
001b
fffe
fffd
001d
fff1
0003
002e
001f
ffe3
000f
001e
ffe7
002f
0008
ffef
fff2
ffdc
0018
ffe7
0027
000c
001e
ffea
0034
ffde
ffea
0021
0007
0018
0021
ffff
0022
0008
ffde
000e
fff8
0019
0026
fff5
ffcf
0016
ffd8
000a
0019
000f
fffb
fff3
ffd7
fff7
0007
001d
0015
fff3
ffc9
0008
ffe8
ffe4
ffd0
ffda
ffd1
ffe2
0005
001a
0026
fff3
001a
fff4
ffde
0010
0002
ffec
0010
0025
002b
002e
ffd8
ffe1
0013
ffe9
ffbe
000f
0026
ffe6
0003
fff1
ffd7
ffcb
0017
0026
ffdc
ffdd
ffd1
0015
000e
fffe
0034
ffec
fffe
0025
0028
ffdc
001b
0008
ffe4
ffdd
0005
ffef
fffe
0011
ffec
ffe5
0026
000f
000c
002d
000f
0011
0001
000a
fff8
0025
ffe4
fff4
000d
ffca
0033
001f
0011
fffb
ffd7
ffec
0024
0026
000e
ffe6
fff9
0029
ffe9
ffcb
ffe7
ffda
0004
0007
fff9
000a
003a
ffe2
ffff
fff1
000b
0008
ffde
0007
ffe3
ffdf
ffef
ffed
ffd2
ffeb
ffe8
ffc8
ffea
ffe1
0018
002e
fffe
ffe2
0007
fff7
0016
ffea
ffdd
0017
0008
0031
ffe6
fffe
0015
002e
ffe9
0008
0028
ffdd
fffc
002d
fffd
0036
ffe3
0015
0001
fffb
ffd6
0004
001e
ffdf
0000
0000
003a
0004
0001
002b
ffef
ffea
000f
fffc
000a
ffde
0020
ffef
fff2
0008
ffec
ffcf
ffe9
0023
0020
0029
fff2
0018
0000
0015
ffe7
fff6
0036
ffcc
ffdf
fffd
002b
0012
ffe7
0021
0009
ffe0
0011
0003
001e
ffeb
0000
0024
0022
0021
ffe1
0012
ffd0
fff8
0011
002c
fffe
ffe9
ffe1
ffe8
002d
ffd5
000e
0026
fff7
fffc
0002
002f
0039
fffc
ffd1
0023
ffef
0025
ffee
ffdf
0006
ffd8
0018
0014
ffd5
ffe7
0034
0006
001a
ffd6
001c
001a
0003
0026
fff8
ffcc
0016
000a
fff1
fffa
0032
0000
ffde
ffd7
0038
0007
fffe
fff4
000f
ffd7
002a
ffd2
fff6
001f
fffe
002d
fff1
ffd1
0012
ffef
ffd1
0010
fff4
ffd2
fffc
fffa
0035
002b
002a
ffdc
0006
ffcf
ffe4
fffb
ffca
fff7
000b
0007
001c
0012
0028
0033
ffe5
fff4
ffe6
000f
fff0
ffec
ffd5
001f
001a
ffe9
ffe0
ffdf
ffe7
001a
0031
0004
ffd4
001d
002a
ffca
ffe0
001f
001d
ffc9
ffe6
0018
001b
000b
0007
ffd7
001f
ffd3
0034
ffeb
ffec
0009
0010
0034
ffe6
ffed
0004
001b
ffce
ffe4
0029
0033
0024
fff2
fff6
0013
002c
ffe5
ffef
000e
0003
002c
ffcb
000d
ffea
002e
0007
0007
ffee
002c
ffeb
fff0
fffd
ffca
0005
ffe9
ffee
0004
0029
0014
000f
001f
0005
0009
0008
0021
fffd
fff6
0014
0014
ffeb
ffc7
002f
0021
ffd8
0016
0019
ffea
0020
0007
0013
0011
002b
fff4
0004
0029
fff0
fffd
0005
ffd1
0036
0012
ffc3
001b
ffef
ffd0
fffa
0005
fff0
fff4
0005
0014
000f
ffe7
ffd2
ffd1
fff4
0008
ffe8
0002
0025
ffd0
001a
ffe4
0017
ffc5
0003
0006
ffd8
ffd2
0008
fffb
fffd
0010
ffda
001d
001e
0013
fff6
001f
0007
0009
002e
fffc
ffc7
ffe8
ffec
ffe3
fffe
ffdf
0003
fffa
ffd8
ffe1
0003
0023
0001
002d
0009
fff5
fff9
0001
0002
ffd5
ffe1
0018
ffd6
000c
fff2
fff5
0011
002b
0012
ffef
002e
ffe5
ffee
000d
fff7
fff4
fff5
001a
0004
002f
0002
fff3
001d
000d
000a
0003
ffff
0000
0006
0029
ffeb
ffc8
001e
000d
ffe5
ffd7
002a
000f
001a
0023
ffd6
ffcd
002d
fff6
001d
0005
001d
ffe1
ffce
ffee
fff2
000c
ffeb
ffef
fff8
000c
0035
ffd5
0014
fff7
0009
0004
001a
ffcc
0022
002b
fff6
ffcf
001d
0010
ffe0
0014
fffa
002d
0023
0008
0008
fff4
ffe8
0021
ffdd
0018
ffd2
ffc4
0004
0009
000b
0028
0023
ffdb
ffc8
ffe9
ffee
000f
001e
0035
0032
0024
ffe6
ffd0
0014
0019
0034
0010
ffe0
ffeb
001b
ffc6
0005
0003
0030
ffdd
0011
0022
0026
0023
fffd
0029
ffdb
000c
001c
fff4
001f
0003
000c
0019
ffe1
ffda
ffee
fff8
ffde
0002
0030
000b
ffe3
0028
0007
0004
0030
000e
001b
000d
0004
ffec
0004
0022
0022
ffee
ffcd
0026
0038
ffe8
0026
ffd9
fff8
ffcb
ffe3
ffee
fffb
fff8
0034
0019
ffca
0013
0007
001b
0012
0036
ffc5
fffe
0010
fffa
ffe5
ffca
002e
0006
ffed
0002
ffe8
ffec
ffe3
ffce
fffc
0014
0026
fffc
000f
0015
0014
000f
ffe2
fff4
fffd
002d
ffcc
ffd1
0000
fff7
ffd5
fff3
fff5
0025
0003
fff8
0037
fff3
fff5
ffe3
0009
ffc4
ffdd
fff1
002c
001a
ffda
0019
fff9
ffce
fffc
ffd6
000b
000a
0015
fffe
0022
ffff
ffe9
ffe8
ffd3
0018
0031
ffd6
0004
001b
003c
000f
fff1
fff6
ffc3
fffb
000c
ffde
ffe8
000c
000b
0000
0012
0014
ffcc
ffde
ffdc
0026
000f
000a
ffdd
ffe5
001f
ffd5
0037
001d
ffda
ffcf
0013
fffd
0035
ffd7
ffd0
ffe9
ffdf
0019
fff5
ffdf
000e
001d
fff6
ffc9
ffeb
0021
0014
ffd8
ffda
0027
0013
0010
ffe8
0009
fff3
ffe4
ffc7
0028
fffb
ffe3
ffd6
fffe
fff2
fffe
0038
fff5
ffcb
fff9
fff7
0033
fff3
0028
000b
002d
fff9
ffdd
fff6
0014
ffee
fffb
ffff
0032
ffe7
ffed
0032
0017
0014
ffe7
ffff
000a
fff6
0018
002c
fff9
002e
fff6
0024
fffb
ffcc
002c
fff0
0006
0032
000f
fff5
ffe6
000f
0034
ffd9
0018
0023
ffe8
0011
0012
000b
0019
000c
0010
0018
fff3
ffeb
0016
0013
0018
0000
fffd
fff6
0001
0023
000d
0011
ffef
000a
ffe0
ffca
0003
fffb
0009
0027
002a
0000
fffc
0006
ffee
0014
ffe2
fff0
0014
ffce
fff4
001e
000b
0003
ffee
fffd
ffff
ffce
ffe3
0033
fff9
0025
ffef
ffc8
002d
0006
ffd5
0006
fff0
fff6
0002
000e
001d
0023
ffdb
ffee
ffd5
fff6
001c
ffe4
0038
ffe5
001b
ffea
000d
ffcc
001b
0029
ffdf
ffe9
ffde
0011
001f
0028
0019
ffd5
0014
ffdc
000f
ffec
0012
fff9
ffe9
0015
000d
fff1
0026
ffe1
fff8
ffed
001b
fffc
fffc
fffb
ffe5
ffd3
ffe2
fff5
fff2
000a
ffd9
fff4
0020
0013
0014
ffd6
fff5
0002
0032
fff3
0038
ffef
ffe8
002a
000d
0032
0017
0014
001e
fffa
0001
ffeb
ffe9
fff4
0020
0031
0028
003e
ffda
fff2
0001
ffee
fff7
ffee
ffd5
ffda
0019
ffda
000a
ffdf
002d
000d
0030
0010
000d
ffeb
0009
0021
fffb
ffcb
0019
000a
ffd5
0006
0031
fff3
fff1
0038
fff8
0038
0021
ffe3
0020
ffda
fffe
002e
0021
0006
000f
ffd6
0004
0027
ffff
001b
ffd9
fff9
fff4
ffcf
0014
001a
fff2
fff9
000f
0004
002d
fff1
fff8
0011
fff3
0024
0025
ffd2
ffd0
0021
ffdd
ffd1
ffe2
0037
002b
fff1
0014
ffba
001e
000c
001d
0002
ffd4
0012
fff8
ffd0
ffd4
0000
fff8
0034
ffea
fffb
000b
fffd
000c
0015
fff6
0014
ffe9
0006
fff9
0034
fff4
fffb
fff1
002e
0003
ffdb
0021
0023
0044
ffef
ffde
0026
ffed
fffe
0006
0000
0008
0004
ffef
0002
ffed
001a
001f
0000
ffc7
ffe4
ffd6
ffd9
ffce
0026
000e
000a
fff7
001b
001b
ffcb
fff3
fff4
000d
fffc
0028
003a
ffd4
ffcf
ffe0
ffd2
fff3
ffee
fff2
ffdd
ffdc
0013
ffdd
0013
fff1
0009
0022
0004
002b
0008
0018
ffd2
0004
ffdf
ffcd
0025
0017
0003
ffdb
002d
fff4
001b
fffd
000e
0030
ffd5
002a
ffee
ffcd
0024
ffd2
0003
ffcd
0026
ffe4
ffca
0015
0002
0027
fff5
ffec
ffcb
ffc6
0010
ffe6
ffcf
fff1
fff9
fff6
fff0
0001
001e
ffcd
002b
ffe1
ffc7
0024
0028
0001
0020
fffa
fff9
fffa
ffd4
ffca
0007
0004
ffe3
ffdb
ffdf
002d
ffe4
fffa
0021
0000
ffe2
0024
fffb
0020
0021
001f
0007
002e
0003
fffc
ffed
ffc3
0012
ffee
0000
0030
0006
ffeb
0032
fff6
0019
ffde
fff5
002c
0005
0015
001e
002a
fff5
0022
0035
0010
0031
0014
ffd5
0000
0028
000c
0013
ffec
0005
001f
001e
001a
0015
0013
ffeb
000f
ffce
fff6
ffe4
000d
ffea
002c
0019
ffd7
002e
fffc
fff2
0006
fff7
ffe7
ffe8
ffe4
000f
0018
ffe0
ffc7
001e
fff4
0011
ffe8
0023
fff6
0017
0007
0006
000d
0008
fff2
0013
ffef
fff8
001b
000d
fffe
0044
fff3
0027
ffe6
ffeb
000f
ffcb
0002
ffff
0009
0034
ffee
0011
fffb
0003
ffd3
ffec
001c
0029
ffe0
fff9
0024
0022
002c
fff9
0021
fff7
002a
fffc
fffd
fff3
001a
ffe1
fff4
ffe4
002d
fff4
ffed
ffce
ffcc
ffed
ffd5
fff3
ffec
0000
ffe2
003d
ffdd
0023
fffc
ffef
ffff
fff2
fffd
000c
fff9
000a
fff5
0039
0016
003b
0007
0004
0019
ffef
0013
fff7
0016
ffd1
fff5
ffed
ffed
001d
001a
002f
0002
ffc5
fff6
0006
ffe5
000c
fffb
ffc9
fffa
fff9
fff2
ffd8
0007
003a
0024
000f
002e
fff5
0014
ffe1
ffd5
0018
0003
000e
0035
0013
ffea
ffe7
0003
0013
000b
0002
fff0
fffa
fff1
ffed
ffee
0012
0007
0032
ffea
0015
0003
0011
001b
ffec
ffe9
0003
ffee
003e
ffd2
0005
ffca
0011
ffe6
ffcc
fff4
001d
fff8
001a
0012
0004
ffe5
0024
fff1
0008
ffed
fff9
0021
fffb
ffcd
ffd6
0010
fff1
ffe7
001b
ffe6
0029
001a
0028
000f
ffdf
fffb
ffdd
002b
ffe2
0022
0013
0014
0011
fffa
fff0
0014
0021
fffe
ffed
ffec
ffcf
ffcf
fff3
ffe3
002a
000e
fff9
001c
002c
000d
ffca
0004
ffe9
fff4
ffe5
0013
002d
ffdc
0011
0027
ffcf
ffe9
0028
ffcd
ffd2
000a
0009
ffed
ffe4
ffeb
0015
ffeb
ffef
0011
0034
0014
ffe1
000d
0005
0000
0027
ffd2
ffe3
0027
fff3
ffe6
0018
0032
ffd3
000f
fffa
000e
001f
fffd
0021
ffe4
ffe0
ffe1
ffcb
000a
0009
0005
0009
0016
001b
ffd7
0005
0008
ffe6
ffc5
0027
000f
fff9
ffc9
fffd
0016
0008
ffea
fffc
ffda
000c
ffdd
001c
ffcb
0024
ffdd
0003
ffd9
0017
0029
0013
0023
ffdb
ffcd
0000
fff7
0005
001f
0001
fff0
001c
0022
0011
ffe7
0012
0024
0001
fffb
0003
000c
ffd1
ffed
ffe9
001f
ffd9
ffee
0019
ffe1
ffce
ffcf
fffa
0025
ffe5
0019
0021
000d
fffc
0024
ffd2
0017
0021
0023
0003
ffe8
0013
ffec
001b
ffdb
ffe9
0010
ffd6
0037
0020
ffdc
0027
ffe0
001b
fffb
fffe
001f
0016
001e
0002
0001
0024
0014
0039
ffee
ffdb
0023
ffd5
0007
0017
0007
0020
ffd6
ffee
ffed
0028
ffcf
ffdc
0024
ffec
0019
0006
0000
fffd
0006
ffd7
ffd0
0001
fff2
002d
000e
0022
0013
ffdf
0013
ffe9
ffff
ffe5
fff6
ffd3
fff8
ffe5
002b
0004
ffe9
fff7
ffd4
0008
0021
0007
0010
0028
ffd4
001b
ffc9
0022
ffd4
ffeb
fff7
fffb
ffce
ffc0
ffe4
ffff
0033
0016
000e
fff9
ffef
002c
001d
001b
0015
0026
fffd
ffee
0008
fff4
fff6
000a
fff1
0018
ffd4
fff0
ffed
0027
0013
0014
002d
fffa
fff6
0008
ffe2
0009
ffdb
fff9
fff0
000c
fff7
002c
0025
000e
0024
fffa
fff1
0012
ffdd
0020
fff6
0017
ffdb
0014
ffef
ffcf
0025
ffe0
0006
ffe3
001a
fffe
fff5
0002
0031
ffd7
ffe6
ffe7
ffc1
fff2
001d
fffc
0036
000c
0031
0003
0007
ffee
ffdd
ffea
fff1
0033
0012
ffe0
0037
ffdc
0004
ffcf
0038
fff6
fff3
ffcd
fffc
001e
ffd9
001f
ffdc
002e
0009
0003
fffe
0000
0017
ffc6
001f
ffef
ffe4
000b
0032
ffd4
0008
001c
0009
fff8
0010
0005
001e
fff1
fffe
000a
fffa
fffd
000d
ffed
fff7
ffe8
0001
ffd1
000c
0038
001c
ffc1
ffd0
ffce
001d
ffeb
0027
0024
0011
002b
ffdf
0003
ffff
0038
fff0
ffe9
fff9
000c
ffc8
ffe9
0022
0000
ffe6
ffdf
003a
ffd6
0022
0036
001a
ffc9
000a
ffe2
0003
ffc8
0010
fff0
000e
ffc8
ffe8
002c
fff5
fffd
0011
ffd5
fff6
0020
0020
fffc
0019
fff0
fffd
ffe4
ffd9
000e
fff9
0000
0036
0030
0034
ffe5
0031
0016
0014
0007
0001
001f
ffe4
ffcd
0004
000d
0037
fff9
0001
fff0
ffd2
ffd0
ffdc
0011
fff1
001e
ffd0
000b
0016
fff9
0027
0014
0002
0006
ffe9
fff0
fffb
fff4
fff5
002c
000f
fffd
ffec
ffe6
0009
0018
fff2
ffd4
002d
0010
0023
ffdf
ffe9
ffdb
000a
0031
0027
ffef
fff5
002c
0005
0036
ffd6
001d
ffef
ffe5
000d
0014
ffe5
fff1
0008
ffdd
ffcb
0035
001b
ffce
ffe8
ffd4
fff3
ffd5
002d
0011
0019
002b
0014
ffd8
0037
000d
000e
ffe8
ffea
ffe2
fffe
ffe0
ffd3
0014
ffed
fff7
0037
001f
ffdd
fff6
fff9
ffc2
fff9
0015
0024
ffce
0003
ffc9
002d
001a
ffc8
fff7
000a
0012
ffe3
0016
ffe7
001d
0029
0028
001e
fff1
0008
0002
fff8
000e
001f
ffdb
fffb
001b
0031
001b
0011
fffd
fff4
ffe1
ffff
fff9
0012
fff1
ffe1
002f
000c
0033
ffe6
fff7
fff9
ffe3
0002
fffa
ffe1
fff9
ffcb
0020
001b
fffd
001a
fffa
001c
fff6
ffe5
ffef
ffe5
0029
0020
0021
ffd1
ffe6
0029
001d
0030
000f
fffc
0003
fff6
ffe4
fff3
fffe
fffc
0022
0025
0017
ffeb
ffd6
ffd3
0017
001a
fff2
0028
000a
000b
ffd3
000c
fff8
ffca
0014
ffdc
ffef
ffc0
fff1
fff1
ffd7
fff8
0002
000b
ffe8
0029
0027
fffb
001c
0009
001c
0034
0028
fffd
ffd6
ffea
ffe6
fff2
0025
ffe9
0010
ffeb
0020
ffea
0024
ffe7
001c
0006
fff9
001a
ffc3
0012
fff7
ffe0
0006
fff5
ffd3
0025
fff9
fff2
001c
0032
ffdf
ffd9
000b
fffd
ffd9
ffe9
ffec
ffe1
ffe5
fffb
ffd6
0008
0025
ffed
001f
0012
0002
fff4
0022
ffee
fff7
0014
fff9
ffec
ffd9
fff8
fff8
ffff
0003
000b
0021
ffd4
ffdc
fff9
fff8
001f
0012
001d
ffd7
0026
ffdf
fff1
0020
0034
0002
001d
fff0
0029
ffe0
0012
0021
0000
ffe8
001d
ffea
000a
fff3
ffd6
ffef
0036
fff4
0026
0000
001a
001d
ffd5
fff3
0006
0010
ffe2
0011
ffdc
0004
ffce
0020
001f
ffee
0019
000e
fff9
0029
0006
0009
0011
0031
001f
0024
ffdf
0023
fffd
ffe3
0004
0023
ffe5
000e
fff6
0019
001e
ffee
002a
001b
ffe6
0030
ffeb
002b
0021
ffce
000c
ffe2
fff5
0011
0009
0037
ffef
001b
fff7
ffd5
ffe0
0021
0000
ffe3
ffec
ffc7
ffd1
ffe5
ffd7
fff8
0019
ffda
ffdd
001a
ffec
000c
0038
ffe9
ffd0
0016
ffc2
fff2
0039
ffca
fff9
fff8
0038
0001
fff6
000e
0013
ffde
0029
0020
ffea
0024
002b
0015
ffef
0010
000f
fff1
fffe
ffc3
fff7
ffe6
000e
000f
ffc2
ffca
0027
ffec
fffd
ffd2
0012
0017
fff5
002a
ffca
001d
ffdf
0005
fff7
000a
0018
fff5
ffe5
0020
001c
0039
fff6
ffe5
002f
fff9
ffe0
fff9
0039
ffe1
0004
0035
fff1
fffa
002f
ffe3
ffe3
0023
fff4
0014
0025
ffea
0032
ffea
0000
fffd
000f
ffee
0000
0016
ffe0
0031
ffe8
0034
fff8
ffe8
001a
ffdd
000e
001b
ffcf
ffe0
0005
0011
0025
ffda
0030
ffda
ffdc
0003
ffe0
ffcd
000a
000e
ffe4
ffcb
0004
0004
003a
ffe5
000f
ffee
ffe6
0036
0018
0016
ffef
000f
fff3
ffe5
0017
fff4
0011
fffb
0022
0005
ffda
0014
fff7
0027
000f
001e
0001
0032
ffca
fffe
ffdb
ffde
ffee
ffe3
fffc
0003
fffc
0027
001b
fff1
ffd8
001a
0018
0001
ffde
fff2
0010
002b
001d
ffe3
ffe0
ffeb
0036
001e
ffe6
000b
0000
0016
ffbb
ffd9
ffe7
0011
0008
ffc9
fffa
ffea
ffe7
0010
ffe6
0005
002c
ffe5
ffd8
ffd6
0004
ffdf
fff3
ffc2
000e
ffd9
ffc6
003d
0008
0006
0008
0031
001a
ffec
0023
0032
002c
fffb
0007
ffde
0010
0008
ffcd
ffca
fffe
fff3
0017
ffe6
000f
fff4
0029
0014
0005
fff8
ffda
002b
ffdc
0016
001f
001e
fffe
0005
ffe3
ffff
0025
fff9
000b
0010
000d
0003
ffe9
0034
ffd9
000b
fff5
fffe
000d
0013
fff5
ffdf
ffb7
ffef
ffe1
ffff
ffe7
ffea
0017
001f
fff2
ffd5
0003
fff8
0018
002d
fff7
0025
000f
0029
ffd3
ffe9
fff8
fff5
ffdc
ffe9
0005
0000
ffe2
001c
ffef
ffcb
0002
0011
0014
0010
0028
0038
001d
ffed
0007
fff3
ffc3
001c
ffde
ffeb
ffee
0016
fff5
fff8
fff8
fffb
fff7
0021
fff1
0016
ffe4
0028
001c
ffd6
001a
0001
ffee
001d
0021
ffe2
ffcd
000f
003e
ffe4
ffce
0001
fff8
ffec
fff8
fff6
0014
ffd0
0008
000b
ffe0
0020
000d
0024
fffe
000f
fff6
0040
fff1
ffea
ffef
ffde
002a
001a
ffe1
ffd3
ffd7
0022
0007
ffdc
ffe3
fff4
fff4
001d
002d
000f
001f
ffe0
ffde
001c
0005
ffec
fff8
fffd
fffe
ffcf
ffd0
000b
000f
0001
ffc9
ffd9
0005
0001
001b
003d
fff3
0017
0022
0002
0005
000b
fff9
0013
0010
fffe
0021
0009
0000
0037
0034
fff4
0007
fff1
0007
ffcc
ffe4
ffe8
fff6
ffee
0003
fff0
ffdc
0003
ffd2
ffdd
0028
ffee
0012
0017
fff2
001d
0023
ffdb
fff8
ffdd
ffe8
0021
ffd6
0024
0012
ffea
fff7
000b
0021
fff8
0016
0021
ffe2
0008
002d
0020
002a
ffc1
ffe6
0034
ffe0
ffff
ffee
fff8
fffe
0002
fff7
000b
fffb
0018
0033
0019
ffe2
0034
0020
fff6
ffe5
0027
000e
ffe6
001f
0017
0013
000c
ffeb
0014
ffe4
0014
ffd7
ffeb
ffd4
fffa
0023
fffb
0008
0030
000a
fff8
fff7
003a
0014
0005
0010
ffe7
fff6
0005
0035
ffe1
ffd3
0007
ffd2
ffd1
0005
0017
ffe1
ffd1
002c
ffc5
ffff
ffe1
ffd3
ffe1
ffed
fffd
fffa
fffe
0014
000b
0026
0035
ffcf
002a
0006
0037
0009
ffe2
0034
fff2
0027
fffb
0013
0004
0006
ffc7
ffde
0019
ffe6
fffc
0003
000e
000c
ffe5
0013
0029
ffcf
0019
ffff
ffcf
ffda
000a
ffe1
003d
ffd8
000e
fffe
0023
fff8
ffc9
fffb
ffe5
ffdb
0007
0008
0012
0022
000c
fff1
0007
0023
0022
000f
ffeb
0008
fff9
fff9
ffdd
ffd5
0016
000e
ffd9
fff1
fff3
ffe1
ffdb
0034
0011
0037
fff9
fff6
ffda
001e
ffe3
0012
ffff
001e
fff1
0019
0004
fff4
ffd0
ffce
0033
0004
ffde
0019
ffdb
ffe5
fff2
0003
ffe2
fff7
fff5
000a
ffdd
ffd0
0023
001d
ffc2
001a
ffed
0030
0016
ffe5
0002
ffc7
fff2
fff2
ffdc
0017
0007
0005
fff0
fffc
002e
ffce
fff4
ffeb
0026
ffeb
fff6
fff6
0016
0019
0026
001d
ffd3
ffe7
fff3
001b
ffd4
ffdd
fffb
fff4
ffe5
0012
fff5
ffd6
0012
0012
fff6
ffe4
0026
fffd
002f
ffe5
0029
0020
001c
0002
ffd7
001d
fff3
0014
0021
002b
ffe2
0019
0010
0002
000b
ffd7
001b
fffb
ffd8
ffe7
0016
0032
0029
0032
ffe3
ffd5
0000
000d
0026
0025
000c
fff9
ffd9
0030
002d
ffdc
fff0
0012
ffe4
0022
fffc
0030
fff4
0020
001e
0016
002f
0005
fff1
000b
fffa
001f
ffce
002f
fff0
fff9
ffd5
ffea
0007
ffe2
0031
ffde
0021
ffdb
fffa
0001
0026
001f
fffe
0012
fff7
ffe3
ffdc
0004
0035
ffe5
000d
ffc9
0004
0019
fffe
0012
0017
0015
ffe1
000a
ffef
fffb
002c
0009
0006
0005
0014
0023
ffd5
fff4
002b
ffcc
ffef
fff1
fff1
ffed
0020
0029
0010
ffed
ffef
0030
ffef
001a
ffcd
0021
ffc8
ffce
001a
ffe1
0001
ffd1
002b
ffe9
fffa
0028
ffeb
ffc8
fff4
0029
0022
0018
0019
000c
0017
0008
0006
000f
fff1
ffdf
0017
0015
001b
000b
ffe8
fff8
fffa
ffe8
001b
0001
fff2
ffe4
fff8
0022
fff3
001e
0030
ffd9
ffca
fff7
0018
ffe2
ffed
ffe4
ffed
0015
ffe4
ffe1
ffea
002a
0008
ffda
001f
000e
0009
fff0
0009
ffef
002e
0018
ffed
ffdf
0021
ffde
ffd4
002c
fff8
0026
0021
0030
ffe2
ffea
ffea
002a
ffc9
fff8
0000
ffcf
002d
ffdc
0008
000f
001c
ffe2
0018
ffec
fffd
000f
ffd2
0001
0031
ffde
ffe7
000b
000a
ffda
ffef
ffe2
0030
ffc3
0029
ffed
ffdf
001e
001a
ffe9
ffdc
ffe6
001a
ffed
0014
0006
0007
ffe3
0020
fff9
ffe3
0021
0019
ffed
ffee
000e
ffe7
000d
fff4
0027
ffd3
fff6
001d
ffe4
0015
fff5
ffed
0036
0009
0013
ffd8
001e
000e
fff9
0000
0006
ffe8
ffef
ffea
fffb
ffed
ffe0
0003
0026
001f
0017
ffe1
fffd
ffea
002e
ffe2
ffd0
0018
000a
0031
fffe
ffe2
0014
001a
ffed
000c
fffc
0003
000c
ffeb
000a
ffd0
ffe0
002d
0022
0006
0000
0004
000e
ffd7
fff0
fffc
fff2
0011
ffe5
002d
0023
0026
0004
ffd8
fffc
001c
002f
ffe5
0017
ffe3
ffe5
0022
ffcd
0028
000b
fff3
ffca
0029
001e
002c
ffed
ffce
0031
ffd8
000d
001b
ffcb
ffeb
0022
ffdc
ffff
0002
ffea
0016
0011
ffce
002a
0003
002a
fffc
fff1
000c
0031
fffe
fffc
0015
0024
ffcb
001e
ffee
000f
0032
fffa
ffcd
000d
ffdb
002d
ffde
001a
002b
0024
001b
ffdd
fff4
ffec
fff8
ffe5
ffe2
0004
ffdd
ffce
0034
fff5
ffec
000e
fff5
ffd3
0028
ffdb
0008
000d
0008
0014
001e
ffcc
ffe6
000e
0017
0006
0020
fff8
0025
0002
ffff
0000
ffd9
000b
ffda
0000
ffea
000d
0007
0023
001a
ffea
0024
0003
ffc4
fffd
0015
0011
001a
fff7
fff2
fff0
ffdb
ffdc
ffd7
0014
0001
0020
fffb
0000
0009
ffe8
fff7
0007
ffe2
0012
ffd3
0013
0023
fffe
0002
ffcc
001e
0024
0030
0022
fff7
0015
ffca
0023
fff1
0016
ffff
000b
fff1
0023
fff5
ffd7
0034
0000
fffc
0028
ffd0
fffc
0035
0017
ffc8
fffe
fffe
0023
ffe5
000f
0038
0011
ffdf
002a
0004
ffdb
0018
fff8
ffd1
0013
001a
002c
fff1
001c
ffc6
ffe0
0022
0028
ffd2
0007
0017
ffe8
fffe
ffce
0019
0020
0029
fffc
ffe8
000a
0008
ffcf
0020
0007
001b
ffe6
000d
0005
001e
0034
fffc
ffe5
ffd5
ffd2
ffe8
000c
ffe1
0017
ffd8
ffd6
0036
fffb
ffd3
ffe1
fff5
ffd5
fffd
ffeb
0032
ffd0
0022
0014
0011
ffcc
0007
0011
fff7
fff2
0000
ffee
0003
0014
000b
001b
ffed
0022
0011
0011
fff5
001d
0002
ffd0
ffec
ffda
0002
fff5
0017
0008
000e
0011
0014
fff7
ffd7
ffd3
0010
0030
0008
ffec
fff0
ffe0
ffe3
fff7
0027
0004
0008
000c
ffde
002b
ffe4
fffc
ffe8
ffe1
000b
ffef
002b
ffed
0013
0004
000c
0024
fff8
0035
ffde
0022
001a
ffe5
fff1
ffff
0031
001a
ffdf
fff5
0005
ffcf
002d
ffee
fff5
ffd7
001f
0034
0022
ffea
ffc9
fff7
0001
0015
fff2
ffd5
0019
ffcd
ffe8
0007
001c
001f
0025
ffe5
ffed
ffe7
0011
fff4
000b
0010
0008
fffe
0017
0012
000f
0036
ffd0
ffeb
0019
ffe3
ffdc
ffe3
fffe
0023
001d
0001
0001
ffd6
000f
fff8
ffed
fff7
ffe1
0012
0021
ffeb
fffc
000f
fff6
ffe5
0015
ffe1
ffee
fffc
ffed
fff3
fffb
0002
001f
0000
000e
002b
0022
001e
0019
fffa
ffe4
ffe2
0019
0003
ffdf
ffda
0027
ffe6
0006
ffe5
ffee
ffd4
ffdd
ffda
0021
0019
0026
ffcb
0026
000a
001d
0008
001d
fff6
0013
ffeb
0017
fffc
fffe
0010
0007
000b
002b
000f
0032
fff0
ffe1
fff6
ffd4
fff3
001e
ffec
0018
ffd9
0002
fff0
0027
ffd3
0029
ffd9
000a
002f
fffc
ffd8
0003
ffe1
ffd7
ffcf
0028
001d
ffe9
fffb
fff6
fff2
0018
0008
fffb
ffe8
001d
ffe7
0003
ffd1
002e
0014
0017
fff7
001a
ffdf
0009
0019
002b
0019
ffda
ffff
001a
ffd0
0028
0029
ffe5
0009
0015
ffd0
fff1
0001
0012
0028
ffdd
0002
0007
ffed
ffed
fff3
ffc6
ffcf
001d
fff4
0030
ffef
ffee
002c
ffec
ffc7
000d
ffd7
fffd
fff2
000b
0028
001a
0020
0011
fff9
0019
fffc
0038
0013
0022
0034
0034
ffcc
ffdd
ffe0
0001
0000
0036
ffde
ffe0
ffe8
ffd7
0005
ffed
0004
0006
ffda
ffee
002a
0004
fff2
0006
000f
fffc
ffeb
ffe3
ffdd
001a
003c
fff0
0025
ffd1
fff8
0019
ffff
ffe6
ffdd
ffc5
0004
ffc5
ffdd
ffe2
fff5
ffe4
ffe2
fffc
001e
0029
fffd
ffdc
ffce
0007
000c
fff8
fff2
001c
0014
fff8
0028
fff2
0020
ffcd
ffe3
0019
fff3
0023
000c
0012
0019
0012
0024
000f
ffcf
0021
fff2
ffd8
ffeb
0003
0014
ffed
0004
0021
ffe3
0004
ffd6
ffe1
0001
0022
0024
ffe4
000e
000c
0000
0021
0014
0020
001a
002e
ffe3
0036
fff8
0006
ffcf
0012
ffe5
ffe6
fffc
0015
0018
000b
ffd4
fffb
0026
fff9
0001
000f
0013
ffd4
0022
ffeb
002d
ffc8
ffcd
000c
ffda
0024
ffd1
002d
fff4
0029
ffff
0003
0024
ffcc
001e
ffeb
fffa
0017
ffe9
0002
0002
0027
fff5
0009
001f
fff6
fff3
fff4
fffb
ffd2
0012
0002
ffd6
fffb
ffe1
ffee
0003
0017
fffe
0017
ffd3
fff8
0021
ffd1
001f
0021
000b
0021
fff7
fff1
ffd1
0018
ffde
ffe5
fff3
ffd3
001b
fff1
fff2
fffc
fff9
ffe6
0018
0005
0016
002e
0017
ffee
0020
fff6
ffcf
0009
ffed
0011
fff2
000d
0029
ffe6
0019
0028
0033
ffea
ffed
ffd7
ffe7
ffd2
0007
0001
0001
fff9
ffea
0012
001b
ffe9
0029
0001
0019
0022
ffdd
ffdf
0008
ffde
fffb
fff8
ffd0
ffe3
0030
ffd0
ffff
fff9
000e
fff9
fff7
ffe3
002e
ffd2
0017
002e
000b
ffe5
0030
0029
0005
fffe
ffde
001c
ffff
0009
0022
0021
0025
0029
0014
ffc8
0011
002c
ffd7
fff7
0015
0027
000e
0009
0021
000c
fffb
0016
0002
0002
000b
ffee
0002
ffd1
0017
fff5
001a
ffe5
001b
fff3
0004
001c
ffea
ffef
0034
ffd1
ffd7
ffe9
001f
0008
ffbf
0010
0007
000a
ffda
ffe9
0012
fffe
0019
ffce
0008
0033
0019
ffd2
fff2
fffb
0013
0015
002b
ffd7
ffd6
ffe5
0022
fff1
fff7
ffe6
003a
fffa
001b
0006
0000
001a
0018
ffdc
ffd8
001c
001f
0008
0001
fffb
0014
ffd2
ffcf
ffe7
fff9
ffc3
ffd2
ffde
000f
0009
ffe9
0009
0010
ffe3
ffe5
ffed
001a
001d
ffe7
0021
0014
002a
0011
ffe2
ffb7
ffef
001a
ffe1
ffff
0018
fff6
0024
0016
0013
0035
ffba
ffe6
0025
0014
fffe
0022
0004
0027
0022
0025
fff7
ffdf
fffc
ffe1
000a
fff2
000c
000d
fff8
002d
001a
0012
ffdc
001e
002f
fff9
0003
ffeb
001d
0000
0000
ffe9
ffeb
0026
0026
0027
ffdd
ffd0
fffe
0027
fffe
002e
fffe
0032
002a
ffe4
fffd
fff9
fffe
001e
ffe3
0009
0022
000f
fffe
0021
fffa
ffcc
ffd6
ffd5
fff1
ffc4
0010
fff9
fff1
ffcf
ffcd
000f
0005
fff9
ffd3
0027
002d
ffc6
000e
001e
ffe9
002e
001a
0032
ffdd
ffca
fff9
0009
0033
ffd9
0029
ffef
0010
ffea
ffde
fff0
0011
0011
ffcb
fff1
000a
0031
ffdd
fff5
0003
001f
ffd6
ffe8
ffee
0015
ffea
002b
ffd6
ffdd
ffec
0006
002e
fff8
001b
0016
0011
ffe0
fffd
002f
ffcc
0006
0030
0034
0005
fff9
fff3
fff2
ffda
ffef
0034
ffc9
fff8
0028
ffec
fff8
0016
0019
001e
ffd3
0011
0004
ffdf
0035
ffdf
ffee
ffec
0023
0023
ffd6
0002
0034
ffe0
0002
0031
fff9
0033
002b
002b
ffda
0002
ffd8
ffe3
fffd
003b
001a
002a
ffd9
0011
fff5
fff1
0013
0014
000e
ffd1
ffd6
0028
002c
fffe
ffe9
ffd0
0035
0038
ffd9
fffa
fff9
ffd0
fff3
0004
fff2
0001
0026
0001
ffe9
0005
0024
0015
ffca
0018
ffd0
fff1
fff9
ffd9
ffdc
ffe5
001b
fff5
000a
ffe6
0032
0001
001a
ffe4
0007
ffe2
ffff
0018
fffb
0008
ffcf
ffd3
ffdb
fff7
ffed
0021
0010
0014
ffe0
fffe
ffd8
000a
fff4
ffe2
fff1
0011
0008
0032
0015
0003
0011
fffe
0015
0019
0031
001a
0016
fffa
fff7
0029
fff0
0003
001c
ffd2
fff5
0017
000c
003b
0000
0006
0000
000d
0016
ffce
ffdf
fff1
ffda
fff7
002f
fff0
000b
0018
0020
ffe0
0036
fff5
ffe7
ffe1
fff4
0028
ffeb
fff1
ffd8
ffff
ffee
0034
0027
fff2
ffd6
fff9
fff2
fff6
ffed
000a
0010
ffe8
ffe0
001b
0019
0030
ffec
ffe9
0019
ffd5
fff0
0026
0008
fffd
fff7
ffeb
0003
ffee
ffee
0020
0027
0007
001f
ffd5
fffe
0002
0013
0014
ffe1
ffec
ffe1
fffe
001b
001d
0004
000a
000a
000f
ffef
0030
0018
0017
0019
002e
0002
fffc
003b
ffd1
ffe7
ffe4
fff2
0022
ffd5
0020
ffdf
000c
ffe6
0010
ffeb
0025
ffe2
0029
0025
0003
001e
fff5
001c
ffe6
fff3
fff4
fff5
001a
fffa
0001
0023
001b
ffee
ffe0
0031
ffef
0013
ffda
fff0
002b
ffe4
ffca
001b
ffca
fff1
ffdd
ffe4
fffc
001c
fff5
000e
fff2
ffda
ffe0
ffe7
ffe6
0019
0001
ffef
0029
0039
0004
0019
ffed
0003
fff9
001a
0010
002f
0005
ffcc
ffcb
fff6
0012
ffd6
0012
002b
ffd0
0024
0007
001a
ffef
ffdb
fff5
fff8
ffd0
0002
ffe1
fff8
003d
000e
001d
fff3
ffdc
ffe1
fff4
0007
002c
0005
0022
ffeb
001e
ffe2
fffb
fff8
0018
0021
ffe2
0023
002b
ffd4
fff0
0009
ffeb
0024
0012
fff2
ffea
ffd8
fff0
0013
0023
0018
ffd0
ffcd
ffe0
ffd1
0001
fff1
fff5
ffbf
001a
0006
ffdc
fff3
ffea
fff0
ffd7
ffe2
000c
001c
ffe0
ffdc
fffa
0006
0014
0030
fff9
000b
fffa
ffe6
0032
fff9
ffe5
ffea
ffef
0040
ffea
0006
0027
0010
0025
001c
0029
0019
ffc6
000a
ffdc
ffe6
000d
ffe5
001b
0009
0000
ffcc
001a
ffe3
ffd6
002d
ffea
0008
0002
0006
0004
ffe7
001e
0007
ffe8
fffb
0020
fff8
ffee
fff0
0023
000e
ffc2
0013
ffd7
0021
ffd5
ffe7
ffdd
fff9
ffd4
0027
ffff
000d
ffd5
001a
ffe1
001c
fff5
ffcb
000f
0028
0016
0015
ffce
002e
001b
fffa
0002
ffd9
ffda
ffe0
002f
001b
0028
001a
001b
001f
fff7
0000
001d
fffc
0026
fff7
ffdb
ffc8
ffe7
ffe4
fffa
ffe3
0006
0037
0021
ffec
ffeb
fff7
000c
ffdc
0027
0029
002c
ffee
ffc9
ffe7
ffeb
0010
001c
0016
ffe8
0016
0023
ffe6
ffe0
fffe
fffe
003b
ffe8
0010
000f
0005
0014
fffe
fffe
ffe3
000a
ffe8
ffef
0016
ffea
ffe7
ffdc
0013
ffed
0033
ffe0
0020
fffa
000d
ffee
fff9
000c
0014
0000
ffea
fff4
0028
0020
ffde
000e
ffe7
fff9
ffee
000e
ffcb
fff7
ffe5
fff8
0016
fffb
fff9
0017
0016
ffda
000b
0013
ffff
000a
fff1
ffc8
0029
0004
0016
fff8
fff3
ffec
ffef
ffeb
ffe7
ffdf
ffd9
ffda
0019
ffd7
0022
ffdd
ffe4
002c
002a
0025
ffe5
ffe4
0017
0022
ffea
0010
000e
ffc2
ffe8
0017
fffb
ffff
0026
ffde
001b
fffd
ffe4
0020
ffe4
fffa
0021
0008
001f
001b
0008
0012
ffe0
0026
0020
fffc
ffd6
0010
ffd7
0017
ffef
0019
fff3
ffef
000d
0005
0021
0022
fff8
fff3
0033
ffc8
0006
fff1
ffd3
0012
fff8
0036
fff5
fff5
0004
fff4
0017
0032
ffd7
0034
ffe5
000e
ffcb
002d
000e
fff6
ffe1
0019
ffd2
0001
fff3
ffdf
fffa
ffde
ffe6
0012
fff5
0030
0005
ffd8
ffd8
001f
ffe5
ffdc
ffe4
0007
0017
001f
fffb
0028
0005
002b
fff7
002b
ffe6
ffd2
ffd6
ffc3
0011
0019
fff9
0015
000e
ffe3
fffb
0004
0034
001a
001e
0018
0032
002a
0009
ffee
ffd7
000a
000c
fffc
ffe6
fffe
0023
fffa
fff0
0001
0006
003c
0024
000b
0012
0012
0023
fff1
ffed
0000
0006
ffef
0010
0000
0009
ffeb
000d
000b
0033
001e
ffd8
0021
0023
ffdb
0007
ffd9
fff4
000c
0030
ffca
ffd9
001e
fffe
0012
fffa
0014
ffc1
ffda
0022
fffe
000a
000e
ffe0
ffda
ffe2
0031
0029
0021
0023
ffd6
ffd0
ffe0
0010
fffe
ffd6
0004
0008
ffda
ffed
000c
0019
0008
ffd3
002f
ffeb
ffe5
fff4
0033
0028
ffeb
0024
0015
ffe6
0036
0024
0012
ffea
001f
ffe7
ffde
0013
0004
fffe
ffdf
ffe8
ffff
ffea
fffb
0016
ffe2
fff3
ffe9
ffd7
fffc
ffd8
0004
002e
fff7
ffdd
0004
ffd7
ffdf
0014
ffe5
ffff
000b
0020
fff9
ffd4
0011
0014
fff8
0024
0012
0035
0023
ffde
fffa
0016
ffd2
0024
0014
ffdf
0016
fffb
0025
fff9
001a
fffb
ffe1
ffff
ffe3
fff7
fff9
ffec
fffc
0008
ffe4
ffe4
0027
002f
000a
0014
001c
ffd0
002f
001c
ffc7
ffea
fffa
ffe6
ffda
0003
0015
ffe8
001d
0013
0026
fffb
fff2
ffe7
ffd7
ffe4
ffe6
0029
ffed
ffe6
001e
0005
ffcc
0030
001e
fff4
ffe7
0007
fff8
0009
0015
001f
0016
0027
002b
002f
fff7
0024
ffe9
ffd9
0015
000e
ffce
0016
0001
fff7
ffcc
fff4
ffec
ffd0
002c
fff8
ffd3
fffd
ffdd
0006
fff4
ffe6
0029
0018
0021
ffc5
ffed
ffd3
ffe7
0023
fffa
0031
ffe8
0015
0009
000f
0000
000d
0012
fff7
0018
ffe0
ffd9
0012
001b
fffb
fff7
001f
fff7
0005
ffe4
0024
fff3
0001
001c
fff5
ffcb
0030
ffef
001a
0001
0029
002c
ffee
fff4
0025
ffde
ffd9
fff8
fff3
0010
ffee
0019
ffe3
ffed
ffdf
000a
0016
0008
000d
ffe4
0019
0024
0005
0036
000d
ffe8
fff5
0016
ffe6
0011
ffdc
0011
0026
ffcf
0015
fff3
001a
0023
ffcf
fff6
fff9
0021
fff9
fffa
ffe4
ffca
0027
fffc
ffe6
ffd6
fff1
0019
ffef
ffd9
fff5
0023
ffef
ffc6
0025
ffe9
000a
ffef
0031
ffda
001f
000b
0031
ffcc
fffd
0028
0005
0010
0009
ffef
0006
0017
0010
ffd4
fff5
ffe3
ffe3
0005
0019
0024
0018
fffa
ffd8
0025
ffe6
0011
000f
ffe9
ffde
ffd0
ffe4
0018
0028
ffd9
fff2
0009
0012
002d
0010
fff2
0002
000a
0029
ffe7
ffe7
0016
0026
0007
ffdf
0013
ffe3
0009
0013
0005
002b
0021
ffea
ffd9
ffd1
0010
ffe0
0032
ffd9
0010
ffe8
0036
002a
ffe7
0015
fff7
000e
ffdb
0006
fff4
ffec
0020
0024
fff9
0004
ffd1
0034
ffcc
ffd8
ffd4
fffd
ffee
0010
0034
ffea
000b
fff6
0001
0005
0028
ffd6
ffeb
0033
fff2
001d
0024
ffce
000c
0011
ffd1
ffc5
fff8
0001
000e
ffda
ffe1
fff5
fff7
002d
001b
ffcb
ffe7
fffa
ffe5
fff1
000c
0012
ffcb
fff5
0016
ffc6
0030
ffed
0004
001d
ffe8
0011
fff0
000b
fff2
0010
0012
ffec
0016
002a
fffb
ffde
ffe6
0018
fff7
ffe5
001c
001c
ffe0
ffe8
0003
fffc
0005
000c
0002
0025
0022
fff4
001a
ffd7
0006
0022
0010
0020
0031
0030
001d
002e
000c
0006
ffe5
002b
0025
ffe0
ffd9
fff4
001f
fff1
003b
0022
ffe8
ffe5
ffda
ffdb
0029
000a
ffe2
ffed
ffeb
0022
0029
0008
ffde
003c
ffff
0012
0039
0009
fff1
0010
ffe5
fff2
0013
0017
0012
fffb
002d
000c
0001
fff1
fff2
001e
ffde
001c
ffe3
fff8
ffee
ffe5
fffe
0033
ffdd
fff3
0004
0032
fff9
ffe3
ffed
0009
fff2
0031
fff0
0024
001b
0026
ffdd
ffdc
0034
002c
0005
ffeb
fffe
fff0
fff9
0029
000a
ffe0
ffeb
000f
fffb
fffb
fffd
000d
0014
ffed
ffeb
000b
ffdb
0010
fffd
ffcb
000a
ffd5
ffe2
0007
0011
0020
0014
0021
0018
ffe1
0022
0011
000f
0002
fff6
0003
fff9
ffdb
0003
0008
ffed
ffdc
001c
ffee
000e
0030
0009
003c
fffe
fff3
003b
ffd5
ffea
ffcf
ffe3
ffce
ffd2
fffc
001c
fffb
000c
ffe7
ffd7
ffeb
000d
fff3
0004
fff1
fffc
fffe
fff7
0006
ffec
ffd1
000b
0030
0029
fff3
fffc
002c
0038
ffc6
ffed
0019
ffe6
0030
0014
fff1
0008
fff0
ffe8
0020
0035
ffd0
ffc3
ffea
ffcb
ffe5
ffed
002d
fffb
ffe9
ffdf
ffe6
0029
0022
0019
ffde
fff1
ffd4
ffde
ffd5
0019
fffe
0000
002f
000e
002b
fff3
0019
0026
fff1
0030
0024
0022
ffe0
0017
0024
0002
0006
0019
fff5
0005
0029
001d
ffde
002f
002b
0020
0024
fffc
ffd8
001d
0014
ffda
000c
ffe9
fff8
001b
ffec
002c
0003
ffec
ffea
0014
ffdc
ffd9
0018
fffd
ffdc
ffda
fff8
fff0
0009
ffe1
fff5
0006
ffd4
0016
ffe4
000e
fff4
0019
ffda
ffd0
ffe0
ffde
0004
0001
0023
000d
fffe
000e
0029
ffe7
0024
fff5
ffe2
ffea
0013
ffe8
001f
002b
ffed
001b
fff7
0001
0032
ffd5
0013
ffe6
fff9
ffe0
fff5
ffe5
0026
001f
ffe3
ffe9
fff2
000f
0004
fffa
fffd
ffdf
001d
ffec
0009
ffd1
002b
002f
ffc7
0036
003d
fff7
ffdd
ffd3
fffc
0031
000b
ffd5
0018
001c
ffef
ffe1
0018
ffef
ffff
ffdb
ffee
ffea
fffc
ffe8
0007
fff1
0028
001f
0006
ffe1
001c
000b
ffe3
001a
0012
ffdb
fff2
fff5
ffc6
ffe0
fff4
0018
000c
fff4
ffd0
ffe4
ffd4
fffc
fffe
ffe6
ffd6
fffe
000d
0007
003a
ffdd
0004
ffe1
ffda
002f
ffd2
0025
fffb
ffff
fff9
ffdb
0013
0006
ffe6
fff9
0025
ffe7
002c
fff5
fffb
fff1
0015
ffe2
fff3
001e
ffdb
0009
0021
0036
0012
ffd0
ffec
0039
fff7
ffdb
000c
ffd1
ffe1
ffd4
0021
ffdd
0017
ffcd
ffff
0005
0010
fff1
ffe8
ffdc
ffd2
0011
003a
0034
ffd7
0009
002f
ffdf
0003
ffe9
000a
000f
000f
fff0
ffd4
0005
001e
ffe9
001d
0016
0019
ffda
0001
ffed
0013
fffb
0022
ffdc
fff9
ffe4
ffea
fff2
ffd1
fffc
ffe0
fff7
000c
0005
0014
fffb
ffd1
001d
0011
ffe9
ffe0
fff3
000f
0002
0015
0003
ffd2
ffd1
001b
fff5
fff1
fff3
000f
fff8
ffd5
001a
fff4
ffd3
ffd5
0017
001c
ffdc
ffe5
0003
ffda
ffd3
ffe3
ffef
ffe4
ffee
ffea
0010
ffe1
ffd6
0003
0019
0019
0024
0015
ffe2
ffd0
fffa
0008
ffd2
ffdd
ffdf
0009
0028
ffd6
000d
ffe2
000f
fff4
0007
ffe6
0012
ffd6
ffda
001e
ffd8
fff9
0004
0008
ffed
ffcf
fff6
0013
0014
ffec
ffda
0018
0008
ffda
0022
001c
ffe3
000a
ffe7
0027
0006
ffd9
0013
0012
fffe
0021
000c
000a
0005
ffeb
ffeb
ffda
001e
0015
001c
ffe4
ffec
ffd0
0014
0018
0003
ffdd
ffc1
001f
ffca
ffeb
0020
000d
fff1
ffd5
000d
fff4
ffce
0015
ffca
fff5
002e
fff5
ffca
fff8
003d
0006
fff1
0035
0019
0016
001e
ffe3
0036
ffc7
001c
001a
0016
fffa
ffd4
0019
001b
0023
ffdf
fff4
0021
000d
ffca
fff1
0003
0018
ffc3
fff5
ffde
0010
002c
fff7
0006
fff2
0021
0010
ffca
ffe3
000a
0003
fff3
002c
ffc6
fff5
fff7
0003
0008
ffe9
0023
0009
ffc7
ffef
0025
fffc
ffdc
ffcd
ffe5
fff8
fff0
ffc4
0039
ffe0
0028
fff6
ffd9
0013
0000
fff2
001e
0013
fff2
001c
ffeb
000d
ffe6
0033
ffd6
ffff
003f
0001
0027
0002
002b
003f
001c
0036
ffee
fff7
ffe7
fff8
ffe9
ffe8
0034
001a
0024
001b
fff9
fff2
000e
ffe2
fffa
ffc0
ffcc
002b
fffa
0028
ffd6
fff1
002a
0019
0012
0018
ffdd
ffe4
0020
ffd2
ffd1
001e
fff2
001f
ffd2
ffe7
ffcc
002a
0022
001e
ffe7
0017
002b
001a
003d
ffe2
0014
fffe
0016
0000
fffa
0020
0007
002c
fff8
ffe8
ffe9
ffdb
fff8
ffd3
ffe1
ffdc
fff2
ffef
ffe0
ffd9
ffdb
fffe
0016
0024
0004
ffd0
0034
000f
ffe9
fff9
000d
0026
0018
0016
ffea
ffcd
fffe
ffe3
002a
ffe5
fff5
001b
0028
fff3
002f
001a
ffdc
fffb
ffe0
000d
0010
001a
ffcc
fff4
ffd9
fff7
fff7
0008
fffe
0000
fffb
ffcd
ffe0
fff5
fff0
0020
fffb
ffd4
0011
0004
ffe1
0014
ffd4
ffeb
fff7
0041
fff8
0027
002e
ffe3
ffff
fffb
fffe
ffdf
ffef
0011
0024
0019
000f
002c
fffa
0016
0013
ffe9
0025
fff1
0016
ffd6
0005
fff0
0011
0010
ffea
001b
0015
0007
ffcc
0013
ffd8
ffe3
ffd2
0023
0012
ffe9
0018
0029
ffc7
ffdc
ffd5
0026
ffee
fffc
ffd4
0017
002a
fffe
fffb
002c
fff2
ffe1
ffe2
0021
002d
fff6
001d
0017
fff3
000a
ffe9
000b
0021
ffe2
0017
ffd7
002c
ffdd
ffd5
0000
ffe6
000e
000a
fff0
ffd4
0015
ffee
001d
ffe5
0007
0013
0031
ffca
ffe6
0029
fffd
0020
0002
ffd7
0004
0008
001d
fffc
0021
001c
0010
ffe3
000f
fffe
ffe4
0007
ffee
fffb
fff3
ffcd
ffc7
0026
ffe4
001f
ffec
ffcf
ffd7
fff0
001c
0013
0022
001c
ffec
000b
ffe4
ffd1
0030
fffd
0005
ffe7
0028
000c
0017
001c
0031
ffec
0030
0001
ffdd
0015
000d
fff0
0011
002b
001f
001f
fff9
ffeb
0014
0010
fff7
001e
0011
ffe0
0014
000e
ffde
fff9
fff7
001b
001d
ffd0
001d
fff0
000b
001b
fff7
fff6
0007
002b
0017
fffa
ffd1
ffd7
0019
ffdd
001b
0007
ffe0
002a
000b
0036
ffec
001a
ffcf
0020
ffda
0039
ffd6
ffd8
0023
ffe2
ffd3
001f
ffff
0010
001d
ffca
ffd0
001d
fffc
ffc8
fff0
ffd2
ffee
ffd2
001c
0004
000f
ffe5
0002
ffe8
000b
0024
001c
001c
0005
fff3
0016
fff3
0003
0017
ffdb
001e
ffee
ffd9
000c
001a
0015
ffd8
ffdb
ffde
ffe7
ffd5
000b
ffd3
0033
000d
ffef
fff6
ffe4
ffe9
fff7
001d
001b
ffe1
0008
0010
002b
0030
0008
000b
0009
ffe2
0021
0005
000f
ffe9
0000
002f
ffe2
002f
001f
ffdc
001c
001e
fff5
ffee
000a
fff0
0003
002e
ffd8
0024
ffec
001b
ffdb
000e
0031
0002
fff8
ffee
fff0
0034
ffff
000d
000e
002a
0001
ffd9
ffdd
001e
ffdc
fff8
0024
000f
001a
fffe
fff2
fff0
0003
ffe6
fff0
fff5
fffd
000e
ffe7
fff6
0022
ffdd
ffdd
ffce
fff9
ffd7
ffd6
ffd4
002a
ffe9
ffd8
ffff
0027
ffd6
ffe8
001b
fffc
001b
0003
ffd4
0001
ffda
0010
ffe8
000c
ffe5
0011
fffd
ffd8
ffeb
ffd7
000f
000d
ffff
ffd4
ffe1
0022
ffda
ffd0
fffa
fff9
001b
0029
0012
0016
ffda
0003
ffe8
ffe6
0001
0014
0006
ffeb
fff2
0003
ffe3
002a
ffd2
000b
0000
ffe0
fffe
ffce
001d
fff8
000b
0010
fff9
fff9
0022
0010
ffd6
fff6
ffe8
0026
ffdf
000c
002a
001d
fff8
ffce
ffdc
0003
fffb
0027
ffeb
0005
fff3
ffe0
0010
ffe4
ffce
0024
fff8
ffd9
fff0
0009
0011
ffde
ffd8
0004
001a
001e
ffe2
ffd6
ffdc
fffb
fffa
fff6
000e
002a
fff8
ffd9
0000
ffe8
000f
0015
fff6
fff1
fffc
ffe3
0007
ffe9
ffd1
0017
ffe6
fffd
001a
0008
001b
0035
001a
ffd2
fff6
ffec
fff3
ffd9
ffdb
0016
0018
fffb
fff3
ffff
fff4
0011
ffe3
001f
0032
ffe7
0015
fffe
fff8
002b
fffc
fff1
ffde
ffd3
0005
0010
ffe4
000e
0027
000a
ffd0
0003
ffe5
ffe5
0002
001e
ffe0
ffec
0027
002b
ffd1
0010
001e
0005
fff8
0009
ffd9
0016
ffdb
0025
ffce
000a
0006
fffe
002b
fffe
ffdb
0003
0002
ffe3
001e
fff7
001e
0015
002f
ffe8
fffd
ffe0
ffd4
0011
ffd9
fff4
0035
fff6
0023
0019
0010
0028
000f
ffe9
ffde
0007
ffe0
0000
0034
000a
000f
0029
0032
0004
ffd5
0014
0003
fff9
0000
ffca
ffe6
ffd9
002d
0013
ffc9
0006
0036
fffd
ffd2
0007
ffd7
ffd9
ffef
0002
001c
fff3
0015
000e
ffe9
0002
ffef
fff4
fff0
0016
ffd6
ffdc
ffec
fffd
0021
0027
001e
0006
001d
000f
0032
ffdb
ffe1
fff3
ffe4
002e
fffa
ffd4
001f
ffd5
ffec
ffdf
002a
ffea
fff6
ffe6
0009
0014
ffde
000e
ffdf
ffe4
fff8
0021
ffd0
0019
0024
0023
0015
fff1
0000
fff6
0020
0019
ffe4
ffe5
ffec
0017
000d
000c
0021
002a
ffe5
fff5
fff1
0006
ffe7
fff4
ffd5
002b
ffcf
000e
0024
ffe4
000c
0021
ffde
fffd
0007
ffe4
002a
001f
0024
fff5
0022
ffdb
ffdb
ffed
0013
002c
0023
001b
0009
0008
0032
0020
ffe9
ffee
0025
ffec
ffea
0017
0024
0033
0022
ffdf
0025
ffe2
ffd3
fff7
fffa
0015
002d
ffcc
fffb
0012
ffde
ffc7
0015
0000
fff8
000c
fff0
ffd4
fff5
001c
fff6
ffdc
0004
0018
ffe3
0013
0023
fff4
ffff
ffd7
002a
000f
ffec
0014
ffff
002c
ffba
ffdd
ffec
0030
ffce
002b
0008
fff1
0039
0006
fffa
0015
ffe7
001c
0007
fff5
ffea
fff9
ffd9
002c
0026
fff0
fffc
ffc7
ffed
fff9
ffe5
fff6
0019
ffec
fff0
fffd
ffe7
fffa
ffff
0021
0012
003f
ffdc
0011
0008
000d
fffe
ffe7
0017
0003
0009
001d
0028
0015
ffed
fff1
0024
fff6
fff4
ffce
0031
0021
ffda
002c
0020
ffd2
002d
0020
ffcd
000c
000b
000d
001a
fff7
002a
0010
0021
ffec
001c
0003
0007
ffff
ffe4
ffd6
ffcf
fff0
0011
fffe
ffef
0017
0001
ffe8
ffe1
fff7
000a
ffd4
001d
001c
002b
ffee
ffdc
fff3
fff2
0011
0037
ffd7
fff1
000c
fffb
0002
0001
0000
ffe2
fff2
0020
0015
0011
0003
0005
fff1
0028
fff0
ffd8
ffd6
ffc8
0005
ffe9
fffb
0009
ffee
0005
ffff
fff9
001b
001d
fffd
0008
ffd8
fff6
0000
ffe4
0010
ffe9
fffe
000a
ffc9
0035
0007
fffe
0015
0041
ffe1
ffd0
0008
000d
ffef
ffcf
0001
fffa
ffbf
0016
ffed
ffcc
0003
fff8
0008
ffe0
0020
ffde
ffcf
0033
0017
ffe3
001c
ffea
0035
001c
0023
001c
0005
ffed
001f
ffe9
002b
fffb
ffe0
ffeb
0019
ffc8
ffe3
001d
000a
ffed
0036
ffc9
ffef
0021
ffee
ffea
001a
ffe0
0014
001e
ffd2
001d
fff0
0013
ffe8
ffed
0036
0009
0027
0010
002e
0009
0013
0029
ffe7
ffd2
0001
0037
0025
002d
ffdb
0013
ffec
ffe0
0001
000e
000d
0021
ffe9
fffa
ffde
fff9
fff3
fffb
0018
0032
0030
fff1
ffe2
0034
ffe5
0022
fff0
0000
fff5
ffe7
ffec
0033
fffc
0022
ffed
0031
000b
0030
fff5
ffeb
ffea
ffc7
fff6
0035
fffe
0012
0016
ffe9
0014
0032
ffd9
0032
0027
ffea
fffd
ffdd
0031
003c
0027
ffee
0000
0004
001f
0008
ffe5
001e
ffc8
0028
0018
000b
0004
fff3
ffd6
fff3
ffde
001e
001f
0005
0027
ffd4
ffec
000e
ffde
ffe2
ffde
0026
0004
ffdd
ffd6
001a
0006
ffec
ffe3
003a
ffda
0030
ffdb
0044
001b
ffe8
0028
0030
ffcc
0002
ffee
001f
ffdc
fffd
fff5
ffd7
fff2
0037
0014
0011
fff4
0022
ffca
fffc
0011
fff2
ffd9
fff6
ffe8
0015
000e
fff2
0023
fff5
ffda
ffd4
ffd8
ffd2
ffdc
ffdd
000d
0045
0030
0008
ffdb
0008
fffe
0003
ffee
0001
fff3
002c
000c
ffef
ffff
0007
002a
ffb6
0022
000a
ffd9
0013
ffb2
ffcf
fff4
ffe0
ffe6
ffe2
fffc
ffcf
001c
fffe
0028
ffd9
fff7
0031
fff7
001d
0020
0001
0034
001f
ffc4
ffed
ffec
0009
ffe4
ffe9
0031
ffff
ffcc
ffed
ffac
fff9
0029
ffb0
0039
ffe7
0039
ffda
0020
ffe5
ffe5
0009
000f
000a
ffd6
fff6
0016
ffde
ffb9
0003
ffe8
ffef
001f
ffe3
0004
ffbb
001f
ffc3
ffbc
ffe1
0005
ffe0
ffdc
ffee
ffd7
000f
fffc
ffcc
0035
0016
ffcc
ffd8
fff2
ffe7
ffe8
0012
fff5
0010
ffea
0008
ffe7
ffd3
ffe8
fffb
0019
000f
001e
0019
ffef
0023
001c
ffd9
000a
0023
0017
000a
0021
fff6
ffe1
003a
000c
000d
ffe6
0004
fff3
0014
fff4
0006
ffd9
0028
0023
fff2
ffd1
fffd
ffe6
ffbf
0002
fffb
ffd2
ffe8
0017
ffcb
0037
fff3
ffd7
ffde
000b
0012
000f
ffed
0018
0007
ffe0
000b
0034
0009
ffe8
ffe5
ffe8
fff6
ffc5
0014
0018
0011
ffeb
0014
ffdc
000e
000b
ffc9
0032
ffda
0025
0027
fff0
000a
000f
0005
ffc3
0022
0005
ffef
0004
ffd2
001a
ffee
0000
0014
ffdf
000a
fffc
ffd3
000e
fffa
0031
0005
ffe7
002a
0009
fffa
0011
000c
0008
ffe8
fff8
000f
0022
fff2
ffde
0002
fff9
ffc8
ffed
fff1
001a
ffe1
0029
ffc3
0009
001b
ffef
0025
fffd
ffdc
ffd4
ffee
fff4
0010
002c
fff3
ffcc
0020
ffe8
0017
001d
ffe9
fff1
0001
0029
002b
000f
0019
fff6
fffc
0024
0017
0014
0000
0030
002d
0011
002b
0007
0016
ffd3
fff8
000d
000a
ffe8
001e
ffdb
0009
001d
0023
ffc9
ffc8
0019
ffef
0026
000f
0012
0004
ffde
ffd8
fff5
ffe6
ffea
ffe9
0026
ffd3
ffcc
ffd4
001e
ffca
0021
ffe5
0029
0013
ffdb
0002
0025
fff4
000f
0000
ffd0
0023
ffd6
fffd
0009
0018
fff2
0024
0009
0002
ffd5
000b
0010
0019
ffe6
ffd3
0010
ffd3
fff2
ffea
001a
001b
ffec
ffde
001b
0004
ffeb
fffa
fff0
ffd1
fff4
ffdf
ffd7
001e
fffc
ffe7
0021
fff9
0024
001b
fffe
0021
ffe5
0022
ffd7
ffdf
fff8
0011
000c
000d
002c
ffe3
ffe5
0028
001c
ffd6
002c
ffee
ffd2
002a
0015
0025
fff5
0025
ffd2
ffd5
ffd6
fff0
002d
fff2
0032
ffe4
001d
0035
0020
0024
0031
ffd7
0010
0017
0015
0024
0027
fff1
fff1
0010
0016
0011
ffed
ffe4
0005
000f
0025
ffe8
ffff
fff3
0025
0000
ffeb
ffea
0037
0017
fff4
0001
0001
000b
0024
ffce
0030
ffd4
002e
fffe
ffee
0031
0016
0011
fff8
ffe7
fffb
003d
fffd
001b
003a
000b
0003
ffe0
0009
ffef
002b
0029
0013
fff7
ffd3
0002
0022
ffec
0016
fff8
0030
0033
ffeb
0010
0002
fff7
ffeb
ffd6
fff6
ffca
ffca
0017
fff6
0017
000a
ffdb
0011
ffe6
ffd3
0015
000b
0000
ffe0
ffdd
ffee
ffe7
0018
ffd0
0015
ffdb
fffe
001f
ffde
ffff
ffc9
ffd9
0015
fffb
0016
fff2
ffdf
ffde
0022
fff5
0019
000b
0009
0023
0036
fff4
ffe0
0026
ffcd
0025
ffde
0017
ffd9
ffc9
ffd4
fff5
ffc7
ffd2
000e
0008
ffed
0017
ffc2
fff7
fff9
ffd1
000e
0004
002e
0010
fff2
001c
ffd4
0012
fffb
ffda
0013
ffd3
0021
ffbb
ffee
fff9
0022
ffd6
fff3
ffea
ffec
ffb8
0002
000a
ffd8
ffe1
001a
ffd5
001e
ffd7
0018
0032
ffed
0031
001a
ffee
fffe
ffe9
ffbe
fffd
ffec
0000
0007
0030
ffcd
ffcb
0023
001c
001f
ffea
000d
fffe
0020
ffe7
0012
0017
ffdc
0015
000f
fff1
ffd2
fff0
fffb
0016
fff3
0016
ffe4
ffd7
0013
ffda
ffe1
fff6
002c
fffd
fff2
ffe7
0015
0013
ffd5
ffd6
fff6
0010
0012
001a
0005
001f
0010
001b
001a
fff0
ffe0
ffdb
fffc
ffca
0025
000c
ffe3
ffdc
0003
fff3
000c
0012
0031
0017
fff6
000b
ffc6
000e
002b
000a
fff1
fffc
000c
fff4
000f
0004
001d
fffe
0014
0011
001e
ffed
fff1
0010
0006
ffe6
ffe9
0010
ffd2
ffde
fff5
fffb
0018
fff9
ffed
0025
ffd6
ffeb
ffe0
0005
001c
0010
002d
fffa
ffde
fff3
ffd8
000b
001b
ffeb
ffd2
000f
ffd4
ffd2
0012
ffed
fff5
0008
fffe
fff6
ffdc
0003
ffda
0000
0016
ffd7
0020
0006
0008
fffc
ffd9
0004
ffd8
fff5
fff6
0015
fff7
0000
0008
0019
ffd5
0010
fff5
0024
ffe8
fff4
000a
ffff
ffdc
0018
ffe6
0017
0012
0002
ffe5
001e
0000
ffdc
0011
ffea
0016
002a
0007
fff2
ffd9
fff8
fffb
ffe8
ffd5
000c
ffe2
002a
ffd3
ffe0
0023
ffe3
0013
000f
ffdd
ffea
ffd3
fffd
0020
0018
0025
0021
ffd8
fff0
fffb
0019
000d
0016
ffd4
ffd3
0012
0012
ffd8
000e
ffee
ffe4
0022
ffdd
0029
0021
ffce
ffd9
fffc
000c
0021
fffc
fff4
0008
fff4
ffe8
001b
fffb
ffe9
ffe4
fff8
ffe7
000a
ffd9
000a
ffd2
ffef
0001
000b
ffd3
ffd2
0022
ffe2
fffe
ffe4
ffde
0022
000d
0017
ffe3
ffea
0007
ffe1
001b
fff7
fff0
0014
fff9
000c
0002
ffe8
001c
003c
0015
ffd4
fffa
001d
ffed
001f
ffeb
0001
ffc2
0006
0027
0036
000d
0031
0000
0024
0008
ffee
fff5
ffd3
001a
0029
0006
0024
fffe
0026
ffdd
0010
002d
0016
0018
ffc9
0036
ffe3
fffa
0036
ffe8
ffdc
ffed
ffd0
ffe1
fff3
0008
0010
fff8
001c
0002
ffe7
fff2
0022
ffd2
fffc
0036
0006
0015
000d
000b
0025
0022
ffda
0007
0014
fffb
fff8
ffef
ffee
ffdb
ffdb
ffde
0000
002d
ffe8
000e
0017
ffd9
fffe
000a
0035
002a
ffec
ffdc
ffdc
0021
fff6
ffca
fffb
0012
ffcd
0001
ffe2
003e
ffe3
002d
ffff
0021
000b
ffdf
0001
ffd4
0009
ffd2
fffe
ffff
fff2
ffc7
ffe3
0027
0023
0011
0003
ffdc
0023
001b
fff3
ffc1
ffe4
