007b
0040
ffad
ff58
ff9a
ff53
ff7a
0071
005d
ff9e
00a3
0064
007a
009f
005f
005f
007b
008c
0066
ff81
0050
ff95
ff3b
0098
0061
0089
009a
ff59
ff97
ff2c
ff7b
00a5
006e
0072
ff64
ff83
ff91
0026
ff6b
ff33
0084
008e
0065
ff6f
006b
ffa1
0002
0071
0058
00aa
005e
ffbe
009a
00b8
ffa3
0070
ff76
0081
0064
0080
ffc8
003d
0012
ff7e
